const unsigned char sr2by1_0_tflite[] = {
  0x1c, 0x00, 0x00, 0x00, 0x54, 0x46, 0x4c, 0x33, 0x14, 0x00, 0x20, 0x00, 0x04,
  0x00, 0x08, 0x00, 0x0c, 0x00, 0x10, 0x00, 0x14, 0x00, 0x00, 0x00, 0x18, 0x00,
  0x1c, 0x00, 0x14, 0x00, 0x00, 0x00, 0x03, 0x00, 0x00, 0x00, 0x88, 0x02, 0x00,
  0x00, 0x7c, 0x02, 0x00, 0x00, 0x6c, 0x03, 0x00, 0x00, 0x0c, 0x00, 0x00, 0x00,
  0x14, 0x03, 0x00, 0x00, 0x88, 0x02, 0x00, 0x00, 0x99, 0x00, 0x00, 0x00, 0x0c,
  0x9a, 0x00, 0x00, 0x08, 0x9a, 0x00, 0x00, 0xec, 0x98, 0x00, 0x00, 0x64, 0x98,
  0x00, 0x00, 0xf8, 0x97, 0x00, 0x00, 0x94, 0x97, 0x00, 0x00, 0x28, 0x97, 0x00,
  0x00, 0xac, 0x96, 0x00, 0x00, 0x38, 0x96, 0x00, 0x00, 0xd0, 0x95, 0x00, 0x00,
  0x68, 0x95, 0x00, 0x00, 0xdc, 0x94, 0x00, 0x00, 0x3c, 0x93, 0x00, 0x00, 0x9c,
  0x91, 0x00, 0x00, 0x54, 0x8d, 0x00, 0x00, 0xdc, 0x8b, 0x00, 0x00, 0x64, 0x8a,
  0x00, 0x00, 0x84, 0x87, 0x00, 0x00, 0xe4, 0x85, 0x00, 0x00, 0x44, 0x84, 0x00,
  0x00, 0x0c, 0x81, 0x00, 0x00, 0xe4, 0x7f, 0x00, 0x00, 0xbc, 0x7e, 0x00, 0x00,
  0x8c, 0x7c, 0x00, 0x00, 0x60, 0x7b, 0x00, 0x00, 0x34, 0x7a, 0x00, 0x00, 0x88,
  0x78, 0x00, 0x00, 0x5c, 0x77, 0x00, 0x00, 0x30, 0x76, 0x00, 0x00, 0x84, 0x74,
  0x00, 0x00, 0x94, 0x73, 0x00, 0x00, 0xa4, 0x72, 0x00, 0x00, 0x38, 0x71, 0x00,
  0x00, 0x34, 0x70, 0x00, 0x00, 0xcc, 0x6f, 0x00, 0x00, 0xc8, 0x6e, 0x00, 0x00,
  0x80, 0x6d, 0x00, 0x00, 0x90, 0x6c, 0x00, 0x00, 0xa0, 0x6b, 0x00, 0x00, 0x74,
  0x6a, 0x00, 0x00, 0x98, 0x69, 0x00, 0x00, 0xbc, 0x68, 0x00, 0x00, 0x3c, 0x67,
  0x00, 0x00, 0x10, 0x66, 0x00, 0x00, 0xe4, 0x64, 0x00, 0x00, 0x38, 0x63, 0x00,
  0x00, 0x5c, 0x62, 0x00, 0x00, 0xfc, 0x61, 0x00, 0x00, 0x20, 0x61, 0x00, 0x00,
  0xf4, 0x5f, 0x00, 0x00, 0x04, 0x5f, 0x00, 0x00, 0x14, 0x5e, 0x00, 0x00, 0xe8,
  0x5b, 0x00, 0x00, 0x6c, 0x5a, 0x00, 0x00, 0xec, 0x59, 0x00, 0x00, 0x70, 0x58,
  0x00, 0x00, 0x90, 0x55, 0x00, 0x00, 0xa0, 0x54, 0x00, 0x00, 0x3c, 0x54, 0x00,
  0x00, 0x4c, 0x53, 0x00, 0x00, 0xa0, 0x51, 0x00, 0x00, 0x74, 0x50, 0x00, 0x00,
  0x48, 0x4f, 0x00, 0x00, 0x08, 0x4b, 0x00, 0x00, 0xec, 0x48, 0x00, 0x00, 0x4c,
  0x48, 0x00, 0x00, 0x30, 0x46, 0x00, 0x00, 0xc8, 0x3f, 0x00, 0x00, 0x9c, 0x3e,
  0x00, 0x00, 0x2c, 0x3e, 0x00, 0x00, 0x00, 0x3d, 0x00, 0x00, 0xc8, 0x39, 0x00,
  0x00, 0x9c, 0x37, 0x00, 0x00, 0x14, 0x37, 0x00, 0x00, 0xe8, 0x34, 0x00, 0x00,
  0xa4, 0x34, 0x00, 0x00, 0x14, 0x34, 0x00, 0x00, 0x74, 0x33, 0x00, 0x00, 0xe8,
  0x32, 0x00, 0x00, 0x68, 0x32, 0x00, 0x00, 0xec, 0x31, 0x00, 0x00, 0x68, 0x31,
  0x00, 0x00, 0xd8, 0x30, 0x00, 0x00, 0x30, 0x30, 0x00, 0x00, 0xd8, 0x2f, 0x00,
  0x00, 0xb8, 0x98, 0x00, 0x00, 0xb4, 0x98, 0x00, 0x00, 0xb0, 0x98, 0x00, 0x00,
  0xac, 0x98, 0x00, 0x00, 0xa8, 0x98, 0x00, 0x00, 0xa4, 0x98, 0x00, 0x00, 0xa0,
  0x98, 0x00, 0x00, 0x9c, 0x98, 0x00, 0x00, 0x98, 0x98, 0x00, 0x00, 0x94, 0x98,
  0x00, 0x00, 0x90, 0x98, 0x00, 0x00, 0x8c, 0x98, 0x00, 0x00, 0x88, 0x98, 0x00,
  0x00, 0x84, 0x98, 0x00, 0x00, 0x80, 0x98, 0x00, 0x00, 0x7c, 0x98, 0x00, 0x00,
  0x78, 0x98, 0x00, 0x00, 0x74, 0x98, 0x00, 0x00, 0x70, 0x98, 0x00, 0x00, 0x6c,
  0x98, 0x00, 0x00, 0x68, 0x98, 0x00, 0x00, 0x64, 0x98, 0x00, 0x00, 0x60, 0x98,
  0x00, 0x00, 0x5c, 0x98, 0x00, 0x00, 0x58, 0x98, 0x00, 0x00, 0x54, 0x98, 0x00,
  0x00, 0x50, 0x98, 0x00, 0x00, 0x4c, 0x98, 0x00, 0x00, 0x48, 0x98, 0x00, 0x00,
  0x44, 0x98, 0x00, 0x00, 0x40, 0x98, 0x00, 0x00, 0x3c, 0x98, 0x00, 0x00, 0x38,
  0x98, 0x00, 0x00, 0x34, 0x98, 0x00, 0x00, 0x30, 0x98, 0x00, 0x00, 0x2c, 0x98,
  0x00, 0x00, 0x28, 0x98, 0x00, 0x00, 0x24, 0x98, 0x00, 0x00, 0x20, 0x98, 0x00,
  0x00, 0x1c, 0x98, 0x00, 0x00, 0x18, 0x98, 0x00, 0x00, 0x14, 0x98, 0x00, 0x00,
  0x10, 0x98, 0x00, 0x00, 0x0c, 0x98, 0x00, 0x00, 0x08, 0x98, 0x00, 0x00, 0x04,
  0x98, 0x00, 0x00, 0x00, 0x98, 0x00, 0x00, 0xfc, 0x97, 0x00, 0x00, 0xf8, 0x97,
  0x00, 0x00, 0xf4, 0x97, 0x00, 0x00, 0xf0, 0x97, 0x00, 0x00, 0xec, 0x97, 0x00,
  0x00, 0xe8, 0x97, 0x00, 0x00, 0xe4, 0x97, 0x00, 0x00, 0xe0, 0x97, 0x00, 0x00,
  0xdc, 0x97, 0x00, 0x00, 0xd8, 0x97, 0x00, 0x00, 0xd4, 0x97, 0x00, 0x00, 0xd0,
  0x97, 0x00, 0x00, 0xcc, 0x97, 0x00, 0x00, 0xc8, 0x97, 0x00, 0x00, 0xc4, 0x97,
  0x00, 0x00, 0xc0, 0x97, 0x00, 0x00, 0xbc, 0x97, 0x00, 0x00, 0xb8, 0x97, 0x00,
  0x00, 0xb4, 0x97, 0x00, 0x00, 0xb0, 0x97, 0x00, 0x00, 0xdc, 0x00, 0x00, 0x00,
  0x01, 0x00, 0x00, 0x00, 0x14, 0x01, 0x00, 0x00, 0x04, 0x00, 0x00, 0x00, 0x54,
  0x2e, 0x00, 0x00, 0x98, 0x2d, 0x00, 0x00, 0x20, 0x2c, 0x00, 0x00, 0xbc, 0x25,
  0x00, 0x00, 0x01, 0x00, 0x00, 0x00, 0x10, 0x00, 0x00, 0x00, 0x0c, 0x00, 0x14,
  0x00, 0x10, 0x00, 0x0c, 0x00, 0x08, 0x00, 0x04, 0x00, 0x0c, 0x00, 0x00, 0x00,
  0x10, 0x00, 0x00, 0x00, 0x18, 0x00, 0x00, 0x00, 0x28, 0x00, 0x00, 0x00, 0x2c,
  0x00, 0x00, 0x00, 0x05, 0x00, 0x00, 0x00, 0x73, 0x65, 0x72, 0x76, 0x65, 0x00,
  0x00, 0x00, 0x0f, 0x00, 0x00, 0x00, 0x73, 0x65, 0x72, 0x76, 0x69, 0x6e, 0x67,
  0x5f, 0x64, 0x65, 0x66, 0x61, 0x75, 0x6c, 0x74, 0x00, 0x01, 0x00, 0x00, 0x00,
  0x14, 0x00, 0x00, 0x00, 0x01, 0x00, 0x00, 0x00, 0x24, 0x00, 0x00, 0x00, 0x08,
  0x00, 0x0c, 0x00, 0x08, 0x00, 0x04, 0x00, 0x08, 0x00, 0x00, 0x00, 0x96, 0x00,
  0x00, 0x00, 0x04, 0x00, 0x00, 0x00, 0x06, 0x00, 0x00, 0x00, 0x6f, 0x75, 0x74,
  0x70, 0x75, 0x74, 0x00, 0x00, 0x0a, 0x6a, 0xff, 0xff, 0x04, 0x00, 0x00, 0x00,
  0x03, 0x00, 0x00, 0x00, 0x69, 0x6d, 0x67, 0x00, 0x01, 0x00, 0x00, 0x00, 0x0c,
  0x00, 0x00, 0x00, 0x08, 0x00, 0x0c, 0x00, 0x04, 0x00, 0x08, 0x00, 0x08, 0x00,
  0x00, 0x00, 0x08, 0x00, 0x00, 0x00, 0x98, 0x00, 0x00, 0x00, 0x13, 0x00, 0x00,
  0x00, 0x6d, 0x69, 0x6e, 0x5f, 0x72, 0x75, 0x6e, 0x74, 0x69, 0x6d, 0x65, 0x5f,
  0x76, 0x65, 0x72, 0x73, 0x69, 0x6f, 0x6e, 0x00, 0x4e, 0x6a, 0xff, 0xff, 0x04,
  0x00, 0x00, 0x00, 0x10, 0x00, 0x00, 0x00, 0x31, 0x2e, 0x31, 0x33, 0x2e, 0x31,
  0x00, 0x00, 0x00, 0x00, 0x00, 0x00, 0x00, 0x00, 0x00, 0x00, 0x0f, 0x00, 0x00,
  0x00, 0x4d, 0x4c, 0x49, 0x52, 0x20, 0x43, 0x6f, 0x6e, 0x76, 0x65, 0x72, 0x74,
  0x65, 0x64, 0x2e, 0x00, 0x00, 0x00, 0x0e, 0x00, 0x18, 0x00, 0x04, 0x00, 0x08,
  0x00, 0x0c, 0x00, 0x10, 0x00, 0x14, 0x00, 0x0e, 0x00, 0x00, 0x00, 0x40, 0x01,
  0x00, 0x00, 0x34, 0x01, 0x00, 0x00, 0x28, 0x01, 0x00, 0x00, 0x14, 0x00, 0x00,
  0x00, 0x04, 0x00, 0x00, 0x00, 0x04, 0x00, 0x00, 0x00, 0x6d, 0x61, 0x69, 0x6e,
  0x00, 0x00, 0x00, 0x00, 0x43, 0x00, 0x00, 0x00, 0xdc, 0x2c, 0x00, 0x00, 0x18,
  0x2c, 0x00, 0x00, 0x6c, 0x2b, 0x00, 0x00, 0xa0, 0x2a, 0x00, 0x00, 0xf4, 0x29,
  0x00, 0x00, 0x58, 0x29, 0x00, 0x00, 0x90, 0x28, 0x00, 0x00, 0xf4, 0x27, 0x00,
  0x00, 0x58, 0x27, 0x00, 0x00, 0xa4, 0x26, 0x00, 0x00, 0x08, 0x26, 0x00, 0x00,
  0x6c, 0x25, 0x00, 0x00, 0xb8, 0x24, 0x00, 0x00, 0x24, 0x24, 0x00, 0x00, 0x88,
  0x23, 0x00, 0x00, 0xec, 0x22, 0x00, 0x00, 0x2c, 0x22, 0x00, 0x00, 0x90, 0x21,
  0x00, 0x00, 0xf4, 0x20, 0x00, 0x00, 0x40, 0x20, 0x00, 0x00, 0xa4, 0x1f, 0x00,
  0x00, 0x08, 0x1f, 0x00, 0x00, 0x54, 0x1e, 0x00, 0x00, 0xd0, 0x1d, 0x00, 0x00,
  0x34, 0x1d, 0x00, 0x00, 0x98, 0x1c, 0x00, 0x00, 0xd8, 0x1b, 0x00, 0x00, 0x3c,
  0x1b, 0x00, 0x00, 0xa0, 0x1a, 0x00, 0x00, 0xec, 0x19, 0x00, 0x00, 0x50, 0x19,
  0x00, 0x00, 0xb4, 0x18, 0x00, 0x00, 0x00, 0x18, 0x00, 0x00, 0x7c, 0x17, 0x00,
  0x00, 0xe0, 0x16, 0x00, 0x00, 0x44, 0x16, 0x00, 0x00, 0x84, 0x15, 0x00, 0x00,
  0xe8, 0x14, 0x00, 0x00, 0x4c, 0x14, 0x00, 0x00, 0x94, 0x13, 0x00, 0x00, 0xf8,
  0x12, 0x00, 0x00, 0x5c, 0x12, 0x00, 0x00, 0xa4, 0x11, 0x00, 0x00, 0x20, 0x11,
  0x00, 0x00, 0x84, 0x10, 0x00, 0x00, 0xe8, 0x0f, 0x00, 0x00, 0x28, 0x0f, 0x00,
  0x00, 0x8c, 0x0e, 0x00, 0x00, 0xf0, 0x0d, 0x00, 0x00, 0x38, 0x0d, 0x00, 0x00,
  0x9c, 0x0c, 0x00, 0x00, 0x00, 0x0c, 0x00, 0x00, 0x48, 0x0b, 0x00, 0x00, 0xc4,
  0x0a, 0x00, 0x00, 0x28, 0x0a, 0x00, 0x00, 0x8c, 0x09, 0x00, 0x00, 0xcc, 0x08,
  0x00, 0x00, 0x30, 0x08, 0x00, 0x00, 0x94, 0x07, 0x00, 0x00, 0xdc, 0x06, 0x00,
  0x00, 0x40, 0x06, 0x00, 0x00, 0xa4, 0x05, 0x00, 0x00, 0xec, 0x04, 0x00, 0x00,
  0x68, 0x04, 0x00, 0x00, 0xbc, 0x03, 0x00, 0x00, 0x1c, 0x03, 0x00, 0x00, 0x74,
  0x02, 0x00, 0x00, 0x01, 0x00, 0x00, 0x00, 0x96, 0x00, 0x00, 0x00, 0x01, 0x00,
  0x00, 0x00, 0x00, 0x00, 0x00, 0x00, 0x97, 0x00, 0x00, 0x00, 0xec, 0x94, 0x00,
  0x00, 0xa4, 0x94, 0x00, 0x00, 0xec, 0x93, 0x00, 0x00, 0x70, 0x93, 0x00, 0x00,
  0x04, 0x93, 0x00, 0x00, 0xa0, 0x92, 0x00, 0x00, 0x34, 0x92, 0x00, 0x00, 0xb4,
  0x91, 0x00, 0x00, 0x38, 0x91, 0x00, 0x00, 0xd0, 0x90, 0x00, 0x00, 0x6c, 0x90,
  0x00, 0x00, 0xdc, 0x8f, 0x00, 0x00, 0x3c, 0x8e, 0x00, 0x00, 0x9c, 0x8c, 0x00,
  0x00, 0x54, 0x88, 0x00, 0x00, 0xdc, 0x86, 0x00, 0x00, 0x64, 0x85, 0x00, 0x00,
  0x84, 0x82, 0x00, 0x00, 0xe4, 0x80, 0x00, 0x00, 0x44, 0x7f, 0x00, 0x00, 0x0c,
  0x7c, 0x00, 0x00, 0xe4, 0x7a, 0x00, 0x00, 0xbc, 0x79, 0x00, 0x00, 0x88, 0x77,
  0x00, 0x00, 0x5c, 0x76, 0x00, 0x00, 0x34, 0x75, 0x00, 0x00, 0x84, 0x73, 0x00,
  0x00, 0x58, 0x72, 0x00, 0x00, 0x30, 0x71, 0x00, 0x00, 0x80, 0x6f, 0x00, 0x00,
  0x90, 0x6e, 0x00, 0x00, 0xa4, 0x6d, 0x00, 0x00, 0x34, 0x6c, 0x00, 0x00, 0x3c,
  0x6b, 0x00, 0x00, 0xc8, 0x6a, 0x00, 0x00, 0xc8, 0x69, 0x00, 0x00, 0x7c, 0x68,
  0x00, 0x00, 0x8c, 0x67, 0x00, 0x00, 0xa0, 0x66, 0x00, 0x00, 0x70, 0x65, 0x00,
  0x00, 0x94, 0x64, 0x00, 0x00, 0xbc, 0x63, 0x00, 0x00, 0x38, 0x62, 0x00, 0x00,
  0x0c, 0x61, 0x00, 0x00, 0xe4, 0x5f, 0x00, 0x00, 0x34, 0x5e, 0x00, 0x00, 0x64,
  0x5d, 0x00, 0x00, 0xf8, 0x5c, 0x00, 0x00, 0x20, 0x5c, 0x00, 0x00, 0xf0, 0x5a,
  0x00, 0x00, 0x00, 0x5a, 0x00, 0x00, 0x14, 0x59, 0x00, 0x00, 0xe4, 0x56, 0x00,
  0x00, 0x74, 0x55, 0x00, 0x00, 0xe8, 0x54, 0x00, 0x00, 0x70, 0x53, 0x00, 0x00,
  0x8c, 0x50, 0x00, 0x00, 0xa8, 0x4f, 0x00, 0x00, 0x38, 0x4f, 0x00, 0x00, 0x4c,
  0x4e, 0x00, 0x00, 0x9c, 0x4c, 0x00, 0x00, 0x70, 0x4b, 0x00, 0x00, 0x48, 0x4a,
  0x00, 0x00, 0x04, 0x46, 0x00, 0x00, 0xf4, 0x43, 0x00, 0x00, 0x48, 0x43, 0x00,
  0x00, 0x30, 0x41, 0x00, 0x00, 0xc4, 0x3a, 0x00, 0x00, 0xa4, 0x39, 0x00, 0x00,
  0x28, 0x39, 0x00, 0x00, 0x00, 0x38, 0x00, 0x00, 0xc4, 0x34, 0x00, 0x00, 0xa4,
  0x32, 0x00, 0x00, 0x10, 0x32, 0x00, 0x00, 0xf4, 0x2f, 0x00, 0x00, 0xa4, 0x2f,
  0x00, 0x00, 0x04, 0x2f, 0x00, 0x00, 0x60, 0x2e, 0x00, 0x00, 0xd4, 0x2d, 0x00,
  0x00, 0x54, 0x2d, 0x00, 0x00, 0xd4, 0x2c, 0x00, 0x00, 0x50, 0x2c, 0x00, 0x00,
  0xc0, 0x2b, 0x00, 0x00, 0x28, 0x2b, 0x00, 0x00, 0xc0, 0x2a, 0x00, 0x00, 0x04,
  0x2a, 0x00, 0x00, 0x3c, 0x29, 0x00, 0x00, 0x88, 0x28, 0x00, 0x00, 0xc4, 0x27,
  0x00, 0x00, 0x28, 0x27, 0x00, 0x00, 0x6c, 0x26, 0x00, 0x00, 0xc4, 0x25, 0x00,
  0x00, 0x28, 0x25, 0x00, 0x00, 0x70, 0x24, 0x00, 0x00, 0xd8, 0x23, 0x00, 0x00,
  0x3c, 0x23, 0x00, 0x00, 0x84, 0x22, 0x00, 0x00, 0xf8, 0x21, 0x00, 0x00, 0x58,
  0x21, 0x00, 0x00, 0xbc, 0x20, 0x00, 0x00, 0xfc, 0x1f, 0x00, 0x00, 0x60, 0x1f,
  0x00, 0x00, 0xc4, 0x1e, 0x00, 0x00, 0x0c, 0x1e, 0x00, 0x00, 0x74, 0x1d, 0x00,
  0x00, 0xd8, 0x1c, 0x00, 0x00, 0x20, 0x1c, 0x00, 0x00, 0x90, 0x1b, 0x00, 0x00,
  0x04, 0x1b, 0x00, 0x00, 0x68, 0x1a, 0x00, 0x00, 0xa8, 0x19, 0x00, 0x00, 0x0c,
  0x19, 0x00, 0x00, 0x70, 0x18, 0x00, 0x00, 0xb8, 0x17, 0x00, 0x00, 0x20, 0x17,
  0x00, 0x00, 0x84, 0x16, 0x00, 0x00, 0xcc, 0x15, 0x00, 0x00, 0x3c, 0x15, 0x00,
  0x00, 0xb0, 0x14, 0x00, 0x00, 0x14, 0x14, 0x00, 0x00, 0x54, 0x13, 0x00, 0x00,
  0xb8, 0x12, 0x00, 0x00, 0x1c, 0x12, 0x00, 0x00, 0x60, 0x11, 0x00, 0x00, 0xc8,
  0x10, 0x00, 0x00, 0x2c, 0x10, 0x00, 0x00, 0x70, 0x0f, 0x00, 0x00, 0xe0, 0x0e,
  0x00, 0x00, 0x54, 0x0e, 0x00, 0x00, 0xb8, 0x0d, 0x00, 0x00, 0xf8, 0x0c, 0x00,
  0x00, 0x5c, 0x0c, 0x00, 0x00, 0xc0, 0x0b, 0x00, 0x00, 0x04, 0x0b, 0x00, 0x00,
  0x6c, 0x0a, 0x00, 0x00, 0xd0, 0x09, 0x00, 0x00, 0x14, 0x09, 0x00, 0x00, 0x84,
  0x08, 0x00, 0x00, 0xf8, 0x07, 0x00, 0x00, 0x5c, 0x07, 0x00, 0x00, 0x9c, 0x06,
  0x00, 0x00, 0x00, 0x06, 0x00, 0x00, 0x64, 0x05, 0x00, 0x00, 0xa8, 0x04, 0x00,
  0x00, 0x10, 0x04, 0x00, 0x00, 0x74, 0x03, 0x00, 0x00, 0xb8, 0x02, 0x00, 0x00,
  0x28, 0x02, 0x00, 0x00, 0x9c, 0x01, 0x00, 0x00, 0xf0, 0x00, 0x00, 0x00, 0x50,
  0x00, 0x00, 0x00, 0xde, 0xd8, 0xff, 0xff, 0x00, 0x00, 0x00, 0x01, 0x02, 0x00,
  0x00, 0x00, 0x30, 0x00, 0x00, 0x00, 0x24, 0x00, 0x00, 0x00, 0x10, 0x00, 0x00,
  0x00, 0x00, 0x00, 0x0a, 0x00, 0x10, 0x00, 0x0f, 0x00, 0x04, 0x00, 0x08, 0x00,
  0x0a, 0x00, 0x00, 0x00, 0x01, 0x00, 0x00, 0x00, 0x01, 0x00, 0x00, 0x00, 0x00,
  0x00, 0x00, 0x01, 0x01, 0x00, 0x00, 0x00, 0x96, 0x00, 0x00, 0x00, 0x03, 0x00,
  0x00, 0x00, 0x95, 0x00, 0x00, 0x00, 0x4b, 0x00, 0x00, 0x00, 0x53, 0x00, 0x00,
  0x00, 0xd0, 0x6d, 0xff, 0xff, 0x3c, 0x00, 0x00, 0x00, 0x97, 0x00, 0x00, 0x00,
  0x20, 0x00, 0x00, 0x00, 0x44, 0x00, 0x00, 0x00, 0x04, 0x00, 0x00, 0x00, 0x04,
  0x00, 0x00, 0x00, 0x01, 0x00, 0x00, 0x00, 0xff, 0xff, 0xff, 0xff, 0xff, 0xff,
  0xff, 0xff, 0x01, 0x00, 0x00, 0x00, 0x0c, 0x00, 0x00, 0x00, 0x42, 0x69, 0x61,
  0x73, 0x41, 0x64, 0x64, 0x5f, 0x31, 0x39, 0x3a, 0x30, 0x00, 0x00, 0x00, 0x00,
  0x04, 0x00, 0x00, 0x00, 0x01, 0x00, 0x00, 0x00, 0x01, 0x00, 0x00, 0x00, 0x01,
  0x00, 0x00, 0x00, 0x01, 0x00, 0x00, 0x00, 0xb8, 0x6d, 0xff, 0xff, 0x12, 0xd8,
  0xff, 0xff, 0x00, 0x00, 0x00, 0x02, 0x01, 0x00, 0x00, 0x00, 0x28, 0x00, 0x00,
  0x00, 0x1c, 0x00, 0x00, 0x00, 0x04, 0x00, 0x00, 0x00, 0x64, 0xff, 0xff, 0xff,
  0x01, 0x00, 0x00, 0x00, 0x01, 0x00, 0x00, 0x00, 0x01, 0x00, 0x00, 0x00, 0x00,
  0x00, 0x00, 0x01, 0x01, 0x00, 0x00, 0x00, 0x95, 0x00, 0x00, 0x00, 0x03, 0x00,
  0x00, 0x00, 0x94, 0x00, 0x00, 0x00, 0x49, 0x00, 0x00, 0x00, 0x48, 0x00, 0x00,
  0x00, 0x6c, 0x6e, 0xff, 0xff, 0x3c, 0x00, 0x00, 0x00, 0x96, 0x00, 0x00, 0x00,
  0x20, 0x00, 0x00, 0x00, 0x44, 0x00, 0x00, 0x00, 0x04, 0x00, 0x00, 0x00, 0x04,
  0x00, 0x00, 0x00, 0x01, 0x00, 0x00, 0x00, 0xff, 0xff, 0xff, 0xff, 0xff, 0xff,
  0xff, 0xff, 0x11, 0x00, 0x00, 0x00, 0x0d, 0x00, 0x00, 0x00, 0x64, 0x65, 0x70,
  0x74, 0x68, 0x77, 0x69, 0x73, 0x65, 0x5f, 0x33, 0x39, 0x32, 0x00, 0x00, 0x00,
  0x04, 0x00, 0x00, 0x00, 0x01, 0x00, 0x00, 0x00, 0x01, 0x00, 0x00, 0x00, 0x01,
  0x00, 0x00, 0x00, 0x11, 0x00, 0x00, 0x00, 0x54, 0x6e, 0xff, 0xff, 0xae, 0xd8,
  0xff, 0xff, 0x00, 0x00, 0x00, 0x02, 0x01, 0x00, 0x00, 0x00, 0x34, 0x00, 0x00,
  0x00, 0x28, 0x00, 0x00, 0x00, 0x10, 0x00, 0x00, 0x00, 0x0c, 0x00, 0x14, 0x00,
  0x13, 0x00, 0x08, 0x00, 0x0c, 0x00, 0x04, 0x00, 0x0c, 0x00, 0x00, 0x00, 0x01,
  0x00, 0x00, 0x00, 0x01, 0x00, 0x00, 0x00, 0x01, 0x00, 0x00, 0x00, 0x00, 0x00,
  0x00, 0x01, 0x01, 0x00, 0x00, 0x00, 0x94, 0x00, 0x00, 0x00, 0x03, 0x00, 0x00,
  0x00, 0x93, 0x00, 0x00, 0x00, 0x47, 0x00, 0x00, 0x00, 0x48, 0x00, 0x00, 0x00,
  0x14, 0x6f, 0xff, 0xff, 0x3c, 0x00, 0x00, 0x00, 0x95, 0x00, 0x00, 0x00, 0x20,
  0x00, 0x00, 0x00, 0x44, 0x00, 0x00, 0x00, 0x04, 0x00, 0x00, 0x00, 0x04, 0x00,
  0x00, 0x00, 0x01, 0x00, 0x00, 0x00, 0xff, 0xff, 0xff, 0xff, 0xff, 0xff, 0xff,
  0xff, 0x11, 0x00, 0x00, 0x00, 0x0d, 0x00, 0x00, 0x00, 0x64, 0x65, 0x70, 0x74,
  0x68, 0x77, 0x69, 0x73, 0x65, 0x5f, 0x33, 0x38, 0x31, 0x00, 0x00, 0x00, 0x04,
  0x00, 0x00, 0x00, 0x01, 0x00, 0x00, 0x00, 0x01, 0x00, 0x00, 0x00, 0x01, 0x00,
  0x00, 0x00, 0x11, 0x00, 0x00, 0x00, 0xfc, 0x6e, 0xff, 0xff, 0x56, 0xd9, 0xff,
  0xff, 0x00, 0x00, 0x00, 0x0b, 0x03, 0x00, 0x00, 0x00, 0x18, 0x00, 0x00, 0x00,
  0x0c, 0x00, 0x00, 0x00, 0x04, 0x00, 0x00, 0x00, 0x18, 0x6f, 0xff, 0xff, 0x01,
  0x00, 0x00, 0x00, 0x93, 0x00, 0x00, 0x00, 0x02, 0x00, 0x00, 0x00, 0x92, 0x00,
  0x00, 0x00, 0x8f, 0x00, 0x00, 0x00, 0x9c, 0x6f, 0xff, 0xff, 0x34, 0x00, 0x00,
  0x00, 0x94, 0x00, 0x00, 0x00, 0x20, 0x00, 0x00, 0x00, 0x3c, 0x00, 0x00, 0x00,
  0x04, 0x00, 0x00, 0x00, 0x04, 0x00, 0x00, 0x00, 0x01, 0x00, 0x00, 0x00, 0xff,
  0xff, 0xff, 0xff, 0xff, 0xff, 0xff, 0xff, 0x11, 0x00, 0x00, 0x00, 0x05, 0x00,
  0x00, 0x00, 0x41, 0x64, 0x64, 0x5f, 0x35, 0x00, 0x00, 0x00, 0x04, 0x00, 0x00,
  0x00, 0x01, 0x00, 0x00, 0x00, 0x01, 0x00, 0x00, 0x00, 0x01, 0x00, 0x00, 0x00,
  0x11, 0x00, 0x00, 0x00, 0x7c, 0x6f, 0xff, 0xff, 0xd6, 0xd9, 0xff, 0xff, 0x00,
  0x00, 0x00, 0x01, 0x02, 0x00, 0x00, 0x00, 0x20, 0x00, 0x00, 0x00, 0x14, 0x00,
  0x00, 0x00, 0x04, 0x00, 0x00, 0x00, 0x36, 0xdb, 0xff, 0xff, 0x01, 0x00, 0x00,
  0x00, 0x01, 0x00, 0x00, 0x00, 0x01, 0x00, 0x00, 0x00, 0x92, 0x00, 0x00, 0x00,
  0x03, 0x00, 0x00, 0x00, 0x91, 0x00, 0x00, 0x00, 0x46, 0x00, 0x00, 0x00, 0x52,
  0x00, 0x00, 0x00, 0x28, 0x70, 0xff, 0xff, 0x5c, 0x00, 0x00, 0x00, 0x93, 0x00,
  0x00, 0x00, 0x20, 0x00, 0x00, 0x00, 0x64, 0x00, 0x00, 0x00, 0x04, 0x00, 0x00,
  0x00, 0x04, 0x00, 0x00, 0x00, 0x01, 0x00, 0x00, 0x00, 0xff, 0xff, 0xff, 0xff,
  0xff, 0xff, 0xff, 0xff, 0x11, 0x00, 0x00, 0x00, 0x2d, 0x00, 0x00, 0x00, 0x42,
  0x69, 0x61, 0x73, 0x41, 0x64, 0x64, 0x5f, 0x31, 0x38, 0x3b, 0x64, 0x65, 0x70,
  0x74, 0x68, 0x77, 0x69, 0x73, 0x65, 0x5f, 0x33, 0x39, 0x3b, 0x43, 0x6f, 0x6e,
  0x76, 0x32, 0x44, 0x5f, 0x31, 0x38, 0x3b, 0x63, 0x6f, 0x6e, 0x76, 0x5f, 0x36,
  0x5f, 0x31, 0x5f, 0x62, 0x31, 0x00, 0x00, 0x00, 0x04, 0x00, 0x00, 0x00, 0x01,
  0x00, 0x00, 0x00, 0x01, 0x00, 0x00, 0x00, 0x01, 0x00, 0x00, 0x00, 0x11, 0x00,
  0x00, 0x00, 0x30, 0x70, 0xff, 0xff, 0x8a, 0xda, 0xff, 0xff, 0x00, 0x00, 0x00,
  0x02, 0x01, 0x00, 0x00, 0x00, 0x24, 0x00, 0x00, 0x00, 0x18, 0x00, 0x00, 0x00,
  0x04, 0x00, 0x00, 0x00, 0x7c, 0xda, 0xff, 0xff, 0x01, 0x00, 0x00, 0x00, 0x01,
  0x00, 0x00, 0x00, 0x01, 0x00, 0x00, 0x00, 0x01, 0x00, 0x00, 0x00, 0x91, 0x00,
  0x00, 0x00, 0x03, 0x00, 0x00, 0x00, 0x90, 0x00, 0x00, 0x00, 0x45, 0x00, 0x00,
  0x00, 0x44, 0x00, 0x00, 0x00, 0xe0, 0x70, 0xff, 0xff, 0x3c, 0x00, 0x00, 0x00,
  0x92, 0x00, 0x00, 0x00, 0x20, 0x00, 0x00, 0x00, 0x44, 0x00, 0x00, 0x00, 0x04,
  0x00, 0x00, 0x00, 0x04, 0x00, 0x00, 0x00, 0x01, 0x00, 0x00, 0x00, 0xff, 0xff,
  0xff, 0xff, 0xff, 0xff, 0xff, 0xff, 0x0b, 0x00, 0x00, 0x00, 0x0d, 0x00, 0x00,
  0x00, 0x64, 0x65, 0x70, 0x74, 0x68, 0x77, 0x69, 0x73, 0x65, 0x5f, 0x33, 0x37,
  0x32, 0x00, 0x00, 0x00, 0x04, 0x00, 0x00, 0x00, 0x01, 0x00, 0x00, 0x00, 0x01,
  0x00, 0x00, 0x00, 0x01, 0x00, 0x00, 0x00, 0x0b, 0x00, 0x00, 0x00, 0xc8, 0x70,
  0xff, 0xff, 0x22, 0xdb, 0xff, 0xff, 0x00, 0x00, 0x00, 0x02, 0x01, 0x00, 0x00,
  0x00, 0x24, 0x00, 0x00, 0x00, 0x18, 0x00, 0x00, 0x00, 0x04, 0x00, 0x00, 0x00,
  0x14, 0xdb, 0xff, 0xff, 0x01, 0x00, 0x00, 0x00, 0x01, 0x00, 0x00, 0x00, 0x01,
  0x00, 0x00, 0x00, 0x01, 0x00, 0x00, 0x00, 0x90, 0x00, 0x00, 0x00, 0x03, 0x00,
  0x00, 0x00, 0x89, 0x00, 0x00, 0x00, 0x43, 0x00, 0x00, 0x00, 0x44, 0x00, 0x00,
  0x00, 0x78, 0x71, 0xff, 0xff, 0x3c, 0x00, 0x00, 0x00, 0x91, 0x00, 0x00, 0x00,
  0x20, 0x00, 0x00, 0x00, 0x44, 0x00, 0x00, 0x00, 0x04, 0x00, 0x00, 0x00, 0x04,
  0x00, 0x00, 0x00, 0x01, 0x00, 0x00, 0x00, 0xff, 0xff, 0xff, 0xff, 0xff, 0xff,
  0xff, 0xff, 0x0b, 0x00, 0x00, 0x00, 0x0d, 0x00, 0x00, 0x00, 0x64, 0x65, 0x70,
  0x74, 0x68, 0x77, 0x69, 0x73, 0x65, 0x5f, 0x33, 0x36, 0x31, 0x00, 0x00, 0x00,
  0x04, 0x00, 0x00, 0x00, 0x01, 0x00, 0x00, 0x00, 0x01, 0x00, 0x00, 0x00, 0x01,
  0x00, 0x00, 0x00, 0x0b, 0x00, 0x00, 0x00, 0x60, 0x71, 0xff, 0xff, 0xba, 0xdb,
  0xff, 0xff, 0x00, 0x00, 0x00, 0x01, 0x02, 0x00, 0x00, 0x00, 0x20, 0x00, 0x00,
  0x00, 0x14, 0x00, 0x00, 0x00, 0x04, 0x00, 0x00, 0x00, 0x1a, 0xdd, 0xff, 0xff,
  0x01, 0x00, 0x00, 0x00, 0x01, 0x00, 0x00, 0x00, 0x01, 0x00, 0x00, 0x00, 0x8f,
  0x00, 0x00, 0x00, 0x03, 0x00, 0x00, 0x00, 0x8e, 0x00, 0x00, 0x00, 0x42, 0x00,
  0x00, 0x00, 0x52, 0x00, 0x00, 0x00, 0x0c, 0x72, 0xff, 0xff, 0x5c, 0x00, 0x00,
  0x00, 0x90, 0x00, 0x00, 0x00, 0x20, 0x00, 0x00, 0x00, 0x64, 0x00, 0x00, 0x00,
  0x04, 0x00, 0x00, 0x00, 0x04, 0x00, 0x00, 0x00, 0x01, 0x00, 0x00, 0x00, 0xff,
  0xff, 0xff, 0xff, 0xff, 0xff, 0xff, 0xff, 0x11, 0x00, 0x00, 0x00, 0x2c, 0x00,
  0x00, 0x00, 0x42, 0x69, 0x61, 0x73, 0x41, 0x64, 0x64, 0x5f, 0x31, 0x37, 0x3b,
  0x64, 0x65, 0x70, 0x74, 0x68, 0x77, 0x69, 0x73, 0x65, 0x5f, 0x33, 0x39, 0x3b,
  0x43, 0x6f, 0x6e, 0x76, 0x32, 0x44, 0x5f, 0x31, 0x37, 0x3b, 0x63, 0x6f, 0x6e,
  0x76, 0x5f, 0x36, 0x5f, 0x31, 0x5f, 0x62, 0x00, 0x00, 0x00, 0x00, 0x04, 0x00,
  0x00, 0x00, 0x01, 0x00, 0x00, 0x00, 0x01, 0x00, 0x00, 0x00, 0x01, 0x00, 0x00,
  0x00, 0x11, 0x00, 0x00, 0x00, 0x14, 0x72, 0xff, 0xff, 0x6e, 0xdc, 0xff, 0xff,
  0x00, 0x00, 0x00, 0x02, 0x01, 0x00, 0x00, 0x00, 0x24, 0x00, 0x00, 0x00, 0x18,
  0x00, 0x00, 0x00, 0x04, 0x00, 0x00, 0x00, 0x60, 0xdc, 0xff, 0xff, 0x01, 0x00,
  0x00, 0x00, 0x01, 0x00, 0x00, 0x00, 0x01, 0x00, 0x00, 0x00, 0x01, 0x00, 0x00,
  0x00, 0x8e, 0x00, 0x00, 0x00, 0x03, 0x00, 0x00, 0x00, 0x8d, 0x00, 0x00, 0x00,
  0x41, 0x00, 0x00, 0x00, 0x40, 0x00, 0x00, 0x00, 0xc4, 0x72, 0xff, 0xff, 0x3c,
  0x00, 0x00, 0x00, 0x8f, 0x00, 0x00, 0x00, 0x20, 0x00, 0x00, 0x00, 0x44, 0x00,
  0x00, 0x00, 0x04, 0x00, 0x00, 0x00, 0x04, 0x00, 0x00, 0x00, 0x01, 0x00, 0x00,
  0x00, 0xff, 0xff, 0xff, 0xff, 0xff, 0xff, 0xff, 0xff, 0x17, 0x00, 0x00, 0x00,
  0x0d, 0x00, 0x00, 0x00, 0x64, 0x65, 0x70, 0x74, 0x68, 0x77, 0x69, 0x73, 0x65,
  0x5f, 0x33, 0x35, 0x32, 0x00, 0x00, 0x00, 0x04, 0x00, 0x00, 0x00, 0x01, 0x00,
  0x00, 0x00, 0x01, 0x00, 0x00, 0x00, 0x01, 0x00, 0x00, 0x00, 0x17, 0x00, 0x00,
  0x00, 0xac, 0x72, 0xff, 0xff, 0x06, 0xdd, 0xff, 0xff, 0x00, 0x00, 0x00, 0x02,
  0x01, 0x00, 0x00, 0x00, 0x24, 0x00, 0x00, 0x00, 0x18, 0x00, 0x00, 0x00, 0x04,
  0x00, 0x00, 0x00, 0xf8, 0xdc, 0xff, 0xff, 0x01, 0x00, 0x00, 0x00, 0x01, 0x00,
  0x00, 0x00, 0x01, 0x00, 0x00, 0x00, 0x01, 0x00, 0x00, 0x00, 0x8d, 0x00, 0x00,
  0x00, 0x03, 0x00, 0x00, 0x00, 0x8c, 0x00, 0x00, 0x00, 0x3f, 0x00, 0x00, 0x00,
  0x40, 0x00, 0x00, 0x00, 0x5c, 0x73, 0xff, 0xff, 0x3c, 0x00, 0x00, 0x00, 0x8e,
  0x00, 0x00, 0x00, 0x20, 0x00, 0x00, 0x00, 0x44, 0x00, 0x00, 0x00, 0x04, 0x00,
  0x00, 0x00, 0x04, 0x00, 0x00, 0x00, 0x01, 0x00, 0x00, 0x00, 0xff, 0xff, 0xff,
  0xff, 0xff, 0xff, 0xff, 0xff, 0x17, 0x00, 0x00, 0x00, 0x0d, 0x00, 0x00, 0x00,
  0x64, 0x65, 0x70, 0x74, 0x68, 0x77, 0x69, 0x73, 0x65, 0x5f, 0x33, 0x34, 0x31,
  0x00, 0x00, 0x00, 0x04, 0x00, 0x00, 0x00, 0x01, 0x00, 0x00, 0x00, 0x01, 0x00,
  0x00, 0x00, 0x01, 0x00, 0x00, 0x00, 0x17, 0x00, 0x00, 0x00, 0x44, 0x73, 0xff,
  0xff, 0x9e, 0xdd, 0xff, 0xff, 0x00, 0x00, 0x00, 0x01, 0x02, 0x00, 0x00, 0x00,
  0x24, 0x00, 0x00, 0x00, 0x18, 0x00, 0x00, 0x00, 0x04, 0x00, 0x00, 0x00, 0x04,
  0xe1, 0xff, 0xff, 0x01, 0x00, 0x00, 0x00, 0x01, 0x00, 0x00, 0x00, 0x00, 0x00,
  0x00, 0x01, 0x01, 0x00, 0x00, 0x00, 0x8c, 0x00, 0x00, 0x00, 0x03, 0x00, 0x00,
  0x00, 0x8b, 0x00, 0x00, 0x00, 0x3e, 0x00, 0x00, 0x00, 0x01, 0x00, 0x00, 0x00,
  0xf4, 0x73, 0xff, 0xff, 0x60, 0x00, 0x00, 0x00, 0x8d, 0x00, 0x00, 0x00, 0x20,
  0x00, 0x00, 0x00, 0x68, 0x00, 0x00, 0x00, 0x04, 0x00, 0x00, 0x00, 0x04, 0x00,
  0x00, 0x00, 0x01, 0x00, 0x00, 0x00, 0xff, 0xff, 0xff, 0xff, 0xff, 0xff, 0xff,
  0xff, 0x17, 0x00, 0x00, 0x00, 0x33, 0x00, 0x00, 0x00, 0x52, 0x65, 0x6c, 0x75,
  0x5f, 0x35, 0x3b, 0x42, 0x69, 0x61, 0x73, 0x41, 0x64, 0x64, 0x5f, 0x31, 0x36,
  0x3b, 0x64, 0x65, 0x70, 0x74, 0x68, 0x77, 0x69, 0x73, 0x65, 0x5f, 0x33, 0x35,
  0x3b, 0x43, 0x6f, 0x6e, 0x76, 0x32, 0x44, 0x5f, 0x31, 0x36, 0x3b, 0x63, 0x6f,
  0x6e, 0x76, 0x5f, 0x36, 0x5f, 0x30, 0x5f, 0x62, 0x00, 0x04, 0x00, 0x00, 0x00,
  0x01, 0x00, 0x00, 0x00, 0x01, 0x00, 0x00, 0x00, 0x01, 0x00, 0x00, 0x00, 0x17,
  0x00, 0x00, 0x00, 0x00, 0x74, 0xff, 0xff, 0x5a, 0xde, 0xff, 0xff, 0x00, 0x00,
  0x00, 0x02, 0x01, 0x00, 0x00, 0x00, 0x24, 0x00, 0x00, 0x00, 0x18, 0x00, 0x00,
  0x00, 0x04, 0x00, 0x00, 0x00, 0x4c, 0xde, 0xff, 0xff, 0x01, 0x00, 0x00, 0x00,
  0x01, 0x00, 0x00, 0x00, 0x01, 0x00, 0x00, 0x00, 0x01, 0x00, 0x00, 0x00, 0x8b,
  0x00, 0x00, 0x00, 0x03, 0x00, 0x00, 0x00, 0x8a, 0x00, 0x00, 0x00, 0x3d, 0x00,
  0x00, 0x00, 0x44, 0x00, 0x00, 0x00, 0xb0, 0x74, 0xff, 0xff, 0x3c, 0x00, 0x00,
  0x00, 0x8c, 0x00, 0x00, 0x00, 0x20, 0x00, 0x00, 0x00, 0x44, 0x00, 0x00, 0x00,
  0x04, 0x00, 0x00, 0x00, 0x04, 0x00, 0x00, 0x00, 0x01, 0x00, 0x00, 0x00, 0xff,
  0xff, 0xff, 0xff, 0xff, 0xff, 0xff, 0xff, 0x0b, 0x00, 0x00, 0x00, 0x0d, 0x00,
  0x00, 0x00, 0x64, 0x65, 0x70, 0x74, 0x68, 0x77, 0x69, 0x73, 0x65, 0x5f, 0x33,
  0x33, 0x31, 0x00, 0x00, 0x00, 0x04, 0x00, 0x00, 0x00, 0x01, 0x00, 0x00, 0x00,
  0x01, 0x00, 0x00, 0x00, 0x01, 0x00, 0x00, 0x00, 0x0b, 0x00, 0x00, 0x00, 0x98,
  0x74, 0xff, 0xff, 0xf2, 0xde, 0xff, 0xff, 0x00, 0x00, 0x00, 0x02, 0x01, 0x00,
  0x00, 0x00, 0x24, 0x00, 0x00, 0x00, 0x18, 0x00, 0x00, 0x00, 0x04, 0x00, 0x00,
  0x00, 0xe4, 0xde, 0xff, 0xff, 0x01, 0x00, 0x00, 0x00, 0x01, 0x00, 0x00, 0x00,
  0x01, 0x00, 0x00, 0x00, 0x01, 0x00, 0x00, 0x00, 0x8a, 0x00, 0x00, 0x00, 0x03,
  0x00, 0x00, 0x00, 0x89, 0x00, 0x00, 0x00, 0x3c, 0x00, 0x00, 0x00, 0x44, 0x00,
  0x00, 0x00, 0x48, 0x75, 0xff, 0xff, 0x3c, 0x00, 0x00, 0x00, 0x8b, 0x00, 0x00,
  0x00, 0x20, 0x00, 0x00, 0x00, 0x44, 0x00, 0x00, 0x00, 0x04, 0x00, 0x00, 0x00,
  0x04, 0x00, 0x00, 0x00, 0x01, 0x00, 0x00, 0x00, 0xff, 0xff, 0xff, 0xff, 0xff,
  0xff, 0xff, 0xff, 0x0b, 0x00, 0x00, 0x00, 0x0d, 0x00, 0x00, 0x00, 0x64, 0x65,
  0x70, 0x74, 0x68, 0x77, 0x69, 0x73, 0x65, 0x5f, 0x33, 0x32, 0x31, 0x00, 0x00,
  0x00, 0x04, 0x00, 0x00, 0x00, 0x01, 0x00, 0x00, 0x00, 0x01, 0x00, 0x00, 0x00,
  0x01, 0x00, 0x00, 0x00, 0x0b, 0x00, 0x00, 0x00, 0x30, 0x75, 0xff, 0xff, 0x8a,
  0xdf, 0xff, 0xff, 0x00, 0x00, 0x00, 0x0b, 0x03, 0x00, 0x00, 0x00, 0x18, 0x00,
  0x00, 0x00, 0x0c, 0x00, 0x00, 0x00, 0x04, 0x00, 0x00, 0x00, 0x4c, 0x75, 0xff,
  0xff, 0x01, 0x00, 0x00, 0x00, 0x89, 0x00, 0x00, 0x00, 0x02, 0x00, 0x00, 0x00,
  0x88, 0x00, 0x00, 0x00, 0x85, 0x00, 0x00, 0x00, 0xd0, 0x75, 0xff, 0xff, 0x34,
  0x00, 0x00, 0x00, 0x8a, 0x00, 0x00, 0x00, 0x20, 0x00, 0x00, 0x00, 0x3c, 0x00,
  0x00, 0x00, 0x04, 0x00, 0x00, 0x00, 0x04, 0x00, 0x00, 0x00, 0x01, 0x00, 0x00,
  0x00, 0xff, 0xff, 0xff, 0xff, 0xff, 0xff, 0xff, 0xff, 0x0b, 0x00, 0x00, 0x00,
  0x05, 0x00, 0x00, 0x00, 0x41, 0x64, 0x64, 0x5f, 0x34, 0x00, 0x00, 0x00, 0x04,
  0x00, 0x00, 0x00, 0x01, 0x00, 0x00, 0x00, 0x01, 0x00, 0x00, 0x00, 0x01, 0x00,
  0x00, 0x00, 0x0b, 0x00, 0x00, 0x00, 0xb0, 0x75, 0xff, 0xff, 0x0a, 0xe0, 0xff,
  0xff, 0x00, 0x00, 0x00, 0x01, 0x02, 0x00, 0x00, 0x00, 0x20, 0x00, 0x00, 0x00,
  0x14, 0x00, 0x00, 0x00, 0x04, 0x00, 0x00, 0x00, 0x6a, 0xe1, 0xff, 0xff, 0x01,
  0x00, 0x00, 0x00, 0x01, 0x00, 0x00, 0x00, 0x01, 0x00, 0x00, 0x00, 0x88, 0x00,
  0x00, 0x00, 0x03, 0x00, 0x00, 0x00, 0x87, 0x00, 0x00, 0x00, 0x3b, 0x00, 0x00,
  0x00, 0x51, 0x00, 0x00, 0x00, 0x5c, 0x76, 0xff, 0xff, 0x5c, 0x00, 0x00, 0x00,
  0x89, 0x00, 0x00, 0x00, 0x20, 0x00, 0x00, 0x00, 0x64, 0x00, 0x00, 0x00, 0x04,
  0x00, 0x00, 0x00, 0x04, 0x00, 0x00, 0x00, 0x01, 0x00, 0x00, 0x00, 0xff, 0xff,
  0xff, 0xff, 0xff, 0xff, 0xff, 0xff, 0x0b, 0x00, 0x00, 0x00, 0x2d, 0x00, 0x00,
  0x00, 0x42, 0x69, 0x61, 0x73, 0x41, 0x64, 0x64, 0x5f, 0x31, 0x35, 0x3b, 0x64,
  0x65, 0x70, 0x74, 0x68, 0x77, 0x69, 0x73, 0x65, 0x5f, 0x33, 0x37, 0x3b, 0x43,
  0x6f, 0x6e, 0x76, 0x32, 0x44, 0x5f, 0x31, 0x35, 0x3b, 0x63, 0x6f, 0x6e, 0x76,
  0x5f, 0x35, 0x5f, 0x31, 0x5f, 0x62, 0x31, 0x00, 0x00, 0x00, 0x04, 0x00, 0x00,
  0x00, 0x01, 0x00, 0x00, 0x00, 0x01, 0x00, 0x00, 0x00, 0x01, 0x00, 0x00, 0x00,
  0x0b, 0x00, 0x00, 0x00, 0x64, 0x76, 0xff, 0xff, 0xbe, 0xe0, 0xff, 0xff, 0x00,
  0x00, 0x00, 0x02, 0x01, 0x00, 0x00, 0x00, 0x24, 0x00, 0x00, 0x00, 0x18, 0x00,
  0x00, 0x00, 0x04, 0x00, 0x00, 0x00, 0xb0, 0xe0, 0xff, 0xff, 0x01, 0x00, 0x00,
  0x00, 0x01, 0x00, 0x00, 0x00, 0x01, 0x00, 0x00, 0x00, 0x01, 0x00, 0x00, 0x00,
  0x87, 0x00, 0x00, 0x00, 0x03, 0x00, 0x00, 0x00, 0x86, 0x00, 0x00, 0x00, 0x3a,
  0x00, 0x00, 0x00, 0x39, 0x00, 0x00, 0x00, 0x14, 0x77, 0xff, 0xff, 0x3c, 0x00,
  0x00, 0x00, 0x88, 0x00, 0x00, 0x00, 0x20, 0x00, 0x00, 0x00, 0x44, 0x00, 0x00,
  0x00, 0x04, 0x00, 0x00, 0x00, 0x04, 0x00, 0x00, 0x00, 0x01, 0x00, 0x00, 0x00,
  0xff, 0xff, 0xff, 0xff, 0xff, 0xff, 0xff, 0xff, 0x08, 0x00, 0x00, 0x00, 0x0d,
  0x00, 0x00, 0x00, 0x64, 0x65, 0x70, 0x74, 0x68, 0x77, 0x69, 0x73, 0x65, 0x5f,
  0x33, 0x31, 0x32, 0x00, 0x00, 0x00, 0x04, 0x00, 0x00, 0x00, 0x01, 0x00, 0x00,
  0x00, 0x01, 0x00, 0x00, 0x00, 0x01, 0x00, 0x00, 0x00, 0x08, 0x00, 0x00, 0x00,
  0xfc, 0x76, 0xff, 0xff, 0x56, 0xe1, 0xff, 0xff, 0x00, 0x00, 0x00, 0x02, 0x01,
  0x00, 0x00, 0x00, 0x24, 0x00, 0x00, 0x00, 0x18, 0x00, 0x00, 0x00, 0x04, 0x00,
  0x00, 0x00, 0x48, 0xe1, 0xff, 0xff, 0x01, 0x00, 0x00, 0x00, 0x01, 0x00, 0x00,
  0x00, 0x01, 0x00, 0x00, 0x00, 0x01, 0x00, 0x00, 0x00, 0x86, 0x00, 0x00, 0x00,
  0x03, 0x00, 0x00, 0x00, 0x7f, 0x00, 0x00, 0x00, 0x38, 0x00, 0x00, 0x00, 0x39,
  0x00, 0x00, 0x00, 0xac, 0x77, 0xff, 0xff, 0x3c, 0x00, 0x00, 0x00, 0x87, 0x00,
  0x00, 0x00, 0x20, 0x00, 0x00, 0x00, 0x44, 0x00, 0x00, 0x00, 0x04, 0x00, 0x00,
  0x00, 0x04, 0x00, 0x00, 0x00, 0x01, 0x00, 0x00, 0x00, 0xff, 0xff, 0xff, 0xff,
  0xff, 0xff, 0xff, 0xff, 0x08, 0x00, 0x00, 0x00, 0x0d, 0x00, 0x00, 0x00, 0x64,
  0x65, 0x70, 0x74, 0x68, 0x77, 0x69, 0x73, 0x65, 0x5f, 0x33, 0x30, 0x31, 0x00,
  0x00, 0x00, 0x04, 0x00, 0x00, 0x00, 0x01, 0x00, 0x00, 0x00, 0x01, 0x00, 0x00,
  0x00, 0x01, 0x00, 0x00, 0x00, 0x08, 0x00, 0x00, 0x00, 0x94, 0x77, 0xff, 0xff,
  0xee, 0xe1, 0xff, 0xff, 0x00, 0x00, 0x00, 0x01, 0x02, 0x00, 0x00, 0x00, 0x20,
  0x00, 0x00, 0x00, 0x14, 0x00, 0x00, 0x00, 0x04, 0x00, 0x00, 0x00, 0x4e, 0xe3,
  0xff, 0xff, 0x01, 0x00, 0x00, 0x00, 0x01, 0x00, 0x00, 0x00, 0x01, 0x00, 0x00,
  0x00, 0x85, 0x00, 0x00, 0x00, 0x03, 0x00, 0x00, 0x00, 0x84, 0x00, 0x00, 0x00,
  0x37, 0x00, 0x00, 0x00, 0x51, 0x00, 0x00, 0x00, 0x40, 0x78, 0xff, 0xff, 0x5c,
  0x00, 0x00, 0x00, 0x86, 0x00, 0x00, 0x00, 0x20, 0x00, 0x00, 0x00, 0x64, 0x00,
  0x00, 0x00, 0x04, 0x00, 0x00, 0x00, 0x04, 0x00, 0x00, 0x00, 0x01, 0x00, 0x00,
  0x00, 0xff, 0xff, 0xff, 0xff, 0xff, 0xff, 0xff, 0xff, 0x0b, 0x00, 0x00, 0x00,
  0x2c, 0x00, 0x00, 0x00, 0x42, 0x69, 0x61, 0x73, 0x41, 0x64, 0x64, 0x5f, 0x31,
  0x34, 0x3b, 0x64, 0x65, 0x70, 0x74, 0x68, 0x77, 0x69, 0x73, 0x65, 0x5f, 0x33,
  0x37, 0x3b, 0x43, 0x6f, 0x6e, 0x76, 0x32, 0x44, 0x5f, 0x31, 0x34, 0x3b, 0x63,
  0x6f, 0x6e, 0x76, 0x5f, 0x35, 0x5f, 0x31, 0x5f, 0x62, 0x00, 0x00, 0x00, 0x00,
  0x04, 0x00, 0x00, 0x00, 0x01, 0x00, 0x00, 0x00, 0x01, 0x00, 0x00, 0x00, 0x01,
  0x00, 0x00, 0x00, 0x0b, 0x00, 0x00, 0x00, 0x48, 0x78, 0xff, 0xff, 0xa2, 0xe2,
  0xff, 0xff, 0x00, 0x00, 0x00, 0x02, 0x01, 0x00, 0x00, 0x00, 0x24, 0x00, 0x00,
  0x00, 0x18, 0x00, 0x00, 0x00, 0x04, 0x00, 0x00, 0x00, 0x94, 0xe2, 0xff, 0xff,
  0x01, 0x00, 0x00, 0x00, 0x01, 0x00, 0x00, 0x00, 0x01, 0x00, 0x00, 0x00, 0x01,
  0x00, 0x00, 0x00, 0x84, 0x00, 0x00, 0x00, 0x03, 0x00, 0x00, 0x00, 0x83, 0x00,
  0x00, 0x00, 0x36, 0x00, 0x00, 0x00, 0x35, 0x00, 0x00, 0x00, 0xf8, 0x78, 0xff,
  0xff, 0x3c, 0x00, 0x00, 0x00, 0x85, 0x00, 0x00, 0x00, 0x20, 0x00, 0x00, 0x00,
  0x44, 0x00, 0x00, 0x00, 0x04, 0x00, 0x00, 0x00, 0x04, 0x00, 0x00, 0x00, 0x01,
  0x00, 0x00, 0x00, 0xff, 0xff, 0xff, 0xff, 0xff, 0xff, 0xff, 0xff, 0x0f, 0x00,
  0x00, 0x00, 0x0d, 0x00, 0x00, 0x00, 0x64, 0x65, 0x70, 0x74, 0x68, 0x77, 0x69,
  0x73, 0x65, 0x5f, 0x32, 0x39, 0x32, 0x00, 0x00, 0x00, 0x04, 0x00, 0x00, 0x00,
  0x01, 0x00, 0x00, 0x00, 0x01, 0x00, 0x00, 0x00, 0x01, 0x00, 0x00, 0x00, 0x0f,
  0x00, 0x00, 0x00, 0xe0, 0x78, 0xff, 0xff, 0x3a, 0xe3, 0xff, 0xff, 0x00, 0x00,
  0x00, 0x02, 0x01, 0x00, 0x00, 0x00, 0x24, 0x00, 0x00, 0x00, 0x18, 0x00, 0x00,
  0x00, 0x04, 0x00, 0x00, 0x00, 0x2c, 0xe3, 0xff, 0xff, 0x01, 0x00, 0x00, 0x00,
  0x01, 0x00, 0x00, 0x00, 0x01, 0x00, 0x00, 0x00, 0x01, 0x00, 0x00, 0x00, 0x83,
  0x00, 0x00, 0x00, 0x03, 0x00, 0x00, 0x00, 0x82, 0x00, 0x00, 0x00, 0x34, 0x00,
  0x00, 0x00, 0x35, 0x00, 0x00, 0x00, 0x90, 0x79, 0xff, 0xff, 0x3c, 0x00, 0x00,
  0x00, 0x84, 0x00, 0x00, 0x00, 0x20, 0x00, 0x00, 0x00, 0x44, 0x00, 0x00, 0x00,
  0x04, 0x00, 0x00, 0x00, 0x04, 0x00, 0x00, 0x00, 0x01, 0x00, 0x00, 0x00, 0xff,
  0xff, 0xff, 0xff, 0xff, 0xff, 0xff, 0xff, 0x0f, 0x00, 0x00, 0x00, 0x0d, 0x00,
  0x00, 0x00, 0x64, 0x65, 0x70, 0x74, 0x68, 0x77, 0x69, 0x73, 0x65, 0x5f, 0x32,
  0x38, 0x31, 0x00, 0x00, 0x00, 0x04, 0x00, 0x00, 0x00, 0x01, 0x00, 0x00, 0x00,
  0x01, 0x00, 0x00, 0x00, 0x01, 0x00, 0x00, 0x00, 0x0f, 0x00, 0x00, 0x00, 0x78,
  0x79, 0xff, 0xff, 0xd2, 0xe3, 0xff, 0xff, 0x00, 0x00, 0x00, 0x01, 0x02, 0x00,
  0x00, 0x00, 0x24, 0x00, 0x00, 0x00, 0x18, 0x00, 0x00, 0x00, 0x04, 0x00, 0x00,
  0x00, 0x38, 0xe7, 0xff, 0xff, 0x01, 0x00, 0x00, 0x00, 0x01, 0x00, 0x00, 0x00,
  0x00, 0x00, 0x00, 0x01, 0x01, 0x00, 0x00, 0x00, 0x82, 0x00, 0x00, 0x00, 0x03,
  0x00, 0x00, 0x00, 0x81, 0x00, 0x00, 0x00, 0x33, 0x00, 0x00, 0x00, 0x02, 0x00,
  0x00, 0x00, 0x28, 0x7a, 0xff, 0xff, 0x60, 0x00, 0x00, 0x00, 0x83, 0x00, 0x00,
  0x00, 0x20, 0x00, 0x00, 0x00, 0x68, 0x00, 0x00, 0x00, 0x04, 0x00, 0x00, 0x00,
  0x04, 0x00, 0x00, 0x00, 0x01, 0x00, 0x00, 0x00, 0xff, 0xff, 0xff, 0xff, 0xff,
  0xff, 0xff, 0xff, 0x0f, 0x00, 0x00, 0x00, 0x33, 0x00, 0x00, 0x00, 0x52, 0x65,
  0x6c, 0x75, 0x5f, 0x34, 0x3b, 0x42, 0x69, 0x61, 0x73, 0x41, 0x64, 0x64, 0x5f,
  0x31, 0x33, 0x3b, 0x64, 0x65, 0x70, 0x74, 0x68, 0x77, 0x69, 0x73, 0x65, 0x5f,
  0x32, 0x39, 0x3b, 0x43, 0x6f, 0x6e, 0x76, 0x32, 0x44, 0x5f, 0x31, 0x33, 0x3b,
  0x63, 0x6f, 0x6e, 0x76, 0x5f, 0x35, 0x5f, 0x30, 0x5f, 0x62, 0x00, 0x04, 0x00,
  0x00, 0x00, 0x01, 0x00, 0x00, 0x00, 0x01, 0x00, 0x00, 0x00, 0x01, 0x00, 0x00,
  0x00, 0x0f, 0x00, 0x00, 0x00, 0x34, 0x7a, 0xff, 0xff, 0x8e, 0xe4, 0xff, 0xff,
  0x00, 0x00, 0x00, 0x02, 0x01, 0x00, 0x00, 0x00, 0x24, 0x00, 0x00, 0x00, 0x18,
  0x00, 0x00, 0x00, 0x04, 0x00, 0x00, 0x00, 0x80, 0xe4, 0xff, 0xff, 0x01, 0x00,
  0x00, 0x00, 0x01, 0x00, 0x00, 0x00, 0x01, 0x00, 0x00, 0x00, 0x01, 0x00, 0x00,
  0x00, 0x81, 0x00, 0x00, 0x00, 0x03, 0x00, 0x00, 0x00, 0x80, 0x00, 0x00, 0x00,
  0x32, 0x00, 0x00, 0x00, 0x39, 0x00, 0x00, 0x00, 0xe4, 0x7a, 0xff, 0xff, 0x3c,
  0x00, 0x00, 0x00, 0x82, 0x00, 0x00, 0x00, 0x20, 0x00, 0x00, 0x00, 0x44, 0x00,
  0x00, 0x00, 0x04, 0x00, 0x00, 0x00, 0x04, 0x00, 0x00, 0x00, 0x01, 0x00, 0x00,
  0x00, 0xff, 0xff, 0xff, 0xff, 0xff, 0xff, 0xff, 0xff, 0x08, 0x00, 0x00, 0x00,
  0x0d, 0x00, 0x00, 0x00, 0x64, 0x65, 0x70, 0x74, 0x68, 0x77, 0x69, 0x73, 0x65,
  0x5f, 0x32, 0x37, 0x31, 0x00, 0x00, 0x00, 0x04, 0x00, 0x00, 0x00, 0x01, 0x00,
  0x00, 0x00, 0x01, 0x00, 0x00, 0x00, 0x01, 0x00, 0x00, 0x00, 0x08, 0x00, 0x00,
  0x00, 0xcc, 0x7a, 0xff, 0xff, 0x26, 0xe5, 0xff, 0xff, 0x00, 0x00, 0x00, 0x02,
  0x01, 0x00, 0x00, 0x00, 0x24, 0x00, 0x00, 0x00, 0x18, 0x00, 0x00, 0x00, 0x04,
  0x00, 0x00, 0x00, 0x18, 0xe5, 0xff, 0xff, 0x01, 0x00, 0x00, 0x00, 0x01, 0x00,
  0x00, 0x00, 0x01, 0x00, 0x00, 0x00, 0x01, 0x00, 0x00, 0x00, 0x80, 0x00, 0x00,
  0x00, 0x03, 0x00, 0x00, 0x00, 0x7f, 0x00, 0x00, 0x00, 0x31, 0x00, 0x00, 0x00,
  0x39, 0x00, 0x00, 0x00, 0x7c, 0x7b, 0xff, 0xff, 0x3c, 0x00, 0x00, 0x00, 0x81,
  0x00, 0x00, 0x00, 0x20, 0x00, 0x00, 0x00, 0x44, 0x00, 0x00, 0x00, 0x04, 0x00,
  0x00, 0x00, 0x04, 0x00, 0x00, 0x00, 0x01, 0x00, 0x00, 0x00, 0xff, 0xff, 0xff,
  0xff, 0xff, 0xff, 0xff, 0xff, 0x08, 0x00, 0x00, 0x00, 0x0d, 0x00, 0x00, 0x00,
  0x64, 0x65, 0x70, 0x74, 0x68, 0x77, 0x69, 0x73, 0x65, 0x5f, 0x32, 0x36, 0x31,
  0x00, 0x00, 0x00, 0x04, 0x00, 0x00, 0x00, 0x01, 0x00, 0x00, 0x00, 0x01, 0x00,
  0x00, 0x00, 0x01, 0x00, 0x00, 0x00, 0x08, 0x00, 0x00, 0x00, 0x64, 0x7b, 0xff,
  0xff, 0xbe, 0xe5, 0xff, 0xff, 0x00, 0x00, 0x00, 0x0b, 0x03, 0x00, 0x00, 0x00,
  0x18, 0x00, 0x00, 0x00, 0x0c, 0x00, 0x00, 0x00, 0x04, 0x00, 0x00, 0x00, 0x80,
  0x7b, 0xff, 0xff, 0x01, 0x00, 0x00, 0x00, 0x7f, 0x00, 0x00, 0x00, 0x02, 0x00,
  0x00, 0x00, 0x7e, 0x00, 0x00, 0x00, 0x7b, 0x00, 0x00, 0x00, 0x04, 0x7c, 0xff,
  0xff, 0x34, 0x00, 0x00, 0x00, 0x80, 0x00, 0x00, 0x00, 0x20, 0x00, 0x00, 0x00,
  0x3c, 0x00, 0x00, 0x00, 0x04, 0x00, 0x00, 0x00, 0x04, 0x00, 0x00, 0x00, 0x01,
  0x00, 0x00, 0x00, 0xff, 0xff, 0xff, 0xff, 0xff, 0xff, 0xff, 0xff, 0x08, 0x00,
  0x00, 0x00, 0x05, 0x00, 0x00, 0x00, 0x41, 0x64, 0x64, 0x5f, 0x33, 0x00, 0x00,
  0x00, 0x04, 0x00, 0x00, 0x00, 0x01, 0x00, 0x00, 0x00, 0x01, 0x00, 0x00, 0x00,
  0x01, 0x00, 0x00, 0x00, 0x08, 0x00, 0x00, 0x00, 0xe4, 0x7b, 0xff, 0xff, 0x3e,
  0xe6, 0xff, 0xff, 0x00, 0x00, 0x00, 0x01, 0x02, 0x00, 0x00, 0x00, 0x20, 0x00,
  0x00, 0x00, 0x14, 0x00, 0x00, 0x00, 0x04, 0x00, 0x00, 0x00, 0x9e, 0xe7, 0xff,
  0xff, 0x01, 0x00, 0x00, 0x00, 0x01, 0x00, 0x00, 0x00, 0x01, 0x00, 0x00, 0x00,
  0x7e, 0x00, 0x00, 0x00, 0x03, 0x00, 0x00, 0x00, 0x7d, 0x00, 0x00, 0x00, 0x30,
  0x00, 0x00, 0x00, 0x50, 0x00, 0x00, 0x00, 0x90, 0x7c, 0xff, 0xff, 0x5c, 0x00,
  0x00, 0x00, 0x7f, 0x00, 0x00, 0x00, 0x20, 0x00, 0x00, 0x00, 0x64, 0x00, 0x00,
  0x00, 0x04, 0x00, 0x00, 0x00, 0x04, 0x00, 0x00, 0x00, 0x01, 0x00, 0x00, 0x00,
  0xff, 0xff, 0xff, 0xff, 0xff, 0xff, 0xff, 0xff, 0x08, 0x00, 0x00, 0x00, 0x2d,
  0x00, 0x00, 0x00, 0x42, 0x69, 0x61, 0x73, 0x41, 0x64, 0x64, 0x5f, 0x31, 0x32,
  0x3b, 0x64, 0x65, 0x70, 0x74, 0x68, 0x77, 0x69, 0x73, 0x65, 0x5f, 0x33, 0x31,
  0x3b, 0x43, 0x6f, 0x6e, 0x76, 0x32, 0x44, 0x5f, 0x31, 0x32, 0x3b, 0x63, 0x6f,
  0x6e, 0x76, 0x5f, 0x34, 0x5f, 0x31, 0x5f, 0x62, 0x31, 0x00, 0x00, 0x00, 0x04,
  0x00, 0x00, 0x00, 0x01, 0x00, 0x00, 0x00, 0x01, 0x00, 0x00, 0x00, 0x01, 0x00,
  0x00, 0x00, 0x08, 0x00, 0x00, 0x00, 0x98, 0x7c, 0xff, 0xff, 0xf2, 0xe6, 0xff,
  0xff, 0x00, 0x00, 0x00, 0x02, 0x01, 0x00, 0x00, 0x00, 0x24, 0x00, 0x00, 0x00,
  0x18, 0x00, 0x00, 0x00, 0x04, 0x00, 0x00, 0x00, 0xe4, 0xe6, 0xff, 0xff, 0x01,
  0x00, 0x00, 0x00, 0x01, 0x00, 0x00, 0x00, 0x01, 0x00, 0x00, 0x00, 0x01, 0x00,
  0x00, 0x00, 0x7d, 0x00, 0x00, 0x00, 0x03, 0x00, 0x00, 0x00, 0x7c, 0x00, 0x00,
  0x00, 0x2f, 0x00, 0x00, 0x00, 0x2e, 0x00, 0x00, 0x00, 0x48, 0x7d, 0xff, 0xff,
  0x3c, 0x00, 0x00, 0x00, 0x7e, 0x00, 0x00, 0x00, 0x20, 0x00, 0x00, 0x00, 0x44,
  0x00, 0x00, 0x00, 0x04, 0x00, 0x00, 0x00, 0x04, 0x00, 0x00, 0x00, 0x01, 0x00,
  0x00, 0x00, 0xff, 0xff, 0xff, 0xff, 0xff, 0xff, 0xff, 0xff, 0x07, 0x00, 0x00,
  0x00, 0x0d, 0x00, 0x00, 0x00, 0x64, 0x65, 0x70, 0x74, 0x68, 0x77, 0x69, 0x73,
  0x65, 0x5f, 0x32, 0x35, 0x32, 0x00, 0x00, 0x00, 0x04, 0x00, 0x00, 0x00, 0x01,
  0x00, 0x00, 0x00, 0x01, 0x00, 0x00, 0x00, 0x01, 0x00, 0x00, 0x00, 0x07, 0x00,
  0x00, 0x00, 0x30, 0x7d, 0xff, 0xff, 0x8a, 0xe7, 0xff, 0xff, 0x00, 0x00, 0x00,
  0x02, 0x01, 0x00, 0x00, 0x00, 0x24, 0x00, 0x00, 0x00, 0x18, 0x00, 0x00, 0x00,
  0x04, 0x00, 0x00, 0x00, 0x7c, 0xe7, 0xff, 0xff, 0x01, 0x00, 0x00, 0x00, 0x01,
  0x00, 0x00, 0x00, 0x01, 0x00, 0x00, 0x00, 0x01, 0x00, 0x00, 0x00, 0x7c, 0x00,
  0x00, 0x00, 0x03, 0x00, 0x00, 0x00, 0x75, 0x00, 0x00, 0x00, 0x2d, 0x00, 0x00,
  0x00, 0x2e, 0x00, 0x00, 0x00, 0xe0, 0x7d, 0xff, 0xff, 0x3c, 0x00, 0x00, 0x00,
  0x7d, 0x00, 0x00, 0x00, 0x20, 0x00, 0x00, 0x00, 0x44, 0x00, 0x00, 0x00, 0x04,
  0x00, 0x00, 0x00, 0x04, 0x00, 0x00, 0x00, 0x01, 0x00, 0x00, 0x00, 0xff, 0xff,
  0xff, 0xff, 0xff, 0xff, 0xff, 0xff, 0x07, 0x00, 0x00, 0x00, 0x0d, 0x00, 0x00,
  0x00, 0x64, 0x65, 0x70, 0x74, 0x68, 0x77, 0x69, 0x73, 0x65, 0x5f, 0x32, 0x34,
  0x31, 0x00, 0x00, 0x00, 0x04, 0x00, 0x00, 0x00, 0x01, 0x00, 0x00, 0x00, 0x01,
  0x00, 0x00, 0x00, 0x01, 0x00, 0x00, 0x00, 0x07, 0x00, 0x00, 0x00, 0xc8, 0x7d,
  0xff, 0xff, 0x22, 0xe8, 0xff, 0xff, 0x00, 0x00, 0x00, 0x01, 0x02, 0x00, 0x00,
  0x00, 0x20, 0x00, 0x00, 0x00, 0x14, 0x00, 0x00, 0x00, 0x04, 0x00, 0x00, 0x00,
  0x82, 0xe9, 0xff, 0xff, 0x01, 0x00, 0x00, 0x00, 0x01, 0x00, 0x00, 0x00, 0x01,
  0x00, 0x00, 0x00, 0x7b, 0x00, 0x00, 0x00, 0x03, 0x00, 0x00, 0x00, 0x7a, 0x00,
  0x00, 0x00, 0x2c, 0x00, 0x00, 0x00, 0x50, 0x00, 0x00, 0x00, 0x74, 0x7e, 0xff,
  0xff, 0x5c, 0x00, 0x00, 0x00, 0x7c, 0x00, 0x00, 0x00, 0x20, 0x00, 0x00, 0x00,
  0x64, 0x00, 0x00, 0x00, 0x04, 0x00, 0x00, 0x00, 0x04, 0x00, 0x00, 0x00, 0x01,
  0x00, 0x00, 0x00, 0xff, 0xff, 0xff, 0xff, 0xff, 0xff, 0xff, 0xff, 0x08, 0x00,
  0x00, 0x00, 0x2c, 0x00, 0x00, 0x00, 0x42, 0x69, 0x61, 0x73, 0x41, 0x64, 0x64,
  0x5f, 0x31, 0x31, 0x3b, 0x64, 0x65, 0x70, 0x74, 0x68, 0x77, 0x69, 0x73, 0x65,
  0x5f, 0x33, 0x31, 0x3b, 0x43, 0x6f, 0x6e, 0x76, 0x32, 0x44, 0x5f, 0x31, 0x31,
  0x3b, 0x63, 0x6f, 0x6e, 0x76, 0x5f, 0x34, 0x5f, 0x31, 0x5f, 0x62, 0x00, 0x00,
  0x00, 0x00, 0x04, 0x00, 0x00, 0x00, 0x01, 0x00, 0x00, 0x00, 0x01, 0x00, 0x00,
  0x00, 0x01, 0x00, 0x00, 0x00, 0x08, 0x00, 0x00, 0x00, 0x7c, 0x7e, 0xff, 0xff,
  0xd6, 0xe8, 0xff, 0xff, 0x00, 0x00, 0x00, 0x02, 0x01, 0x00, 0x00, 0x00, 0x24,
  0x00, 0x00, 0x00, 0x18, 0x00, 0x00, 0x00, 0x04, 0x00, 0x00, 0x00, 0xc8, 0xe8,
  0xff, 0xff, 0x01, 0x00, 0x00, 0x00, 0x01, 0x00, 0x00, 0x00, 0x01, 0x00, 0x00,
  0x00, 0x01, 0x00, 0x00, 0x00, 0x7a, 0x00, 0x00, 0x00, 0x03, 0x00, 0x00, 0x00,
  0x79, 0x00, 0x00, 0x00, 0x2b, 0x00, 0x00, 0x00, 0x44, 0x00, 0x00, 0x00, 0x2c,
  0x7f, 0xff, 0xff, 0x3c, 0x00, 0x00, 0x00, 0x7b, 0x00, 0x00, 0x00, 0x20, 0x00,
  0x00, 0x00, 0x44, 0x00, 0x00, 0x00, 0x04, 0x00, 0x00, 0x00, 0x04, 0x00, 0x00,
  0x00, 0x01, 0x00, 0x00, 0x00, 0xff, 0xff, 0xff, 0xff, 0xff, 0xff, 0xff, 0xff,
  0x0b, 0x00, 0x00, 0x00, 0x0d, 0x00, 0x00, 0x00, 0x64, 0x65, 0x70, 0x74, 0x68,
  0x77, 0x69, 0x73, 0x65, 0x5f, 0x32, 0x33, 0x31, 0x00, 0x00, 0x00, 0x04, 0x00,
  0x00, 0x00, 0x01, 0x00, 0x00, 0x00, 0x01, 0x00, 0x00, 0x00, 0x01, 0x00, 0x00,
  0x00, 0x0b, 0x00, 0x00, 0x00, 0x14, 0x7f, 0xff, 0xff, 0x6e, 0xe9, 0xff, 0xff,
  0x00, 0x00, 0x00, 0x02, 0x01, 0x00, 0x00, 0x00, 0x24, 0x00, 0x00, 0x00, 0x18,
  0x00, 0x00, 0x00, 0x04, 0x00, 0x00, 0x00, 0x60, 0xe9, 0xff, 0xff, 0x01, 0x00,
  0x00, 0x00, 0x01, 0x00, 0x00, 0x00, 0x01, 0x00, 0x00, 0x00, 0x01, 0x00, 0x00,
  0x00, 0x79, 0x00, 0x00, 0x00, 0x03, 0x00, 0x00, 0x00, 0x78, 0x00, 0x00, 0x00,
  0x2a, 0x00, 0x00, 0x00, 0x44, 0x00, 0x00, 0x00, 0xc4, 0x7f, 0xff, 0xff, 0x3c,
  0x00, 0x00, 0x00, 0x7a, 0x00, 0x00, 0x00, 0x20, 0x00, 0x00, 0x00, 0x44, 0x00,
  0x00, 0x00, 0x04, 0x00, 0x00, 0x00, 0x04, 0x00, 0x00, 0x00, 0x01, 0x00, 0x00,
  0x00, 0xff, 0xff, 0xff, 0xff, 0xff, 0xff, 0xff, 0xff, 0x0b, 0x00, 0x00, 0x00,
  0x0d, 0x00, 0x00, 0x00, 0x64, 0x65, 0x70, 0x74, 0x68, 0x77, 0x69, 0x73, 0x65,
  0x5f, 0x32, 0x32, 0x31, 0x00, 0x00, 0x00, 0x04, 0x00, 0x00, 0x00, 0x01, 0x00,
  0x00, 0x00, 0x01, 0x00, 0x00, 0x00, 0x01, 0x00, 0x00, 0x00, 0x0b, 0x00, 0x00,
  0x00, 0xac, 0x7f, 0xff, 0xff, 0x06, 0xea, 0xff, 0xff, 0x00, 0x00, 0x00, 0x01,
  0x02, 0x00, 0x00, 0x00, 0x24, 0x00, 0x00, 0x00, 0x18, 0x00, 0x00, 0x00, 0x04,
  0x00, 0x00, 0x00, 0x6c, 0xed, 0xff, 0xff, 0x01, 0x00, 0x00, 0x00, 0x01, 0x00,
  0x00, 0x00, 0x00, 0x00, 0x00, 0x01, 0x01, 0x00, 0x00, 0x00, 0x78, 0x00, 0x00,
  0x00, 0x03, 0x00, 0x00, 0x00, 0x77, 0x00, 0x00, 0x00, 0x29, 0x00, 0x00, 0x00,
  0x03, 0x00, 0x00, 0x00, 0x5c, 0x80, 0xff, 0xff, 0x60, 0x00, 0x00, 0x00, 0x79,
  0x00, 0x00, 0x00, 0x20, 0x00, 0x00, 0x00, 0x68, 0x00, 0x00, 0x00, 0x04, 0x00,
  0x00, 0x00, 0x04, 0x00, 0x00, 0x00, 0x01, 0x00, 0x00, 0x00, 0xff, 0xff, 0xff,
  0xff, 0xff, 0xff, 0xff, 0xff, 0x0b, 0x00, 0x00, 0x00, 0x33, 0x00, 0x00, 0x00,
  0x52, 0x65, 0x6c, 0x75, 0x5f, 0x33, 0x3b, 0x42, 0x69, 0x61, 0x73, 0x41, 0x64,
  0x64, 0x5f, 0x31, 0x30, 0x3b, 0x64, 0x65, 0x70, 0x74, 0x68, 0x77, 0x69, 0x73,
  0x65, 0x5f, 0x33, 0x37, 0x3b, 0x43, 0x6f, 0x6e, 0x76, 0x32, 0x44, 0x5f, 0x31,
  0x30, 0x3b, 0x63, 0x6f, 0x6e, 0x76, 0x5f, 0x34, 0x5f, 0x30, 0x5f, 0x62, 0x00,
  0x04, 0x00, 0x00, 0x00, 0x01, 0x00, 0x00, 0x00, 0x01, 0x00, 0x00, 0x00, 0x01,
  0x00, 0x00, 0x00, 0x0b, 0x00, 0x00, 0x00, 0x68, 0x80, 0xff, 0xff, 0xc2, 0xea,
  0xff, 0xff, 0x00, 0x00, 0x00, 0x02, 0x01, 0x00, 0x00, 0x00, 0x24, 0x00, 0x00,
  0x00, 0x18, 0x00, 0x00, 0x00, 0x04, 0x00, 0x00, 0x00, 0xb4, 0xea, 0xff, 0xff,
  0x01, 0x00, 0x00, 0x00, 0x01, 0x00, 0x00, 0x00, 0x01, 0x00, 0x00, 0x00, 0x01,
  0x00, 0x00, 0x00, 0x77, 0x00, 0x00, 0x00, 0x03, 0x00, 0x00, 0x00, 0x76, 0x00,
  0x00, 0x00, 0x28, 0x00, 0x00, 0x00, 0x2e, 0x00, 0x00, 0x00, 0x18, 0x81, 0xff,
  0xff, 0x3c, 0x00, 0x00, 0x00, 0x78, 0x00, 0x00, 0x00, 0x20, 0x00, 0x00, 0x00,
  0x44, 0x00, 0x00, 0x00, 0x04, 0x00, 0x00, 0x00, 0x04, 0x00, 0x00, 0x00, 0x01,
  0x00, 0x00, 0x00, 0xff, 0xff, 0xff, 0xff, 0xff, 0xff, 0xff, 0xff, 0x07, 0x00,
  0x00, 0x00, 0x0d, 0x00, 0x00, 0x00, 0x64, 0x65, 0x70, 0x74, 0x68, 0x77, 0x69,
  0x73, 0x65, 0x5f, 0x32, 0x31, 0x31, 0x00, 0x00, 0x00, 0x04, 0x00, 0x00, 0x00,
  0x01, 0x00, 0x00, 0x00, 0x01, 0x00, 0x00, 0x00, 0x01, 0x00, 0x00, 0x00, 0x07,
  0x00, 0x00, 0x00, 0x00, 0x81, 0xff, 0xff, 0x5a, 0xeb, 0xff, 0xff, 0x00, 0x00,
  0x00, 0x02, 0x01, 0x00, 0x00, 0x00, 0x24, 0x00, 0x00, 0x00, 0x18, 0x00, 0x00,
  0x00, 0x04, 0x00, 0x00, 0x00, 0x4c, 0xeb, 0xff, 0xff, 0x01, 0x00, 0x00, 0x00,
  0x01, 0x00, 0x00, 0x00, 0x01, 0x00, 0x00, 0x00, 0x01, 0x00, 0x00, 0x00, 0x76,
  0x00, 0x00, 0x00, 0x03, 0x00, 0x00, 0x00, 0x75, 0x00, 0x00, 0x00, 0x27, 0x00,
  0x00, 0x00, 0x2e, 0x00, 0x00, 0x00, 0xb0, 0x81, 0xff, 0xff, 0x3c, 0x00, 0x00,
  0x00, 0x77, 0x00, 0x00, 0x00, 0x20, 0x00, 0x00, 0x00, 0x44, 0x00, 0x00, 0x00,
  0x04, 0x00, 0x00, 0x00, 0x04, 0x00, 0x00, 0x00, 0x01, 0x00, 0x00, 0x00, 0xff,
  0xff, 0xff, 0xff, 0xff, 0xff, 0xff, 0xff, 0x07, 0x00, 0x00, 0x00, 0x0d, 0x00,
  0x00, 0x00, 0x64, 0x65, 0x70, 0x74, 0x68, 0x77, 0x69, 0x73, 0x65, 0x5f, 0x32,
  0x30, 0x31, 0x00, 0x00, 0x00, 0x04, 0x00, 0x00, 0x00, 0x01, 0x00, 0x00, 0x00,
  0x01, 0x00, 0x00, 0x00, 0x01, 0x00, 0x00, 0x00, 0x07, 0x00, 0x00, 0x00, 0x98,
  0x81, 0xff, 0xff, 0xf2, 0xeb, 0xff, 0xff, 0x00, 0x00, 0x00, 0x0b, 0x03, 0x00,
  0x00, 0x00, 0x18, 0x00, 0x00, 0x00, 0x0c, 0x00, 0x00, 0x00, 0x04, 0x00, 0x00,
  0x00, 0xb4, 0x81, 0xff, 0xff, 0x01, 0x00, 0x00, 0x00, 0x75, 0x00, 0x00, 0x00,
  0x02, 0x00, 0x00, 0x00, 0x74, 0x00, 0x00, 0x00, 0x71, 0x00, 0x00, 0x00, 0x38,
  0x82, 0xff, 0xff, 0x34, 0x00, 0x00, 0x00, 0x76, 0x00, 0x00, 0x00, 0x20, 0x00,
  0x00, 0x00, 0x3c, 0x00, 0x00, 0x00, 0x04, 0x00, 0x00, 0x00, 0x04, 0x00, 0x00,
  0x00, 0x01, 0x00, 0x00, 0x00, 0xff, 0xff, 0xff, 0xff, 0xff, 0xff, 0xff, 0xff,
  0x07, 0x00, 0x00, 0x00, 0x05, 0x00, 0x00, 0x00, 0x41, 0x64, 0x64, 0x5f, 0x32,
  0x00, 0x00, 0x00, 0x04, 0x00, 0x00, 0x00, 0x01, 0x00, 0x00, 0x00, 0x01, 0x00,
  0x00, 0x00, 0x01, 0x00, 0x00, 0x00, 0x07, 0x00, 0x00, 0x00, 0x18, 0x82, 0xff,
  0xff, 0x72, 0xec, 0xff, 0xff, 0x00, 0x00, 0x00, 0x01, 0x02, 0x00, 0x00, 0x00,
  0x20, 0x00, 0x00, 0x00, 0x14, 0x00, 0x00, 0x00, 0x04, 0x00, 0x00, 0x00, 0xd2,
  0xed, 0xff, 0xff, 0x01, 0x00, 0x00, 0x00, 0x01, 0x00, 0x00, 0x00, 0x01, 0x00,
  0x00, 0x00, 0x74, 0x00, 0x00, 0x00, 0x03, 0x00, 0x00, 0x00, 0x73, 0x00, 0x00,
  0x00, 0x26, 0x00, 0x00, 0x00, 0x4f, 0x00, 0x00, 0x00, 0xc4, 0x82, 0xff, 0xff,
  0x58, 0x00, 0x00, 0x00, 0x75, 0x00, 0x00, 0x00, 0x20, 0x00, 0x00, 0x00, 0x60,
  0x00, 0x00, 0x00, 0x04, 0x00, 0x00, 0x00, 0x04, 0x00, 0x00, 0x00, 0x01, 0x00,
  0x00, 0x00, 0xff, 0xff, 0xff, 0xff, 0xff, 0xff, 0xff, 0xff, 0x07, 0x00, 0x00,
  0x00, 0x2b, 0x00, 0x00, 0x00, 0x42, 0x69, 0x61, 0x73, 0x41, 0x64, 0x64, 0x5f,
  0x39, 0x3b, 0x64, 0x65, 0x70, 0x74, 0x68, 0x77, 0x69, 0x73, 0x65, 0x5f, 0x32,
  0x35, 0x3b, 0x43, 0x6f, 0x6e, 0x76, 0x32, 0x44, 0x5f, 0x39, 0x3b, 0x63, 0x6f,
  0x6e, 0x76, 0x5f, 0x33, 0x5f, 0x31, 0x5f, 0x62, 0x31, 0x00, 0x04, 0x00, 0x00,
  0x00, 0x01, 0x00, 0x00, 0x00, 0x01, 0x00, 0x00, 0x00, 0x01, 0x00, 0x00, 0x00,
  0x07, 0x00, 0x00, 0x00, 0xc8, 0x82, 0xff, 0xff, 0x22, 0xed, 0xff, 0xff, 0x00,
  0x00, 0x00, 0x02, 0x01, 0x00, 0x00, 0x00, 0x24, 0x00, 0x00, 0x00, 0x18, 0x00,
  0x00, 0x00, 0x04, 0x00, 0x00, 0x00, 0x14, 0xed, 0xff, 0xff, 0x01, 0x00, 0x00,
  0x00, 0x01, 0x00, 0x00, 0x00, 0x01, 0x00, 0x00, 0x00, 0x01, 0x00, 0x00, 0x00,
  0x73, 0x00, 0x00, 0x00, 0x03, 0x00, 0x00, 0x00, 0x72, 0x00, 0x00, 0x00, 0x25,
  0x00, 0x00, 0x00, 0x39, 0x00, 0x00, 0x00, 0x78, 0x83, 0xff, 0xff, 0x3c, 0x00,
  0x00, 0x00, 0x74, 0x00, 0x00, 0x00, 0x20, 0x00, 0x00, 0x00, 0x44, 0x00, 0x00,
  0x00, 0x04, 0x00, 0x00, 0x00, 0x04, 0x00, 0x00, 0x00, 0x01, 0x00, 0x00, 0x00,
  0xff, 0xff, 0xff, 0xff, 0xff, 0xff, 0xff, 0xff, 0x08, 0x00, 0x00, 0x00, 0x0d,
  0x00, 0x00, 0x00, 0x64, 0x65, 0x70, 0x74, 0x68, 0x77, 0x69, 0x73, 0x65, 0x5f,
  0x31, 0x39, 0x31, 0x00, 0x00, 0x00, 0x04, 0x00, 0x00, 0x00, 0x01, 0x00, 0x00,
  0x00, 0x01, 0x00, 0x00, 0x00, 0x01, 0x00, 0x00, 0x00, 0x08, 0x00, 0x00, 0x00,
  0x60, 0x83, 0xff, 0xff, 0xba, 0xed, 0xff, 0xff, 0x00, 0x00, 0x00, 0x02, 0x01,
  0x00, 0x00, 0x00, 0x24, 0x00, 0x00, 0x00, 0x18, 0x00, 0x00, 0x00, 0x04, 0x00,
  0x00, 0x00, 0xac, 0xed, 0xff, 0xff, 0x01, 0x00, 0x00, 0x00, 0x01, 0x00, 0x00,
  0x00, 0x01, 0x00, 0x00, 0x00, 0x01, 0x00, 0x00, 0x00, 0x72, 0x00, 0x00, 0x00,
  0x03, 0x00, 0x00, 0x00, 0x6b, 0x00, 0x00, 0x00, 0x24, 0x00, 0x00, 0x00, 0x39,
  0x00, 0x00, 0x00, 0x10, 0x84, 0xff, 0xff, 0x3c, 0x00, 0x00, 0x00, 0x73, 0x00,
  0x00, 0x00, 0x20, 0x00, 0x00, 0x00, 0x44, 0x00, 0x00, 0x00, 0x04, 0x00, 0x00,
  0x00, 0x04, 0x00, 0x00, 0x00, 0x01, 0x00, 0x00, 0x00, 0xff, 0xff, 0xff, 0xff,
  0xff, 0xff, 0xff, 0xff, 0x08, 0x00, 0x00, 0x00, 0x0d, 0x00, 0x00, 0x00, 0x64,
  0x65, 0x70, 0x74, 0x68, 0x77, 0x69, 0x73, 0x65, 0x5f, 0x31, 0x38, 0x31, 0x00,
  0x00, 0x00, 0x04, 0x00, 0x00, 0x00, 0x01, 0x00, 0x00, 0x00, 0x01, 0x00, 0x00,
  0x00, 0x01, 0x00, 0x00, 0x00, 0x08, 0x00, 0x00, 0x00, 0xf8, 0x83, 0xff, 0xff,
  0x52, 0xee, 0xff, 0xff, 0x00, 0x00, 0x00, 0x01, 0x02, 0x00, 0x00, 0x00, 0x20,
  0x00, 0x00, 0x00, 0x14, 0x00, 0x00, 0x00, 0x04, 0x00, 0x00, 0x00, 0xb2, 0xef,
  0xff, 0xff, 0x01, 0x00, 0x00, 0x00, 0x01, 0x00, 0x00, 0x00, 0x01, 0x00, 0x00,
  0x00, 0x71, 0x00, 0x00, 0x00, 0x03, 0x00, 0x00, 0x00, 0x70, 0x00, 0x00, 0x00,
  0x23, 0x00, 0x00, 0x00, 0x4f, 0x00, 0x00, 0x00, 0xa4, 0x84, 0xff, 0xff, 0x58,
  0x00, 0x00, 0x00, 0x72, 0x00, 0x00, 0x00, 0x20, 0x00, 0x00, 0x00, 0x60, 0x00,
  0x00, 0x00, 0x04, 0x00, 0x00, 0x00, 0x04, 0x00, 0x00, 0x00, 0x01, 0x00, 0x00,
  0x00, 0xff, 0xff, 0xff, 0xff, 0xff, 0xff, 0xff, 0xff, 0x07, 0x00, 0x00, 0x00,
  0x2a, 0x00, 0x00, 0x00, 0x42, 0x69, 0x61, 0x73, 0x41, 0x64, 0x64, 0x5f, 0x38,
  0x3b, 0x64, 0x65, 0x70, 0x74, 0x68, 0x77, 0x69, 0x73, 0x65, 0x5f, 0x32, 0x35,
  0x3b, 0x43, 0x6f, 0x6e, 0x76, 0x32, 0x44, 0x5f, 0x38, 0x3b, 0x63, 0x6f, 0x6e,
  0x76, 0x5f, 0x33, 0x5f, 0x31, 0x5f, 0x62, 0x00, 0x00, 0x04, 0x00, 0x00, 0x00,
  0x01, 0x00, 0x00, 0x00, 0x01, 0x00, 0x00, 0x00, 0x01, 0x00, 0x00, 0x00, 0x07,
  0x00, 0x00, 0x00, 0xa8, 0x84, 0xff, 0xff, 0x02, 0xef, 0xff, 0xff, 0x00, 0x00,
  0x00, 0x02, 0x01, 0x00, 0x00, 0x00, 0x24, 0x00, 0x00, 0x00, 0x18, 0x00, 0x00,
  0x00, 0x04, 0x00, 0x00, 0x00, 0xf4, 0xee, 0xff, 0xff, 0x01, 0x00, 0x00, 0x00,
  0x01, 0x00, 0x00, 0x00, 0x01, 0x00, 0x00, 0x00, 0x01, 0x00, 0x00, 0x00, 0x70,
  0x00, 0x00, 0x00, 0x03, 0x00, 0x00, 0x00, 0x6f, 0x00, 0x00, 0x00, 0x22, 0x00,
  0x00, 0x00, 0x21, 0x00, 0x00, 0x00, 0x58, 0x85, 0xff, 0xff, 0x3c, 0x00, 0x00,
  0x00, 0x71, 0x00, 0x00, 0x00, 0x20, 0x00, 0x00, 0x00, 0x44, 0x00, 0x00, 0x00,
  0x04, 0x00, 0x00, 0x00, 0x04, 0x00, 0x00, 0x00, 0x01, 0x00, 0x00, 0x00, 0xff,
  0xff, 0xff, 0xff, 0xff, 0xff, 0xff, 0xff, 0x09, 0x00, 0x00, 0x00, 0x0d, 0x00,
  0x00, 0x00, 0x64, 0x65, 0x70, 0x74, 0x68, 0x77, 0x69, 0x73, 0x65, 0x5f, 0x31,
  0x37, 0x32, 0x00, 0x00, 0x00, 0x04, 0x00, 0x00, 0x00, 0x01, 0x00, 0x00, 0x00,
  0x01, 0x00, 0x00, 0x00, 0x01, 0x00, 0x00, 0x00, 0x09, 0x00, 0x00, 0x00, 0x40,
  0x85, 0xff, 0xff, 0x9a, 0xef, 0xff, 0xff, 0x00, 0x00, 0x00, 0x02, 0x01, 0x00,
  0x00, 0x00, 0x24, 0x00, 0x00, 0x00, 0x18, 0x00, 0x00, 0x00, 0x04, 0x00, 0x00,
  0x00, 0x8c, 0xef, 0xff, 0xff, 0x01, 0x00, 0x00, 0x00, 0x01, 0x00, 0x00, 0x00,
  0x01, 0x00, 0x00, 0x00, 0x01, 0x00, 0x00, 0x00, 0x6f, 0x00, 0x00, 0x00, 0x03,
  0x00, 0x00, 0x00, 0x6e, 0x00, 0x00, 0x00, 0x20, 0x00, 0x00, 0x00, 0x21, 0x00,
  0x00, 0x00, 0xf0, 0x85, 0xff, 0xff, 0x3c, 0x00, 0x00, 0x00, 0x70, 0x00, 0x00,
  0x00, 0x20, 0x00, 0x00, 0x00, 0x44, 0x00, 0x00, 0x00, 0x04, 0x00, 0x00, 0x00,
  0x04, 0x00, 0x00, 0x00, 0x01, 0x00, 0x00, 0x00, 0xff, 0xff, 0xff, 0xff, 0xff,
  0xff, 0xff, 0xff, 0x09, 0x00, 0x00, 0x00, 0x0d, 0x00, 0x00, 0x00, 0x64, 0x65,
  0x70, 0x74, 0x68, 0x77, 0x69, 0x73, 0x65, 0x5f, 0x31, 0x36, 0x31, 0x00, 0x00,
  0x00, 0x04, 0x00, 0x00, 0x00, 0x01, 0x00, 0x00, 0x00, 0x01, 0x00, 0x00, 0x00,
  0x01, 0x00, 0x00, 0x00, 0x09, 0x00, 0x00, 0x00, 0xd8, 0x85, 0xff, 0xff, 0x32,
  0xf0, 0xff, 0xff, 0x00, 0x00, 0x00, 0x01, 0x02, 0x00, 0x00, 0x00, 0x24, 0x00,
  0x00, 0x00, 0x18, 0x00, 0x00, 0x00, 0x04, 0x00, 0x00, 0x00, 0x98, 0xf3, 0xff,
  0xff, 0x01, 0x00, 0x00, 0x00, 0x01, 0x00, 0x00, 0x00, 0x00, 0x00, 0x00, 0x01,
  0x01, 0x00, 0x00, 0x00, 0x6e, 0x00, 0x00, 0x00, 0x03, 0x00, 0x00, 0x00, 0x6d,
  0x00, 0x00, 0x00, 0x1f, 0x00, 0x00, 0x00, 0x04, 0x00, 0x00, 0x00, 0x88, 0x86,
  0xff, 0xff, 0x60, 0x00, 0x00, 0x00, 0x6f, 0x00, 0x00, 0x00, 0x20, 0x00, 0x00,
  0x00, 0x68, 0x00, 0x00, 0x00, 0x04, 0x00, 0x00, 0x00, 0x04, 0x00, 0x00, 0x00,
  0x01, 0x00, 0x00, 0x00, 0xff, 0xff, 0xff, 0xff, 0xff, 0xff, 0xff, 0xff, 0x09,
  0x00, 0x00, 0x00, 0x31, 0x00, 0x00, 0x00, 0x52, 0x65, 0x6c, 0x75, 0x5f, 0x32,
  0x3b, 0x42, 0x69, 0x61, 0x73, 0x41, 0x64, 0x64, 0x5f, 0x37, 0x3b, 0x64, 0x65,
  0x70, 0x74, 0x68, 0x77, 0x69, 0x73, 0x65, 0x5f, 0x31, 0x37, 0x3b, 0x43, 0x6f,
  0x6e, 0x76, 0x32, 0x44, 0x5f, 0x37, 0x3b, 0x63, 0x6f, 0x6e, 0x76, 0x5f, 0x33,
  0x5f, 0x30, 0x5f, 0x62, 0x00, 0x00, 0x00, 0x04, 0x00, 0x00, 0x00, 0x01, 0x00,
  0x00, 0x00, 0x01, 0x00, 0x00, 0x00, 0x01, 0x00, 0x00, 0x00, 0x09, 0x00, 0x00,
  0x00, 0x94, 0x86, 0xff, 0xff, 0xee, 0xf0, 0xff, 0xff, 0x00, 0x00, 0x00, 0x02,
  0x01, 0x00, 0x00, 0x00, 0x24, 0x00, 0x00, 0x00, 0x18, 0x00, 0x00, 0x00, 0x04,
  0x00, 0x00, 0x00, 0xe0, 0xf0, 0xff, 0xff, 0x01, 0x00, 0x00, 0x00, 0x01, 0x00,
  0x00, 0x00, 0x01, 0x00, 0x00, 0x00, 0x01, 0x00, 0x00, 0x00, 0x6d, 0x00, 0x00,
  0x00, 0x03, 0x00, 0x00, 0x00, 0x6c, 0x00, 0x00, 0x00, 0x1e, 0x00, 0x00, 0x00,
  0x39, 0x00, 0x00, 0x00, 0x44, 0x87, 0xff, 0xff, 0x3c, 0x00, 0x00, 0x00, 0x6e,
  0x00, 0x00, 0x00, 0x20, 0x00, 0x00, 0x00, 0x44, 0x00, 0x00, 0x00, 0x04, 0x00,
  0x00, 0x00, 0x04, 0x00, 0x00, 0x00, 0x01, 0x00, 0x00, 0x00, 0xff, 0xff, 0xff,
  0xff, 0xff, 0xff, 0xff, 0xff, 0x08, 0x00, 0x00, 0x00, 0x0d, 0x00, 0x00, 0x00,
  0x64, 0x65, 0x70, 0x74, 0x68, 0x77, 0x69, 0x73, 0x65, 0x5f, 0x31, 0x35, 0x31,
  0x00, 0x00, 0x00, 0x04, 0x00, 0x00, 0x00, 0x01, 0x00, 0x00, 0x00, 0x01, 0x00,
  0x00, 0x00, 0x01, 0x00, 0x00, 0x00, 0x08, 0x00, 0x00, 0x00, 0x2c, 0x87, 0xff,
  0xff, 0x86, 0xf1, 0xff, 0xff, 0x00, 0x00, 0x00, 0x02, 0x01, 0x00, 0x00, 0x00,
  0x24, 0x00, 0x00, 0x00, 0x18, 0x00, 0x00, 0x00, 0x04, 0x00, 0x00, 0x00, 0x78,
  0xf1, 0xff, 0xff, 0x01, 0x00, 0x00, 0x00, 0x01, 0x00, 0x00, 0x00, 0x01, 0x00,
  0x00, 0x00, 0x01, 0x00, 0x00, 0x00, 0x6c, 0x00, 0x00, 0x00, 0x03, 0x00, 0x00,
  0x00, 0x6b, 0x00, 0x00, 0x00, 0x1d, 0x00, 0x00, 0x00, 0x39, 0x00, 0x00, 0x00,
  0xdc, 0x87, 0xff, 0xff, 0x3c, 0x00, 0x00, 0x00, 0x6d, 0x00, 0x00, 0x00, 0x20,
  0x00, 0x00, 0x00, 0x44, 0x00, 0x00, 0x00, 0x04, 0x00, 0x00, 0x00, 0x04, 0x00,
  0x00, 0x00, 0x01, 0x00, 0x00, 0x00, 0xff, 0xff, 0xff, 0xff, 0xff, 0xff, 0xff,
  0xff, 0x08, 0x00, 0x00, 0x00, 0x0d, 0x00, 0x00, 0x00, 0x64, 0x65, 0x70, 0x74,
  0x68, 0x77, 0x69, 0x73, 0x65, 0x5f, 0x31, 0x34, 0x31, 0x00, 0x00, 0x00, 0x04,
  0x00, 0x00, 0x00, 0x01, 0x00, 0x00, 0x00, 0x01, 0x00, 0x00, 0x00, 0x01, 0x00,
  0x00, 0x00, 0x08, 0x00, 0x00, 0x00, 0xc4, 0x87, 0xff, 0xff, 0x1e, 0xf2, 0xff,
  0xff, 0x00, 0x00, 0x00, 0x0b, 0x03, 0x00, 0x00, 0x00, 0x18, 0x00, 0x00, 0x00,
  0x0c, 0x00, 0x00, 0x00, 0x04, 0x00, 0x00, 0x00, 0xe0, 0x87, 0xff, 0xff, 0x01,
  0x00, 0x00, 0x00, 0x6b, 0x00, 0x00, 0x00, 0x02, 0x00, 0x00, 0x00, 0x6a, 0x00,
  0x00, 0x00, 0x67, 0x00, 0x00, 0x00, 0x64, 0x88, 0xff, 0xff, 0x34, 0x00, 0x00,
  0x00, 0x6c, 0x00, 0x00, 0x00, 0x20, 0x00, 0x00, 0x00, 0x3c, 0x00, 0x00, 0x00,
  0x04, 0x00, 0x00, 0x00, 0x04, 0x00, 0x00, 0x00, 0x01, 0x00, 0x00, 0x00, 0xff,
  0xff, 0xff, 0xff, 0xff, 0xff, 0xff, 0xff, 0x08, 0x00, 0x00, 0x00, 0x05, 0x00,
  0x00, 0x00, 0x41, 0x64, 0x64, 0x5f, 0x31, 0x00, 0x00, 0x00, 0x04, 0x00, 0x00,
  0x00, 0x01, 0x00, 0x00, 0x00, 0x01, 0x00, 0x00, 0x00, 0x01, 0x00, 0x00, 0x00,
  0x08, 0x00, 0x00, 0x00, 0x44, 0x88, 0xff, 0xff, 0x9e, 0xf2, 0xff, 0xff, 0x00,
  0x00, 0x00, 0x01, 0x02, 0x00, 0x00, 0x00, 0x20, 0x00, 0x00, 0x00, 0x14, 0x00,
  0x00, 0x00, 0x04, 0x00, 0x00, 0x00, 0xfe, 0xf3, 0xff, 0xff, 0x01, 0x00, 0x00,
  0x00, 0x01, 0x00, 0x00, 0x00, 0x01, 0x00, 0x00, 0x00, 0x6a, 0x00, 0x00, 0x00,
  0x03, 0x00, 0x00, 0x00, 0x69, 0x00, 0x00, 0x00, 0x1c, 0x00, 0x00, 0x00, 0x4e,
  0x00, 0x00, 0x00, 0xf0, 0x88, 0xff, 0xff, 0x58, 0x00, 0x00, 0x00, 0x6b, 0x00,
  0x00, 0x00, 0x20, 0x00, 0x00, 0x00, 0x60, 0x00, 0x00, 0x00, 0x04, 0x00, 0x00,
  0x00, 0x04, 0x00, 0x00, 0x00, 0x01, 0x00, 0x00, 0x00, 0xff, 0xff, 0xff, 0xff,
  0xff, 0xff, 0xff, 0xff, 0x08, 0x00, 0x00, 0x00, 0x2b, 0x00, 0x00, 0x00, 0x42,
  0x69, 0x61, 0x73, 0x41, 0x64, 0x64, 0x5f, 0x36, 0x3b, 0x64, 0x65, 0x70, 0x74,
  0x68, 0x77, 0x69, 0x73, 0x65, 0x5f, 0x33, 0x31, 0x3b, 0x43, 0x6f, 0x6e, 0x76,
  0x32, 0x44, 0x5f, 0x36, 0x3b, 0x63, 0x6f, 0x6e, 0x76, 0x5f, 0x32, 0x5f, 0x31,
  0x5f, 0x62, 0x31, 0x00, 0x04, 0x00, 0x00, 0x00, 0x01, 0x00, 0x00, 0x00, 0x01,
  0x00, 0x00, 0x00, 0x01, 0x00, 0x00, 0x00, 0x08, 0x00, 0x00, 0x00, 0xf4, 0x88,
  0xff, 0xff, 0x4e, 0xf3, 0xff, 0xff, 0x00, 0x00, 0x00, 0x02, 0x01, 0x00, 0x00,
  0x00, 0x24, 0x00, 0x00, 0x00, 0x18, 0x00, 0x00, 0x00, 0x04, 0x00, 0x00, 0x00,
  0x40, 0xf3, 0xff, 0xff, 0x01, 0x00, 0x00, 0x00, 0x01, 0x00, 0x00, 0x00, 0x01,
  0x00, 0x00, 0x00, 0x01, 0x00, 0x00, 0x00, 0x69, 0x00, 0x00, 0x00, 0x03, 0x00,
  0x00, 0x00, 0x68, 0x00, 0x00, 0x00, 0x1b, 0x00, 0x00, 0x00, 0x44, 0x00, 0x00,
  0x00, 0xa4, 0x89, 0xff, 0xff, 0x3c, 0x00, 0x00, 0x00, 0x6a, 0x00, 0x00, 0x00,
  0x20, 0x00, 0x00, 0x00, 0x44, 0x00, 0x00, 0x00, 0x04, 0x00, 0x00, 0x00, 0x04,
  0x00, 0x00, 0x00, 0x01, 0x00, 0x00, 0x00, 0xff, 0xff, 0xff, 0xff, 0xff, 0xff,
  0xff, 0xff, 0x0b, 0x00, 0x00, 0x00, 0x0d, 0x00, 0x00, 0x00, 0x64, 0x65, 0x70,
  0x74, 0x68, 0x77, 0x69, 0x73, 0x65, 0x5f, 0x31, 0x33, 0x31, 0x00, 0x00, 0x00,
  0x04, 0x00, 0x00, 0x00, 0x01, 0x00, 0x00, 0x00, 0x01, 0x00, 0x00, 0x00, 0x01,
  0x00, 0x00, 0x00, 0x0b, 0x00, 0x00, 0x00, 0x8c, 0x89, 0xff, 0xff, 0xe6, 0xf3,
  0xff, 0xff, 0x00, 0x00, 0x00, 0x02, 0x01, 0x00, 0x00, 0x00, 0x24, 0x00, 0x00,
  0x00, 0x18, 0x00, 0x00, 0x00, 0x04, 0x00, 0x00, 0x00, 0xd8, 0xf3, 0xff, 0xff,
  0x01, 0x00, 0x00, 0x00, 0x01, 0x00, 0x00, 0x00, 0x01, 0x00, 0x00, 0x00, 0x01,
  0x00, 0x00, 0x00, 0x68, 0x00, 0x00, 0x00, 0x03, 0x00, 0x00, 0x00, 0x61, 0x00,
  0x00, 0x00, 0x1a, 0x00, 0x00, 0x00, 0x44, 0x00, 0x00, 0x00, 0x3c, 0x8a, 0xff,
  0xff, 0x3c, 0x00, 0x00, 0x00, 0x69, 0x00, 0x00, 0x00, 0x20, 0x00, 0x00, 0x00,
  0x44, 0x00, 0x00, 0x00, 0x04, 0x00, 0x00, 0x00, 0x04, 0x00, 0x00, 0x00, 0x01,
  0x00, 0x00, 0x00, 0xff, 0xff, 0xff, 0xff, 0xff, 0xff, 0xff, 0xff, 0x0b, 0x00,
  0x00, 0x00, 0x0d, 0x00, 0x00, 0x00, 0x64, 0x65, 0x70, 0x74, 0x68, 0x77, 0x69,
  0x73, 0x65, 0x5f, 0x31, 0x32, 0x31, 0x00, 0x00, 0x00, 0x04, 0x00, 0x00, 0x00,
  0x01, 0x00, 0x00, 0x00, 0x01, 0x00, 0x00, 0x00, 0x01, 0x00, 0x00, 0x00, 0x0b,
  0x00, 0x00, 0x00, 0x24, 0x8a, 0xff, 0xff, 0x7e, 0xf4, 0xff, 0xff, 0x00, 0x00,
  0x00, 0x01, 0x02, 0x00, 0x00, 0x00, 0x20, 0x00, 0x00, 0x00, 0x14, 0x00, 0x00,
  0x00, 0x04, 0x00, 0x00, 0x00, 0xde, 0xf5, 0xff, 0xff, 0x01, 0x00, 0x00, 0x00,
  0x01, 0x00, 0x00, 0x00, 0x01, 0x00, 0x00, 0x00, 0x67, 0x00, 0x00, 0x00, 0x03,
  0x00, 0x00, 0x00, 0x66, 0x00, 0x00, 0x00, 0x19, 0x00, 0x00, 0x00, 0x4e, 0x00,
  0x00, 0x00, 0xd0, 0x8a, 0xff, 0xff, 0x58, 0x00, 0x00, 0x00, 0x68, 0x00, 0x00,
  0x00, 0x20, 0x00, 0x00, 0x00, 0x60, 0x00, 0x00, 0x00, 0x04, 0x00, 0x00, 0x00,
  0x04, 0x00, 0x00, 0x00, 0x01, 0x00, 0x00, 0x00, 0xff, 0xff, 0xff, 0xff, 0xff,
  0xff, 0xff, 0xff, 0x08, 0x00, 0x00, 0x00, 0x2a, 0x00, 0x00, 0x00, 0x42, 0x69,
  0x61, 0x73, 0x41, 0x64, 0x64, 0x5f, 0x35, 0x3b, 0x64, 0x65, 0x70, 0x74, 0x68,
  0x77, 0x69, 0x73, 0x65, 0x5f, 0x33, 0x31, 0x3b, 0x43, 0x6f, 0x6e, 0x76, 0x32,
  0x44, 0x5f, 0x35, 0x3b, 0x63, 0x6f, 0x6e, 0x76, 0x5f, 0x32, 0x5f, 0x31, 0x5f,
  0x62, 0x00, 0x00, 0x04, 0x00, 0x00, 0x00, 0x01, 0x00, 0x00, 0x00, 0x01, 0x00,
  0x00, 0x00, 0x01, 0x00, 0x00, 0x00, 0x08, 0x00, 0x00, 0x00, 0xd4, 0x8a, 0xff,
  0xff, 0x2e, 0xf5, 0xff, 0xff, 0x00, 0x00, 0x00, 0x02, 0x01, 0x00, 0x00, 0x00,
  0x24, 0x00, 0x00, 0x00, 0x18, 0x00, 0x00, 0x00, 0x04, 0x00, 0x00, 0x00, 0x20,
  0xf5, 0xff, 0xff, 0x01, 0x00, 0x00, 0x00, 0x01, 0x00, 0x00, 0x00, 0x01, 0x00,
  0x00, 0x00, 0x01, 0x00, 0x00, 0x00, 0x66, 0x00, 0x00, 0x00, 0x03, 0x00, 0x00,
  0x00, 0x65, 0x00, 0x00, 0x00, 0x18, 0x00, 0x00, 0x00, 0x44, 0x00, 0x00, 0x00,
  0x84, 0x8b, 0xff, 0xff, 0x3c, 0x00, 0x00, 0x00, 0x67, 0x00, 0x00, 0x00, 0x20,
  0x00, 0x00, 0x00, 0x44, 0x00, 0x00, 0x00, 0x04, 0x00, 0x00, 0x00, 0x04, 0x00,
  0x00, 0x00, 0x01, 0x00, 0x00, 0x00, 0xff, 0xff, 0xff, 0xff, 0xff, 0xff, 0xff,
  0xff, 0x0b, 0x00, 0x00, 0x00, 0x0d, 0x00, 0x00, 0x00, 0x64, 0x65, 0x70, 0x74,
  0x68, 0x77, 0x69, 0x73, 0x65, 0x5f, 0x31, 0x31, 0x31, 0x00, 0x00, 0x00, 0x04,
  0x00, 0x00, 0x00, 0x01, 0x00, 0x00, 0x00, 0x01, 0x00, 0x00, 0x00, 0x01, 0x00,
  0x00, 0x00, 0x0b, 0x00, 0x00, 0x00, 0x6c, 0x8b, 0xff, 0xff, 0xc6, 0xf5, 0xff,
  0xff, 0x00, 0x00, 0x00, 0x02, 0x01, 0x00, 0x00, 0x00, 0x24, 0x00, 0x00, 0x00,
  0x18, 0x00, 0x00, 0x00, 0x04, 0x00, 0x00, 0x00, 0xb8, 0xf5, 0xff, 0xff, 0x01,
  0x00, 0x00, 0x00, 0x01, 0x00, 0x00, 0x00, 0x01, 0x00, 0x00, 0x00, 0x01, 0x00,
  0x00, 0x00, 0x65, 0x00, 0x00, 0x00, 0x03, 0x00, 0x00, 0x00, 0x64, 0x00, 0x00,
  0x00, 0x17, 0x00, 0x00, 0x00, 0x44, 0x00, 0x00, 0x00, 0x1c, 0x8c, 0xff, 0xff,
  0x3c, 0x00, 0x00, 0x00, 0x66, 0x00, 0x00, 0x00, 0x20, 0x00, 0x00, 0x00, 0x44,
  0x00, 0x00, 0x00, 0x04, 0x00, 0x00, 0x00, 0x04, 0x00, 0x00, 0x00, 0x01, 0x00,
  0x00, 0x00, 0xff, 0xff, 0xff, 0xff, 0xff, 0xff, 0xff, 0xff, 0x0b, 0x00, 0x00,
  0x00, 0x0d, 0x00, 0x00, 0x00, 0x64, 0x65, 0x70, 0x74, 0x68, 0x77, 0x69, 0x73,
  0x65, 0x5f, 0x31, 0x30, 0x31, 0x00, 0x00, 0x00, 0x04, 0x00, 0x00, 0x00, 0x01,
  0x00, 0x00, 0x00, 0x01, 0x00, 0x00, 0x00, 0x01, 0x00, 0x00, 0x00, 0x0b, 0x00,
  0x00, 0x00, 0x04, 0x8c, 0xff, 0xff, 0x5e, 0xf6, 0xff, 0xff, 0x00, 0x00, 0x00,
  0x01, 0x02, 0x00, 0x00, 0x00, 0x24, 0x00, 0x00, 0x00, 0x18, 0x00, 0x00, 0x00,
  0x04, 0x00, 0x00, 0x00, 0xc4, 0xf9, 0xff, 0xff, 0x01, 0x00, 0x00, 0x00, 0x01,
  0x00, 0x00, 0x00, 0x00, 0x00, 0x00, 0x01, 0x01, 0x00, 0x00, 0x00, 0x64, 0x00,
  0x00, 0x00, 0x03, 0x00, 0x00, 0x00, 0x63, 0x00, 0x00, 0x00, 0x16, 0x00, 0x00,
  0x00, 0x05, 0x00, 0x00, 0x00, 0xb4, 0x8c, 0xff, 0xff, 0x60, 0x00, 0x00, 0x00,
  0x65, 0x00, 0x00, 0x00, 0x20, 0x00, 0x00, 0x00, 0x68, 0x00, 0x00, 0x00, 0x04,
  0x00, 0x00, 0x00, 0x04, 0x00, 0x00, 0x00, 0x01, 0x00, 0x00, 0x00, 0xff, 0xff,
  0xff, 0xff, 0xff, 0xff, 0xff, 0xff, 0x0b, 0x00, 0x00, 0x00, 0x31, 0x00, 0x00,
  0x00, 0x52, 0x65, 0x6c, 0x75, 0x5f, 0x31, 0x3b, 0x42, 0x69, 0x61, 0x73, 0x41,
  0x64, 0x64, 0x5f, 0x34, 0x3b, 0x64, 0x65, 0x70, 0x74, 0x68, 0x77, 0x69, 0x73,
  0x65, 0x5f, 0x33, 0x37, 0x3b, 0x43, 0x6f, 0x6e, 0x76, 0x32, 0x44, 0x5f, 0x34,
  0x3b, 0x63, 0x6f, 0x6e, 0x76, 0x5f, 0x32, 0x5f, 0x30, 0x5f, 0x62, 0x00, 0x00,
  0x00, 0x04, 0x00, 0x00, 0x00, 0x01, 0x00, 0x00, 0x00, 0x01, 0x00, 0x00, 0x00,
  0x01, 0x00, 0x00, 0x00, 0x0b, 0x00, 0x00, 0x00, 0xc0, 0x8c, 0xff, 0xff, 0x1a,
  0xf7, 0xff, 0xff, 0x00, 0x00, 0x00, 0x02, 0x01, 0x00, 0x00, 0x00, 0x24, 0x00,
  0x00, 0x00, 0x18, 0x00, 0x00, 0x00, 0x04, 0x00, 0x00, 0x00, 0x0c, 0xf7, 0xff,
  0xff, 0x01, 0x00, 0x00, 0x00, 0x01, 0x00, 0x00, 0x00, 0x01, 0x00, 0x00, 0x00,
  0x01, 0x00, 0x00, 0x00, 0x63, 0x00, 0x00, 0x00, 0x03, 0x00, 0x00, 0x00, 0x62,
  0x00, 0x00, 0x00, 0x15, 0x00, 0x00, 0x00, 0x44, 0x00, 0x00, 0x00, 0x70, 0x8d,
  0xff, 0xff, 0x3c, 0x00, 0x00, 0x00, 0x64, 0x00, 0x00, 0x00, 0x20, 0x00, 0x00,
  0x00, 0x44, 0x00, 0x00, 0x00, 0x04, 0x00, 0x00, 0x00, 0x04, 0x00, 0x00, 0x00,
  0x01, 0x00, 0x00, 0x00, 0xff, 0xff, 0xff, 0xff, 0xff, 0xff, 0xff, 0xff, 0x0b,
  0x00, 0x00, 0x00, 0x0c, 0x00, 0x00, 0x00, 0x64, 0x65, 0x70, 0x74, 0x68, 0x77,
  0x69, 0x73, 0x65, 0x5f, 0x39, 0x31, 0x00, 0x00, 0x00, 0x00, 0x04, 0x00, 0x00,
  0x00, 0x01, 0x00, 0x00, 0x00, 0x01, 0x00, 0x00, 0x00, 0x01, 0x00, 0x00, 0x00,
  0x0b, 0x00, 0x00, 0x00, 0x58, 0x8d, 0xff, 0xff, 0xb2, 0xf7, 0xff, 0xff, 0x00,
  0x00, 0x00, 0x02, 0x01, 0x00, 0x00, 0x00, 0x24, 0x00, 0x00, 0x00, 0x18, 0x00,
  0x00, 0x00, 0x04, 0x00, 0x00, 0x00, 0xa4, 0xf7, 0xff, 0xff, 0x01, 0x00, 0x00,
  0x00, 0x01, 0x00, 0x00, 0x00, 0x01, 0x00, 0x00, 0x00, 0x01, 0x00, 0x00, 0x00,
  0x62, 0x00, 0x00, 0x00, 0x03, 0x00, 0x00, 0x00, 0x61, 0x00, 0x00, 0x00, 0x14,
  0x00, 0x00, 0x00, 0x44, 0x00, 0x00, 0x00, 0x08, 0x8e, 0xff, 0xff, 0x3c, 0x00,
  0x00, 0x00, 0x63, 0x00, 0x00, 0x00, 0x20, 0x00, 0x00, 0x00, 0x44, 0x00, 0x00,
  0x00, 0x04, 0x00, 0x00, 0x00, 0x04, 0x00, 0x00, 0x00, 0x01, 0x00, 0x00, 0x00,
  0xff, 0xff, 0xff, 0xff, 0xff, 0xff, 0xff, 0xff, 0x0b, 0x00, 0x00, 0x00, 0x0c,
  0x00, 0x00, 0x00, 0x64, 0x65, 0x70, 0x74, 0x68, 0x77, 0x69, 0x73, 0x65, 0x5f,
  0x38, 0x31, 0x00, 0x00, 0x00, 0x00, 0x04, 0x00, 0x00, 0x00, 0x01, 0x00, 0x00,
  0x00, 0x01, 0x00, 0x00, 0x00, 0x01, 0x00, 0x00, 0x00, 0x0b, 0x00, 0x00, 0x00,
  0xf0, 0x8d, 0xff, 0xff, 0x4a, 0xf8, 0xff, 0xff, 0x00, 0x00, 0x00, 0x0b, 0x03,
  0x00, 0x00, 0x00, 0x18, 0x00, 0x00, 0x00, 0x0c, 0x00, 0x00, 0x00, 0x04, 0x00,
  0x00, 0x00, 0x0c, 0x8e, 0xff, 0xff, 0x01, 0x00, 0x00, 0x00, 0x61, 0x00, 0x00,
  0x00, 0x02, 0x00, 0x00, 0x00, 0x60, 0x00, 0x00, 0x00, 0x5d, 0x00, 0x00, 0x00,
  0x00, 0x00, 0x0a, 0x00, 0x08, 0x00, 0x00, 0x00, 0x00, 0x00, 0x04, 0x00, 0x0a,
  0x00, 0x00, 0x00, 0x01, 0x00, 0x00, 0x00, 0xa4, 0x8e, 0xff, 0xff, 0x30, 0x00,
  0x00, 0x00, 0x62, 0x00, 0x00, 0x00, 0x20, 0x00, 0x00, 0x00, 0x38, 0x00, 0x00,
  0x00, 0x04, 0x00, 0x00, 0x00, 0x04, 0x00, 0x00, 0x00, 0x01, 0x00, 0x00, 0x00,
  0xff, 0xff, 0xff, 0xff, 0xff, 0xff, 0xff, 0xff, 0x0b, 0x00, 0x00, 0x00, 0x03,
  0x00, 0x00, 0x00, 0x41, 0x64, 0x64, 0x00, 0x04, 0x00, 0x00, 0x00, 0x01, 0x00,
  0x00, 0x00, 0x01, 0x00, 0x00, 0x00, 0x01, 0x00, 0x00, 0x00, 0x0b, 0x00, 0x00,
  0x00, 0x80, 0x8e, 0xff, 0xff, 0xda, 0xf8, 0xff, 0xff, 0x00, 0x00, 0x00, 0x01,
  0x02, 0x00, 0x00, 0x00, 0x20, 0x00, 0x00, 0x00, 0x14, 0x00, 0x00, 0x00, 0x04,
  0x00, 0x00, 0x00, 0x3a, 0xfa, 0xff, 0xff, 0x01, 0x00, 0x00, 0x00, 0x01, 0x00,
  0x00, 0x00, 0x01, 0x00, 0x00, 0x00, 0x60, 0x00, 0x00, 0x00, 0x03, 0x00, 0x00,
  0x00, 0x5f, 0x00, 0x00, 0x00, 0x13, 0x00, 0x00, 0x00, 0x4d, 0x00, 0x00, 0x00,
  0x2c, 0x8f, 0xff, 0xff, 0x58, 0x00, 0x00, 0x00, 0x61, 0x00, 0x00, 0x00, 0x20,
  0x00, 0x00, 0x00, 0x60, 0x00, 0x00, 0x00, 0x04, 0x00, 0x00, 0x00, 0x04, 0x00,
  0x00, 0x00, 0x01, 0x00, 0x00, 0x00, 0xff, 0xff, 0xff, 0xff, 0xff, 0xff, 0xff,
  0xff, 0x0b, 0x00, 0x00, 0x00, 0x2b, 0x00, 0x00, 0x00, 0x42, 0x69, 0x61, 0x73,
  0x41, 0x64, 0x64, 0x5f, 0x33, 0x3b, 0x64, 0x65, 0x70, 0x74, 0x68, 0x77, 0x69,
  0x73, 0x65, 0x5f, 0x33, 0x37, 0x3b, 0x43, 0x6f, 0x6e, 0x76, 0x32, 0x44, 0x5f,
  0x33, 0x3b, 0x63, 0x6f, 0x6e, 0x76, 0x5f, 0x31, 0x5f, 0x31, 0x5f, 0x62, 0x31,
  0x00, 0x04, 0x00, 0x00, 0x00, 0x01, 0x00, 0x00, 0x00, 0x01, 0x00, 0x00, 0x00,
  0x01, 0x00, 0x00, 0x00, 0x0b, 0x00, 0x00, 0x00, 0x30, 0x8f, 0xff, 0xff, 0x8a,
  0xf9, 0xff, 0xff, 0x00, 0x00, 0x00, 0x02, 0x01, 0x00, 0x00, 0x00, 0x24, 0x00,
  0x00, 0x00, 0x18, 0x00, 0x00, 0x00, 0x04, 0x00, 0x00, 0x00, 0x7c, 0xf9, 0xff,
  0xff, 0x01, 0x00, 0x00, 0x00, 0x01, 0x00, 0x00, 0x00, 0x01, 0x00, 0x00, 0x00,
  0x01, 0x00, 0x00, 0x00, 0x5f, 0x00, 0x00, 0x00, 0x03, 0x00, 0x00, 0x00, 0x5e,
  0x00, 0x00, 0x00, 0x12, 0x00, 0x00, 0x00, 0x48, 0x00, 0x00, 0x00, 0xe0, 0x8f,
  0xff, 0xff, 0x3c, 0x00, 0x00, 0x00, 0x60, 0x00, 0x00, 0x00, 0x20, 0x00, 0x00,
  0x00, 0x44, 0x00, 0x00, 0x00, 0x04, 0x00, 0x00, 0x00, 0x04, 0x00, 0x00, 0x00,
  0x01, 0x00, 0x00, 0x00, 0xff, 0xff, 0xff, 0xff, 0xff, 0xff, 0xff, 0xff, 0x11,
  0x00, 0x00, 0x00, 0x0c, 0x00, 0x00, 0x00, 0x64, 0x65, 0x70, 0x74, 0x68, 0x77,
  0x69, 0x73, 0x65, 0x5f, 0x37, 0x31, 0x00, 0x00, 0x00, 0x00, 0x04, 0x00, 0x00,
  0x00, 0x01, 0x00, 0x00, 0x00, 0x01, 0x00, 0x00, 0x00, 0x01, 0x00, 0x00, 0x00,
  0x11, 0x00, 0x00, 0x00, 0xc8, 0x8f, 0xff, 0xff, 0x22, 0xfa, 0xff, 0xff, 0x00,
  0x00, 0x00, 0x02, 0x01, 0x00, 0x00, 0x00, 0x24, 0x00, 0x00, 0x00, 0x18, 0x00,
  0x00, 0x00, 0x04, 0x00, 0x00, 0x00, 0x14, 0xfa, 0xff, 0xff, 0x01, 0x00, 0x00,
  0x00, 0x01, 0x00, 0x00, 0x00, 0x01, 0x00, 0x00, 0x00, 0x01, 0x00, 0x00, 0x00,
  0x5e, 0x00, 0x00, 0x00, 0x03, 0x00, 0x00, 0x00, 0x57, 0x00, 0x00, 0x00, 0x11,
  0x00, 0x00, 0x00, 0x48, 0x00, 0x00, 0x00, 0x78, 0x90, 0xff, 0xff, 0x3c, 0x00,
  0x00, 0x00, 0x5f, 0x00, 0x00, 0x00, 0x20, 0x00, 0x00, 0x00, 0x44, 0x00, 0x00,
  0x00, 0x04, 0x00, 0x00, 0x00, 0x04, 0x00, 0x00, 0x00, 0x01, 0x00, 0x00, 0x00,
  0xff, 0xff, 0xff, 0xff, 0xff, 0xff, 0xff, 0xff, 0x11, 0x00, 0x00, 0x00, 0x0c,
  0x00, 0x00, 0x00, 0x64, 0x65, 0x70, 0x74, 0x68, 0x77, 0x69, 0x73, 0x65, 0x5f,
  0x36, 0x31, 0x00, 0x00, 0x00, 0x00, 0x04, 0x00, 0x00, 0x00, 0x01, 0x00, 0x00,
  0x00, 0x01, 0x00, 0x00, 0x00, 0x01, 0x00, 0x00, 0x00, 0x11, 0x00, 0x00, 0x00,
  0x60, 0x90, 0xff, 0xff, 0xba, 0xfa, 0xff, 0xff, 0x00, 0x00, 0x00, 0x01, 0x02,
  0x00, 0x00, 0x00, 0x20, 0x00, 0x00, 0x00, 0x14, 0x00, 0x00, 0x00, 0x04, 0x00,
  0x00, 0x00, 0x1a, 0xfc, 0xff, 0xff, 0x01, 0x00, 0x00, 0x00, 0x01, 0x00, 0x00,
  0x00, 0x01, 0x00, 0x00, 0x00, 0x5d, 0x00, 0x00, 0x00, 0x03, 0x00, 0x00, 0x00,
  0x5c, 0x00, 0x00, 0x00, 0x10, 0x00, 0x00, 0x00, 0x4d, 0x00, 0x00, 0x00, 0x0c,
  0x91, 0xff, 0xff, 0x58, 0x00, 0x00, 0x00, 0x5e, 0x00, 0x00, 0x00, 0x20, 0x00,
  0x00, 0x00, 0x60, 0x00, 0x00, 0x00, 0x04, 0x00, 0x00, 0x00, 0x04, 0x00, 0x00,
  0x00, 0x01, 0x00, 0x00, 0x00, 0xff, 0xff, 0xff, 0xff, 0xff, 0xff, 0xff, 0xff,
  0x0b, 0x00, 0x00, 0x00, 0x2a, 0x00, 0x00, 0x00, 0x42, 0x69, 0x61, 0x73, 0x41,
  0x64, 0x64, 0x5f, 0x32, 0x3b, 0x64, 0x65, 0x70, 0x74, 0x68, 0x77, 0x69, 0x73,
  0x65, 0x5f, 0x33, 0x37, 0x3b, 0x43, 0x6f, 0x6e, 0x76, 0x32, 0x44, 0x5f, 0x32,
  0x3b, 0x63, 0x6f, 0x6e, 0x76, 0x5f, 0x31, 0x5f, 0x31, 0x5f, 0x62, 0x00, 0x00,
  0x04, 0x00, 0x00, 0x00, 0x01, 0x00, 0x00, 0x00, 0x01, 0x00, 0x00, 0x00, 0x01,
  0x00, 0x00, 0x00, 0x0b, 0x00, 0x00, 0x00, 0x10, 0x91, 0xff, 0xff, 0x6a, 0xfb,
  0xff, 0xff, 0x00, 0x00, 0x00, 0x02, 0x01, 0x00, 0x00, 0x00, 0x24, 0x00, 0x00,
  0x00, 0x18, 0x00, 0x00, 0x00, 0x04, 0x00, 0x00, 0x00, 0x5c, 0xfb, 0xff, 0xff,
  0x01, 0x00, 0x00, 0x00, 0x01, 0x00, 0x00, 0x00, 0x01, 0x00, 0x00, 0x00, 0x01,
  0x00, 0x00, 0x00, 0x5c, 0x00, 0x00, 0x00, 0x03, 0x00, 0x00, 0x00, 0x5b, 0x00,
  0x00, 0x00, 0x0f, 0x00, 0x00, 0x00, 0x35, 0x00, 0x00, 0x00, 0xc0, 0x91, 0xff,
  0xff, 0x3c, 0x00, 0x00, 0x00, 0x5d, 0x00, 0x00, 0x00, 0x20, 0x00, 0x00, 0x00,
  0x44, 0x00, 0x00, 0x00, 0x04, 0x00, 0x00, 0x00, 0x04, 0x00, 0x00, 0x00, 0x01,
  0x00, 0x00, 0x00, 0xff, 0xff, 0xff, 0xff, 0xff, 0xff, 0xff, 0xff, 0x0f, 0x00,
  0x00, 0x00, 0x0c, 0x00, 0x00, 0x00, 0x64, 0x65, 0x70, 0x74, 0x68, 0x77, 0x69,
  0x73, 0x65, 0x5f, 0x35, 0x31, 0x00, 0x00, 0x00, 0x00, 0x04, 0x00, 0x00, 0x00,
  0x01, 0x00, 0x00, 0x00, 0x01, 0x00, 0x00, 0x00, 0x01, 0x00, 0x00, 0x00, 0x0f,
  0x00, 0x00, 0x00, 0xa8, 0x91, 0xff, 0xff, 0x02, 0xfc, 0xff, 0xff, 0x00, 0x00,
  0x00, 0x02, 0x01, 0x00, 0x00, 0x00, 0x24, 0x00, 0x00, 0x00, 0x18, 0x00, 0x00,
  0x00, 0x04, 0x00, 0x00, 0x00, 0xf4, 0xfb, 0xff, 0xff, 0x01, 0x00, 0x00, 0x00,
  0x01, 0x00, 0x00, 0x00, 0x01, 0x00, 0x00, 0x00, 0x01, 0x00, 0x00, 0x00, 0x5b,
  0x00, 0x00, 0x00, 0x03, 0x00, 0x00, 0x00, 0x5a, 0x00, 0x00, 0x00, 0x0e, 0x00,
  0x00, 0x00, 0x35, 0x00, 0x00, 0x00, 0x58, 0x92, 0xff, 0xff, 0x3c, 0x00, 0x00,
  0x00, 0x5c, 0x00, 0x00, 0x00, 0x20, 0x00, 0x00, 0x00, 0x44, 0x00, 0x00, 0x00,
  0x04, 0x00, 0x00, 0x00, 0x04, 0x00, 0x00, 0x00, 0x01, 0x00, 0x00, 0x00, 0xff,
  0xff, 0xff, 0xff, 0xff, 0xff, 0xff, 0xff, 0x0f, 0x00, 0x00, 0x00, 0x0c, 0x00,
  0x00, 0x00, 0x64, 0x65, 0x70, 0x74, 0x68, 0x77, 0x69, 0x73, 0x65, 0x5f, 0x34,
  0x31, 0x00, 0x00, 0x00, 0x00, 0x04, 0x00, 0x00, 0x00, 0x01, 0x00, 0x00, 0x00,
  0x01, 0x00, 0x00, 0x00, 0x01, 0x00, 0x00, 0x00, 0x0f, 0x00, 0x00, 0x00, 0x40,
  0x92, 0xff, 0xff, 0x9a, 0xfc, 0xff, 0xff, 0x00, 0x00, 0x00, 0x01, 0x02, 0x00,
  0x00, 0x00, 0x30, 0x00, 0x00, 0x00, 0x24, 0x00, 0x00, 0x00, 0x10, 0x00, 0x00,
  0x00, 0x0c, 0x00, 0x10, 0x00, 0x00, 0x00, 0x04, 0x00, 0x08, 0x00, 0x0f, 0x00,
  0x0c, 0x00, 0x00, 0x00, 0x01, 0x00, 0x00, 0x00, 0x01, 0x00, 0x00, 0x00, 0x00,
  0x00, 0x00, 0x01, 0x01, 0x00, 0x00, 0x00, 0x5a, 0x00, 0x00, 0x00, 0x03, 0x00,
  0x00, 0x00, 0x59, 0x00, 0x00, 0x00, 0x0d, 0x00, 0x00, 0x00, 0x06, 0x00, 0x00,
  0x00, 0xfc, 0x92, 0xff, 0xff, 0x5c, 0x00, 0x00, 0x00, 0x5b, 0x00, 0x00, 0x00,
  0x20, 0x00, 0x00, 0x00, 0x64, 0x00, 0x00, 0x00, 0x04, 0x00, 0x00, 0x00, 0x04,
  0x00, 0x00, 0x00, 0x01, 0x00, 0x00, 0x00, 0xff, 0xff, 0xff, 0xff, 0xff, 0xff,
  0xff, 0xff, 0x0f, 0x00, 0x00, 0x00, 0x2f, 0x00, 0x00, 0x00, 0x52, 0x65, 0x6c,
  0x75, 0x3b, 0x42, 0x69, 0x61, 0x73, 0x41, 0x64, 0x64, 0x5f, 0x31, 0x3b, 0x64,
  0x65, 0x70, 0x74, 0x68, 0x77, 0x69, 0x73, 0x65, 0x5f, 0x32, 0x39, 0x3b, 0x43,
  0x6f, 0x6e, 0x76, 0x32, 0x44, 0x5f, 0x31, 0x3b, 0x63, 0x6f, 0x6e, 0x76, 0x5f,
  0x31, 0x5f, 0x30, 0x5f, 0x62, 0x00, 0x04, 0x00, 0x00, 0x00, 0x01, 0x00, 0x00,
  0x00, 0x01, 0x00, 0x00, 0x00, 0x01, 0x00, 0x00, 0x00, 0x0f, 0x00, 0x00, 0x00,
  0x04, 0x93, 0xff, 0xff, 0x5e, 0xfd, 0xff, 0xff, 0x00, 0x00, 0x00, 0x02, 0x01,
  0x00, 0x00, 0x00, 0x24, 0x00, 0x00, 0x00, 0x18, 0x00, 0x00, 0x00, 0x04, 0x00,
  0x00, 0x00, 0x50, 0xfd, 0xff, 0xff, 0x01, 0x00, 0x00, 0x00, 0x01, 0x00, 0x00,
  0x00, 0x01, 0x00, 0x00, 0x00, 0x01, 0x00, 0x00, 0x00, 0x59, 0x00, 0x00, 0x00,
  0x03, 0x00, 0x00, 0x00, 0x58, 0x00, 0x00, 0x00, 0x0c, 0x00, 0x00, 0x00, 0x48,
  0x00, 0x00, 0x00, 0xb4, 0x93, 0xff, 0xff, 0x3c, 0x00, 0x00, 0x00, 0x5a, 0x00,
  0x00, 0x00, 0x20, 0x00, 0x00, 0x00, 0x44, 0x00, 0x00, 0x00, 0x04, 0x00, 0x00,
  0x00, 0x04, 0x00, 0x00, 0x00, 0x01, 0x00, 0x00, 0x00, 0xff, 0xff, 0xff, 0xff,
  0xff, 0xff, 0xff, 0xff, 0x11, 0x00, 0x00, 0x00, 0x0d, 0x00, 0x00, 0x00, 0x64,
  0x65, 0x70, 0x74, 0x68, 0x77, 0x69, 0x73, 0x65, 0x5f, 0x33, 0x31, 0x30, 0x00,
  0x00, 0x00, 0x04, 0x00, 0x00, 0x00, 0x01, 0x00, 0x00, 0x00, 0x01, 0x00, 0x00,
  0x00, 0x01, 0x00, 0x00, 0x00, 0x11, 0x00, 0x00, 0x00, 0x9c, 0x93, 0xff, 0xff,
  0xf6, 0xfd, 0xff, 0xff, 0x00, 0x00, 0x00, 0x02, 0x01, 0x00, 0x00, 0x00, 0x24,
  0x00, 0x00, 0x00, 0x18, 0x00, 0x00, 0x00, 0x04, 0x00, 0x00, 0x00, 0xe8, 0xfd,
  0xff, 0xff, 0x01, 0x00, 0x00, 0x00, 0x01, 0x00, 0x00, 0x00, 0x01, 0x00, 0x00,
  0x00, 0x01, 0x00, 0x00, 0x00, 0x58, 0x00, 0x00, 0x00, 0x03, 0x00, 0x00, 0x00,
  0x57, 0x00, 0x00, 0x00, 0x0b, 0x00, 0x00, 0x00, 0x48, 0x00, 0x00, 0x00, 0x4c,
  0x94, 0xff, 0xff, 0x3c, 0x00, 0x00, 0x00, 0x59, 0x00, 0x00, 0x00, 0x20, 0x00,
  0x00, 0x00, 0x44, 0x00, 0x00, 0x00, 0x04, 0x00, 0x00, 0x00, 0x04, 0x00, 0x00,
  0x00, 0x01, 0x00, 0x00, 0x00, 0xff, 0xff, 0xff, 0xff, 0xff, 0xff, 0xff, 0xff,
  0x11, 0x00, 0x00, 0x00, 0x0d, 0x00, 0x00, 0x00, 0x64, 0x65, 0x70, 0x74, 0x68,
  0x77, 0x69, 0x73, 0x65, 0x5f, 0x32, 0x31, 0x30, 0x00, 0x00, 0x00, 0x04, 0x00,
  0x00, 0x00, 0x01, 0x00, 0x00, 0x00, 0x01, 0x00, 0x00, 0x00, 0x01, 0x00, 0x00,
  0x00, 0x11, 0x00, 0x00, 0x00, 0x58, 0x95, 0xff, 0xff, 0x00, 0x00, 0x0e, 0x00,
  0x1a, 0x00, 0x08, 0x00, 0x0c, 0x00, 0x10, 0x00, 0x07, 0x00, 0x14, 0x00, 0x0e,
  0x00, 0x00, 0x00, 0x00, 0x00, 0x00, 0x01, 0x02, 0x00, 0x00, 0x00, 0x2c, 0x00,
  0x00, 0x00, 0x20, 0x00, 0x00, 0x00, 0x10, 0x00, 0x00, 0x00, 0x00, 0x00, 0x0a,
  0x00, 0x0c, 0x00, 0x00, 0x00, 0x04, 0x00, 0x08, 0x00, 0x0a, 0x00, 0x00, 0x00,
  0x01, 0x00, 0x00, 0x00, 0x01, 0x00, 0x00, 0x00, 0x01, 0x00, 0x00, 0x00, 0x57,
  0x00, 0x00, 0x00, 0x03, 0x00, 0x00, 0x00, 0x56, 0x00, 0x00, 0x00, 0x0a, 0x00,
  0x00, 0x00, 0x4c, 0x00, 0x00, 0x00, 0xe0, 0xfd, 0xff, 0xff, 0x03, 0x00, 0x00,
  0x00, 0x00, 0x00, 0x00, 0x03, 0x01, 0x00, 0x00, 0x00, 0x0c, 0x95, 0xff, 0xff,
  0x54, 0x00, 0x00, 0x00, 0x58, 0x00, 0x00, 0x00, 0x20, 0x00, 0x00, 0x00, 0x5c,
  0x00, 0x00, 0x00, 0x04, 0x00, 0x00, 0x00, 0x04, 0x00, 0x00, 0x00, 0x01, 0x00,
  0x00, 0x00, 0xff, 0xff, 0xff, 0xff, 0xff, 0xff, 0xff, 0xff, 0x11, 0x00, 0x00,
  0x00, 0x25, 0x00, 0x00, 0x00, 0x42, 0x69, 0x61, 0x73, 0x41, 0x64, 0x64, 0x3b,
  0x64, 0x65, 0x70, 0x74, 0x68, 0x77, 0x69, 0x73, 0x65, 0x5f, 0x33, 0x39, 0x3b,
  0x43, 0x6f, 0x6e, 0x76, 0x32, 0x44, 0x3b, 0x63, 0x6f, 0x6e, 0x76, 0x5f, 0x30,
  0x5f, 0x62, 0x31, 0x00, 0x00, 0x00, 0x04, 0x00, 0x00, 0x00, 0x01, 0x00, 0x00,
  0x00, 0x01, 0x00, 0x00, 0x00, 0x01, 0x00, 0x00, 0x00, 0x11, 0x00, 0x00, 0x00,
  0x0c, 0x95, 0xff, 0xff, 0x66, 0xff, 0xff, 0xff, 0x00, 0x00, 0x00, 0x02, 0x01,
  0x00, 0x00, 0x00, 0x24, 0x00, 0x00, 0x00, 0x18, 0x00, 0x00, 0x00, 0x04, 0x00,
  0x00, 0x00, 0x58, 0xff, 0xff, 0xff, 0x01, 0x00, 0x00, 0x00, 0x01, 0x00, 0x00,
  0x00, 0x01, 0x00, 0x00, 0x00, 0x01, 0x00, 0x00, 0x00, 0x56, 0x00, 0x00, 0x00,
  0x03, 0x00, 0x00, 0x00, 0x55, 0x00, 0x00, 0x00, 0x09, 0x00, 0x00, 0x00, 0x4a,
  0x00, 0x00, 0x00, 0xbc, 0x95, 0xff, 0xff, 0x3c, 0x00, 0x00, 0x00, 0x57, 0x00,
  0x00, 0x00, 0x20, 0x00, 0x00, 0x00, 0x44, 0x00, 0x00, 0x00, 0x04, 0x00, 0x00,
  0x00, 0x04, 0x00, 0x00, 0x00, 0x01, 0x00, 0x00, 0x00, 0xff, 0xff, 0xff, 0xff,
  0xff, 0xff, 0xff, 0xff, 0x01, 0x00, 0x00, 0x00, 0x0d, 0x00, 0x00, 0x00, 0x64,
  0x65, 0x70, 0x74, 0x68, 0x77, 0x69, 0x73, 0x65, 0x5f, 0x31, 0x31, 0x30, 0x00,
  0x00, 0x00, 0x04, 0x00, 0x00, 0x00, 0x01, 0x00, 0x00, 0x00, 0x01, 0x00, 0x00,
  0x00, 0x01, 0x00, 0x00, 0x00, 0x01, 0x00, 0x00, 0x00, 0xc8, 0x96, 0xff, 0xff,
  0x00, 0x00, 0x0e, 0x00, 0x18, 0x00, 0x08, 0x00, 0x0c, 0x00, 0x10, 0x00, 0x07,
  0x00, 0x14, 0x00, 0x0e, 0x00, 0x00, 0x00, 0x00, 0x00, 0x00, 0x02, 0x01, 0x00,
  0x00, 0x00, 0x30, 0x00, 0x00, 0x00, 0x24, 0x00, 0x00, 0x00, 0x10, 0x00, 0x00,
  0x00, 0x0c, 0x00, 0x10, 0x00, 0x00, 0x00, 0x08, 0x00, 0x0c, 0x00, 0x04, 0x00,
  0x0c, 0x00, 0x00, 0x00, 0x01, 0x00, 0x00, 0x00, 0x01, 0x00, 0x00, 0x00, 0x01,
  0x00, 0x00, 0x00, 0x01, 0x00, 0x00, 0x00, 0x55, 0x00, 0x00, 0x00, 0x03, 0x00,
  0x00, 0x00, 0x54, 0x00, 0x00, 0x00, 0x08, 0x00, 0x00, 0x00, 0x4a, 0x00, 0x00,
  0x00, 0x54, 0xff, 0xff, 0xff, 0x04, 0x00, 0x00, 0x00, 0x00, 0x00, 0x00, 0x04,
  0x01, 0x00, 0x00, 0x00, 0x80, 0x96, 0xff, 0xff, 0x38, 0x00, 0x00, 0x00, 0x56,
  0x00, 0x00, 0x00, 0x20, 0x00, 0x00, 0x00, 0x40, 0x00, 0x00, 0x00, 0x04, 0x00,
  0x00, 0x00, 0x04, 0x00, 0x00, 0x00, 0x01, 0x00, 0x00, 0x00, 0xff, 0xff, 0xff,
  0xff, 0xff, 0xff, 0xff, 0xff, 0x01, 0x00, 0x00, 0x00, 0x0a, 0x00, 0x00, 0x00,
  0x64, 0x65, 0x70, 0x74, 0x68, 0x77, 0x69, 0x73, 0x65, 0x31, 0x00, 0x00, 0x04,
  0x00, 0x00, 0x00, 0x01, 0x00, 0x00, 0x00, 0x01, 0x00, 0x00, 0x00, 0x01, 0x00,
  0x00, 0x00, 0x01, 0x00, 0x00, 0x00, 0x88, 0x97, 0xff, 0xff, 0x00, 0x00, 0x0e,
  0x00, 0x16, 0x00, 0x00, 0x00, 0x08, 0x00, 0x0c, 0x00, 0x07, 0x00, 0x10, 0x00,
  0x0e, 0x00, 0x00, 0x00, 0x00, 0x00, 0x00, 0x4d, 0x24, 0x00, 0x00, 0x00, 0x18,
  0x00, 0x00, 0x00, 0x0c, 0x00, 0x00, 0x00, 0x00, 0x00, 0x06, 0x00, 0x08, 0x00,
  0x07, 0x00, 0x06, 0x00, 0x00, 0x00, 0x00, 0x00, 0x00, 0x01, 0x01, 0x00, 0x00,
  0x00, 0x54, 0x00, 0x00, 0x00, 0x02, 0x00, 0x00, 0x00, 0x00, 0x00, 0x00, 0x00,
  0x07, 0x00, 0x00, 0x00, 0x0c, 0x00, 0x10, 0x00, 0x0b, 0x00, 0x00, 0x00, 0x0c,
  0x00, 0x04, 0x00, 0x0c, 0x00, 0x00, 0x00, 0x64, 0x00, 0x00, 0x00, 0x00, 0x00,
  0x00, 0x64, 0x01, 0x00, 0x00, 0x00, 0x38, 0x97, 0xff, 0xff, 0x38, 0x00, 0x00,
  0x00, 0x55, 0x00, 0x00, 0x00, 0x20, 0x00, 0x00, 0x00, 0x40, 0x00, 0x00, 0x00,
  0x04, 0x00, 0x00, 0x00, 0x04, 0x00, 0x00, 0x00, 0x01, 0x00, 0x00, 0x00, 0xff,
  0xff, 0xff, 0xff, 0xff, 0xff, 0xff, 0xff, 0x01, 0x00, 0x00, 0x00, 0x09, 0x00,
  0x00, 0x00, 0x4d, 0x69, 0x72, 0x72, 0x6f, 0x72, 0x50, 0x61, 0x64, 0x00, 0x00,
  0x00, 0x04, 0x00, 0x00, 0x00, 0x01, 0x00, 0x00, 0x00, 0x01, 0x00, 0x00, 0x00,
  0x01, 0x00, 0x00, 0x00, 0x01, 0x00, 0x00, 0x00, 0x1c, 0x97, 0xff, 0xff, 0x3a,
  0x98, 0xff, 0xff, 0x04, 0x00, 0x00, 0x00, 0x04, 0x00, 0x00, 0x00, 0x28, 0x9c,
  0xbc, 0x37, 0xda, 0x97, 0xff, 0xff, 0x34, 0x00, 0x00, 0x00, 0x54, 0x00, 0x00,
  0x00, 0x08, 0x00, 0x00, 0x00, 0x30, 0x00, 0x00, 0x00, 0x1d, 0x00, 0x00, 0x00,
  0x42, 0x69, 0x61, 0x73, 0x41, 0x64, 0x64, 0x5f, 0x31, 0x39, 0x3b, 0x43, 0x6f,
  0x6e, 0x76, 0x32, 0x44, 0x5f, 0x31, 0x39, 0x3b, 0x63, 0x6f, 0x6e, 0x76, 0x5f,
  0x37, 0x5f, 0x62, 0x00, 0x00, 0x00, 0x01, 0x00, 0x00, 0x00, 0x01, 0x00, 0x00,
  0x00, 0x70, 0x97, 0xff, 0xff, 0x8e, 0x98, 0xff, 0xff, 0x04, 0x00, 0x00, 0x00,
  0x44, 0x00, 0x00, 0x00, 0x7f, 0xdb, 0x03, 0x3e, 0xbd, 0x29, 0x44, 0x3c, 0x65,
  0xaf, 0x2d, 0xbe, 0xda, 0xa3, 0x91, 0x3d, 0xb0, 0xfa, 0x64, 0x3c, 0x1f, 0x95,
  0x9f, 0xbc, 0xa0, 0x87, 0xc7, 0xbd, 0xc4, 0x73, 0xda, 0x3d, 0x5a, 0x34, 0x34,
  0xbd, 0x60, 0x44, 0x93, 0xbd, 0x48, 0x4c, 0x72, 0xbc, 0xe9, 0xce, 0x24, 0xbe,
  0xc2, 0x05, 0xfb, 0xbc, 0x05, 0x69, 0x70, 0xb9, 0x10, 0x5c, 0x67, 0x3d, 0x4c,
  0x64, 0x18, 0x3e, 0x77, 0xb1, 0x9f, 0xbd, 0x6e, 0x98, 0xff, 0xff, 0x44, 0x00,
  0x00, 0x00, 0x53, 0x00, 0x00, 0x00, 0x08, 0x00, 0x00, 0x00, 0x40, 0x00, 0x00,
  0x00, 0x2c, 0x00, 0x00, 0x00, 0x42, 0x69, 0x61, 0x73, 0x41, 0x64, 0x64, 0x5f,
  0x31, 0x38, 0x3b, 0x64, 0x65, 0x70, 0x74, 0x68, 0x77, 0x69, 0x73, 0x65, 0x5f,
  0x33, 0x39, 0x3b, 0x43, 0x6f, 0x6e, 0x76, 0x32, 0x44, 0x5f, 0x31, 0x38, 0x3b,
  0x63, 0x6f, 0x6e, 0x76, 0x5f, 0x36, 0x5f, 0x31, 0x5f, 0x62, 0x00, 0x00, 0x00,
  0x00, 0x01, 0x00, 0x00, 0x00, 0x11, 0x00, 0x00, 0x00, 0x14, 0x98, 0xff, 0xff,
  0x32, 0x99, 0xff, 0xff, 0x04, 0x00, 0x00, 0x00, 0x2c, 0x00, 0x00, 0x00, 0x4e,
  0xf7, 0x90, 0xbd, 0xc6, 0x4b, 0xf2, 0x3d, 0xd6, 0x8f, 0x57, 0x3d, 0x26, 0x0c,
  0x20, 0xbe, 0xda, 0x96, 0x1f, 0x3f, 0xa5, 0x5b, 0x29, 0x3d, 0xc9, 0xde, 0xcc,
  0xbd, 0x1b, 0x1c, 0x5a, 0xbd, 0x83, 0xd5, 0xb2, 0xbd, 0x8a, 0x2d, 0x00, 0xbe,
  0xe2, 0x65, 0x5a, 0x3b, 0xfa, 0x98, 0xff, 0xff, 0x44, 0x00, 0x00, 0x00, 0x52,
  0x00, 0x00, 0x00, 0x08, 0x00, 0x00, 0x00, 0x40, 0x00, 0x00, 0x00, 0x2c, 0x00,
  0x00, 0x00, 0x42, 0x69, 0x61, 0x73, 0x41, 0x64, 0x64, 0x5f, 0x31, 0x35, 0x3b,
  0x64, 0x65, 0x70, 0x74, 0x68, 0x77, 0x69, 0x73, 0x65, 0x5f, 0x33, 0x37, 0x3b,
  0x43, 0x6f, 0x6e, 0x76, 0x32, 0x44, 0x5f, 0x31, 0x35, 0x3b, 0x63, 0x6f, 0x6e,
  0x76, 0x5f, 0x35, 0x5f, 0x31, 0x5f, 0x62, 0x00, 0x00, 0x00, 0x00, 0x01, 0x00,
  0x00, 0x00, 0x0b, 0x00, 0x00, 0x00, 0xa0, 0x98, 0xff, 0xff, 0xbe, 0x99, 0xff,
  0xff, 0x04, 0x00, 0x00, 0x00, 0x20, 0x00, 0x00, 0x00, 0x30, 0x14, 0x39, 0x3e,
  0xd9, 0x85, 0x3f, 0xbd, 0x1c, 0x9a, 0x89, 0xbd, 0x10, 0xa8, 0x89, 0x3d, 0x9c,
  0x6e, 0x21, 0xbe, 0x0e, 0x5e, 0x63, 0xbd, 0xbd, 0xd7, 0xe1, 0xbb, 0x65, 0x6a,
  0x05, 0xbe, 0x7a, 0x99, 0xff, 0xff, 0x44, 0x00, 0x00, 0x00, 0x51, 0x00, 0x00,
  0x00, 0x08, 0x00, 0x00, 0x00, 0x40, 0x00, 0x00, 0x00, 0x2c, 0x00, 0x00, 0x00,
  0x42, 0x69, 0x61, 0x73, 0x41, 0x64, 0x64, 0x5f, 0x31, 0x32, 0x3b, 0x64, 0x65,
  0x70, 0x74, 0x68, 0x77, 0x69, 0x73, 0x65, 0x5f, 0x33, 0x31, 0x3b, 0x43, 0x6f,
  0x6e, 0x76, 0x32, 0x44, 0x5f, 0x31, 0x32, 0x3b, 0x63, 0x6f, 0x6e, 0x76, 0x5f,
  0x34, 0x5f, 0x31, 0x5f, 0x62, 0x00, 0x00, 0x00, 0x00, 0x01, 0x00, 0x00, 0x00,
  0x08, 0x00, 0x00, 0x00, 0x20, 0x99, 0xff, 0xff, 0x3e, 0x9a, 0xff, 0xff, 0x04,
  0x00, 0x00, 0x00, 0x1c, 0x00, 0x00, 0x00, 0x31, 0xa7, 0x87, 0xbb, 0x22, 0x6f,
  0x43, 0xbe, 0xf0, 0x81, 0x99, 0x3b, 0x1d, 0xd0, 0xec, 0xbd, 0x7a, 0x5c, 0xa0,
  0x3c, 0xfb, 0xcf, 0xe7, 0xbd, 0x75, 0xf4, 0x1d, 0x3d, 0xf6, 0x99, 0xff, 0xff,
  0x40, 0x00, 0x00, 0x00, 0x50, 0x00, 0x00, 0x00, 0x08, 0x00, 0x00, 0x00, 0x3c,
  0x00, 0x00, 0x00, 0x2a, 0x00, 0x00, 0x00, 0x42, 0x69, 0x61, 0x73, 0x41, 0x64,
  0x64, 0x5f, 0x39, 0x3b, 0x64, 0x65, 0x70, 0x74, 0x68, 0x77, 0x69, 0x73, 0x65,
  0x5f, 0x32, 0x35, 0x3b, 0x43, 0x6f, 0x6e, 0x76, 0x32, 0x44, 0x5f, 0x39, 0x3b,
  0x63, 0x6f, 0x6e, 0x76, 0x5f, 0x33, 0x5f, 0x31, 0x5f, 0x62, 0x00, 0x00, 0x01,
  0x00, 0x00, 0x00, 0x07, 0x00, 0x00, 0x00, 0x98, 0x99, 0xff, 0xff, 0xb6, 0x9a,
  0xff, 0xff, 0x04, 0x00, 0x00, 0x00, 0x20, 0x00, 0x00, 0x00, 0x4f, 0x56, 0xfb,
  0x3d, 0xaf, 0x14, 0x81, 0x3d, 0xd6, 0x44, 0x6b, 0x3d, 0x10, 0xa8, 0x9c, 0xbc,
  0x66, 0x42, 0xa1, 0x3d, 0xc1, 0x51, 0xcf, 0x3d, 0x1e, 0x44, 0xa2, 0x3d, 0x6d,
  0xd2, 0xa0, 0xbe, 0x72, 0x9a, 0xff, 0xff, 0x40, 0x00, 0x00, 0x00, 0x4f, 0x00,
  0x00, 0x00, 0x08, 0x00, 0x00, 0x00, 0x3c, 0x00, 0x00, 0x00, 0x2a, 0x00, 0x00,
  0x00, 0x42, 0x69, 0x61, 0x73, 0x41, 0x64, 0x64, 0x5f, 0x36, 0x3b, 0x64, 0x65,
  0x70, 0x74, 0x68, 0x77, 0x69, 0x73, 0x65, 0x5f, 0x33, 0x31, 0x3b, 0x43, 0x6f,
  0x6e, 0x76, 0x32, 0x44, 0x5f, 0x36, 0x3b, 0x63, 0x6f, 0x6e, 0x76, 0x5f, 0x32,
  0x5f, 0x31, 0x5f, 0x62, 0x00, 0x00, 0x01, 0x00, 0x00, 0x00, 0x08, 0x00, 0x00,
  0x00, 0x14, 0x9a, 0xff, 0xff, 0x32, 0x9b, 0xff, 0xff, 0x04, 0x00, 0x00, 0x00,
  0x2c, 0x00, 0x00, 0x00, 0x11, 0x50, 0xcc, 0x3c, 0xc9, 0x2e, 0x77, 0xbe, 0x00,
  0xc9, 0xf1, 0x3c, 0xda, 0x17, 0xc3, 0x3d, 0x07, 0x5b, 0x34, 0xbd, 0x59, 0xf9,
  0xef, 0x3c, 0xe2, 0x2e, 0x2e, 0x3e, 0x71, 0xf7, 0x85, 0x3d, 0x98, 0x96, 0x05,
  0x3e, 0x5e, 0x23, 0x06, 0xbd, 0x57, 0x78, 0x04, 0xbe, 0xfa, 0x9a, 0xff, 0xff,
  0x40, 0x00, 0x00, 0x00, 0x4e, 0x00, 0x00, 0x00, 0x08, 0x00, 0x00, 0x00, 0x3c,
  0x00, 0x00, 0x00, 0x2a, 0x00, 0x00, 0x00, 0x42, 0x69, 0x61, 0x73, 0x41, 0x64,
  0x64, 0x5f, 0x33, 0x3b, 0x64, 0x65, 0x70, 0x74, 0x68, 0x77, 0x69, 0x73, 0x65,
  0x5f, 0x33, 0x37, 0x3b, 0x43, 0x6f, 0x6e, 0x76, 0x32, 0x44, 0x5f, 0x33, 0x3b,
  0x63, 0x6f, 0x6e, 0x76, 0x5f, 0x31, 0x5f, 0x31, 0x5f, 0x62, 0x00, 0x00, 0x01,
  0x00, 0x00, 0x00, 0x0b, 0x00, 0x00, 0x00, 0x9c, 0x9a, 0xff, 0xff, 0xba, 0x9b,
  0xff, 0xff, 0x04, 0x00, 0x00, 0x00, 0x44, 0x00, 0x00, 0x00, 0x12, 0x4b, 0x9c,
  0x3e, 0xb5, 0x55, 0x29, 0x3d, 0x23, 0x34, 0x99, 0x3e, 0xfa, 0x94, 0xa1, 0x3e,
  0x49, 0x40, 0x05, 0x3f, 0x16, 0x66, 0x21, 0xbd, 0xac, 0x2b, 0x11, 0xbf, 0x3f,
  0x11, 0x68, 0x3e, 0x90, 0x28, 0x4d, 0x3e, 0x2a, 0xff, 0xb4, 0x3e, 0x4c, 0x6f,
  0x46, 0xbe, 0x0c, 0x41, 0xc8, 0xbe, 0x0c, 0x92, 0x11, 0xbf, 0xa0, 0xc7, 0xbb,
  0xbe, 0x25, 0xc2, 0xe8, 0xbe, 0xf1, 0x4d, 0x80, 0xbe, 0xb3, 0x38, 0x94, 0x3e,
  0x9a, 0x9b, 0xff, 0xff, 0x3c, 0x00, 0x00, 0x00, 0x4d, 0x00, 0x00, 0x00, 0x08,
  0x00, 0x00, 0x00, 0x38, 0x00, 0x00, 0x00, 0x24, 0x00, 0x00, 0x00, 0x42, 0x69,
  0x61, 0x73, 0x41, 0x64, 0x64, 0x3b, 0x64, 0x65, 0x70, 0x74, 0x68, 0x77, 0x69,
  0x73, 0x65, 0x5f, 0x33, 0x39, 0x3b, 0x43, 0x6f, 0x6e, 0x76, 0x32, 0x44, 0x3b,
  0x63, 0x6f, 0x6e, 0x76, 0x5f, 0x30, 0x5f, 0x62, 0x00, 0x00, 0x00, 0x00, 0x01,
  0x00, 0x00, 0x00, 0x11, 0x00, 0x00, 0x00, 0x38, 0x9b, 0xff, 0xff, 0x56, 0x9c,
  0xff, 0xff, 0x04, 0x00, 0x00, 0x00, 0x44, 0x00, 0x00, 0x00, 0xc1, 0x47, 0x29,
  0xbd, 0xa4, 0x6d, 0x53, 0xbd, 0xb6, 0x17, 0x03, 0xbe, 0x93, 0x56, 0x6f, 0xbd,
  0x29, 0xa9, 0x26, 0xbe, 0x4a, 0x56, 0xab, 0x3d, 0xd2, 0x9d, 0x6c, 0xbe, 0x5c,
  0x21, 0x85, 0x3d, 0x24, 0x5f, 0x00, 0x3e, 0x87, 0x98, 0x7a, 0x3e, 0x8b, 0x91,
  0x81, 0x3e, 0x1d, 0x54, 0x6e, 0xbe, 0xd8, 0xb2, 0x56, 0xbd, 0xed, 0x3e, 0xb3,
  0xbe, 0xfb, 0xd6, 0xc4, 0xbd, 0xcd, 0x53, 0x6c, 0x3e, 0x4a, 0x69, 0xac, 0x3d,
  0x36, 0x9c, 0xff, 0xff, 0x20, 0x00, 0x00, 0x00, 0x4c, 0x00, 0x00, 0x00, 0x08,
  0x00, 0x00, 0x00, 0x28, 0x00, 0x00, 0x00, 0x0a, 0x00, 0x00, 0x00, 0x43, 0x6f,
  0x6e, 0x76, 0x32, 0x44, 0x5f, 0x31, 0x39, 0x31, 0x00, 0x00, 0x04, 0x00, 0x00,
  0x00, 0x01, 0x00, 0x00, 0x00, 0x01, 0x00, 0x00, 0x00, 0x01, 0x00, 0x00, 0x00,
  0x11, 0x00, 0x00, 0x00, 0xc4, 0x9b, 0xff, 0xff, 0xe2, 0x9c, 0xff, 0xff, 0x04,
  0x00, 0x00, 0x00, 0x04, 0x00, 0x00, 0x00, 0x00, 0x00, 0x00, 0x00, 0x82, 0x9c,
  0xff, 0xff, 0x20, 0x00, 0x00, 0x00, 0x4b, 0x00, 0x00, 0x00, 0x08, 0x00, 0x00,
  0x00, 0x1c, 0x00, 0x00, 0x00, 0x09, 0x00, 0x00, 0x00, 0x43, 0x6f, 0x6e, 0x76,
  0x32, 0x44, 0x5f, 0x31, 0x39, 0x00, 0x00, 0x00, 0x01, 0x00, 0x00, 0x00, 0x01,
  0x00, 0x00, 0x00, 0x04, 0x9c, 0xff, 0xff, 0x22, 0x9d, 0xff, 0xff, 0x04, 0x00,
  0x00, 0x00, 0xdc, 0x01, 0x00, 0x00, 0xd7, 0xb8, 0x75, 0x3e, 0x46, 0xae, 0x5b,
  0x3d, 0x8e, 0x4e, 0xea, 0x3d, 0x92, 0x9c, 0xce, 0xbd, 0x53, 0x3c, 0x58, 0xbd,
  0xa7, 0x1e, 0x71, 0xbe, 0x77, 0x0c, 0xa1, 0x3d, 0xef, 0xb6, 0x52, 0xbe, 0x84,
  0x09, 0x0d, 0x3e, 0x51, 0xbc, 0x04, 0xbd, 0xad, 0xc8, 0x75, 0xbe, 0xed, 0x0b,
  0x87, 0x3d, 0x29, 0x66, 0xf1, 0x3c, 0x91, 0xc3, 0xc6, 0xbc, 0x92, 0xe7, 0x52,
  0xbe, 0xf6, 0xbb, 0x75, 0xbb, 0xef, 0xed, 0xe0, 0xbd, 0x11, 0xf3, 0x0f, 0x3e,
  0x78, 0x73, 0x94, 0x3d, 0x2e, 0x13, 0x66, 0xbe, 0x6d, 0x1f, 0x9e, 0xbd, 0xd9,
  0x39, 0x0e, 0xbd, 0x48, 0x97, 0xbe, 0x3e, 0x0a, 0x0a, 0x52, 0xbe, 0xd1, 0x36,
  0x0b, 0x3d, 0x61, 0xd3, 0x10, 0xbe, 0xcf, 0x82, 0xb1, 0x3c, 0xa4, 0x39, 0x21,
  0x3d, 0xe0, 0xf3, 0xd7, 0x3d, 0x1d, 0x8b, 0x0c, 0x3d, 0x18, 0x4c, 0xc7, 0x3d,
  0x1e, 0x1d, 0xfd, 0x3e, 0x58, 0x5c, 0x2e, 0x3e, 0x7c, 0xbb, 0x43, 0x3e, 0x39,
  0x0c, 0xc1, 0xbc, 0xb0, 0x66, 0x60, 0xbe, 0x19, 0x45, 0x3c, 0x3e, 0x5e, 0xdf,
  0x70, 0x3e, 0xe3, 0xf6, 0xa3, 0x3d, 0xb4, 0x68, 0x97, 0xbe, 0xa3, 0xa6, 0x23,
  0x3e, 0x84, 0xf8, 0x9c, 0x3e, 0xf8, 0x45, 0xcc, 0x3e, 0xf4, 0x4e, 0xb7, 0x3c,
  0x6c, 0x8e, 0x87, 0xbd, 0xe0, 0x66, 0x7f, 0xbe, 0x81, 0x28, 0xe7, 0xbd, 0xa8,
  0x97, 0x2f, 0xbe, 0xa4, 0xaa, 0xa9, 0xbe, 0x3f, 0x30, 0x5b, 0xbe, 0x03, 0xb2,
  0x06, 0xbc, 0x0b, 0xc9, 0xde, 0xbd, 0xb1, 0xdb, 0xe3, 0xbe, 0x00, 0x74, 0xb2,
  0xbe, 0x57, 0x51, 0xa5, 0xbe, 0x0b, 0xe0, 0x1d, 0xbe, 0xf5, 0x77, 0x2e, 0x3e,
  0x2b, 0x7a, 0xe2, 0xbd, 0x7e, 0x15, 0x54, 0xbe, 0xda, 0x1f, 0x66, 0xbe, 0x93,
  0x7c, 0x9c, 0xbe, 0x57, 0x0d, 0x14, 0xbd, 0x88, 0x6b, 0xe0, 0x3d, 0x0b, 0x78,
  0x23, 0x3e, 0xc1, 0x2a, 0x45, 0xbe, 0xab, 0xcb, 0xca, 0xbd, 0x38, 0xb9, 0x44,
  0xbe, 0x0b, 0x55, 0x9a, 0xbe, 0xa4, 0x21, 0xb1, 0xbe, 0x0c, 0x71, 0xc0, 0xbd,
  0x02, 0x88, 0x63, 0x3d, 0x87, 0xf4, 0xad, 0x3e, 0xd1, 0xa1, 0x65, 0xbe, 0x3c,
  0x23, 0x13, 0xbd, 0x11, 0xf6, 0x2b, 0x3e, 0xcd, 0xdd, 0x41, 0xbe, 0xf2, 0x8b,
  0x4a, 0xbe, 0xff, 0x0c, 0x08, 0xbe, 0x38, 0xf5, 0x9e, 0xbd, 0xf3, 0xc2, 0x30,
  0x3d, 0xc7, 0x0d, 0xdb, 0xbd, 0x82, 0xbb, 0x2b, 0xbe, 0xbc, 0x5d, 0xd4, 0xbd,
  0xd9, 0xf3, 0xaa, 0xbc, 0xad, 0xe6, 0xbe, 0x3e, 0xd5, 0x68, 0x0d, 0xbd, 0x73,
  0xb6, 0x16, 0xbd, 0x04, 0xc1, 0x8f, 0x3a, 0x2f, 0xa7, 0xe9, 0xbd, 0x18, 0x9e,
  0x3b, 0x3d, 0x12, 0xa7, 0xeb, 0x3d, 0x05, 0xe0, 0x89, 0xbe, 0xe7, 0x65, 0x28,
  0x3e, 0x97, 0xc6, 0x6a, 0x3d, 0x39, 0xce, 0x20, 0x3d, 0x00, 0x70, 0x49, 0x3e,
  0x79, 0x58, 0x3d, 0xbe, 0x8f, 0xfa, 0x7b, 0xbe, 0x06, 0xe5, 0x27, 0x3d, 0x13,
  0xf2, 0x00, 0x3d, 0x88, 0xc3, 0xe5, 0x3c, 0x59, 0xfc, 0x47, 0xbe, 0x2f, 0x2b,
  0x4f, 0x3e, 0xc4, 0x4f, 0x46, 0x3c, 0xe5, 0x15, 0x68, 0xbd, 0xe0, 0x81, 0xa0,
  0x3c, 0xad, 0x10, 0xb8, 0xbd, 0x22, 0xb5, 0xc7, 0xbd, 0x74, 0x22, 0x2c, 0x3e,
  0x64, 0x0c, 0x26, 0xbe, 0x9e, 0x49, 0x0e, 0x3e, 0xae, 0x7b, 0xf8, 0xbc, 0x77,
  0xe5, 0x4c, 0x3e, 0xf2, 0xd0, 0xdd, 0x3d, 0x8f, 0x74, 0x07, 0xbe, 0xde, 0x0b,
  0x08, 0x3b, 0x71, 0xa5, 0x78, 0xbb, 0x23, 0xf4, 0xc9, 0x3c, 0xe7, 0x6c, 0x81,
  0x3d, 0x9a, 0x9e, 0xff, 0xff, 0x24, 0x00, 0x00, 0x00, 0x4a, 0x00, 0x00, 0x00,
  0x08, 0x00, 0x00, 0x00, 0x2c, 0x00, 0x00, 0x00, 0x0d, 0x00, 0x00, 0x00, 0x64,
  0x65, 0x70, 0x74, 0x68, 0x77, 0x69, 0x73, 0x65, 0x5f, 0x33, 0x39, 0x31, 0x00,
  0x00, 0x00, 0x04, 0x00, 0x00, 0x00, 0x01, 0x00, 0x00, 0x00, 0x01, 0x00, 0x00,
  0x00, 0x07, 0x00, 0x00, 0x00, 0x11, 0x00, 0x00, 0x00, 0x2c, 0x9e, 0xff, 0xff,
  0x4a, 0x9f, 0xff, 0xff, 0x04, 0x00, 0x00, 0x00, 0x44, 0x00, 0x00, 0x00, 0x00,
  0x00, 0x00, 0x00, 0x00, 0x00, 0x00, 0x00, 0x00, 0x00, 0x00, 0x00, 0x00, 0x00,
  0x00, 0x00, 0x00, 0x00, 0x00, 0x00, 0x00, 0x00, 0x00, 0x00, 0x00, 0x00, 0x00,
  0x00, 0x00, 0x00, 0x00, 0x00, 0x00, 0x00, 0x00, 0x00, 0x00, 0x00, 0x00, 0x00,
  0x00, 0x00, 0x00, 0x00, 0x00, 0x00, 0x00, 0x00, 0x00, 0x00, 0x00, 0x00, 0x00,
  0x00, 0x00, 0x00, 0x00, 0x00, 0x00, 0x00, 0x00, 0x00, 0x00, 0x00, 0x00, 0x00,
  0x00, 0x00, 0x2a, 0x9f, 0xff, 0xff, 0x24, 0x00, 0x00, 0x00, 0x49, 0x00, 0x00,
  0x00, 0x08, 0x00, 0x00, 0x00, 0x20, 0x00, 0x00, 0x00, 0x0c, 0x00, 0x00, 0x00,
  0x64, 0x65, 0x70, 0x74, 0x68, 0x77, 0x69, 0x73, 0x65, 0x5f, 0x33, 0x39, 0x00,
  0x00, 0x00, 0x00, 0x01, 0x00, 0x00, 0x00, 0x11, 0x00, 0x00, 0x00, 0xb0, 0x9e,
  0xff, 0xff, 0xce, 0x9f, 0xff, 0xff, 0x04, 0x00, 0x00, 0x00, 0xdc, 0x01, 0x00,
  0x00, 0xa6, 0xef, 0x65, 0x3e, 0x76, 0xdc, 0xe7, 0x3d, 0x38, 0x60, 0x2f, 0xbd,
  0x49, 0x53, 0x86, 0x3d, 0x94, 0x4a, 0x99, 0xbd, 0xf0, 0x73, 0x8c, 0x3d, 0x85,
  0x15, 0x4f, 0xbd, 0x0f, 0xe0, 0xf2, 0x3d, 0x03, 0x26, 0xe0, 0xbb, 0xc6, 0x39,
  0x20, 0xbe, 0x0b, 0xff, 0x9b, 0x3d, 0x18, 0xed, 0x0b, 0x3b, 0xc5, 0xe2, 0xbb,
  0x3d, 0x36, 0x5f, 0xb1, 0x3d, 0x81, 0x94, 0x29, 0x3c, 0xc7, 0x2d, 0x23, 0xbe,
  0x27, 0x84, 0x68, 0xbd, 0x24, 0x1f, 0x63, 0xbd, 0x28, 0x28, 0xb9, 0x3c, 0xe5,
  0xd8, 0x8b, 0x3e, 0x67, 0xde, 0x2b, 0x3e, 0x5a, 0x1b, 0x17, 0x3d, 0x88, 0xe5,
  0x8a, 0x3c, 0x69, 0x5e, 0x99, 0xbc, 0x81, 0xe5, 0x04, 0x3e, 0x08, 0x88, 0x0d,
  0x39, 0xd3, 0x3c, 0x12, 0xbd, 0xb0, 0x47, 0x44, 0xbd, 0x0e, 0x1f, 0x1d, 0xbc,
  0x72, 0x51, 0x81, 0xbe, 0x86, 0x66, 0xb2, 0x3d, 0x09, 0xb1, 0x04, 0xbe, 0x70,
  0x25, 0xe9, 0x3c, 0xcd, 0x0a, 0x46, 0xbe, 0x80, 0xd8, 0xcc, 0xbd, 0x9d, 0x68,
  0xa2, 0x3c, 0xae, 0xeb, 0x40, 0x3e, 0x62, 0xcd, 0x7e, 0xbe, 0xb2, 0x3f, 0xa5,
  0xbc, 0x12, 0xc4, 0x12, 0x3e, 0xe9, 0x3d, 0x9d, 0x3d, 0x4f, 0x78, 0x87, 0xbe,
  0x81, 0xba, 0x3e, 0xbd, 0x03, 0xad, 0x4d, 0x3e, 0x38, 0xe8, 0x2f, 0x3c, 0xab,
  0xa0, 0x81, 0x3d, 0xbd, 0xd6, 0xac, 0xbd, 0x15, 0x17, 0x91, 0xbc, 0x40, 0x61,
  0x8f, 0x3d, 0xd4, 0x78, 0xae, 0xbc, 0x3a, 0xef, 0x88, 0xbe, 0x92, 0x27, 0xa7,
  0xbd, 0xdc, 0xc7, 0xc6, 0x3c, 0xa8, 0x1d, 0x63, 0xbe, 0xd5, 0x13, 0x7a, 0x3c,
  0x77, 0xed, 0x7f, 0x3d, 0x83, 0x9b, 0xcb, 0x3e, 0x92, 0x6e, 0x55, 0x3e, 0xfe,
  0xcc, 0x10, 0xbe, 0xdf, 0xbf, 0xc3, 0xbd, 0x9f, 0x2d, 0x62, 0xbe, 0x7b, 0xf7,
  0xb8, 0x3d, 0x0e, 0xef, 0x81, 0x3e, 0x10, 0x4f, 0xec, 0x3d, 0x93, 0x16, 0x27,
  0xbe, 0xf9, 0xe0, 0xd7, 0xba, 0xbb, 0xca, 0xf1, 0xbd, 0xfe, 0x29, 0xa9, 0xbe,
  0x02, 0xec, 0x6a, 0xbd, 0x30, 0x01, 0x69, 0xbe, 0xa2, 0x9b, 0x08, 0x3c, 0x63,
  0xe7, 0x18, 0x3d, 0x2e, 0x2b, 0x68, 0xbe, 0x32, 0xb7, 0x5a, 0x3e, 0xa6, 0xb5,
  0xcd, 0x3d, 0x92, 0x57, 0x16, 0x3e, 0xe0, 0xd0, 0xc4, 0x3e, 0x0b, 0xcd, 0xb4,
  0x3d, 0x0e, 0x4e, 0xe6, 0x3d, 0xb5, 0x69, 0x21, 0x3e, 0xa8, 0x2e, 0xf0, 0xbd,
  0x6a, 0x3a, 0x2e, 0x3e, 0x75, 0xb3, 0xb0, 0xbe, 0xb9, 0x55, 0x33, 0xba, 0x53,
  0x3a, 0xb4, 0xbc, 0x9a, 0x06, 0xd0, 0x3e, 0xaa, 0xe0, 0x8b, 0x3e, 0x01, 0x16,
  0x21, 0xbe, 0x6b, 0x32, 0xcc, 0x3e, 0x7c, 0x8b, 0x6a, 0x3c, 0xd1, 0x26, 0x83,
  0x3e, 0x2c, 0x3d, 0x24, 0x3c, 0xe3, 0x74, 0xcf, 0xbd, 0x09, 0xe5, 0x5c, 0xbe,
  0x9b, 0x1f, 0x24, 0x3e, 0x8c, 0x74, 0x80, 0x3e, 0x26, 0xea, 0x0d, 0x3e, 0x70,
  0xb2, 0xce, 0xbc, 0x2e, 0x83, 0x15, 0xbe, 0x2d, 0x0d, 0x6e, 0x3e, 0xc6, 0x16,
  0xdc, 0x3d, 0xae, 0x08, 0x23, 0xbd, 0xd0, 0x0b, 0x23, 0xbe, 0x31, 0x18, 0x89,
  0xbe, 0x2d, 0xf2, 0xa8, 0xbd, 0x47, 0x81, 0x56, 0xbd, 0x20, 0xb1, 0x4d, 0x3e,
  0x56, 0x99, 0x75, 0x3d, 0xae, 0x18, 0xbb, 0x3c, 0x02, 0x30, 0x64, 0x3e, 0xe4,
  0xf7, 0x05, 0xbd, 0x38, 0xf5, 0x19, 0xbd, 0x0b, 0xde, 0x06, 0x3d, 0x11, 0x3c,
  0x53, 0x3c, 0x0c, 0x33, 0x98, 0x3e, 0x66, 0x6a, 0xe7, 0xbc, 0xeb, 0x2e, 0xa5,
  0x3e, 0x23, 0xb5, 0x1a, 0x3e, 0xf4, 0x49, 0x99, 0xbd, 0x46, 0xa1, 0xff, 0xff,
  0x24, 0x00, 0x00, 0x00, 0x48, 0x00, 0x00, 0x00, 0x08, 0x00, 0x00, 0x00, 0x2c,
  0x00, 0x00, 0x00, 0x0c, 0x00, 0x00, 0x00, 0x64, 0x65, 0x70, 0x74, 0x68, 0x77,
  0x69, 0x73, 0x65, 0x5f, 0x33, 0x38, 0x00, 0x00, 0x00, 0x00, 0x04, 0x00, 0x00,
  0x00, 0x01, 0x00, 0x00, 0x00, 0x07, 0x00, 0x00, 0x00, 0x01, 0x00, 0x00, 0x00,
  0x11, 0x00, 0x00, 0x00, 0xd8, 0xa0, 0xff, 0xff, 0xf6, 0xa1, 0xff, 0xff, 0x04,
  0x00, 0x00, 0x00, 0xec, 0x02, 0x00, 0x00, 0x50, 0x98, 0x80, 0xbb, 0x10, 0x1b,
  0x8e, 0x3d, 0x6c, 0xbf, 0x88, 0xbf, 0x6a, 0x06, 0x3b, 0xbe, 0x65, 0x01, 0xa7,
  0xbf, 0xae, 0x24, 0x43, 0x3f, 0x8b, 0x89, 0x3a, 0x3d, 0xcc, 0x33, 0x21, 0xbd,
  0x68, 0xef, 0x2c, 0x3f, 0x7d, 0x1b, 0x63, 0xbe, 0x84, 0x7a, 0xb9, 0xbd, 0xbb,
  0x78, 0x11, 0x3e, 0x09, 0x7c, 0xa6, 0x3f, 0xec, 0x83, 0x8d, 0x3e, 0xfc, 0xe2,
  0xcd, 0x3e, 0xbb, 0x03, 0xd1, 0x3e, 0x32, 0x55, 0x08, 0x3f, 0x20, 0xf0, 0x1e,
  0xbf, 0x38, 0xcf, 0x1d, 0x3f, 0xcd, 0xc1, 0x06, 0x3f, 0x4f, 0x02, 0xe2, 0xbe,
  0x4f, 0xa6, 0x73, 0x3f, 0x0b, 0x33, 0x45, 0x3e, 0x1f, 0x03, 0x6f, 0xbe, 0xce,
  0x6a, 0x7d, 0x3f, 0x0d, 0xf7, 0x93, 0xbe, 0xb0, 0xde, 0xde, 0xbd, 0x31, 0xd0,
  0x0b, 0x3d, 0x33, 0xa9, 0xd4, 0xbd, 0xad, 0xe4, 0x15, 0x3e, 0x21, 0xbe, 0x1e,
  0xbe, 0x86, 0x2f, 0xd4, 0x3d, 0x82, 0x19, 0x08, 0xbf, 0x0b, 0x69, 0xa7, 0xbd,
  0x95, 0xe3, 0x92, 0x3f, 0x95, 0x6a, 0x20, 0x3f, 0x16, 0x1e, 0xfb, 0xbd, 0x43,
  0x56, 0xf4, 0xbe, 0xb5, 0x47, 0xcf, 0x3e, 0x52, 0xd4, 0xb4, 0x3e, 0x90, 0x85,
  0x35, 0xbf, 0xf0, 0x35, 0xb9, 0x3f, 0x8e, 0xa0, 0xf3, 0x3d, 0x67, 0x22, 0x5a,
  0xbf, 0xc8, 0xee, 0xdd, 0x3e, 0x44, 0x22, 0xeb, 0x3e, 0xd2, 0xa8, 0x18, 0xbe,
  0xe6, 0x40, 0xd9, 0x3e, 0x26, 0x31, 0x2c, 0x3f, 0x93, 0x6a, 0x06, 0x3f, 0xf6,
  0x7e, 0xb0, 0xbd, 0x85, 0x04, 0x8d, 0x3e, 0x84, 0x49, 0x2f, 0xbf, 0x9b, 0xe6,
  0x6a, 0xbe, 0x76, 0x1b, 0xe6, 0x3d, 0x76, 0x74, 0xa4, 0x3f, 0xd2, 0x04, 0x2f,
  0xbe, 0xcd, 0x39, 0x66, 0xbf, 0x6d, 0x0a, 0x3e, 0xbf, 0x7e, 0x0b, 0x64, 0x3f,
  0x02, 0x05, 0x22, 0xbf, 0x65, 0x34, 0x98, 0xbf, 0x56, 0x29, 0x25, 0x3d, 0xf9,
  0xdc, 0x84, 0x3f, 0xaf, 0x7d, 0x15, 0x3f, 0x77, 0xd2, 0x7a, 0xbf, 0xa6, 0x3e,
  0xe2, 0x3d, 0x2f, 0xa9, 0x02, 0x3f, 0x2a, 0xca, 0xdc, 0xbd, 0x0a, 0x90, 0x00,
  0x3e, 0xeb, 0x0f, 0x07, 0xbf, 0xcf, 0x2c, 0x90, 0x3d, 0x34, 0xf5, 0x5b, 0xbd,
  0x64, 0xae, 0x3c, 0xbf, 0x01, 0x06, 0x87, 0x3e, 0xcf, 0x9d, 0x1b, 0xbe, 0x18,
  0xd3, 0x8e, 0xbe, 0xb4, 0x19, 0x9c, 0x3e, 0x2b, 0xd0, 0x0d, 0x3f, 0x1e, 0xc6,
  0x6c, 0xbd, 0xba, 0x09, 0x84, 0x3d, 0x7b, 0xf0, 0x37, 0xbd, 0xb8, 0xbd, 0x03,
  0xbf, 0x00, 0xb0, 0x89, 0x3e, 0x37, 0x83, 0x0f, 0xbf, 0x50, 0x0d, 0xc1, 0x3e,
  0x43, 0xa5, 0x1f, 0x3d, 0x8a, 0xbf, 0xbc, 0xbc, 0x4e, 0x07, 0x26, 0xbe, 0x53,
  0x26, 0x63, 0x3f, 0x3d, 0x74, 0xaa, 0x3e, 0x8e, 0x68, 0x09, 0x3e, 0xf1, 0x8d,
  0xdf, 0xbd, 0xc0, 0x93, 0x88, 0x3e, 0x03, 0x60, 0xf4, 0x3c, 0x1e, 0x7a, 0x30,
  0x3e, 0x4d, 0x7d, 0x3a, 0x3e, 0xb0, 0xba, 0x52, 0xbf, 0xb1, 0x93, 0x8e, 0xbe,
  0xd1, 0xff, 0x4f, 0x3d, 0x95, 0x09, 0xcc, 0x3e, 0xe4, 0x61, 0x82, 0xbe, 0x28,
  0xdf, 0xae, 0xbc, 0xe1, 0x5d, 0x84, 0x3e, 0xc7, 0x77, 0x70, 0xbe, 0xeb, 0xbb,
  0x0a, 0x3e, 0x3f, 0x9b, 0x07, 0x3e, 0xec, 0x5b, 0x19, 0x3e, 0xad, 0xec, 0x5d,
  0x3e, 0xe7, 0x90, 0x11, 0xbe, 0x34, 0x42, 0xce, 0xbd, 0x52, 0xa9, 0xc0, 0xbc,
  0xd3, 0x9d, 0x23, 0x3e, 0xa8, 0x63, 0x08, 0xbd, 0xcd, 0xd8, 0xe8, 0xbd, 0x5c,
  0xd1, 0xce, 0x3d, 0x32, 0x57, 0xca, 0x3d, 0xf2, 0x98, 0x0a, 0x3d, 0x69, 0x6a,
  0x5b, 0xbc, 0xfd, 0x85, 0xae, 0x3c, 0x8f, 0xcd, 0xbb, 0xbd, 0x5b, 0xea, 0x67,
  0xbf, 0x40, 0xff, 0x2d, 0x3f, 0x77, 0x6e, 0xc7, 0xbd, 0xe1, 0xa5, 0x2b, 0x3f,
  0x69, 0x87, 0x6b, 0x3f, 0x39, 0x11, 0xeb, 0x3e, 0xc6, 0x1e, 0x74, 0x3e, 0x6f,
  0x64, 0x03, 0xbe, 0x54, 0xee, 0xfc, 0x3e, 0xfa, 0xe8, 0x31, 0x3f, 0x5c, 0x69,
  0xb6, 0x3e, 0x15, 0xe5, 0xe3, 0x3e, 0x65, 0xb0, 0x84, 0x3e, 0x2e, 0x38, 0x0e,
  0xc0, 0x16, 0xb9, 0xdd, 0x3d, 0xb3, 0x47, 0x08, 0xbe, 0x28, 0xac, 0x8a, 0xbe,
  0x8c, 0xd2, 0xba, 0xbe, 0x09, 0x46, 0x2d, 0xbf, 0xb9, 0x1b, 0x9d, 0x3e, 0x9c,
  0x0a, 0x21, 0x3e, 0x40, 0x62, 0x1d, 0xbf, 0x51, 0x8c, 0x9c, 0xbe, 0x75, 0x31,
  0xae, 0xbe, 0x73, 0x72, 0xa0, 0xbd, 0x76, 0x38, 0x95, 0x3e, 0xb7, 0x91, 0x83,
  0x3d, 0x76, 0x33, 0x1b, 0xbe, 0x40, 0xf1, 0xac, 0x3e, 0xc0, 0xe1, 0xe1, 0x3c,
  0xc2, 0xc3, 0x88, 0xbe, 0x4f, 0x98, 0x67, 0xbe, 0xfe, 0xfb, 0x09, 0xbf, 0x05,
  0xff, 0xe2, 0xbd, 0x04, 0x9d, 0x13, 0xbd, 0x1a, 0x51, 0xe9, 0xbe, 0xf0, 0x00,
  0xe8, 0x3d, 0xa3, 0xc5, 0xd1, 0x3e, 0x5f, 0x8b, 0x77, 0xbf, 0x2c, 0x8b, 0x28,
  0x3e, 0x5c, 0xf6, 0xb1, 0xbe, 0x8f, 0x04, 0xb6, 0xbe, 0x50, 0xdb, 0x8a, 0x3e,
  0x31, 0x97, 0xb2, 0xbd, 0x2e, 0xa5, 0x10, 0x3f, 0xde, 0x0b, 0x02, 0xbe, 0x0b,
  0x5f, 0xc2, 0xbe, 0x4e, 0x67, 0x77, 0xbe, 0x4b, 0xa9, 0x49, 0x3e, 0x34, 0x74,
  0x1f, 0xbd, 0x4e, 0xa5, 0x91, 0xbe, 0x9b, 0xe6, 0x01, 0xbf, 0x90, 0x19, 0x48,
  0xbe, 0x9a, 0x2f, 0x30, 0x3f, 0x17, 0x96, 0x6b, 0x3e, 0xfd, 0xd8, 0x02, 0xbf,
  0x2b, 0xbc, 0x54, 0xbf, 0xcb, 0x9e, 0x54, 0x3d, 0x06, 0x6a, 0x01, 0xbf, 0x19,
  0x3c, 0x03, 0x3e, 0xb2, 0x94, 0xe2, 0xbe, 0xce, 0x1e, 0x1f, 0xbf, 0xcb, 0x06,
  0xe5, 0xbd, 0x3a, 0x09, 0x76, 0x3f, 0x54, 0x9e, 0x49, 0xbc, 0xe0, 0x9e, 0xb6,
  0x3d, 0x7e, 0xa4, 0xff, 0xff, 0x20, 0x00, 0x00, 0x00, 0x47, 0x00, 0x00, 0x00,
  0x08, 0x00, 0x00, 0x00, 0x28, 0x00, 0x00, 0x00, 0x09, 0x00, 0x00, 0x00, 0x43,
  0x6f, 0x6e, 0x76, 0x32, 0x44, 0x5f, 0x31, 0x38, 0x00, 0x00, 0x00, 0x04, 0x00,
  0x00, 0x00, 0x11, 0x00, 0x00, 0x00, 0x01, 0x00, 0x00, 0x00, 0x01, 0x00, 0x00,
  0x00, 0x0b, 0x00, 0x00, 0x00, 0x0c, 0xa4, 0xff, 0xff, 0x2a, 0xa5, 0xff, 0xff,
  0x04, 0x00, 0x00, 0x00, 0xdc, 0x00, 0x00, 0x00, 0xd3, 0xa3, 0x80, 0xbd, 0xf9,
  0xcd, 0xfa, 0x3d, 0xa6, 0xc3, 0x74, 0xbe, 0x19, 0x19, 0xd7, 0x3e, 0xdd, 0xea,
  0x09, 0xbe, 0xcf, 0xca, 0x28, 0x3d, 0x1d, 0x2f, 0xa4, 0xbc, 0x1f, 0x52, 0x96,
  0x3e, 0x1c, 0x70, 0x83, 0xbe, 0xd8, 0x03, 0x88, 0xbd, 0x9b, 0xf7, 0x68, 0x3d,
  0x1b, 0x73, 0x84, 0x3e, 0x2b, 0x13, 0x14, 0x3e, 0xf1, 0xb9, 0x65, 0x3e, 0x82,
  0x6a, 0x7a, 0x3e, 0xc4, 0x00, 0x01, 0x3e, 0xde, 0x24, 0x17, 0xbe, 0x91, 0x3d,
  0x15, 0x3e, 0x5c, 0x44, 0x80, 0xbe, 0x16, 0x41, 0x86, 0xbe, 0xd8, 0x1b, 0xaa,
  0x3e, 0x65, 0x8a, 0xcf, 0xbc, 0xce, 0x0b, 0xe0, 0xbe, 0xe5, 0x0a, 0xb8, 0x3e,
  0x5d, 0xc1, 0x88, 0xbd, 0xd8, 0x14, 0x9b, 0xbd, 0x83, 0xde, 0x67, 0x3e, 0x5a,
  0x73, 0x18, 0xbe, 0xfc, 0x29, 0x7a, 0xbe, 0x64, 0x0a, 0xd8, 0xbe, 0x08, 0x10,
  0x92, 0xbe, 0x86, 0x8b, 0x72, 0x3e, 0x00, 0x83, 0x5d, 0xbe, 0x5f, 0x20, 0x7f,
  0x3d, 0xa9, 0x8f, 0xaf, 0xbd, 0x5f, 0xfc, 0x8e, 0xbe, 0x2d, 0x41, 0x97, 0x3e,
  0x72, 0x71, 0x66, 0xbe, 0x23, 0xaf, 0x01, 0xbe, 0x98, 0x3e, 0xa7, 0xbe, 0x0d,
  0xf7, 0x80, 0x3d, 0xc0, 0x61, 0x72, 0x3d, 0xdb, 0x6c, 0xd2, 0x3d, 0x7b, 0x57,
  0xdb, 0xbe, 0x71, 0x3e, 0x52, 0x3c, 0x9a, 0x59, 0x2d, 0xbe, 0x40, 0x70, 0x6a,
  0x3e, 0x7d, 0x40, 0x03, 0xbe, 0x92, 0x43, 0xc0, 0x3c, 0xe9, 0xf3, 0x0c, 0x3f,
  0xcf, 0x94, 0x71, 0x3e, 0x7f, 0xff, 0x1e, 0x3e, 0xf8, 0x88, 0x01, 0xbe, 0x71,
  0x30, 0x48, 0x3e, 0x07, 0xd3, 0x73, 0x3e, 0xa2, 0xa5, 0xff, 0xff, 0x24, 0x00,
  0x00, 0x00, 0x46, 0x00, 0x00, 0x00, 0x08, 0x00, 0x00, 0x00, 0x2c, 0x00, 0x00,
  0x00, 0x0d, 0x00, 0x00, 0x00, 0x64, 0x65, 0x70, 0x74, 0x68, 0x77, 0x69, 0x73,
  0x65, 0x5f, 0x33, 0x37, 0x31, 0x00, 0x00, 0x00, 0x04, 0x00, 0x00, 0x00, 0x01,
