const unsigned char sr2by1_4_tflite[] = {
  0x1c, 0x00, 0x00, 0x00, 0x54, 0x46, 0x4c, 0x33, 0x14, 0x00, 0x20, 0x00, 0x1c,
  0x00, 0x18, 0x00, 0x14, 0x00, 0x10, 0x00, 0x0c, 0x00, 0x00, 0x00, 0x08, 0x00,
  0x04, 0x00, 0x14, 0x00, 0x00, 0x00, 0x1c, 0x00, 0x00, 0x00, 0x88, 0x00, 0x00,
  0x00, 0xb8, 0x00, 0x00, 0x00, 0xec, 0x47, 0x00, 0x00, 0xfc, 0x47, 0x00, 0x00,
  0xd8, 0x86, 0x00, 0x00, 0x03, 0x00, 0x00, 0x00, 0x01, 0x00, 0x00, 0x00, 0x10,
  0x00, 0x00, 0x00, 0x00, 0x00, 0x0a, 0x00, 0x10, 0x00, 0x0c, 0x00, 0x08, 0x00,
  0x04, 0x00, 0x0a, 0x00, 0x00, 0x00, 0x0c, 0x00, 0x00, 0x00, 0x1c, 0x00, 0x00,
  0x00, 0x38, 0x00, 0x00, 0x00, 0x0f, 0x00, 0x00, 0x00, 0x73, 0x65, 0x72, 0x76,
  0x69, 0x6e, 0x67, 0x5f, 0x64, 0x65, 0x66, 0x61, 0x75, 0x6c, 0x74, 0x00, 0x01,
  0x00, 0x00, 0x00, 0x04, 0x00, 0x00, 0x00, 0xc8, 0xff, 0xff, 0xff, 0x8f, 0x00,
  0x00, 0x00, 0x04, 0x00, 0x00, 0x00, 0x06, 0x00, 0x00, 0x00, 0x6f, 0x75, 0x74,
  0x70, 0x75, 0x74, 0x00, 0x00, 0x01, 0x00, 0x00, 0x00, 0x04, 0x00, 0x00, 0x00,
  0xb2, 0xb8, 0xff, 0xff, 0x04, 0x00, 0x00, 0x00, 0x03, 0x00, 0x00, 0x00, 0x69,
  0x6d, 0x67, 0x00, 0x01, 0x00, 0x00, 0x00, 0x0c, 0x00, 0x00, 0x00, 0x08, 0x00,
  0x0c, 0x00, 0x08, 0x00, 0x04, 0x00, 0x08, 0x00, 0x00, 0x00, 0x91, 0x00, 0x00,
  0x00, 0x04, 0x00, 0x00, 0x00, 0x13, 0x00, 0x00, 0x00, 0x6d, 0x69, 0x6e, 0x5f,
  0x72, 0x75, 0x6e, 0x74, 0x69, 0x6d, 0x65, 0x5f, 0x76, 0x65, 0x72, 0x73, 0x69,
  0x6f, 0x6e, 0x00, 0x92, 0x00, 0x00, 0x00, 0x30, 0x47, 0x00, 0x00, 0x28, 0x47,
  0x00, 0x00, 0x04, 0x47, 0x00, 0x00, 0xd8, 0x46, 0x00, 0x00, 0xac, 0x46, 0x00,
  0x00, 0x78, 0x46, 0x00, 0x00, 0x38, 0x46, 0x00, 0x00, 0xec, 0x45, 0x00, 0x00,
  0xbc, 0x45, 0x00, 0x00, 0x90, 0x45, 0x00, 0x00, 0x64, 0x45, 0x00, 0x00, 0x04,
  0x45, 0x00, 0x00, 0x64, 0x43, 0x00, 0x00, 0xc4, 0x41, 0x00, 0x00, 0x04, 0x3d,
  0x00, 0x00, 0xc8, 0x3b, 0x00, 0x00, 0x8c, 0x3a, 0x00, 0x00, 0xf8, 0x36, 0x00,
  0x00, 0x58, 0x35, 0x00, 0x00, 0xf8, 0x34, 0x00, 0x00, 0x58, 0x33, 0x00, 0x00,
  0x98, 0x2e, 0x00, 0x00, 0x5c, 0x2d, 0x00, 0x00, 0x20, 0x2c, 0x00, 0x00, 0x40,
  0x29, 0x00, 0x00, 0x40, 0x28, 0x00, 0x00, 0x40, 0x27, 0x00, 0x00, 0xf0, 0x24,
  0x00, 0x00, 0xb4, 0x23, 0x00, 0x00, 0x68, 0x23, 0x00, 0x00, 0x2c, 0x22, 0x00,
  0x00, 0x4c, 0x1f, 0x00, 0x00, 0x4c, 0x1e, 0x00, 0x00, 0x4c, 0x1d, 0x00, 0x00,
  0x8c, 0x1b, 0x00, 0x00, 0xc8, 0x1a, 0x00, 0x00, 0x04, 0x1a, 0x00, 0x00, 0xb0,
  0x18, 0x00, 0x00, 0xb0, 0x17, 0x00, 0x00, 0x70, 0x17, 0x00, 0x00, 0x70, 0x16,
  0x00, 0x00, 0xb0, 0x14, 0x00, 0x00, 0xec, 0x13, 0x00, 0x00, 0x28, 0x13, 0x00,
  0x00, 0x1c, 0x12, 0x00, 0x00, 0x80, 0x11, 0x00, 0x00, 0xe4, 0x10, 0x00, 0x00,
  0x10, 0x10, 0x00, 0x00, 0x4c, 0x0f, 0x00, 0x00, 0x18, 0x0f, 0x00, 0x00, 0x54,
  0x0e, 0x00, 0x00, 0x48, 0x0d, 0x00, 0x00, 0xac, 0x0c, 0x00, 0x00, 0x10, 0x0c,
  0x00, 0x00, 0x74, 0x0b, 0x00, 0x00, 0x00, 0x0b, 0x00, 0x00, 0x8c, 0x0a, 0x00,
  0x00, 0x18, 0x0a, 0x00, 0x00, 0x7c, 0x09, 0x00, 0x00, 0x50, 0x09, 0x00, 0x00,
  0xb4, 0x08, 0x00, 0x00, 0x18, 0x08, 0x00, 0x00, 0xa4, 0x07, 0x00, 0x00, 0x30,
  0x07, 0x00, 0x00, 0xbc, 0x06, 0x00, 0x00, 0x48, 0x06, 0x00, 0x00, 0xd4, 0x05,
  0x00, 0x00, 0x60, 0x05, 0x00, 0x00, 0xc4, 0x04, 0x00, 0x00, 0xa0, 0x04, 0x00,
  0x00, 0x04, 0x04, 0x00, 0x00, 0xf0, 0x03, 0x00, 0x00, 0xcc, 0x03, 0x00, 0x00,
  0x6c, 0x03, 0x00, 0x00, 0x20, 0x03, 0x00, 0x00, 0xe0, 0x02, 0x00, 0x00, 0xac,
  0x02, 0x00, 0x00, 0x80, 0x02, 0x00, 0x00, 0x5c, 0x02, 0x00, 0x00, 0x38, 0x02,
  0x00, 0x00, 0x24, 0x02, 0x00, 0x00, 0x1c, 0x02, 0x00, 0x00, 0x14, 0x02, 0x00,
  0x00, 0x0c, 0x02, 0x00, 0x00, 0x04, 0x02, 0x00, 0x00, 0xfc, 0x01, 0x00, 0x00,
  0xf4, 0x01, 0x00, 0x00, 0xec, 0x01, 0x00, 0x00, 0xe4, 0x01, 0x00, 0x00, 0xdc,
  0x01, 0x00, 0x00, 0xd4, 0x01, 0x00, 0x00, 0xcc, 0x01, 0x00, 0x00, 0xc4, 0x01,
  0x00, 0x00, 0xbc, 0x01, 0x00, 0x00, 0xb4, 0x01, 0x00, 0x00, 0xac, 0x01, 0x00,
  0x00, 0xa4, 0x01, 0x00, 0x00, 0x9c, 0x01, 0x00, 0x00, 0x94, 0x01, 0x00, 0x00,
  0x8c, 0x01, 0x00, 0x00, 0x84, 0x01, 0x00, 0x00, 0x7c, 0x01, 0x00, 0x00, 0x74,
  0x01, 0x00, 0x00, 0x6c, 0x01, 0x00, 0x00, 0x64, 0x01, 0x00, 0x00, 0x5c, 0x01,
  0x00, 0x00, 0x54, 0x01, 0x00, 0x00, 0x4c, 0x01, 0x00, 0x00, 0x44, 0x01, 0x00,
  0x00, 0x3c, 0x01, 0x00, 0x00, 0x34, 0x01, 0x00, 0x00, 0x2c, 0x01, 0x00, 0x00,
  0x24, 0x01, 0x00, 0x00, 0x1c, 0x01, 0x00, 0x00, 0x14, 0x01, 0x00, 0x00, 0x0c,
  0x01, 0x00, 0x00, 0x04, 0x01, 0x00, 0x00, 0xfc, 0x00, 0x00, 0x00, 0xf4, 0x00,
  0x00, 0x00, 0xec, 0x00, 0x00, 0x00, 0xe4, 0x00, 0x00, 0x00, 0xdc, 0x00, 0x00,
  0x00, 0xd4, 0x00, 0x00, 0x00, 0xcc, 0x00, 0x00, 0x00, 0xc4, 0x00, 0x00, 0x00,
  0xbc, 0x00, 0x00, 0x00, 0xb4, 0x00, 0x00, 0x00, 0xac, 0x00, 0x00, 0x00, 0xa4,
  0x00, 0x00, 0x00, 0x9c, 0x00, 0x00, 0x00, 0x94, 0x00, 0x00, 0x00, 0x8c, 0x00,
  0x00, 0x00, 0x84, 0x00, 0x00, 0x00, 0x7c, 0x00, 0x00, 0x00, 0x74, 0x00, 0x00,
  0x00, 0x6c, 0x00, 0x00, 0x00, 0x64, 0x00, 0x00, 0x00, 0x5c, 0x00, 0x00, 0x00,
  0x54, 0x00, 0x00, 0x00, 0x4c, 0x00, 0x00, 0x00, 0x44, 0x00, 0x00, 0x00, 0x3c,
  0x00, 0x00, 0x00, 0x34, 0x00, 0x00, 0x00, 0x2c, 0x00, 0x00, 0x00, 0x24, 0x00,
  0x00, 0x00, 0x04, 0x00, 0x00, 0x00, 0x42, 0xbb, 0xff, 0xff, 0x04, 0x00, 0x00,
  0x00, 0x10, 0x00, 0x00, 0x00, 0x31, 0x2e, 0x31, 0x33, 0x2e, 0x31, 0x00, 0x00,
  0x00, 0x00, 0x00, 0x00, 0x00, 0x00, 0x00, 0x00, 0x28, 0x7c, 0xff, 0xff, 0x2c,
  0x7c, 0xff, 0xff, 0x30, 0x7c, 0xff, 0xff, 0x34, 0x7c, 0xff, 0xff, 0x38, 0x7c,
  0xff, 0xff, 0x3c, 0x7c, 0xff, 0xff, 0x40, 0x7c, 0xff, 0xff, 0x44, 0x7c, 0xff,
  0xff, 0x48, 0x7c, 0xff, 0xff, 0x4c, 0x7c, 0xff, 0xff, 0x50, 0x7c, 0xff, 0xff,
  0x54, 0x7c, 0xff, 0xff, 0x58, 0x7c, 0xff, 0xff, 0x5c, 0x7c, 0xff, 0xff, 0x60,
  0x7c, 0xff, 0xff, 0x64, 0x7c, 0xff, 0xff, 0x68, 0x7c, 0xff, 0xff, 0x6c, 0x7c,
  0xff, 0xff, 0x70, 0x7c, 0xff, 0xff, 0x74, 0x7c, 0xff, 0xff, 0x78, 0x7c, 0xff,
  0xff, 0x7c, 0x7c, 0xff, 0xff, 0x80, 0x7c, 0xff, 0xff, 0x84, 0x7c, 0xff, 0xff,
  0x88, 0x7c, 0xff, 0xff, 0x8c, 0x7c, 0xff, 0xff, 0x90, 0x7c, 0xff, 0xff, 0x94,
  0x7c, 0xff, 0xff, 0x98, 0x7c, 0xff, 0xff, 0x9c, 0x7c, 0xff, 0xff, 0xa0, 0x7c,
  0xff, 0xff, 0xa4, 0x7c, 0xff, 0xff, 0xa8, 0x7c, 0xff, 0xff, 0xac, 0x7c, 0xff,
  0xff, 0xb0, 0x7c, 0xff, 0xff, 0xb4, 0x7c, 0xff, 0xff, 0xb8, 0x7c, 0xff, 0xff,
  0xbc, 0x7c, 0xff, 0xff, 0xc0, 0x7c, 0xff, 0xff, 0xc4, 0x7c, 0xff, 0xff, 0xc8,
  0x7c, 0xff, 0xff, 0xcc, 0x7c, 0xff, 0xff, 0xd0, 0x7c, 0xff, 0xff, 0xd4, 0x7c,
  0xff, 0xff, 0xd8, 0x7c, 0xff, 0xff, 0xdc, 0x7c, 0xff, 0xff, 0xe0, 0x7c, 0xff,
  0xff, 0xe4, 0x7c, 0xff, 0xff, 0xe8, 0x7c, 0xff, 0xff, 0xec, 0x7c, 0xff, 0xff,
  0xf0, 0x7c, 0xff, 0xff, 0xf4, 0x7c, 0xff, 0xff, 0xf8, 0x7c, 0xff, 0xff, 0xfc,
  0x7c, 0xff, 0xff, 0x00, 0x7d, 0xff, 0xff, 0x04, 0x7d, 0xff, 0xff, 0x08, 0x7d,
  0xff, 0xff, 0x0c, 0x7d, 0xff, 0xff, 0x10, 0x7d, 0xff, 0xff, 0x14, 0x7d, 0xff,
  0xff, 0x18, 0x7d, 0xff, 0xff, 0x1c, 0x7d, 0xff, 0xff, 0x20, 0x7d, 0xff, 0xff,
  0x24, 0x7d, 0xff, 0xff, 0x5e, 0xbc, 0xff, 0xff, 0x04, 0x00, 0x00, 0x00, 0x04,
  0x00, 0x00, 0x00, 0xad, 0xd3, 0x4b, 0xba, 0x6e, 0xbc, 0xff, 0xff, 0x04, 0x00,
  0x00, 0x00, 0x14, 0x00, 0x00, 0x00, 0x08, 0x20, 0xb5, 0xbe, 0x0f, 0x9c, 0xee,
  0xbd, 0x6d, 0x10, 0x02, 0x3e, 0x37, 0x38, 0x1a, 0xbe, 0xa6, 0xb8, 0x24, 0xbf,
  0x8e, 0xbc, 0xff, 0xff, 0x04, 0x00, 0x00, 0x00, 0x14, 0x00, 0x00, 0x00, 0xa6,
  0x5e, 0x95, 0x3e, 0x71, 0x67, 0xa5, 0xbd, 0xd6, 0x0b, 0x63, 0xbd, 0xdf, 0x33,
  0x71, 0xbd, 0xfc, 0xf6, 0x97, 0xbd, 0xae, 0xbc, 0xff, 0xff, 0x04, 0x00, 0x00,
  0x00, 0x1c, 0x00, 0x00, 0x00, 0xd4, 0xc4, 0x41, 0xbe, 0xba, 0xb7, 0x8b, 0x3f,
  0xb6, 0xdf, 0xf9, 0x3e, 0x9e, 0xf7, 0x15, 0x3f, 0x5b, 0xa1, 0x98, 0xbe, 0xb4,
  0xdf, 0x09, 0x3f, 0x58, 0xbf, 0xcf, 0xbe, 0xd6, 0xbc, 0xff, 0xff, 0x04, 0x00,
  0x00, 0x00, 0x24, 0x00, 0x00, 0x00, 0x50, 0x08, 0x20, 0x3f, 0x2d, 0xbb, 0x67,
  0xbe, 0xeb, 0x63, 0xc7, 0x3e, 0x02, 0xc0, 0xe7, 0xbe, 0x62, 0x8f, 0x87, 0x3d,
  0xce, 0xb2, 0x4c, 0xbf, 0xc7, 0xac, 0xed, 0x3d, 0x25, 0x96, 0xf2, 0xbe, 0xec,
  0xd3, 0x53, 0x3f, 0x06, 0xbd, 0xff, 0xff, 0x04, 0x00, 0x00, 0x00, 0x30, 0x00,
  0x00, 0x00, 0xef, 0x0c, 0xf8, 0xbe, 0xc1, 0x5c, 0xaa, 0xbd, 0xcc, 0x92, 0xba,
  0xbe, 0x73, 0xc1, 0x98, 0x3e, 0x0c, 0x6c, 0xd3, 0xbe, 0x87, 0x69, 0xc0, 0xbe,
  0xaf, 0xf3, 0x72, 0xbe, 0xc0, 0xce, 0x4d, 0x3e, 0xed, 0x7d, 0xb3, 0x3f, 0x60,
  0x56, 0x26, 0xbf, 0xfc, 0x6f, 0x0f, 0x3f, 0xb8, 0x87, 0xb7, 0x3e, 0x42, 0xbd,
  0xff, 0xff, 0x04, 0x00, 0x00, 0x00, 0x3c, 0x00, 0x00, 0x00, 0xc3, 0x9a, 0x2f,
  0xbc, 0xec, 0x60, 0xab, 0xbe, 0x70, 0xb3, 0xce, 0xbe, 0x81, 0x5e, 0x08, 0x3d,
  0xc3, 0x43, 0x0b, 0x3f, 0x9a, 0x45, 0xd1, 0x3e, 0xba, 0x1d, 0x7e, 0xbd, 0x1f,
  0x95, 0x4b, 0xbd, 0xc6, 0xe6, 0xc9, 0xbe, 0x1d, 0x05, 0x0e, 0x3d, 0x5d, 0x60,
  0xe0, 0xbe, 0x43, 0xcf, 0xef, 0xbd, 0xd2, 0x67, 0xe3, 0xbe, 0x40, 0x79, 0xf1,
  0x3e, 0x4d, 0xd1, 0x8f, 0x3e, 0x8a, 0xbd, 0xff, 0xff, 0x04, 0x00, 0x00, 0x00,
  0x50, 0x00, 0x00, 0x00, 0xe1, 0x8e, 0xc9, 0x3e, 0x5c, 0x25, 0x42, 0xbf, 0x17,
  0xe2, 0xf3, 0x3f, 0xba, 0x2b, 0x12, 0xc0, 0x24, 0xc3, 0x1d, 0xc1, 0x05, 0x2b,
  0x36, 0xc0, 0x0d, 0xd3, 0xd3, 0x3f, 0x28, 0x9e, 0x60, 0x40, 0x9a, 0x68, 0x2b,
  0x40, 0x4a, 0x88, 0x95, 0x40, 0x07, 0xa2, 0x1f, 0xc0, 0xc2, 0x21, 0x86, 0xbe,
  0x05, 0x02, 0x86, 0xbf, 0xdb, 0x9d, 0xe9, 0xbf, 0x44, 0x6d, 0x8d, 0xbf, 0x01,
  0x44, 0xe0, 0xc0, 0xe4, 0x50, 0xfa, 0x3f, 0xc8, 0xfa, 0x01, 0xc0, 0x33, 0x38,
  0x09, 0x40, 0xdf, 0x8f, 0xbb, 0xbf, 0xe6, 0xbd, 0xff, 0xff, 0x04, 0x00, 0x00,
  0x00, 0x14, 0x00, 0x00, 0x00, 0xed, 0x11, 0x01, 0xbd, 0xd2, 0x40, 0xfb, 0x3c,
  0xde, 0x2d, 0x47, 0x3d, 0x69, 0xe9, 0xe2, 0xbc, 0x07, 0x66, 0xaa, 0xbc, 0x06,
  0xbe, 0xff, 0xff, 0x04, 0x00, 0x00, 0x00, 0x04, 0x00, 0x00, 0x00, 0x00, 0x00,
  0x00, 0x00, 0x16, 0xbe, 0xff, 0xff, 0x04, 0x00, 0x00, 0x00, 0x8c, 0x00, 0x00,
  0x00, 0x23, 0x31, 0xdb, 0xbc, 0x3f, 0x4c, 0x0d, 0x3e, 0xe1, 0x22, 0xbf, 0xbb,
  0xb1, 0x54, 0xc2, 0x3c, 0x62, 0x31, 0x80, 0x3c, 0xd9, 0xa7, 0xf0, 0xbd, 0x89,
  0x59, 0xcb, 0x3b, 0x8d, 0xcd, 0x29, 0x3d, 0xa2, 0xce, 0xc9, 0xbc, 0xa2, 0x05,
  0x9b, 0xbb, 0x7e, 0xc0, 0x8b, 0x3d, 0x22, 0xa8, 0x48, 0xbd, 0x23, 0x00, 0x09,
  0xbd, 0x2c, 0xb0, 0x27, 0x3d, 0x65, 0xd5, 0x3a, 0x3c, 0x4a, 0xe2, 0x6e, 0x3d,
  0xdf, 0xee, 0x22, 0x3c, 0x97, 0xb2, 0xc9, 0xbb, 0x75, 0x8e, 0x9e, 0xbd, 0x34,
  0x71, 0x7e, 0xbd, 0x62, 0xb0, 0x53, 0xbe, 0x20, 0x71, 0xb0, 0x3d, 0x42, 0xad,
  0x56, 0xbd, 0x8e, 0x07, 0xee, 0xbb, 0x15, 0xf5, 0xcc, 0x3a, 0x03, 0xd6, 0x9f,
  0x3e, 0x10, 0x9d, 0x18, 0xbe, 0x7e, 0x0c, 0x8a, 0x3e, 0x51, 0x3a, 0x06, 0x3e,
  0x81, 0xbd, 0xea, 0x3d, 0xf0, 0x4c, 0x38, 0xbe, 0x9e, 0x7a, 0xfe, 0xbd, 0x82,
  0x53, 0x47, 0x3e, 0x4c, 0xc8, 0x3e, 0x3e, 0x8e, 0xba, 0xc8, 0x3d, 0xae, 0xbe,
  0xff, 0xff, 0x04, 0x00, 0x00, 0x00, 0x14, 0x00, 0x00, 0x00, 0x00, 0x00, 0x00,
  0x00, 0x00, 0x00, 0x00, 0x00, 0x00, 0x00, 0x00, 0x00, 0x00, 0x00, 0x00, 0x00,
  0x00, 0x00, 0x00, 0x00, 0xce, 0xbe, 0xff, 0xff, 0x04, 0x00, 0x00, 0x00, 0x8c,
  0x00, 0x00, 0x00, 0xb3, 0x28, 0x85, 0x3d, 0x2c, 0x37, 0x0c, 0x3e, 0x4e, 0xd7,
  0x05, 0x3d, 0x57, 0xa6, 0x72, 0xbe, 0x60, 0x5e, 0xa3, 0xb8, 0xdd, 0x98, 0x35,
  0x3e, 0x6f, 0xf9, 0x5f, 0x3e, 0xca, 0x5d, 0x0c, 0x3d, 0xd0, 0xf6, 0x29, 0xbe,
  0xcb, 0xa4, 0x71, 0xbe, 0x49, 0xae, 0x81, 0x3e, 0xb7, 0x4e, 0xdb, 0x3d, 0xa8,
  0xb8, 0xfd, 0xbe, 0x60, 0xce, 0x3a, 0x3c, 0xbf, 0xf4, 0x2b, 0xbe, 0x8f, 0x46,
  0x8e, 0x3c, 0xe8, 0x5d, 0x2e, 0xbc, 0x06, 0xb2, 0xfb, 0x3d, 0x81, 0x93, 0x40,
  0xbe, 0x0e, 0xc7, 0x17, 0x3e, 0x87, 0x75, 0x48, 0xbd, 0x73, 0xec, 0x9d, 0xba,
  0xd8, 0xb1, 0x95, 0x3d, 0x95, 0x89, 0x2e, 0x3e, 0x0b, 0x8a, 0xde, 0x3e, 0x30,
  0x60, 0x04, 0x3d, 0x12, 0x91, 0x66, 0x3c, 0x61, 0x20, 0xb0, 0xbc, 0xef, 0x02,
  0xc1, 0x3d, 0x13, 0x2c, 0xeb, 0xbc, 0x03, 0x98, 0xb6, 0x3c, 0x4d, 0x86, 0x12,
  0x3d, 0x55, 0x62, 0xef, 0x3c, 0x42, 0x12, 0x0c, 0x3e, 0x0f, 0x0a, 0x51, 0xbd,
  0x66, 0xbf, 0xff, 0xff, 0x04, 0x00, 0x00, 0x00, 0x64, 0x00, 0x00, 0x00, 0x45,
  0x93, 0x2c, 0x3e, 0x27, 0xb6, 0xfe, 0x3e, 0xba, 0x76, 0x74, 0x3e, 0xf8, 0x10,
  0x5f, 0xbe, 0x85, 0x76, 0xe9, 0xbd, 0xd3, 0xbc, 0xc7, 0xbd, 0x86, 0x9e, 0x23,
  0x3f, 0xee, 0x17, 0x1a, 0xbe, 0xf2, 0xb5, 0xd4, 0x3d, 0xba, 0x9d, 0xde, 0x3f,
  0x87, 0x11, 0x00, 0xbe, 0x50, 0x59, 0x52, 0x3f, 0x49, 0x49, 0xaf, 0xbe, 0xcc,
  0x44, 0xc8, 0xbe, 0xdd, 0x00, 0x01, 0x3c, 0x0c, 0x51, 0xb0, 0xbe, 0xa3, 0x05,
  0x42, 0x3f, 0xc3, 0xeb, 0x9b, 0xbf, 0xb9, 0x9a, 0x28, 0xbf, 0x96, 0x39, 0x64,
  0x3c, 0xa9, 0x7d, 0xa3, 0x3f, 0xbf, 0x59, 0x90, 0xbf, 0x12, 0x10, 0xd0, 0x3e,
  0xaf, 0x22, 0x76, 0x3f, 0x31, 0xd1, 0x4f, 0xbe, 0xd6, 0xbf, 0xff, 0xff, 0x04,
  0x00, 0x00, 0x00, 0x64, 0x00, 0x00, 0x00, 0xcd, 0xc7, 0xa5, 0x3e, 0xac, 0xcd,
  0xc1, 0xbc, 0xb4, 0x22, 0x6c, 0x3e, 0x53, 0x10, 0x8c, 0xbe, 0x49, 0x3e, 0xf6,
  0x3e, 0x27, 0x2d, 0x33, 0xbe, 0x7c, 0xfc, 0xdc, 0x3d, 0x1d, 0xda, 0xe8, 0xbd,
  0x60, 0xfe, 0x94, 0xbe, 0xd8, 0x23, 0x6d, 0xbe, 0xa8, 0xf4, 0x79, 0x3f, 0x07,
  0xe0, 0x5a, 0x3f, 0x39, 0xd6, 0x78, 0x3f, 0xa2, 0x8f, 0x02, 0xbf, 0x6b, 0x22,
  0x81, 0xbf, 0xa0, 0x15, 0x38, 0x3e, 0x7e, 0x11, 0x59, 0x3f, 0xb7, 0x8e, 0x28,
  0x3d, 0x7f, 0xd5, 0x2b, 0xbf, 0x84, 0xa0, 0x10, 0x3f, 0x70, 0x74, 0xc5, 0x3d,
  0x87, 0x32, 0x6c, 0xbe, 0x39, 0x75, 0xdd, 0x3d, 0x3c, 0x8d, 0x9b, 0x3d, 0x9b,
  0x21, 0xa6, 0x3e, 0x46, 0xc0, 0xff, 0xff, 0x04, 0x00, 0x00, 0x00, 0x64, 0x00,
  0x00, 0x00, 0x80, 0xf2, 0x18, 0xbd, 0xb6, 0x2f, 0x7d, 0x3e, 0x46, 0x31, 0xd8,
  0x3d, 0x5a, 0x06, 0xc6, 0xbd, 0xdd, 0x69, 0x14, 0xbe, 0x9e, 0x24, 0x69, 0x3f,
  0x4e, 0x9a, 0x1c, 0xbf, 0x9c, 0x17, 0x37, 0x3e, 0xe1, 0x3d, 0x6d, 0xbe, 0x92,
  0x6c, 0xd9, 0x3e, 0x46, 0x4f, 0x2d, 0xbf, 0x47, 0xd6, 0x2e, 0x3f, 0xe7, 0xe7,
  0x5a, 0xbf, 0x3b, 0x8e, 0xf7, 0xbe, 0x01, 0xa1, 0x1d, 0xbf, 0xe1, 0x12, 0xa2,
  0x3e, 0xe4, 0x5b, 0xf4, 0xbe, 0x03, 0xeb, 0x2e, 0xbe, 0xc3, 0x8c, 0x9e, 0x3e,
  0xad, 0x64, 0xf8, 0x3d, 0xbe, 0x19, 0xd7, 0x3e, 0x4e, 0x10, 0x04, 0x3e, 0xe9,
  0x35, 0xbd, 0x3e, 0xf1, 0xd6, 0x6c, 0xbf, 0xec, 0x2e, 0x77, 0xbf, 0xb6, 0xc0,
  0xff, 0xff, 0x04, 0x00, 0x00, 0x00, 0x64, 0x00, 0x00, 0x00, 0xdb, 0x44, 0x46,
  0xbf, 0x3b, 0x79, 0x65, 0x3d, 0x88, 0x57, 0x23, 0x3f, 0x29, 0x01, 0xb7, 0x3f,
  0xe2, 0x8b, 0x4a, 0xbf, 0x56, 0x34, 0x92, 0xbe, 0x69, 0xd9, 0x63, 0x3e, 0xa3,
  0x13, 0x27, 0xbe, 0xf7, 0x71, 0x38, 0x3f, 0x48, 0xa1, 0x4c, 0xbe, 0xac, 0xf8,
  0xeb, 0x3e, 0xd3, 0x7b, 0xaf, 0xbc, 0x8e, 0x6f, 0x4e, 0x3e, 0x5d, 0x1f, 0xcf,
  0xbf, 0x7e, 0x3b, 0xb9, 0x3e, 0x84, 0xfb, 0xee, 0x3e, 0xe0, 0xdf, 0xe8, 0x3e,
  0x94, 0xd8, 0x6d, 0xbf, 0xda, 0x9e, 0x16, 0xbf, 0x20, 0x9e, 0xe8, 0x3e, 0x3b,
  0x61, 0xea, 0x3e, 0xa6, 0x1f, 0xbd, 0x3f, 0x55, 0xf0, 0x14, 0x3e, 0x39, 0x77,
  0x42, 0xbc, 0x34, 0xf8, 0x3e, 0xbf, 0x26, 0xc1, 0xff, 0xff, 0x04, 0x00, 0x00,
  0x00, 0x64, 0x00, 0x00, 0x00, 0x52, 0x10, 0xc8, 0xbe, 0xad, 0xf8, 0xf7, 0xbe,
  0x8d, 0x91, 0xb6, 0xbe, 0x41, 0x88, 0x05, 0xbe, 0x35, 0x10, 0x55, 0x3e, 0xfc,
  0x57, 0x70, 0xbe, 0xe0, 0xa6, 0x13, 0x3e, 0xc5, 0x63, 0x29, 0x3f, 0xa9, 0x1a,
  0x43, 0x3f, 0xc6, 0xff, 0x4b, 0x3f, 0xa0, 0xa3, 0x8d, 0xbe, 0xff, 0x56, 0x5c,
  0xbf, 0xca, 0x55, 0x99, 0x3e, 0xf6, 0xad, 0x11, 0x3f, 0x20, 0x70, 0xb0, 0xbc,
  0x3a, 0xdc, 0xda, 0xbe, 0x8e, 0xcf, 0x5e, 0x3e, 0xf0, 0x10, 0x90, 0xbd, 0x1d,
  0x14, 0x14, 0xbd, 0xec, 0x33, 0x0f, 0x3f, 0x2b, 0x7c, 0xde, 0xbe, 0x1d, 0x34,
  0x09, 0xbf, 0x33, 0x58, 0x2c, 0xbd, 0x19, 0x0f, 0x0a, 0x3d, 0x0e, 0xe0, 0xa7,
  0x3e, 0x96, 0xc1, 0xff, 0xff, 0x04, 0x00, 0x00, 0x00, 0x64, 0x00, 0x00, 0x00,
  0x17, 0x27, 0x8e, 0x3e, 0xc9, 0x7b, 0x0d, 0x3f, 0xcb, 0xef, 0x09, 0x3f, 0xe1,
  0x00, 0x85, 0x3e, 0xd2, 0x66, 0x1c, 0x3f, 0x7c, 0x83, 0x07, 0x3f, 0xb1, 0x68,
  0x58, 0x3f, 0x14, 0x88, 0xae, 0xbe, 0x36, 0xd6, 0x1a, 0x3d, 0xd8, 0xaa, 0x43,
  0x3f, 0xa9, 0xc6, 0xb7, 0x3e, 0x53, 0xb7, 0x97, 0x3e, 0x20, 0x59, 0xfc, 0x3e,
  0x1e, 0x94, 0xc9, 0xbd, 0xff, 0xed, 0x01, 0x3f, 0x47, 0x91, 0x5e, 0xbe, 0xdc,
  0xa0, 0x50, 0xbd, 0x3d, 0x61, 0x23, 0x3d, 0xcd, 0xf2, 0x54, 0x3f, 0x85, 0xba,
  0x89, 0x3c, 0x07, 0xb0, 0x2b, 0xbe, 0x33, 0x3b, 0x05, 0x3d, 0x0d, 0x25, 0x19,
  0x3c, 0x40, 0xec, 0xbf, 0x3e, 0x06, 0x9b, 0xa7, 0x3d, 0x06, 0xc2, 0xff, 0xff,
  0x04, 0x00, 0x00, 0x00, 0x8c, 0x00, 0x00, 0x00, 0x92, 0xb0, 0xd0, 0x3e, 0x33,
  0x31, 0xb4, 0x3e, 0xd1, 0x2a, 0x0e, 0xbc, 0xcb, 0xb8, 0xa6, 0x3e, 0x8f, 0x19,
  0x13, 0x3d, 0xa9, 0xf8, 0xf0, 0xbe, 0x86, 0x1c, 0x40, 0x3e, 0xde, 0xac, 0xa6,
  0xbe, 0xc9, 0x1b, 0x73, 0x3e, 0x78, 0x71, 0x42, 0x3d, 0x33, 0xbb, 0xa5, 0x3e,
  0x78, 0x52, 0xee, 0x3e, 0x7f, 0x6e, 0xc7, 0x3e, 0x4d, 0x98, 0xbd, 0xbe, 0xe1,
  0x61, 0x03, 0x3f, 0x35, 0x8a, 0xa8, 0xbe, 0xe4, 0xe6, 0x39, 0x3f, 0x17, 0xfa,
  0x8f, 0x3d, 0x1a, 0x4a, 0xbd, 0x3d, 0xab, 0x5c, 0xaa, 0xbe, 0x53, 0x07, 0xbc,
  0xbd, 0x36, 0xc8, 0x2a, 0x3d, 0xfd, 0x83, 0x38, 0xbf, 0x68, 0x6c, 0x57, 0x3c,
  0xc2, 0xbf, 0x66, 0x3c, 0x93, 0xfb, 0x6f, 0x3c, 0x0e, 0xaf, 0x0a, 0xbe, 0xce,
  0xbb, 0x56, 0x3e, 0x1b, 0x7f, 0xcf, 0x3e, 0xa6, 0xd1, 0xe5, 0xbe, 0x66, 0xe2,
  0x29, 0x3e, 0x8d, 0x86, 0xba, 0x3d, 0xcf, 0xf8, 0xb4, 0xbd, 0xb8, 0xcb, 0xaf,
  0xbe, 0x0a, 0xf6, 0xd2, 0x3e, 0x9e, 0xc2, 0xff, 0xff, 0x04, 0x00, 0x00, 0x00,
  0x8c, 0x00, 0x00, 0x00, 0xdf, 0x03, 0x57, 0xbe, 0x2a, 0xa8, 0x84, 0xbe, 0xea,
  0xef, 0xa3, 0xbe, 0x96, 0x12, 0x61, 0x3e, 0xab, 0xa3, 0xaa, 0xbe, 0x32, 0xcb,
  0x97, 0xbe, 0x2f, 0xae, 0x69, 0x3e, 0x74, 0x7f, 0xf2, 0xbe, 0xa5, 0x4f, 0x1e,
  0xbe, 0x9f, 0x67, 0x46, 0x3e, 0x5b, 0xb0, 0x34, 0xbd, 0x96, 0x33, 0x37, 0x3e,
  0xe3, 0x90, 0x85, 0xbe, 0x1c, 0x0e, 0x3a, 0x3e, 0x61, 0xb4, 0x6c, 0xbe, 0xf4,
  0x68, 0x44, 0xbd, 0x9c, 0x41, 0x5d, 0xbc, 0xe6, 0x54, 0x52, 0xbe, 0xc1, 0x91,
  0x48, 0xbc, 0xcf, 0xd9, 0x84, 0xbe, 0xf8, 0xa4, 0xd2, 0x3d, 0xd4, 0xc3, 0x45,
  0x3d, 0x6e, 0x78, 0x96, 0x3d, 0x1e, 0x8d, 0x26, 0x3e, 0x45, 0x65, 0xec, 0x3d,
  0x4a, 0x0e, 0x1b, 0x3e, 0xe7, 0x8d, 0x90, 0x3d, 0xcf, 0xed, 0xda, 0x3d, 0x1b,
  0xa5, 0x80, 0x3c, 0x6c, 0x15, 0x85, 0xbb, 0x69, 0x1c, 0x78, 0x3b, 0x87, 0x93,
  0x94, 0x3e, 0xa5, 0x47, 0x82, 0xbe, 0xc7, 0x1f, 0x25, 0x3e, 0x69, 0xfd, 0x7b,
  0xbb, 0x36, 0xc3, 0xff, 0xff, 0x04, 0x00, 0x00, 0x00, 0x1c, 0x00, 0x00, 0x00,
  0x00, 0x00, 0x00, 0x00, 0x00, 0x00, 0x00, 0x00, 0x00, 0x00, 0x00, 0x00, 0x00,
  0x00, 0x00, 0x00, 0x00, 0x00, 0x00, 0x00, 0x00, 0x00, 0x00, 0x00, 0x00, 0x00,
  0x00, 0x00, 0x5e, 0xc3, 0xff, 0xff, 0x04, 0x00, 0x00, 0x00, 0x8c, 0x00, 0x00,
  0x00, 0x70, 0x1d, 0x33, 0xbe, 0x0e, 0x6b, 0xab, 0x3e, 0x70, 0xab, 0xb5, 0x3d,
  0xe2, 0x25, 0xb9, 0x3d, 0x0a, 0x8f, 0x0b, 0x3e, 0x89, 0x61, 0xd0, 0x3d, 0xb4,
  0xa6, 0xa7, 0x3e, 0x9b, 0xa1, 0x57, 0xbe, 0x3e, 0x70, 0x49, 0xbc, 0x4b, 0xbd,
  0x19, 0x3e, 0x5e, 0x1a, 0x5b, 0xbe, 0x17, 0x88, 0x8e, 0xbe, 0x6f, 0x0d, 0x75,
  0x3e, 0x7f, 0x7d, 0xce, 0x3c, 0x85, 0xb3, 0x32, 0xbe, 0x5c, 0x41, 0xba, 0xbe,
  0xa1, 0x66, 0xd4, 0x3e, 0x24, 0xa7, 0xbb, 0x3e, 0x69, 0x43, 0xb8, 0x3e, 0xb0,
  0x3c, 0xd6, 0xbe, 0x49, 0xb0, 0x05, 0xbe, 0x5e, 0x34, 0x20, 0x3f, 0x3f, 0xc7,
  0x85, 0x3e, 0x68, 0xf7, 0x43, 0x3e, 0x85, 0x5b, 0x38, 0xbd, 0xb5, 0x40, 0x85,
  0x3c, 0xf4, 0x4e, 0x5a, 0xbd, 0xdd, 0x3d, 0xa7, 0xbe, 0x84, 0x64, 0xd7, 0xbd,
  0x5d, 0x47, 0x17, 0xbe, 0xa9, 0x9f, 0x99, 0x3d, 0x5a, 0x24, 0x3a, 0x3e, 0x21,
  0x67, 0x37, 0x3e, 0xfa, 0x58, 0x81, 0xbd, 0x2b, 0xe8, 0x56, 0x3d, 0xf6, 0xc3,
  0xff, 0xff, 0x04, 0x00, 0x00, 0x00, 0x64, 0x00, 0x00, 0x00, 0x63, 0x48, 0x03,
  0x3f, 0x5b, 0x7b, 0x1e, 0x3e, 0xc1, 0xe4, 0xab, 0xbf, 0x74, 0x2b, 0x6e, 0x3f,
  0x2c, 0xd0, 0x14, 0xbe, 0x5d, 0x03, 0x91, 0x3d, 0x97, 0x10, 0xeb, 0xbd, 0x40,
  0x1d, 0x4a, 0xbc, 0xe2, 0x31, 0x9f, 0x3e, 0xec, 0x5b, 0x37, 0xbd, 0x3a, 0x3a,
  0x3a, 0x3f, 0x93, 0x59, 0x99, 0xbe, 0xc1, 0x5a, 0xb4, 0xbe, 0x59, 0xf9, 0x33,
  0x3e, 0x01, 0x46, 0x3f, 0xbf, 0xea, 0xf2, 0x49, 0x3f, 0xfb, 0x3c, 0x6c, 0xbf,
  0x98, 0xa6, 0xdb, 0xbe, 0xeb, 0xfd, 0x39, 0x3d, 0xb7, 0x00, 0x26, 0xbf, 0x0a,
  0x33, 0x51, 0xbe, 0xe8, 0xb3, 0x4b, 0x3d, 0xd8, 0x06, 0xaa, 0xbd, 0x3c, 0x5e,
  0xa8, 0x3e, 0x57, 0xac, 0x90, 0x3d, 0x66, 0xc4, 0xff, 0xff, 0x04, 0x00, 0x00,
  0x00, 0x64, 0x00, 0x00, 0x00, 0x6e, 0x25, 0x65, 0xbd, 0xef, 0xbd, 0x34, 0x3e,
  0x21, 0xb9, 0x3a, 0x3f, 0x62, 0xb5, 0x28, 0x3e, 0x02, 0x1a, 0xb6, 0x3e, 0x38,
  0x9f, 0x01, 0xbf, 0x49, 0x8e, 0xa5, 0x3e, 0x9e, 0x11, 0x82, 0xbf, 0x31, 0x00,
  0x1f, 0x3f, 0x74, 0x2d, 0x16, 0x3f, 0x9f, 0x61, 0x88, 0xbe, 0xd3, 0x90, 0xb1,
  0x3e, 0xde, 0x26, 0xb9, 0x3f, 0xf4, 0xf6, 0x37, 0xbf, 0x7f, 0x5c, 0x5a, 0xbd,
  0x0c, 0x23, 0x47, 0x3e, 0x5c, 0x7d, 0xe7, 0x3d, 0x2c, 0xfc, 0xf1, 0x3d, 0xab,
  0xa2, 0x10, 0xbe, 0x32, 0x71, 0x10, 0x3b, 0x6a, 0x61, 0xa0, 0xbd, 0x12, 0x86,
  0x4a, 0xbd, 0x57, 0xbb, 0xde, 0xbd, 0xa5, 0xc0, 0x01, 0x3f, 0x79, 0xf0, 0x3a,
  0x3c, 0xd6, 0xc4, 0xff, 0xff, 0x04, 0x00, 0x00, 0x00, 0x64, 0x00, 0x00, 0x00,
  0xa1, 0x2a, 0x13, 0x3f, 0xe2, 0x52, 0xd6, 0x3e, 0x9f, 0x29, 0xc5, 0x3e, 0x64,
  0x6c, 0x10, 0x3e, 0x30, 0x54, 0xad, 0xbe, 0xb5, 0xc8, 0x17, 0xbe, 0xfe, 0x64,
  0xd9, 0xbd, 0xc1, 0x13, 0x45, 0xbf, 0xe5, 0xa1, 0xad, 0xbe, 0xed, 0xe4, 0xc3,
  0x3e, 0x83, 0xa0, 0x93, 0xbd, 0xb0, 0x7b, 0xe9, 0xbe, 0xfe, 0x2c, 0xab, 0x3f,
  0xbc, 0x4d, 0xec, 0x3e, 0x5d, 0xc3, 0x13, 0xbf, 0x0a, 0xf7, 0x2d, 0xbd, 0x0d,
  0xf2, 0x29, 0x3e, 0x60, 0xdb, 0x35, 0x3e, 0x5c, 0x51, 0xeb, 0x3e, 0x79, 0xd8,
  0x34, 0x3e, 0x8d, 0xee, 0x3c, 0xbc, 0x54, 0x1f, 0xd6, 0x3e, 0x6b, 0xff, 0xb2,
  0x3e, 0xaa, 0x47, 0x1e, 0x3d, 0x82, 0x77, 0x9a, 0x3d, 0x46, 0xc5, 0xff, 0xff,
  0x04, 0x00, 0x00, 0x00, 0x8c, 0x00, 0x00, 0x00, 0x66, 0xa9, 0x66, 0x3f, 0x6e,
  0xae, 0x41, 0xbf, 0xbe, 0x0d, 0xd1, 0xbd, 0x9a, 0xb0, 0xbb, 0xbc, 0xfe, 0x38,
  0x0d, 0x3e, 0xbf, 0x49, 0xc3, 0x3d, 0x06, 0xa2, 0x66, 0xbe, 0xdc, 0xa6, 0xf6,
  0x3d, 0x6a, 0xba, 0x03, 0xbf, 0x8a, 0x18, 0xce, 0xbe, 0x6b, 0x66, 0x30, 0xbd,
  0xec, 0x4d, 0x6e, 0xbf, 0x0a, 0x3f, 0x93, 0x3e, 0x71, 0xf4, 0x38, 0xbf, 0xcf,
  0x0d, 0x88, 0xbc, 0x96, 0xd8, 0x5c, 0xbc, 0xd3, 0x27, 0xb4, 0xbd, 0x3a, 0xae,
  0xa2, 0xbe, 0xc0, 0xfc, 0x96, 0x3d, 0x72, 0x4b, 0xa5, 0xbd, 0xea, 0x21, 0xc0,
  0xbd, 0xcd, 0x00, 0xca, 0xbd, 0xb6, 0x64, 0x2e, 0x3e, 0xc0, 0x9a, 0x66, 0xbc,
  0x62, 0x9a, 0x26, 0xbf, 0xc2, 0xa3, 0x69, 0x3e, 0xb9, 0xd5, 0xb4, 0xbe, 0xd1,
  0x3e, 0x26, 0xbf, 0xcc, 0xd6, 0xef, 0x3e, 0xe7, 0xf3, 0xb1, 0x3d, 0xee, 0x94,
  0x43, 0xbf, 0x0f, 0x05, 0xf5, 0x3d, 0x1d, 0xdc, 0xe2, 0xbd, 0xc6, 0x8f, 0xd5,
  0xbe, 0x1b, 0x9e, 0x0d, 0x3d, 0xde, 0xc5, 0xff, 0xff, 0x04, 0x00, 0x00, 0x00,
  0x8c, 0x00, 0x00, 0x00, 0x5e, 0x3c, 0xb8, 0xbd, 0xbb, 0xf3, 0xc2, 0xbc, 0x21,
  0x69, 0xac, 0xbc, 0x0a, 0x4b, 0xad, 0xbe, 0xaa, 0x05, 0x82, 0x3e, 0x34, 0x55,
  0x51, 0x3e, 0x08, 0xde, 0x6e, 0xbe, 0x43, 0x7f, 0x1f, 0xbe, 0xd7, 0x8a, 0xe8,
  0x3e, 0x56, 0x1f, 0xa7, 0xbe, 0x65, 0x8c, 0xe2, 0xbd, 0x87, 0x2d, 0x03, 0x3e,
  0xec, 0x2c, 0x13, 0xbf, 0xe7, 0xe3, 0xa7, 0x3c, 0x63, 0xd6, 0xd9, 0xbe, 0x1d,
  0x85, 0xcd, 0x3e, 0x75, 0xdc, 0x9d, 0xbe, 0x63, 0x9d, 0xbe, 0xbe, 0x57, 0xa1,
  0x93, 0x3e, 0xaf, 0x1d, 0xd0, 0xbe, 0x28, 0x93, 0xaa, 0x3b, 0x8e, 0x08, 0x6d,
  0xbe, 0xe1, 0xee, 0x8b, 0x3d, 0x8c, 0x35, 0xff, 0xbd, 0xc0, 0x22, 0xf9, 0xbe,
  0xb5, 0x92, 0xd5, 0x3d, 0x2c, 0xa4, 0xdf, 0xbd, 0x27, 0x1a, 0x6c, 0xbd, 0x78,
  0x53, 0x59, 0xbd, 0x11, 0x40, 0x04, 0xbd, 0x6f, 0x6c, 0xce, 0xbd, 0x81, 0xbe,
  0x46, 0xbe, 0x74, 0x04, 0x70, 0x3e, 0xf2, 0x23, 0xd5, 0x3d, 0xe3, 0x32, 0x1b,
  0xbe, 0x76, 0xc6, 0xff, 0xff, 0x04, 0x00, 0x00, 0x00, 0x8c, 0x00, 0x00, 0x00,
  0xea, 0x55, 0x5a, 0x3e, 0xec, 0x0a, 0x89, 0x3e, 0x2e, 0x62, 0xf5, 0x3d, 0x01,
  0xf0, 0xc6, 0xbd, 0x9d, 0x55, 0xdf, 0x3e, 0xf6, 0x2f, 0x96, 0x3e, 0x0a, 0x27,
  0x9a, 0xbd, 0xc3, 0x4c, 0x3f, 0x3e, 0x49, 0x9d, 0x4e, 0x3e, 0xef, 0x28, 0x82,
  0xbe, 0x81, 0x5d, 0x26, 0xbe, 0xad, 0x59, 0x1b, 0xbf, 0xdc, 0x94, 0xb3, 0xbd,
  0xab, 0x8b, 0x03, 0xbf, 0xe1, 0x05, 0x06, 0xbe, 0x66, 0x91, 0xac, 0xbe, 0xca,
  0x88, 0x69, 0xbe, 0x2a, 0x0e, 0xa8, 0xbe, 0x24, 0xd8, 0x1c, 0x3f, 0xf8, 0x8d,
  0x4b, 0xbf, 0x05, 0xf9, 0x88, 0x3e, 0x8e, 0x34, 0x29, 0xbf, 0x06, 0xf4, 0xe3,
  0xbe, 0x7b, 0x67, 0x34, 0x3f, 0xe8, 0xa7, 0xe7, 0xbd, 0xe7, 0xd9, 0x81, 0xbe,
  0xdb, 0x32, 0xa0, 0x3e, 0xb6, 0x58, 0xf7, 0xbe, 0x59, 0x6a, 0x1f, 0xbe, 0xb1,
  0x92, 0xb9, 0x3e, 0x72, 0xc7, 0x93, 0xbd, 0x65, 0xbc, 0x68, 0xbd, 0x1c, 0xa5,
  0x85, 0xbb, 0x02, 0x9a, 0x2a, 0xbd, 0x46, 0x91, 0xa8, 0x3e, 0x0e, 0xc7, 0xff,
  0xff, 0x04, 0x00, 0x00, 0x00, 0xfc, 0x00, 0x00, 0x00, 0x67, 0x01, 0x87, 0x3e,
  0xbe, 0xc9, 0x49, 0x3c, 0xc8, 0x1b, 0x93, 0xbd, 0x73, 0x98, 0xcf, 0xbd, 0xca,
  0x3a, 0x91, 0xbd, 0x59, 0xd4, 0x6e, 0xbf, 0x7a, 0xa6, 0xac, 0x3e, 0xdd, 0xa7,
  0x9d, 0x3e, 0x53, 0x51, 0x5b, 0xbf, 0xa3, 0xb4, 0x2f, 0xbc, 0x1c, 0x45, 0xa2,
  0xbe, 0x1b, 0x9b, 0xc3, 0xbe, 0x6f, 0x40, 0xd9, 0x3d, 0x3d, 0xfe, 0x25, 0x3f,
  0x3d, 0xa5, 0x11, 0x3d, 0x13, 0x9c, 0x4c, 0x3e, 0x65, 0x06, 0xee, 0xbd, 0x85,
  0x02, 0x07, 0x3e, 0x97, 0x67, 0xc5, 0xbe, 0xb5, 0x7a, 0x51, 0x3f, 0x30, 0x22,
  0xf5, 0xbe, 0x58, 0x57, 0x97, 0x3e, 0xe4, 0x53, 0x8e, 0xbe, 0x9d, 0xec, 0xa5,
  0x3e, 0x6e, 0xc2, 0x1b, 0xbf, 0x53, 0x7c, 0x89, 0xbf, 0x95, 0x85, 0x35, 0x3e,
  0x7d, 0xc5, 0xa0, 0xbf, 0xf2, 0x42, 0x5c, 0xbf, 0xba, 0x20, 0x21, 0xbf, 0x66,
  0xcf, 0x61, 0xbf, 0x57, 0x4d, 0x96, 0xbe, 0x21, 0xac, 0xb9, 0xbc, 0xd9, 0xba,
  0x9d, 0xbc, 0x14, 0xb5, 0x43, 0x3f, 0x32, 0xa9, 0x11, 0xbe, 0x62, 0xb5, 0xbb,
  0xbd, 0xad, 0xde, 0x88, 0xbe, 0xf3, 0x62, 0x30, 0xbf, 0x5e, 0x2b, 0x2b, 0xbf,
  0xba, 0xdf, 0x1c, 0xbe, 0xe9, 0x2a, 0x0c, 0x3e, 0x21, 0x22, 0x56, 0xbd, 0x92,
  0xad, 0x2b, 0x3e, 0xd0, 0x93, 0x51, 0x3e, 0x0a, 0xc3, 0xc1, 0x3d, 0x11, 0xbf,
  0x8c, 0x3e, 0x2d, 0x6a, 0x3e, 0x3f, 0x37, 0xac, 0x82, 0xbd, 0xef, 0x8a, 0x13,
  0xbf, 0x9a, 0x3f, 0x76, 0xbc, 0xb8, 0x5b, 0x01, 0x3f, 0x5f, 0xdb, 0x5a, 0xbd,
  0xdf, 0xb4, 0x9c, 0xbb, 0xf9, 0x20, 0x9c, 0xbc, 0xc4, 0xd8, 0xd3, 0xbd, 0xab,
  0xb1, 0x1b, 0x3f, 0x07, 0x5c, 0x93, 0x3e, 0x22, 0xfa, 0x38, 0x3e, 0xd5, 0xb5,
  0xc6, 0xbe, 0x36, 0x96, 0xf0, 0x3e, 0x8c, 0x72, 0x82, 0x3e, 0x83, 0x90, 0x65,
  0xbe, 0x16, 0xc8, 0xff, 0xff, 0x04, 0x00, 0x00, 0x00, 0xb4, 0x00, 0x00, 0x00,
  0x65, 0x18, 0xaa, 0x3e, 0xaf, 0x69, 0x88, 0xbd, 0xd1, 0x45, 0x54, 0x3d, 0x84,
  0xb1, 0x9a, 0x3e, 0x50, 0xc7, 0xad, 0xbe, 0xd2, 0x85, 0x85, 0x3b, 0x65, 0x25,
  0xe7, 0x3c, 0x70, 0x6b, 0xf8, 0x3b, 0x65, 0x97, 0x02, 0x3c, 0xb4, 0x76, 0x4b,
  0x3e, 0xaf, 0x66, 0xde, 0x3d, 0x49, 0xa7, 0x26, 0x3e, 0x6a, 0x30, 0xad, 0x3e,
  0xa2, 0x1b, 0xc8, 0x3e, 0x70, 0x48, 0x06, 0xbf, 0x30, 0x4f, 0x3e, 0x3e, 0x0d,
  0xfc, 0x57, 0x3d, 0xbd, 0xd3, 0x15, 0xbf, 0x07, 0xaa, 0xb0, 0xbe, 0x42, 0x3f,
  0x3d, 0xbf, 0x40, 0x32, 0xe4, 0x3d, 0xcc, 0xae, 0xfe, 0xbe, 0xfe, 0x66, 0x03,
  0x3f, 0xb5, 0xa1, 0x47, 0x3e, 0x84, 0x29, 0x35, 0x3e, 0x17, 0x41, 0x90, 0xbe,
  0x8d, 0x8e, 0x2d, 0x3e, 0x63, 0xea, 0x73, 0x3e, 0xca, 0xac, 0x43, 0x3f, 0xeb,
  0xff, 0x6d, 0x3e, 0xec, 0x8c, 0xcd, 0xbd, 0x1c, 0x3a, 0xa6, 0xbd, 0x46, 0x61,
  0xb0, 0xbd, 0xb2, 0x4f, 0xb4, 0x3e, 0x77, 0x0d, 0xc7, 0xbe, 0x15, 0x8a, 0x3b,
  0xbd, 0xa6, 0x98, 0x05, 0xbe, 0x6f, 0x91, 0x74, 0xbe, 0x09, 0x61, 0xb4, 0xbc,
  0x3b, 0x1f, 0x98, 0x3e, 0x48, 0x91, 0x41, 0x3d, 0xd1, 0xd5, 0xfe, 0x3c, 0xd4,
  0xa8, 0x90, 0xbc, 0x3e, 0x52, 0x41, 0x3e, 0x89, 0xec, 0xb2, 0xbc, 0xd6, 0xc8,
  0xff, 0xff, 0x04, 0x00, 0x00, 0x00, 0x24, 0x00, 0x00, 0x00, 0x00, 0x00, 0x00,
  0x00, 0x00, 0x00, 0x00, 0x00, 0x00, 0x00, 0x00, 0x00, 0x00, 0x00, 0x00, 0x00,
  0x00, 0x00, 0x00, 0x00, 0x00, 0x00, 0x00, 0x00, 0x00, 0x00, 0x00, 0x00, 0x00,
  0x00, 0x00, 0x00, 0x00, 0x00, 0x00, 0x00, 0x06, 0xc9, 0xff, 0xff, 0x04, 0x00,
  0x00, 0x00, 0xb4, 0x00, 0x00, 0x00, 0x9d, 0xc6, 0xb5, 0x3d, 0xb4, 0xb8, 0xa9,
  0x39, 0xbe, 0xe7, 0x4c, 0xbd, 0x61, 0xef, 0x55, 0xbe, 0x05, 0xc0, 0x49, 0x3d,
  0x17, 0x71, 0x97, 0x3d, 0xa3, 0x85, 0x7b, 0xbd, 0xdd, 0x30, 0x04, 0x3e, 0x41,
  0xf5, 0x16, 0x3c, 0x94, 0xb5, 0x56, 0x3c, 0x83, 0xc7, 0xae, 0xbd, 0x32, 0xec,
  0x8a, 0x3e, 0xf0, 0x8c, 0xc3, 0x3e, 0xb0, 0x90, 0xc6, 0x3b, 0x34, 0x2b, 0x06,
  0xbe, 0x06, 0x5d, 0x64, 0x3e, 0x8a, 0x42, 0x5b, 0xbe, 0xaa, 0x4a, 0x02, 0x3d,
  0x8b, 0x1e, 0x31, 0xbf, 0xe4, 0xb7, 0x27, 0x3d, 0x7e, 0x1b, 0x9d, 0x3d, 0xd5,
  0x4a, 0xfa, 0xbd, 0xc8, 0x09, 0xba, 0x3b, 0x36, 0xff, 0x2a, 0x3f, 0x06, 0xab,
  0x81, 0xbe, 0x62, 0x95, 0xac, 0xbd, 0x94, 0x03, 0x3b, 0x3f, 0x48, 0x9e, 0xf1,
  0x3e, 0x15, 0xe0, 0x5a, 0xbf, 0xcc, 0x6e, 0xa8, 0x3d, 0x0d, 0x3b, 0xf8, 0xbd,
  0x5b, 0x8f, 0x00, 0x3f, 0xed, 0x0e, 0xd3, 0x3e, 0x5e, 0xa1, 0x4a, 0x3f, 0x50,
  0x3f, 0xdf, 0x3e, 0x79, 0x6c, 0x21, 0x3f, 0x39, 0x91, 0x4e, 0xbd, 0x46, 0x38,
  0x42, 0xbd, 0x37, 0x77, 0xe7, 0xbe, 0xfa, 0x44, 0xe5, 0xbe, 0x82, 0x48, 0x65,
  0x3e, 0xca, 0x88, 0xd1, 0x3d, 0x99, 0xe1, 0x96, 0xbe, 0x63, 0xe8, 0x5a, 0xbd,
  0x19, 0x32, 0x86, 0x3d, 0xc6, 0xc9, 0xff, 0xff, 0x04, 0x00, 0x00, 0x00, 0xc4,
  0x00, 0x00, 0x00, 0x61, 0xbf, 0x83, 0xbc, 0x57, 0xbc, 0x83, 0x3d, 0xc2, 0x05,
  0x0d, 0xbf, 0x7c, 0x84, 0xaa, 0x3e, 0x83, 0x7c, 0xe0, 0xbd, 0xa7, 0x46, 0x95,
  0x3e, 0xa7, 0xaf, 0x25, 0x3f, 0x33, 0x3a, 0x0b, 0x3d, 0x84, 0xe0, 0xe8, 0xbe,
  0x50, 0x07, 0x2d, 0x3f, 0x09, 0x5b, 0x20, 0xbf, 0x65, 0x3c, 0xdf, 0x3c, 0x9b,
  0xbb, 0x61, 0xbf, 0x00, 0x9e, 0x47, 0x3d, 0x12, 0x6d, 0xa9, 0x3d, 0xfe, 0xda,
  0xdc, 0x3e, 0x45, 0xd7, 0x45, 0x3e, 0x9c, 0x86, 0xe3, 0x3e, 0x0f, 0xb5, 0x1e,
  0x3e, 0x71, 0x60, 0x89, 0x3d, 0x03, 0x0c, 0x0d, 0xbf, 0x43, 0xc6, 0x5c, 0x3e,
  0x00, 0xba, 0x0d, 0xbf, 0x74, 0x6d, 0x51, 0xbd, 0x3c, 0xdb, 0x30, 0xbf, 0x08,
  0xf5, 0x86, 0xbf, 0x59, 0x46, 0x93, 0xbe, 0x92, 0xa8, 0x28, 0x3f, 0x29, 0xdc,
  0xa7, 0xbf, 0xa9, 0x01, 0x21, 0x3f, 0x76, 0xe4, 0x1b, 0xbe, 0x9a, 0xd8, 0x8c,
  0xbd, 0xf6, 0xb6, 0x24, 0x3e, 0x3d, 0xb1, 0x90, 0xbe, 0x8c, 0x9c, 0xa3, 0x3e,
  0x75, 0x0d, 0x28, 0xbe, 0xe2, 0x17, 0x00, 0x3f, 0xf6, 0x27, 0x7a, 0xbf, 0x61,
  0xfa, 0xe4, 0x3e, 0xbd, 0x82, 0x6a, 0xbf, 0x2e, 0x91, 0x78, 0xbe, 0x42, 0x66,
  0x93, 0xbe, 0x25, 0x78, 0xab, 0x3e, 0xc8, 0x7f, 0x44, 0xbe, 0x43, 0x2f, 0x94,
  0xbe, 0x16, 0x23, 0x6d, 0xbd, 0x45, 0x14, 0x16, 0x3f, 0xc8, 0xcd, 0xd5, 0x3e,
  0xc5, 0x02, 0xd8, 0x3e, 0x96, 0xca, 0xff, 0xff, 0x04, 0x00, 0x00, 0x00, 0x8c,
  0x00, 0x00, 0x00, 0xe6, 0xc6, 0xa4, 0xbe, 0x0b, 0xdf, 0xe9, 0x3e, 0xfe, 0x16,
  0x8a, 0xbe, 0xb3, 0x75, 0xd4, 0x3e, 0xb8, 0x9d, 0x49, 0x3f, 0xd3, 0x39, 0x88,
  0x3e, 0x5c, 0xe8, 0x11, 0xbd, 0x50, 0x5a, 0x22, 0x3e, 0xed, 0xa1, 0xa0, 0x3e,
  0x46, 0x23, 0x5c, 0xbe, 0xd1, 0x5a, 0x02, 0x3f, 0x62, 0x52, 0xcb, 0x3e, 0xf4,
  0x60, 0x51, 0x3e, 0xe2, 0xd3, 0x52, 0xbe, 0xc8, 0x22, 0x24, 0x3f, 0x40, 0x06,
  0xc8, 0x3d, 0xf6, 0x76, 0x01, 0xbf, 0xa6, 0xd0, 0x0c, 0xbf, 0xee, 0xbc, 0x35,
  0xbf, 0x3e, 0x6e, 0x0b, 0x3f, 0x90, 0x09, 0x11, 0xbf, 0xef, 0x20, 0x08, 0xbc,
  0x88, 0x5f, 0x31, 0x3d, 0x50, 0x6d, 0x72, 0x3d, 0xe2, 0xac, 0xba, 0xbd, 0xf6,
  0xcf, 0x0b, 0xbf, 0xed, 0xd3, 0x30, 0xbe, 0xf8, 0xce, 0x1d, 0x3f, 0xe5, 0xdd,
  0x0c, 0xbf, 0x6e, 0x5f, 0xc4, 0x3d, 0xc8, 0xa4, 0x08, 0xbe, 0x04, 0x97, 0x56,
  0x3e, 0xcd, 0xf0, 0x42, 0x3f, 0xde, 0x4e, 0xb5, 0x3d, 0xa6, 0xc7, 0x9a, 0xbe,
  0x2e, 0xcb, 0xff, 0xff, 0x04, 0x00, 0x00, 0x00, 0x8c, 0x00, 0x00, 0x00, 0xaf,
  0xdc, 0x58, 0xbd, 0x53, 0xf8, 0x60, 0x3d, 0xfa, 0x32, 0xf2, 0x3d, 0x77, 0xbb,
  0x42, 0x3d, 0x83, 0xe4, 0xee, 0x3e, 0xbb, 0x53, 0x1c, 0x3f, 0xeb, 0x51, 0xbd,
  0xbd, 0x4e, 0x95, 0xda, 0x3d, 0xd9, 0x76, 0x88, 0x3e, 0xb9, 0xaf, 0xb6, 0x3e,
  0xa7, 0x45, 0x26, 0x3a, 0x2c, 0x36, 0xf5, 0x3e, 0x2d, 0x14, 0x15, 0x3e, 0xfb,
  0xbf, 0xc9, 0x3e, 0xe8, 0xe9, 0xe4, 0xbe, 0x64, 0xfe, 0xc5, 0x3e, 0xe7, 0x6e,
  0x0d, 0x3e, 0x6d, 0x15, 0xc3, 0x3d, 0x4b, 0x9f, 0x35, 0x3f, 0x2b, 0xbb, 0x74,
  0x3e, 0x59, 0x28, 0xc2, 0xbe, 0xa3, 0xd8, 0x0e, 0xbf, 0xa7, 0xd0, 0x37, 0xbc,
  0x29, 0x61, 0x1a, 0x3f, 0x50, 0x3b, 0x04, 0x3f, 0xb1, 0xb6, 0x3f, 0x3f, 0xc2,
  0x28, 0x93, 0x3e, 0xa6, 0x7e, 0x34, 0xbf, 0x39, 0x39, 0x62, 0xbe, 0x6e, 0x56,
  0x7f, 0x3e, 0x7e, 0x9c, 0xfb, 0x3e, 0x53, 0x85, 0xcb, 0x3e, 0x94, 0xaf, 0x21,
  0x3f, 0x1c, 0x9d, 0x77, 0x3e, 0x2e, 0x28, 0xc0, 0xbd, 0xc6, 0xcb, 0xff, 0xff,
  0x04, 0x00, 0x00, 0x00, 0xfc, 0x00, 0x00, 0x00, 0xb5, 0xc4, 0x99, 0x3e, 0x74,
  0x5f, 0x2d, 0x3f, 0xb1, 0x93, 0x00, 0x3f, 0x0a, 0x27, 0x84, 0xbe, 0x5f, 0x14,
  0x4b, 0xbf, 0x55, 0x00, 0x20, 0x3f, 0x7e, 0x1f, 0x83, 0x3d, 0x67, 0x66, 0x26,
  0x3e, 0xf9, 0x6a, 0x12, 0xbf, 0x0d, 0x00, 0x82, 0xbe, 0xa0, 0xe2, 0xb1, 0xbe,
  0xb0, 0x82, 0xa1, 0xbd, 0xcf, 0xfc, 0x85, 0xbd, 0x6a, 0x47, 0x0c, 0xbf, 0x37,
  0x8c, 0xcb, 0xbe, 0xf7, 0x98, 0x84, 0xbe, 0x11, 0xc3, 0xad, 0x3e, 0xa1, 0x1f,
  0x5e, 0x3f, 0x48, 0x1c, 0x66, 0x3e, 0x8d, 0x6a, 0xba, 0x3e, 0x58, 0x44, 0xc9,
  0x3e, 0x7e, 0x2f, 0x3d, 0xbf, 0xa0, 0x0c, 0xcb, 0x3d, 0xd3, 0xa2, 0x04, 0xbe,
  0x14, 0x87, 0x35, 0x3f, 0x99, 0x46, 0xb0, 0xbc, 0x21, 0x35, 0x86, 0x3d, 0x22,
  0x56, 0x4a, 0x3e, 0x26, 0x54, 0x6b, 0xbd, 0x6a, 0xd3, 0xec, 0x3e, 0x74, 0x08,
  0x88, 0xbc, 0x78, 0xbb, 0x1a, 0xbf, 0x3c, 0x0f, 0x52, 0xbf, 0x9f, 0x5f, 0x8d,
  0x3e, 0x5e, 0xc4, 0x76, 0xbf, 0x73, 0x0a, 0x20, 0xbf, 0x54, 0xa4, 0x78, 0x3d,
  0xa8, 0x38, 0xbf, 0x3e, 0x22, 0x90, 0x32, 0x3f, 0xad, 0x24, 0x76, 0xbe, 0x5b,
  0x62, 0x3c, 0xbf, 0xa3, 0xf3, 0xd4, 0xbd, 0x5e, 0x17, 0x12, 0xbe, 0xb1, 0x9b,
  0x32, 0xbe, 0x03, 0x50, 0x42, 0x3c, 0xb5, 0x29, 0xaf, 0x3f, 0x37, 0x6e, 0x57,
  0x3f, 0x96, 0x64, 0x36, 0x3f, 0x9b, 0xfc, 0x17, 0xbe, 0xab, 0x94, 0x1b, 0xbe,
  0xb3, 0xc5, 0x3b, 0xbd, 0x4f, 0xdc, 0x94, 0x3f, 0x81, 0x96, 0x61, 0xbe, 0x81,
  0xa8, 0x82, 0x3e, 0xd8, 0x21, 0x75, 0x3d, 0x52, 0x25, 0x83, 0x3f, 0x23, 0xed,
  0x26, 0x3e, 0x43, 0xcf, 0xf1, 0xbe, 0xf7, 0x21, 0xc5, 0x3d, 0xaa, 0x78, 0x47,
  0x3c, 0xc0, 0x84, 0x4e, 0x3f, 0x34, 0xc4, 0x02, 0x3e, 0xe0, 0x27, 0xbe, 0xbd,
  0xce, 0xcc, 0xff, 0xff, 0x04, 0x00, 0x00, 0x00, 0xb4, 0x00, 0x00, 0x00, 0xeb,
  0x95, 0xdf, 0x3d, 0xf6, 0x6f, 0xc3, 0x3c, 0xd2, 0xb9, 0x8e, 0x3e, 0x45, 0xe0,
  0x50, 0x3e, 0x5f, 0xae, 0xa7, 0xbd, 0x86, 0x6b, 0xc4, 0x3e, 0x11, 0x48, 0xf2,
  0xbd, 0xb6, 0x10, 0xe7, 0xbc, 0xc9, 0x56, 0x15, 0xbe, 0x3c, 0x4e, 0x08, 0x3e,
  0x27, 0xb6, 0xbf, 0x3e, 0x92, 0xcf, 0xf0, 0x3e, 0x06, 0xe9, 0x97, 0x3d, 0x1b,
  0x62, 0x06, 0x3f, 0xc7, 0x3e, 0xd6, 0xbe, 0x37, 0x2a, 0xbf, 0x3e, 0xc5, 0xd6,
  0x0c, 0x3e, 0x61, 0xe7, 0x0c, 0x3f, 0x5d, 0xac, 0x3b, 0x3f, 0xf8, 0x51, 0xc4,
  0x3e, 0xb6, 0x22, 0x8c, 0xbe, 0xaf, 0x65, 0xbe, 0x3e, 0xdc, 0x1f, 0xb7, 0x3d,
  0xf1, 0xde, 0x6f, 0x3d, 0x8c, 0xd3, 0xe1, 0x3e, 0xf3, 0x0b, 0x23, 0x3f, 0xbc,
  0x9b, 0xbf, 0xbe, 0x8a, 0x50, 0x4b, 0x3d, 0x16, 0x97, 0x01, 0xbe, 0x4a, 0x0e,
  0x39, 0x3e, 0xd6, 0xc8, 0x18, 0x3e, 0x6e, 0x89, 0xd1, 0xbe, 0x1b, 0x32, 0xc4,
  0x3c, 0xdc, 0xa8, 0xbf, 0x3e, 0xdc, 0x65, 0x1e, 0xbe, 0x53, 0xb6, 0x76, 0xbe,
  0x87, 0xf9, 0xa4, 0x3e, 0xbc, 0x41, 0x55, 0x3e, 0x6b, 0x55, 0x2b, 0x3f, 0x0c,
  0xb2, 0x2f, 0x3e, 0x40, 0xaa, 0x0a, 0xbf, 0x0c, 0x2e, 0x19, 0x3f, 0x86, 0x31,
  0xaa, 0x3d, 0x36, 0xc2, 0x43, 0xbf, 0x10, 0xf6, 0x1a, 0xbe, 0x8e, 0xcd, 0xff,
  0xff, 0x04, 0x00, 0x00, 0x00, 0xb4, 0x00, 0x00, 0x00, 0xd3, 0xab, 0x06, 0x3f,
  0x82, 0xad, 0x91, 0xbb, 0xa2, 0x9a, 0x2a, 0x3e, 0x80, 0x12, 0xa3, 0xbe, 0xa4,
  0x50, 0x37, 0x3e, 0xde, 0xe4, 0xee, 0xbc, 0xb5, 0xcb, 0x2e, 0xbe, 0xf5, 0x50,
  0xd9, 0xbe, 0x2f, 0x96, 0xce, 0x3d, 0x34, 0x93, 0x84, 0x3e, 0xf8, 0x1e, 0x22,
  0x3e, 0xef, 0xb0, 0xfd, 0x3e, 0x2b, 0x57, 0x0c, 0x3e, 0x51, 0x6d, 0x04, 0x3e,
  0xf4, 0xff, 0x4f, 0x3e, 0xa5, 0x25, 0x12, 0x3e, 0x9d, 0x80, 0xa9, 0xbe, 0xb6,
  0x75, 0x21, 0x3c, 0xf0, 0xf5, 0xcb, 0xbe, 0x92, 0xe8, 0x22, 0x3f, 0xfc, 0x00,
  0xa7, 0xbe, 0xd1, 0x28, 0x67, 0x3e, 0xf3, 0x9e, 0x6a, 0x3e, 0x21, 0x41, 0xa2,
  0x3e, 0xb6, 0xf7, 0x36, 0xbf, 0x1a, 0x1b, 0x08, 0xbe, 0xf2, 0x6e, 0x12, 0xbc,
  0xfb, 0x0e, 0xa7, 0x3e, 0xed, 0x46, 0x59, 0x3e, 0x42, 0xf5, 0x07, 0x3f, 0xd3,
  0xec, 0x4f, 0x3f, 0x7b, 0x2e, 0x37, 0x3e, 0x9b, 0x37, 0x92, 0x3e, 0xbe, 0x8d,
  0x44, 0x3c, 0x4f, 0x78, 0x90, 0xbd, 0xf1, 0x50, 0xe8, 0xbe, 0x42, 0x74, 0x30,
  0xbe, 0x50, 0x1d, 0x24, 0xbd, 0x8d, 0xfe, 0x08, 0xbe, 0x62, 0xf6, 0xbf, 0xbe,
  0xc6, 0x45, 0x18, 0x3e, 0x56, 0xfa, 0x32, 0x3d, 0x37, 0x9b, 0xea, 0x3b, 0x0c,
  0xc5, 0x01, 0xbe, 0x13, 0xa5, 0xd5, 0xbe, 0x4e, 0xce, 0xff, 0xff, 0x04, 0x00,
  0x00, 0x00, 0xb0, 0x01, 0x00, 0x00, 0x24, 0x8f, 0x83, 0x3f, 0x5c, 0x7b, 0xfb,
  0xbd, 0x0a, 0xdd, 0x16, 0x3f, 0xa7, 0x5a, 0x99, 0xbe, 0xd9, 0xe7, 0x86, 0x3f,
  0x20, 0x86, 0x46, 0xbf, 0xaa, 0xdb, 0x37, 0xbf, 0x86, 0xbb, 0x1f, 0xbd, 0x92,
  0x3d, 0x3e, 0xbe, 0x0b, 0xe7, 0x8e, 0x3e, 0x71, 0xfb, 0x36, 0x3f, 0x43, 0x0c,
  0x8a, 0xbd, 0x9b, 0x42, 0x94, 0xbe, 0x1d, 0x5f, 0x85, 0xbf, 0x42, 0x17, 0x1a,
  0x3e, 0xe3, 0xe0, 0x19, 0x3f, 0xe3, 0xbc, 0x80, 0xbf, 0x3f, 0x8a, 0x44, 0xbf,
  0x72, 0x95, 0x9b, 0xbd, 0xe3, 0x2d, 0x74, 0xbd, 0x86, 0xfd, 0x07, 0xbf, 0xec,
  0x37, 0x40, 0xbe, 0x06, 0xdc, 0x8e, 0xbe, 0xdb, 0x14, 0xc7, 0x3e, 0x08, 0xd4,
  0x83, 0xbe, 0x09, 0x2c, 0x44, 0x3f, 0xb9, 0xb8, 0x9f, 0xbe, 0xf9, 0xfb, 0x94,
  0x3e, 0x20, 0xe4, 0x18, 0x3d, 0x55, 0xfe, 0x66, 0x3e, 0x2c, 0x10, 0x8c, 0x3e,
  0x8b, 0x9e, 0xe1, 0x3e, 0xfe, 0xe2, 0xda, 0x3d, 0x58, 0xbe, 0x9f, 0x3d, 0x28,
  0xed, 0x0f, 0xbf, 0x81, 0xa3, 0x13, 0x3f, 0x1a, 0xfe, 0x35, 0xbf, 0x6a, 0x46,
  0x26, 0xbf, 0x3b, 0x8f, 0xee, 0xbe, 0x20, 0x8b, 0x07, 0x3f, 0xde, 0x54, 0xa5,
  0x3d, 0x16, 0x5b, 0x5e, 0x3e, 0x77, 0x65, 0xdd, 0x3d, 0x76, 0xc9, 0x17, 0x3f,
  0x65, 0x03, 0x18, 0x3f, 0x0b, 0x53, 0x04, 0xbd, 0xd9, 0xf7, 0x0b, 0x3e, 0xef,
  0x64, 0x2f, 0x3f, 0xdf, 0x8d, 0x97, 0x3c, 0xcb, 0x93, 0x56, 0xbe, 0x8b, 0x70,
  0x7b, 0xbf, 0x1e, 0xab, 0xa7, 0xbe, 0x14, 0x86, 0x6d, 0x3d, 0xe6, 0xca, 0x1b,
  0x3f, 0x49, 0xd5, 0x86, 0xbe, 0x88, 0x41, 0x58, 0xbe, 0x2c, 0x1c, 0x23, 0xbe,
  0x0c, 0x1f, 0x31, 0xbf, 0x02, 0x33, 0x25, 0xbe, 0xea, 0xe9, 0xcc, 0xbe, 0x29,
  0x5b, 0xcd, 0xbe, 0x4e, 0xfa, 0x05, 0x3d, 0x3c, 0xf1, 0xbc, 0x3d, 0xd4, 0x18,
  0x11, 0xbe, 0x5e, 0xaa, 0xae, 0xbe, 0x5c, 0x72, 0x51, 0x3f, 0x2d, 0xa1, 0x5f,
  0x3f, 0x59, 0x81, 0x15, 0x3e, 0xfe, 0x61, 0x8d, 0xbf, 0xd3, 0x8c, 0x34, 0x3f,
  0x2e, 0x53, 0x8c, 0x3e, 0x20, 0x97, 0x00, 0xbf, 0xa1, 0x9c, 0x83, 0x3d, 0x4c,
  0x3b, 0x89, 0xbe, 0x7d, 0xad, 0x6b, 0x3d, 0x92, 0x28, 0x36, 0x3f, 0x3a, 0xc6,
  0xa1, 0xbe, 0xc8, 0x65, 0x5b, 0xbd, 0x25, 0x34, 0xcd, 0x3d, 0x4a, 0xdf, 0x2c,
  0x3f, 0x23, 0x30, 0x5b, 0xbd, 0xf1, 0x5f, 0x43, 0x3f, 0x5a, 0xfa, 0x82, 0x3f,
  0x85, 0xc9, 0x08, 0x3f, 0x0d, 0xe3, 0x00, 0xbe, 0x11, 0x6f, 0xc3, 0xbe, 0xdd,
  0xf4, 0xd5, 0xbe, 0x8e, 0x6a, 0x4c, 0x3d, 0x47, 0x16, 0xcc, 0xbe, 0x69, 0xfc,
  0x26, 0xbd, 0xa0, 0x1d, 0x56, 0x3f, 0x0c, 0x55, 0x91, 0xbf, 0x16, 0x07, 0x11,
  0x3f, 0xbf, 0x87, 0x86, 0xbe, 0x9a, 0x27, 0x1c, 0xbd, 0x5e, 0x11, 0xeb, 0xbe,
  0x98, 0xb6, 0xb0, 0xbd, 0xdb, 0x86, 0x06, 0xbe, 0xf4, 0xac, 0xae, 0xbe, 0x7d,
  0x54, 0xd3, 0x3e, 0xdb, 0xf9, 0x73, 0xbe, 0x3b, 0xe9, 0xbc, 0x3e, 0x04, 0x33,
  0x51, 0xbf, 0x3e, 0xd4, 0x2a, 0xbd, 0x45, 0xe8, 0x2b, 0x3f, 0x63, 0x51, 0x04,
  0xbf, 0x4a, 0x15, 0x38, 0xbe, 0xa4, 0xc3, 0x58, 0x3e, 0x0a, 0xd0, 0xff, 0xff,
  0x04, 0x00, 0x00, 0x00, 0xf0, 0x00, 0x00, 0x00, 0x43, 0x87, 0x9a, 0x3d, 0x1e,
  0x09, 0x07, 0x3d, 0x94, 0x03, 0x5e, 0xbc, 0xf1, 0xb8, 0x2b, 0xbe, 0xa4, 0x86,
  0x1c, 0xbc, 0xaf, 0x40, 0x36, 0xbd, 0x0d, 0x55, 0xea, 0xbd, 0x08, 0x5c, 0x09,
  0xbe, 0x95, 0xaf, 0x41, 0xbe, 0xa5, 0x90, 0x34, 0xbe, 0x28, 0x50, 0xed, 0x3d,
  0xca, 0xd6, 0x2c, 0xbe, 0x37, 0x85, 0xee, 0x3d, 0x41, 0x81, 0x3a, 0xbd, 0xd6,
  0xf0, 0x5a, 0xbe, 0xc0, 0xd4, 0xf2, 0x3e, 0x0d, 0x7d, 0xfc, 0xbd, 0x70, 0x0b,
  0x87, 0x3d, 0xf2, 0x6b, 0xc1, 0x3e, 0xe9, 0xab, 0x50, 0x3e, 0x05, 0x28, 0x2f,
  0x3e, 0x27, 0x9b, 0x1b, 0x3f, 0x4f, 0xc7, 0xaa, 0xbd, 0xb3, 0x9c, 0x22, 0x3d,
  0x21, 0x47, 0x64, 0x3e, 0xc4, 0x1e, 0x4c, 0xbf, 0x66, 0xc2, 0x3a, 0xbe, 0x0a,
  0x13, 0x02, 0xbf, 0x45, 0x10, 0x8e, 0x3e, 0xbf, 0x76, 0x97, 0xbe, 0x4b, 0xe3,
  0xe1, 0xbe, 0x93, 0xa2, 0xaa, 0x3d, 0x1b, 0xea, 0x02, 0x3f, 0x8d, 0x7f, 0x3b,
  0xbf, 0x1c, 0x1f, 0xec, 0xbc, 0x7d, 0x5b, 0x0c, 0xbf, 0x55, 0x35, 0xa6, 0x3e,
  0x6c, 0xc8, 0x0d, 0x3e, 0xff, 0x73, 0x0e, 0xbf, 0x3a, 0x1c, 0xc4, 0xbe, 0x62,
  0x57, 0x2c, 0x3f, 0x77, 0xcd, 0x21, 0xbf, 0x0b, 0xcf, 0x16, 0xbf, 0x68, 0x43,
  0x12, 0x3f, 0x83, 0x18, 0xa9, 0xbe, 0x0e, 0x2d, 0x82, 0xbe, 0xe3, 0x69, 0x59,
  0x3f, 0xd4, 0x4b, 0x36, 0x3d, 0xa4, 0xc3, 0x07, 0x3f, 0x04, 0xa1, 0x3f, 0xbe,
  0xb1, 0x25, 0x44, 0xbd, 0xc8, 0xfa, 0x8d, 0xbd, 0x4f, 0x43, 0x2d, 0x3b, 0x2f,
  0x77, 0x9e, 0xbe, 0x55, 0xef, 0x38, 0x3d, 0x3c, 0x68, 0xb6, 0xbd, 0x75, 0xcb,
  0xbe, 0xbe, 0x62, 0xa0, 0x3d, 0xbe, 0x95, 0x86, 0x31, 0x3d, 0x7c, 0xb2, 0x0e,
  0xbf, 0x06, 0xd1, 0xff, 0xff, 0x04, 0x00, 0x00, 0x00, 0x30, 0x00, 0x00, 0x00,
  0x00, 0x00, 0x00, 0x00, 0x00, 0x00, 0x00, 0x00, 0x00, 0x00, 0x00, 0x00, 0x00,
  0x00, 0x00, 0x00, 0x00, 0x00, 0x00, 0x00, 0x00, 0x00, 0x00, 0x00, 0x00, 0x00,
  0x00, 0x00, 0x00, 0x00, 0x00, 0x00, 0x00, 0x00, 0x00, 0x00, 0x00, 0x00, 0x00,
  0x00, 0x00, 0x00, 0x00, 0x00, 0x00, 0x00, 0x00, 0x00, 0x42, 0xd1, 0xff, 0xff,
  0x04, 0x00, 0x00, 0x00, 0xf0, 0x00, 0x00, 0x00, 0xd3, 0x38, 0xb4, 0xbe, 0x36,
  0x86, 0x4d, 0xbe, 0xc4, 0xb5, 0x9b, 0x3e, 0x42, 0x12, 0xbd, 0xbe, 0xed, 0xa2,
  0xaf, 0xbd, 0xab, 0x40, 0x00, 0x3d, 0x75, 0xeb, 0x00, 0xbe, 0x98, 0x38, 0x01,
  0x3d, 0x1f, 0xea, 0x6e, 0x3d, 0x7c, 0xea, 0x19, 0x3f, 0x44, 0xf1, 0x3f, 0xbf,
  0xab, 0x66, 0x43, 0x3e, 0x65, 0x3c, 0x40, 0xbe, 0x56, 0x22, 0x40, 0xbf, 0x2b,
  0x0e, 0x22, 0x3e, 0x55, 0xe6, 0x02, 0x3f, 0x74, 0xce, 0x05, 0xbf, 0x28, 0xd5,
  0xa1, 0x3e, 0x90, 0x6b, 0x67, 0x3f, 0xa0, 0xdf, 0x8e, 0x3e, 0x1f, 0xee, 0xf2,
  0x3e, 0x88, 0x6a, 0x22, 0xbc, 0x86, 0x7a, 0xd1, 0xbe, 0x8c, 0xd8, 0x16, 0xbf,
  0xec, 0x26, 0xb9, 0xbe, 0x95, 0x06, 0x81, 0xbd, 0x70, 0x5f, 0x87, 0x3e, 0x6c,
  0xd8, 0x05, 0x3d, 0x76, 0x74, 0xc6, 0xbe, 0xa3, 0x4c, 0xef, 0xbe, 0x23, 0xb0,
  0x89, 0xbe, 0xea, 0x2c, 0x95, 0x3d, 0x1e, 0x50, 0x39, 0x3f, 0xa5, 0x12, 0x40,
  0x3f, 0xd1, 0xee, 0xe1, 0xbe, 0xaa, 0x74, 0xc2, 0xbe, 0x67, 0x16, 0x11, 0xbf,
  0xbf, 0x90, 0xe9, 0x3d, 0x8e, 0xe0, 0xf4, 0x3e, 0xc9, 0x13, 0xc6, 0x3d, 0x43,
  0xa8, 0x93, 0x3e, 0x8a, 0x27, 0x52, 0x3f, 0x59, 0x3c, 0xc7, 0x3e, 0x2b, 0x90,
  0xbd, 0x3e, 0xb2, 0x64, 0xf3, 0xbe, 0xa3, 0xaa, 0xa6, 0x3e, 0x67, 0x4a, 0x6d,
  0xbd, 0x05, 0x36, 0xd7, 0xbe, 0x36, 0xf1, 0x10, 0xbd, 0xaf, 0x72, 0x58, 0xbe,
  0x51, 0xd2, 0x07, 0x3e, 0x7e, 0xec, 0xa5, 0xbd, 0x60, 0x80, 0x0a, 0xbd, 0x04,
  0x0d, 0x06, 0xbe, 0x8a, 0x0a, 0x11, 0xbe, 0x4b, 0x16, 0x0f, 0x3f, 0x56, 0xb0,
  0x61, 0x3d, 0x99, 0x1f, 0x7d, 0x3e, 0x09, 0x18, 0xd2, 0xbb, 0x7c, 0xfb, 0x9c,
  0x3d, 0x3e, 0xd2, 0xff, 0xff, 0x04, 0x00, 0x00, 0x00, 0x44, 0x01, 0x00, 0x00,
  0xba, 0xde, 0x1e, 0x3e, 0x41, 0xe1, 0x47, 0xbe, 0x85, 0x89, 0x68, 0xbe, 0xde,
  0xac, 0x3e, 0xbf, 0xa6, 0x78, 0x60, 0xbd, 0xa8, 0x66, 0x17, 0x3f, 0x13, 0x4d,
  0xa0, 0x3e, 0x7b, 0xdd, 0x55, 0xbf, 0x88, 0xb3, 0xc1, 0x3e, 0x54, 0xb9, 0x6f,
  0x3f, 0xb3, 0x2e, 0xad, 0xbe, 0xd2, 0xa2, 0xe8, 0x3c, 0x79, 0xd1, 0xce, 0x3e,
  0x32, 0xe4, 0x98, 0x3d, 0x82, 0xad, 0xac, 0x3e, 0x7a, 0x13, 0x8e, 0xbf, 0xa4,
  0x45, 0x44, 0x3d, 0xcc, 0xdb, 0x89, 0x3e, 0x07, 0xad, 0x9b, 0x3d, 0xe4, 0x16,
  0x7c, 0x3e, 0xed, 0x70, 0x27, 0xbe, 0xc1, 0x90, 0x7f, 0x3f, 0x71, 0xff, 0x49,
  0x3f, 0x04, 0xbf, 0xa3, 0xbe, 0x8f, 0x71, 0xc3, 0xbd, 0x57, 0x84, 0x1b, 0xbf,
  0xd2, 0x18, 0xc8, 0xbe, 0xe6, 0x8f, 0xb5, 0x3d, 0x4e, 0x62, 0x82, 0x3f, 0x35,
  0xdd, 0x77, 0xbf, 0x5c, 0x6f, 0xe3, 0x3d, 0x82, 0x9f, 0xcf, 0x3e, 0xbd, 0x76,
  0x1f, 0x3f, 0xac, 0x2c, 0x14, 0x3e, 0xf6, 0xcc, 0x81, 0xbe, 0x10, 0x3b, 0x32,
  0xbf, 0x95, 0x38, 0x7a, 0x3e, 0xf1, 0x09, 0x06, 0xbf, 0xa8, 0x24, 0xe7, 0x3e,
  0xd8, 0xb7, 0x2b, 0xbe, 0x89, 0xe6, 0x82, 0x3e, 0x52, 0x49, 0x24, 0x3e, 0x44,
  0xf1, 0xcb, 0x3e, 0x22, 0x00, 0x28, 0x3d, 0xe6, 0x19, 0x84, 0x3f, 0xf3, 0x40,
  0xc9, 0x3d, 0xba, 0x8a, 0x3f, 0x3f, 0x99, 0x4f, 0x87, 0xbf, 0xac, 0x78, 0x6d,
  0xbe, 0xa7, 0x53, 0x1f, 0xbf, 0x9f, 0x63, 0xc5, 0xbe, 0x89, 0x7c, 0x28, 0x3f,
  0x52, 0xc8, 0x3d, 0xbf, 0xda, 0xa9, 0xce, 0xbe, 0x31, 0x95, 0xc0, 0x3e, 0x2a,
  0xc5, 0xd5, 0xbe, 0x3f, 0x40, 0x81, 0xbe, 0xbe, 0x16, 0x9b, 0xbe, 0xc4, 0x6f,
  0x34, 0x3e, 0x2c, 0x6b, 0xd4, 0xbd, 0x07, 0xd9, 0x88, 0x3d, 0x38, 0x07, 0x24,
  0xbd, 0xcb, 0x3c, 0x37, 0xbe, 0xd2, 0xb9, 0x89, 0x3e, 0x22, 0x57, 0x0b, 0xbe,
  0xfc, 0x80, 0x84, 0x3e, 0xb9, 0x8c, 0x00, 0x3e, 0xbf, 0x2b, 0x2b, 0xbe, 0x6a,
  0x42, 0xae, 0xbf, 0x04, 0xfc, 0x8c, 0xbe, 0x03, 0x33, 0x0b, 0xbe, 0x81, 0xfa,
  0x0a, 0xbf, 0x82, 0x27, 0x20, 0xbe, 0x97, 0xe4, 0x04, 0xbf, 0x90, 0x7d, 0x33,
  0x3f, 0x82, 0x03, 0x6e, 0x3e, 0x6e, 0x1c, 0x18, 0x3f, 0xd4, 0x72, 0x51, 0x3f,
  0x77, 0x93, 0x6a, 0xbf, 0x3e, 0xdc, 0x57, 0x3f, 0x2d, 0x67, 0x88, 0x3e, 0x8e,
  0xd3, 0xff, 0xff, 0x04, 0x00, 0x00, 0x00, 0xb4, 0x00, 0x00, 0x00, 0x8c, 0x36,
  0xe1, 0x3e, 0x21, 0x09, 0x84, 0x3d, 0x11, 0x89, 0x36, 0x3d, 0x0c, 0xe4, 0xbe,
  0xbd, 0x59, 0x77, 0x9c, 0x3e, 0xd2, 0x9f, 0x47, 0x3d, 0xbf, 0x48, 0xd9, 0x3b,
  0x9e, 0x39, 0x82, 0xbe, 0x96, 0xb3, 0x80, 0xbe, 0xc1, 0xd2, 0x36, 0x3f, 0xe1,
  0x36, 0x66, 0xbf, 0x99, 0x33, 0x61, 0x3e, 0x50, 0xc4, 0x4b, 0x3e, 0x33, 0xff,
  0x50, 0x3e, 0x74, 0x21, 0xc6, 0xbe, 0x28, 0x68, 0x1c, 0xbc, 0x14, 0xa7, 0x23,
  0x3e, 0xd7, 0xc1, 0x0d, 0x3e, 0x27, 0xc3, 0x96, 0x3d, 0x8c, 0x80, 0x86, 0xbe,
  0x69, 0x3f, 0xe6, 0x3e, 0xd5, 0x51, 0x9a, 0x3e, 0x2b, 0x4b, 0x07, 0x3f, 0x73,
  0x61, 0x80, 0x3f, 0x76, 0x63, 0xa1, 0xbc, 0xab, 0x2d, 0xb3, 0x3d, 0xa8, 0x62,
  0x43, 0x3e, 0xfe, 0x65, 0x6a, 0xbe, 0xab, 0xf7, 0xa2, 0x3d, 0xd4, 0xfd, 0x31,
  0xbe, 0x4f, 0x69, 0x1f, 0x3f, 0xa4, 0xec, 0x0f, 0x3e, 0x99, 0xad, 0x1f, 0x3d,
  0x3a, 0x4a, 0x04, 0x3f, 0x78, 0x43, 0x57, 0x3e, 0x87, 0xec, 0x69, 0xbf, 0x1a,
  0x88, 0xf8, 0x3c, 0x69, 0x26, 0x5d, 0x3e, 0xc6, 0x11, 0x36, 0xbf, 0xee, 0x46,
  0xcc, 0x3d, 0xb3, 0x67, 0xd9, 0x3d, 0xa2, 0x51, 0x98, 0x3e, 0xd4, 0xec, 0x3b,
  0x3f, 0xd1, 0xf2, 0x21, 0xbf, 0x77, 0x3e, 0x82, 0x3d, 0x4e, 0xd4, 0xff, 0xff,
  0x04, 0x00, 0x00, 0x00, 0xb4, 0x00, 0x00, 0x00, 0xcd, 0x1e, 0x13, 0xbe, 0x67,
  0xa8, 0x1e, 0xbc, 0x9f, 0x10, 0xa5, 0x3e, 0x6e, 0x09, 0xe9, 0xbe, 0xe8, 0xc5,
  0x39, 0xbe, 0x37, 0xbf, 0x0e, 0xbe, 0x8f, 0x3d, 0xdf, 0xbe, 0x8d, 0x38, 0x4c,
  0x3e, 0x6c, 0xcc, 0x3b, 0xbb, 0xf1, 0x8d, 0x2b, 0x3f, 0x14, 0xba, 0x19, 0xbf,
  0x17, 0xa7, 0xe7, 0x3d, 0xb4, 0xe2, 0x10, 0xbc, 0x65, 0x5b, 0x80, 0xbd, 0x1c,
  0x56, 0x4d, 0x3f, 0x4c, 0x60, 0x62, 0x3f, 0xa6, 0xba, 0xef, 0x3d, 0x65, 0x9f,
  0x73, 0xbe, 0xec, 0x89, 0x22, 0x3e, 0x42, 0x0b, 0x31, 0xbf, 0xf1, 0x81, 0x3f,
  0x3f, 0x82, 0x8c, 0x05, 0xbf, 0x3a, 0x2f, 0x4c, 0xbe, 0xde, 0xe4, 0xde, 0x3c,
  0xed, 0x58, 0xa4, 0x3d, 0x1c, 0x43, 0xa3, 0x3e, 0xa2, 0xcf, 0x45, 0x3f, 0x9c,
  0x7a, 0x69, 0xbe, 0x8c, 0x9b, 0xd6, 0x3c, 0x7f, 0x4e, 0x2e, 0xbe, 0xf7, 0x69,
  0x86, 0x3e, 0x3a, 0x20, 0xc4, 0xbe, 0x01, 0x79, 0x0b, 0xbe, 0x8b, 0xc5, 0x36,
  0xbe, 0xe8, 0x89, 0x5a, 0x3e, 0x03, 0x0b, 0xaa, 0x3e, 0xef, 0x2d, 0x5d, 0x3e,
  0x9a, 0x5a, 0xf0, 0x3d, 0xb8, 0x12, 0xba, 0x3d, 0x57, 0xfe, 0xc0, 0xbd, 0xc5,
  0xf6, 0x30, 0xbf, 0x31, 0xfe, 0x3f, 0x3e, 0x36, 0x7f, 0x84, 0x3d, 0xd5, 0x6e,
  0x17, 0x3e, 0xcc, 0x4d, 0xcb, 0xbd, 0x0e, 0xd5, 0xff, 0xff, 0x04, 0x00, 0x00,
  0x00, 0xb0, 0x01, 0x00, 0x00, 0x4b, 0x66, 0xa9, 0x3d, 0xad, 0x7c, 0xf4, 0xbd,
  0x44, 0xd5, 0x72, 0xbf, 0x76, 0x91, 0xd9, 0x3d, 0x6c, 0xbe, 0xfd, 0x3d, 0x27,
  0x87, 0xb2, 0x3e, 0x72, 0x0b, 0x05, 0xbe, 0xe1, 0x3d, 0x2e, 0x3e, 0x3d, 0xab,
  0xb8, 0x3f, 0xe0, 0xed, 0x67, 0xbe, 0xe1, 0x75, 0x62, 0x3e, 0xe9, 0x63, 0x0c,
  0x3f, 0x26, 0x61, 0xc3, 0x3e, 0x65, 0xfb, 0x06, 0xbf, 0xae, 0x39, 0x89, 0xbd,
  0x43, 0xb9, 0x95, 0x3f, 0x71, 0x7f, 0x02, 0xbe, 0x50, 0xea, 0xe1, 0x3e, 0x60,
  0xe3, 0x06, 0xbe, 0xf6, 0x2e, 0xc6, 0x3e, 0xba, 0x19, 0xda, 0x3e, 0x4a, 0x9d,
  0xd7, 0x3e, 0x9c, 0x7b, 0xb0, 0x3e, 0x18, 0xb5, 0x45, 0x3f, 0x8c, 0xdd, 0x8a,
  0x3e, 0x93, 0xcc, 0xc4, 0x3e, 0xd5, 0x3b, 0x90, 0x3f, 0xdf, 0x13, 0x37, 0x3f,
  0xac, 0xe0, 0x39, 0xbb, 0xf1, 0x92, 0x4b, 0xbf, 0x1d, 0x63, 0xaf, 0xbf, 0x4a,
  0x76, 0xb4, 0x3c, 0x43, 0xea, 0x41, 0x3d, 0xc6, 0x7b, 0x20, 0x3f, 0x65, 0xdb,
  0x87, 0x3e, 0x39, 0x56, 0x88, 0xbf, 0x65, 0x37, 0xdc, 0x3e, 0xc9, 0xa6, 0x29,
  0xbf, 0x21, 0xd4, 0x58, 0xbd, 0xe1, 0x9d, 0x5f, 0xbe, 0x43, 0xb3, 0x1b, 0xbe,
  0x9c, 0x42, 0xf3, 0x3e, 0xde, 0xd5, 0xe0, 0xbd, 0x78, 0x21, 0x0f, 0xbd, 0x19,
  0x23, 0x06, 0x3e, 0x87, 0x36, 0x38, 0x3e, 0xf1, 0xe0, 0xc1, 0x3f, 0x5a, 0x47,
  0xca, 0x3d, 0xf1, 0x23, 0x24, 0x3f, 0xe1, 0x2b, 0x0c, 0x3e, 0x14, 0x7e, 0xd8,
  0xbe, 0xa2, 0x60, 0xee, 0x3d, 0x8d, 0x6a, 0x61, 0x3f, 0x77, 0x5f, 0x75, 0x3e,
  0x6a, 0x5a, 0x87, 0xbe, 0xef, 0xc6, 0x55, 0xbf, 0x5f, 0xd0, 0xc0, 0x3d, 0xed,
  0x89, 0xe5, 0x3e, 0xf4, 0xf3, 0xd8, 0x3e, 0x10, 0x20, 0xeb, 0xbd, 0xf9, 0x91,
  0xc1, 0xbe, 0x30, 0x80, 0x21, 0xbf, 0xe8, 0x49, 0x9f, 0x3c, 0x27, 0x3e, 0x17,
  0xbf, 0xf1, 0x73, 0xa6, 0xbe, 0xf7, 0x57, 0x84, 0x3d, 0x13, 0xfc, 0x58, 0x3d,
  0x6d, 0xab, 0x9c, 0xbe, 0x71, 0x6c, 0x5b, 0x3e, 0x24, 0x32, 0x62, 0xbd, 0x00,
  0x8a, 0x1b, 0x3e, 0x72, 0xa0, 0x0a, 0xbe, 0x99, 0xa3, 0x4c, 0x3f, 0xfb, 0x07,
  0xd5, 0x3e, 0x92, 0xc2, 0x2f, 0xbe, 0xf5, 0xe8, 0x05, 0x3f, 0x60, 0x76, 0x4b,
  0x3f, 0x05, 0xca, 0x49, 0x3e, 0xd2, 0x52, 0x95, 0xbe, 0x7c, 0x75, 0x3e, 0x3f,
  0xc7, 0xc2, 0xa5, 0x3d, 0xbb, 0x7b, 0x9a, 0xbf, 0x9c, 0x90, 0x1d, 0x3e, 0xd3,
  0xa7, 0xf5, 0x3e, 0xda, 0x0d, 0xa8, 0x3e, 0x68, 0x0d, 0x68, 0x3e, 0x2a, 0x0e,
  0x61, 0x3f, 0xc6, 0xf0, 0x1c, 0xbf, 0x3c, 0x3e, 0xa0, 0x3e, 0xcd, 0x0d, 0xc0,
  0xbf, 0x02, 0x04, 0x54, 0xbf, 0x03, 0x88, 0x8a, 0xbe, 0x4a, 0xc5, 0x62, 0xbf,
  0x04, 0xa7, 0x04, 0x3f, 0xdb, 0x32, 0x85, 0x3e, 0xa4, 0xe9, 0x05, 0x3e, 0x36,
  0x13, 0x92, 0x3e, 0x4e, 0x86, 0xfd, 0xbe, 0x28, 0x76, 0x41, 0xbe, 0x85, 0xc8,
  0x56, 0xbf, 0xc7, 0x8c, 0xf1, 0xbe, 0x6e, 0xbf, 0x8f, 0xbe, 0xee, 0x04, 0x18,
  0x3f, 0x28, 0xb3, 0x64, 0xbe, 0x50, 0xda, 0x36, 0x3e, 0xed, 0xc6, 0xcf, 0x3e,
  0xaa, 0x52, 0x72, 0x3e, 0xc4, 0xcd, 0x26, 0xbf, 0xca, 0xd6, 0xff, 0xff, 0x04,
  0x00, 0x00, 0x00, 0xf0, 0x00, 0x00, 0x00, 0xa5, 0x9b, 0x3c, 0xbe, 0xac, 0xb5,
  0x01, 0x3f, 0x9f, 0xae, 0x2b, 0xbe, 0x72, 0x8b, 0x86, 0x3d, 0x03, 0x68, 0x8e,
  0xbd, 0x96, 0x73, 0xb6, 0xbe, 0x28, 0x97, 0x6c, 0xbe, 0x73, 0xd1, 0x18, 0x3e,
  0x83, 0x5b, 0xd7, 0x3d, 0x0f, 0xea, 0x17, 0x3e, 0x01, 0xfc, 0xe7, 0xbe, 0x13,
  0x86, 0x3a, 0xbf, 0x59, 0x99, 0xf1, 0xbe, 0x7f, 0x51, 0x18, 0xbe, 0x66, 0xc4,
  0xfa, 0xbe, 0x45, 0x52, 0xa0, 0x3e, 0x0a, 0xf7, 0x39, 0x3f, 0xb8, 0x3c, 0xea,
  0x3e, 0xa4, 0x89, 0x8d, 0x3e, 0xb7, 0x31, 0xb6, 0x3e, 0xd2, 0x23, 0x57, 0x3e,
  0xd1, 0x4d, 0xcb, 0x3d, 0x63, 0x26, 0x99, 0x3e, 0x6b, 0x1a, 0x5c, 0x3e, 0xf8,
  0x53, 0xd2, 0xbd, 0x00, 0x1a, 0x43, 0xbe, 0x58, 0x4b, 0x47, 0xbe, 0x9a, 0x93,
  0x2d, 0x3f, 0x8f, 0x9b, 0x08, 0x3f, 0xe3, 0x08, 0xad, 0xbe, 0x1e, 0x93, 0xb3,
  0xbe, 0x03, 0x4f, 0x0b, 0x3f, 0x32, 0xf5, 0xe9, 0x3d, 0xab, 0x15, 0x39, 0x3f,
  0x9f, 0xdc, 0x70, 0xbe, 0xa2, 0xf5, 0x79, 0xbe, 0xeb, 0x1b, 0x99, 0xbe, 0x2b,
  0xd8, 0x12, 0x3f, 0x99, 0x25, 0x8a, 0x3e, 0x05, 0x44, 0x87, 0x3e, 0x5b, 0xc6,
  0x50, 0xba, 0x1c, 0x4a, 0x01, 0xbf, 0x9b, 0x6e, 0x72, 0x3f, 0x0b, 0x77, 0xad,
  0x3d, 0x5b, 0xf1, 0x74, 0xbf, 0xdf, 0x1a, 0x29, 0x3c, 0xd9, 0x9e, 0x08, 0xbf,
  0x7c, 0x0f, 0xc5, 0xbc, 0x3f, 0x80, 0x0f, 0xbd, 0x29, 0xd7, 0xcf, 0x3e, 0xfc,
  0xf6, 0x3a, 0x3e, 0x64, 0xca, 0xb7, 0x3e, 0x17, 0xf9, 0x3c, 0x3e, 0xe0, 0x43,
  0xa7, 0x3e, 0xc5, 0xcc, 0x0e, 0xbd, 0xc2, 0xe2, 0x02, 0x3e, 0x11, 0xd2, 0x4b,
  0x3d, 0x4d, 0x1c, 0x94, 0x3d, 0x90, 0x9a, 0x6c, 0xbe, 0x4f, 0xd6, 0xd4, 0x3e,
  0xc6, 0xd7, 0xff, 0xff, 0x04, 0x00, 0x00, 0x00, 0xf0, 0x00, 0x00, 0x00, 0x79,
  0xb3, 0x4e, 0x3e, 0x22, 0xdb, 0x7c, 0xbe, 0x3c, 0xfd, 0x69, 0xbe, 0x31, 0x6b,
  0x8a, 0xbd, 0x05, 0x82, 0x8f, 0xbe, 0x9c, 0x87, 0x5c, 0xbe, 0x14, 0x50, 0x25,
  0x3e, 0xa5, 0xd1, 0x05, 0x3e, 0x04, 0xf7, 0xb8, 0x3d, 0xac, 0x96, 0x87, 0x3d,
  0x3f, 0x63, 0x04, 0xbe, 0x78, 0xa3, 0xaa, 0xbe, 0x93, 0x61, 0x77, 0x3e, 0xa3,
  0x2e, 0xf7, 0xbe, 0xa1, 0x68, 0xe1, 0x3c, 0xfe, 0x2e, 0xbe, 0xbe, 0xf1, 0x78,
  0x76, 0xbe, 0x5c, 0xf7, 0xd8, 0xbe, 0xd3, 0x5e, 0xb5, 0x3e, 0x54, 0xe1, 0x91,
  0x3e, 0x75, 0xf6, 0xc1, 0xbe, 0x20, 0x3e, 0x10, 0x3f, 0x07, 0x29, 0x10, 0xbf,
  0x85, 0xce, 0x33, 0xbf, 0xff, 0x3f, 0x0c, 0x3f, 0x51, 0x6a, 0xa0, 0xbe, 0xb8,
  0x0e, 0xc6, 0x3d, 0x8c, 0x8a, 0x07, 0xbf, 0xb7, 0x13, 0xf6, 0xbe, 0x04, 0x8b,
  0x03, 0xbf, 0x44, 0x77, 0xff, 0x3e, 0xe7, 0x07, 0x37, 0x3e, 0xe2, 0x85, 0x1c,
  0xbf, 0xba, 0xd4, 0xdb, 0x3e, 0xd6, 0x2f, 0x10, 0xbf, 0xeb, 0x38, 0x7e, 0xbe,
  0xd3, 0xf1, 0xb5, 0x3e, 0x94, 0x81, 0xb9, 0xbe, 0xb1, 0x9c, 0xf1, 0x3e, 0x78,
  0xee, 0x14, 0xbe, 0x61, 0x30, 0xe9, 0x3e, 0xfa, 0x34, 0xaf, 0xbe, 0xc2, 0xea,
  0x99, 0x3e, 0x74, 0x52, 0xfd, 0x3e, 0x69, 0x22, 0x6d, 0xbe, 0x72, 0x56, 0x5e,
  0x3e, 0x46, 0xc0, 0xb1, 0xbe, 0x05, 0xf9, 0xcc, 0xbe, 0xde, 0xc5, 0x62, 0xbe,
  0x95, 0x37, 0x05, 0xbe, 0x87, 0x7a, 0xac, 0x3e, 0xeb, 0xaa, 0x5f, 0xbe, 0xd3,
  0xf5, 0xd8, 0xbe, 0xb7, 0x43, 0x4d, 0x3e, 0x45, 0x0b, 0x8b, 0xbd, 0x7a, 0x8e,
  0x02, 0x3f, 0x5a, 0x93, 0xcc, 0x3d, 0xf3, 0x31, 0x9f, 0xbe, 0xdc, 0xa9, 0x8d,
  0xba, 0x5d, 0x3c, 0xb9, 0x3d, 0xc2, 0xd8, 0xff, 0xff, 0x04, 0x00, 0x00, 0x00,
  0xd0, 0x02, 0x00, 0x00, 0xed, 0x6b, 0x90, 0xbe, 0xa7, 0x89, 0x35, 0x3f, 0xa6,
  0x0b, 0x32, 0xbe, 0x46, 0xf5, 0x1f, 0x3f, 0xa7, 0x02, 0x12, 0xbf, 0x10, 0x76,
  0xdc, 0xbe, 0x9c, 0x64, 0x03, 0xbf, 0xf1, 0x41, 0x1c, 0xbf, 0x43, 0x1d, 0x5b,
  0x3e, 0xca, 0x9d, 0x0e, 0x3e, 0x8e, 0x09, 0x00, 0xbf, 0x22, 0xbf, 0xc4, 0x3e,
  0x95, 0xac, 0x14, 0xbf, 0x94, 0xd8, 0x93, 0x3e, 0xeb, 0x97, 0xbf, 0xbd, 0x84,
  0x76, 0x83, 0xbe, 0x28, 0xd3, 0x78, 0xbf, 0xfd, 0xd0, 0x20, 0x3e, 0xd9, 0x96,
  0x12, 0x3e, 0xb1, 0x57, 0x8d, 0xba, 0x13, 0x87, 0xea, 0x3e, 0x68, 0x0a, 0xfb,
  0x3e, 0x3a, 0xa1, 0x45, 0x3f, 0xed, 0x86, 0xfc, 0xbe, 0x06, 0x4a, 0x0a, 0x3f,
  0xf9, 0x6e, 0xea, 0x3e, 0x04, 0x77, 0xcc, 0xbe, 0xa7, 0x58, 0x1f, 0x3f, 0x3b,
  0xf7, 0x19, 0xbf, 0x49, 0xee, 0x44, 0xbf, 0x5c, 0xda, 0x8b, 0xbf, 0xea, 0xac,
  0x15, 0x3f, 0x80, 0x4c, 0xb3, 0x3e, 0x95, 0x06, 0x05, 0xc0, 0x63, 0xb1, 0xd8,
  0xbc, 0xde, 0xd8, 0xac, 0x3e, 0xa4, 0x57, 0x0f, 0x3c, 0x1a, 0x14, 0xb3, 0x3e,
  0xf6, 0x20, 0x09, 0xbe, 0x56, 0x3a, 0x85, 0x3e, 0x42, 0x07, 0x83, 0xbe, 0x28,
  0xe4, 0x3f, 0xbf, 0xad, 0x68, 0xfe, 0xbd, 0x2a, 0x89, 0x44, 0x3e, 0x8e, 0x3d,
  0xa0, 0x3f, 0xa6, 0x94, 0xfd, 0x3d, 0x93, 0x82, 0x30, 0x3e, 0x39, 0x97, 0x8a,
  0xbf, 0xcd, 0x93, 0x70, 0xbe, 0xdd, 0xaf, 0x58, 0xbf, 0xf4, 0xc6, 0x30, 0xbe,
  0x9d, 0xe0, 0x3b, 0xbe, 0xa2, 0xfc, 0x85, 0xbc, 0x70, 0x7f, 0xfc, 0x3e, 0x56,
  0xfd, 0x07, 0x3f, 0xfb, 0x93, 0x1b, 0x3e, 0x10, 0xeb, 0x63, 0x3e, 0x6c, 0x99,
  0xe5, 0xbe, 0xa8, 0x8f, 0xf6, 0xbf, 0x97, 0x56, 0x39, 0x3d, 0x51, 0xd3, 0x63,
  0xbf, 0xa0, 0xbb, 0xb5, 0xbd, 0x59, 0x9a, 0x3d, 0x3f, 0x11, 0xda, 0x4a, 0xbe,
  0xb0, 0xa9, 0x67, 0xbf, 0x56, 0xfc, 0x53, 0x3e, 0xe1, 0xfa, 0x68, 0x3f, 0x31,
  0x93, 0xa1, 0x3c, 0x07, 0x7f, 0x11, 0x3d, 0xe1, 0x20, 0x7f, 0xbd, 0x47, 0x6b,
  0x29, 0xbe, 0x3f, 0xd9, 0x29, 0xbe, 0xec, 0xd3, 0x8f, 0x3f, 0xea, 0xb7, 0xe8,
  0x3c, 0xee, 0x78, 0x78, 0xbf, 0x90, 0xab, 0xb2, 0xbf, 0x92, 0xbb, 0x9e, 0x3f,
  0x76, 0x82, 0x89, 0xbe, 0x5b, 0x43, 0x04, 0xbf, 0x01, 0x6c, 0x89, 0xbf, 0xb2,
  0x29, 0xd9, 0xbf, 0x0f, 0xc3, 0x02, 0xbf, 0xab, 0x6b, 0x25, 0x3d, 0x15, 0xb0,
  0x25, 0x3e, 0x04, 0xe7, 0xaa, 0x3e, 0x1e, 0x2a, 0x82, 0x3f, 0x6a, 0xd2, 0x5c,
  0xbf, 0xa3, 0x18, 0x69, 0x3e, 0x8d, 0x41, 0x1a, 0xbf, 0x5e, 0x0e, 0x55, 0x3e,
  0xfd, 0x16, 0xf5, 0xbe, 0xc4, 0xce, 0x2d, 0x3e, 0x01, 0xbf, 0xa5, 0x3f, 0x36,
  0xc3, 0x10, 0xbe, 0xd1, 0xde, 0x8f, 0x3e, 0xaa, 0x90, 0xe6, 0x3e, 0x95, 0x21,
  0x82, 0xbf, 0x40, 0xe1, 0x11, 0xbe, 0x71, 0xf0, 0x1c, 0x3f, 0xf6, 0x10, 0x12,
  0xbf, 0x03, 0x36, 0xbe, 0xbe, 0x78, 0x44, 0x9e, 0xbe, 0xa3, 0xd7, 0x52, 0x3e,
  0xb1, 0xb4, 0x3d, 0x3f, 0xcf, 0x3a, 0x42, 0xbe, 0xd6, 0x50, 0x06, 0x3f, 0x57,
  0x44, 0xb4, 0x3e, 0x20, 0x26, 0x03, 0xbf, 0x8d, 0x29, 0xa7, 0xbf, 0x14, 0xd0,
  0x17, 0x3f, 0xde, 0x62, 0xfd, 0xbe, 0x66, 0x42, 0x2f, 0xbe, 0xa7, 0x5f, 0xb5,
  0x3e, 0xa2, 0x81, 0x80, 0xbf, 0xd2, 0x5d, 0x0f, 0x3f, 0xed, 0x5d, 0xf4, 0x3f,
  0x3e, 0xeb, 0x6e, 0xbf, 0x6c, 0x3e, 0xdd, 0x3d, 0x78, 0x4a, 0x38, 0xbf, 0x79,
  0xbb, 0xd4, 0xbe, 0xed, 0xfa, 0xee, 0xbb, 0xc7, 0xb0, 0xd1, 0xbe, 0xb7, 0xac,
  0x1c, 0x3f, 0xff, 0x5c, 0xf9, 0xbe, 0x43, 0x58, 0x77, 0x3f, 0xaa, 0xac, 0xe3,
  0x3e, 0x9f, 0xb8, 0x9e, 0xbf, 0x6f, 0x84, 0x0d, 0x3f, 0x3d, 0x0a, 0x51, 0x3f,
  0x17, 0x0f, 0xa7, 0x3f, 0xb5, 0x2f, 0x38, 0x3d, 0x0a, 0x65, 0xe6, 0xbe, 0x74,
  0xfd, 0x53, 0x3f, 0x05, 0x16, 0x99, 0xbe, 0x78, 0x49, 0x61, 0x3e, 0x54, 0xec,
  0x02, 0xbf, 0x2f, 0x50, 0xfa, 0xbe, 0x71, 0x50, 0x0a, 0xbf, 0x66, 0x42, 0x1f,
  0xbe, 0x26, 0xcb, 0x7c, 0x3e, 0x8b, 0xa2, 0x7d, 0x3e, 0x96, 0xec, 0x77, 0xbf,
  0x39, 0x82, 0x5e, 0xbe, 0x19, 0x13, 0x45, 0xbd, 0xbf, 0x87, 0x99, 0x3e, 0xed,
  0x30, 0x0a, 0x3f, 0x32, 0x47, 0x8d, 0xbe, 0x81, 0xd9, 0x9f, 0x3e, 0x2c, 0x98,
  0x64, 0x3e, 0xbb, 0xd4, 0x5e, 0xbf, 0x82, 0x89, 0x5f, 0x3e, 0x69, 0x93, 0x6e,
  0x3f, 0xb6, 0x13, 0x39, 0xbe, 0xeb, 0x57, 0x80, 0xbe, 0x9b, 0x86, 0x1d, 0xbf,
  0xf7, 0xa2, 0x8c, 0x3f, 0x93, 0x9e, 0xff, 0xbd, 0x05, 0xf9, 0x98, 0xbf, 0xee,
  0x65, 0x20, 0x3f, 0x86, 0x2c, 0x61, 0x3e, 0x09, 0x85, 0xbc, 0xbd, 0x0b, 0x27,
  0x17, 0x3e, 0xfb, 0xfa, 0x5e, 0xbe, 0x5f, 0x10, 0x2c, 0x3f, 0xe1, 0xfa, 0x78,
  0xbd, 0xa5, 0xce, 0x3a, 0x3e, 0xb9, 0x9e, 0x21, 0x3f, 0x37, 0x82, 0xe0, 0xbe,
  0x30, 0xe6, 0x27, 0x3e, 0xff, 0x6e, 0xaa, 0x3e, 0x52, 0xdf, 0x72, 0x3e, 0x82,
  0x7b, 0x78, 0x3f, 0xa6, 0x35, 0x30, 0x3f, 0xf3, 0x39, 0xff, 0xbe, 0xe2, 0x6a,
  0x52, 0xbf, 0xf3, 0xb4, 0xe2, 0xbe, 0x41, 0xa8, 0x2f, 0x3f, 0x6c, 0xf9, 0x3a,
  0xbf, 0x9b, 0x3a, 0xe3, 0x3d, 0xd7, 0xfb, 0x3a, 0x3f, 0x9e, 0xdb, 0xff, 0xff,
  0x04, 0x00, 0x00, 0x00, 0x2c, 0x01, 0x00, 0x00, 0x7d, 0x54, 0xc6, 0xbd, 0x8a,
  0x41, 0xbb, 0xbd, 0x19, 0x67, 0x16, 0xbd, 0xb3, 0x51, 0xe1, 0xbe, 0xd7, 0x91,
  0x81, 0x3c, 0x28, 0x03, 0x04, 0xbe, 0x7a, 0xaf, 0x0c, 0x3d, 0xf1, 0xe1, 0x3a,
  0x3d, 0x57, 0xf5, 0xa5, 0xbd, 0x38, 0x16, 0x17, 0x3e, 0x4a, 0x54, 0xa1, 0xbd,
  0xbd, 0x9e, 0xac, 0xbd, 0x2e, 0xc8, 0xe7, 0xbd, 0x1d, 0x5f, 0x65, 0x3e, 0x22,
  0x10, 0x01, 0x3e, 0x05, 0x3c, 0xbf, 0x3e, 0x51, 0x5f, 0x8f, 0x3d, 0xa7, 0xba,
  0x27, 0x3e, 0x7f, 0x63, 0x09, 0x3f, 0xee, 0x67, 0x3f, 0xbe, 0x3b, 0xf4, 0xbb,
  0x3e, 0x79, 0xa3, 0xf1, 0x3d, 0xb6, 0x84, 0x2a, 0xbd, 0x9a, 0x39, 0xae, 0xbe,
  0xba, 0x41, 0x40, 0x3e, 0xb0, 0x9b, 0x54, 0xbe, 0x48, 0x68, 0x02, 0xbf, 0x83,
  0x7e, 0x70, 0x3e, 0x57, 0x4a, 0xfd, 0xbd, 0x0b, 0x1b, 0x26, 0xbe, 0x66, 0x7e,
  0x9f, 0xbe, 0xd7, 0x8c, 0x0f, 0xbe, 0x38, 0x61, 0x80, 0xbd, 0x9a, 0x7b, 0x4f,
  0xbf, 0x4d, 0x7e, 0xf0, 0x3e, 0xd4, 0x30, 0x0f, 0x3f, 0x6e, 0xa7, 0xaa, 0xbe,
  0x49, 0x42, 0x48, 0xbe, 0x6e, 0x07, 0xd9, 0x3e, 0x58, 0x67, 0x80, 0xbd, 0xc1,
  0x12, 0xbb, 0xbe, 0xc1, 0xcd, 0xec, 0xbe, 0xeb, 0xf1, 0x1a, 0x3e, 0xc2, 0x91,
  0x82, 0xbe, 0x5c, 0x5c, 0xc5, 0x3e, 0x6f, 0x95, 0x2a, 0xbf, 0xb2, 0x63, 0xf0,
  0xbe, 0xa8, 0x09, 0xe4, 0xbe, 0x08, 0xe6, 0xa6, 0x3d, 0xa9, 0x1c, 0x26, 0x3f,
  0x14, 0x24, 0x19, 0x3e, 0x22, 0x89, 0x28, 0x3f, 0x55, 0x40, 0xec, 0xbe, 0x19,
  0x04, 0xd4, 0x3e, 0x74, 0x5d, 0x2c, 0x3f, 0x2b, 0x9d, 0xe4, 0xbe, 0xb7, 0x63,
  0x46, 0xbd, 0x13, 0x06, 0x18, 0xbf, 0xc8, 0xc1, 0x7f, 0x3f, 0x85, 0xfb, 0xd1,
  0x3e, 0x5a, 0x4c, 0x06, 0x3e, 0x7b, 0x17, 0xb4, 0xbe, 0xe6, 0xbe, 0x6f, 0xbf,
  0xc2, 0xef, 0x87, 0xbe, 0x75, 0x30, 0xb7, 0x3e, 0xcc, 0x29, 0xc2, 0xbd, 0x75,
  0xe3, 0xc6, 0x3e, 0xf0, 0xd7, 0x1e, 0xbf, 0x42, 0x68, 0x1c, 0x3e, 0x3c, 0xc0,
  0xe9, 0x3e, 0x1e, 0xc6, 0x4a, 0xbe, 0x4d, 0xba, 0x13, 0xbe, 0x21, 0x62, 0x0f,
  0xbf, 0x76, 0x81, 0xdc, 0x3d, 0x86, 0x03, 0x1a, 0x3f, 0xd6, 0xdc, 0xff, 0xff,
  0x04, 0x00, 0x00, 0x00, 0x3c, 0x00, 0x00, 0x00, 0x00, 0x00, 0x00, 0x00, 0x00,
  0x00, 0x00, 0x00, 0x00, 0x00, 0x00, 0x00, 0x00, 0x00, 0x00, 0x00, 0x00, 0x00,
  0x00, 0x00, 0x00, 0x00, 0x00, 0x00, 0x00, 0x00, 0x00, 0x00, 0x00, 0x00, 0x00,
  0x00, 0x00, 0x00, 0x00, 0x00, 0x00, 0x00, 0x00, 0x00, 0x00, 0x00, 0x00, 0x00,
  0x00, 0x00, 0x00, 0x00, 0x00, 0x00, 0x00, 0x00, 0x00, 0x00, 0x00, 0x00, 0x00,
  0x00, 0x00, 0x00, 0x1e, 0xdd, 0xff, 0xff, 0x04, 0x00, 0x00, 0x00, 0x2c, 0x01,
  0x00, 0x00, 0x91, 0x88, 0x4b, 0x3e, 0xdb, 0x44, 0xd1, 0xbd, 0x31, 0x81, 0xbe,
  0x3e, 0x05, 0xc4, 0xd5, 0x3e, 0xf4, 0x7e, 0x87, 0xbe, 0xd1, 0xc5, 0xc7, 0xbd,
  0x46, 0xba, 0x24, 0xbd, 0x2f, 0x56, 0xcd, 0x3e, 0xbe, 0xaf, 0x65, 0x3d, 0xe3,
  0x0f, 0xb4, 0x3d, 0xa8, 0x99, 0x23, 0x3f, 0x93, 0x53, 0x83, 0xbd, 0xd7, 0x29,
  0x04, 0xbe, 0x2a, 0x40, 0x0a, 0x3c, 0x25, 0x6c, 0xcc, 0xbd, 0xf7, 0x4e, 0xd4,
  0x3e, 0x77, 0x9f, 0xde, 0x3e, 0x70, 0x0e, 0x49, 0xbe, 0x16, 0xcc, 0x93, 0x3e,
  0xc1, 0x1f, 0xe4, 0x3e, 0x4a, 0xd2, 0xcb, 0x3e, 0x10, 0x03, 0x71, 0xbe, 0x2f,
  0xe4, 0xf9, 0xbe, 0x69, 0xeb, 0x04, 0x3e, 0xc3, 0xd2, 0x7b, 0x3d, 0x12, 0xe4,
  0xf2, 0xbe, 0x93, 0x5a, 0x26, 0xbf, 0x9a, 0x93, 0xe5, 0x3d, 0x88, 0xfb, 0x08,
  0xbf, 0xcf, 0x2c, 0x20, 0x3f, 0x81, 0x19, 0x7e, 0xbf, 0x33, 0xe1, 0xab, 0x3d,
  0x7e, 0x44, 0x20, 0x3f, 0x91, 0xd2, 0x54, 0xbf, 0x50, 0x42, 0x09, 0x3e, 0x12,
  0xc5, 0xbc, 0xbc, 0xfa, 0x78, 0x2e, 0x3f, 0x37, 0xbc, 0xcc, 0x3e, 0x2c, 0x16,
  0x30, 0x3f, 0x52, 0xaf, 0x26, 0x3e, 0x64, 0xb9, 0xf2, 0xbe, 0x7f, 0x49, 0x64,
  0xbe, 0xfc, 0xbf, 0x15, 0x3f, 0x8a, 0x94, 0x8b, 0x3f, 0xe5, 0xe1, 0x07, 0xbf,
  0x82, 0x3a, 0xc9, 0xbe, 0x3e, 0x12, 0x6c, 0xbe, 0x09, 0xf4, 0x8f, 0xbe, 0x0a,
  0xe5, 0xd0, 0x3e, 0xef, 0x49, 0x44, 0xbf, 0x46, 0x1c, 0x05, 0x3f, 0xd7, 0xcb,
  0xe7, 0x3e, 0xb6, 0x42, 0x0f, 0x3e, 0x68, 0x54, 0x7c, 0x3e, 0x94, 0x94, 0x57,
  0x3f, 0x8e, 0x4c, 0xc4, 0x3c, 0xfc, 0xeb, 0x18, 0xbb, 0xfd, 0x31, 0x84, 0x3e,
  0xa6, 0xca, 0x0c, 0xbe, 0x77, 0x17, 0xcd, 0xbe, 0xeb, 0x7e, 0x17, 0xbe, 0xad,
  0xea, 0x0a, 0xbf, 0xda, 0x01, 0x4a, 0xbe, 0x1f, 0x12, 0xbd, 0xbe, 0x72, 0x85,
  0xdd, 0xbd, 0xc8, 0xcd, 0x2e, 0x3e, 0x82, 0xd1, 0x84, 0xbd, 0xcf, 0x67, 0xe2,
  0x3e, 0xa3, 0xea, 0x47, 0xbe, 0xa5, 0xf9, 0xc8, 0xbe, 0xfc, 0x5b, 0x7c, 0x3e,
  0xba, 0x09, 0xb1, 0x3d, 0xc2, 0x6a, 0x9c, 0x3d, 0x0f, 0x3d, 0xa8, 0x3d, 0x64,
  0xec, 0x86, 0x3d, 0x56, 0xde, 0xff, 0xff, 0x04, 0x00, 0x00, 0x00, 0x40, 0x02,
  0x00, 0x00, 0x59, 0x06, 0x5b, 0xbf, 0xce, 0x89, 0x05, 0x3f, 0xf9, 0xd6, 0x8d,
  0x3e, 0x2b, 0xdd, 0x0d, 0xbf, 0x83, 0xf6, 0x62, 0xbf, 0x8d, 0x10, 0x38, 0x3f,
  0x4a, 0x2b, 0xf7, 0x3e, 0xc4, 0x74, 0x5c, 0xbd, 0xe0, 0x03, 0xf9, 0x3e, 0xc5,
  0x1b, 0x61, 0xbd, 0x69, 0xe2, 0xe8, 0xbd, 0xe0, 0xf9, 0x15, 0x3e, 0xbc, 0x6c,
  0x8e, 0x3d, 0x00, 0x9e, 0xa7, 0xbd, 0x9e, 0x1a, 0x3f, 0x3f, 0x0a, 0x8c, 0x76,
  0x3f, 0xee, 0xfe, 0x3c, 0xbf, 0xc3, 0x9a, 0x49, 0xbf, 0x28, 0xb8, 0x96, 0x3e,
  0xcb, 0x79, 0x9a, 0x3e, 0x70, 0xc6, 0x6a, 0xbf, 0xfa, 0xe9, 0x03, 0xbf, 0x4f,
  0x40, 0x47, 0x3c, 0x7b, 0x35, 0x58, 0xbe, 0x45, 0x95, 0xd2, 0x3e, 0x6c, 0x95,
  0x17, 0xbb, 0x62, 0x2f, 0xa2, 0x3e, 0x9c, 0xec, 0xbc, 0xbe, 0x39, 0x93, 0x0f,
  0x3f, 0x84, 0x83, 0x1d, 0x3f, 0x9b, 0x87, 0x2a, 0xbe, 0x80, 0x5e, 0x28, 0xbd,
  0x11, 0x00, 0x0c, 0xbe, 0xd4, 0xe6, 0xf2, 0x3e, 0x7c, 0xdb, 0xce, 0x3e, 0x85,
  0x09, 0x6a, 0xbf, 0xb0, 0xb0, 0xfb, 0x3e, 0x01, 0x1b, 0x9e, 0x3f, 0xc9, 0xac,
  0x64, 0x3f, 0x34, 0xc3, 0xba, 0x3d, 0xe3, 0xb5, 0x2a, 0xbf, 0xaa, 0x8a, 0x2b,
  0x3f, 0x42, 0xeb, 0x8d, 0xbe, 0x14, 0x0a, 0xfe, 0xbd, 0x39, 0xe1, 0xbc, 0x3e,
  0x1d, 0x00, 0xcd, 0xbe, 0xf5, 0x6c, 0x1e, 0x3d, 0x17, 0xb1, 0x36, 0xbf, 0x81,
  0xf8, 0x44, 0x3f, 0xd4, 0x58, 0x92, 0xbf, 0xc0, 0x6f, 0x99, 0xbe, 0x00, 0x26,
  0xb5, 0x3e, 0x88, 0xb6, 0x61, 0x3f, 0x03, 0x61, 0x4d, 0xbf, 0x52, 0x40, 0x6c,
  0x3e, 0x8e, 0x35, 0xb7, 0x3f, 0x3b, 0x6a, 0x04, 0xbf, 0x8b, 0xd5, 0x4b, 0xbe,
  0xee, 0x62, 0x6f, 0xbe, 0x21, 0x6d, 0xac, 0x3e, 0x98, 0xd1, 0x29, 0xbf, 0xf5,
  0x9d, 0x5a, 0x3d, 0x4d, 0x46, 0x1e, 0x3d, 0xb4, 0xac, 0xec, 0x3e, 0xd5, 0xfd,
  0x70, 0xbe, 0x25, 0xf9, 0x44, 0x3f, 0x5e, 0xc8, 0x63, 0xbd, 0x61, 0x81, 0x9e,
  0xbd, 0x8a, 0x76, 0x9b, 0x3d, 0xbe, 0x92, 0x24, 0x3f, 0x75, 0x63, 0xf4, 0xbd,
  0xcc, 0xe6, 0x0b, 0xbf, 0x3e, 0x95, 0x87, 0xbe, 0x8b, 0xd2, 0x88, 0xbf, 0x36,
  0x6a, 0xea, 0xbf, 0x6c, 0x0a, 0x94, 0xbf, 0xc1, 0x65, 0x7b, 0x3f, 0x48, 0x28,
  0xae, 0xbe, 0x1a, 0x49, 0xa5, 0x3d, 0xa8, 0xe6, 0x2e, 0x3e, 0xe5, 0x95, 0x5b,
  0xbf, 0xb5, 0x41, 0x58, 0xbf, 0x43, 0x88, 0xaa, 0xbe, 0x95, 0x37, 0x6c, 0x3f,
  0x53, 0x68, 0xbb, 0xbe, 0xb9, 0x6f, 0xaa, 0x3e, 0x2d, 0xca, 0x52, 0x3e, 0x4f,
  0x9b, 0x33, 0x3e, 0x03, 0x3d, 0xa0, 0xbe, 0xc0, 0xb4, 0xec, 0xbc, 0x7f, 0x51,
  0xbd, 0x3c, 0xc7, 0xd8, 0xf9, 0xbd, 0x95, 0x47, 0x7f, 0x3e, 0x04, 0x57, 0x35,
  0x3f, 0xdf, 0x95, 0xb8, 0xbd, 0x52, 0x0a, 0xd7, 0x3e, 0xfc, 0xf7, 0xb1, 0x3e,
  0x30, 0x40, 0x9f, 0x3c, 0x7a, 0x20, 0xe7, 0x3f, 0x57, 0x1f, 0x9b, 0xbe, 0xa0,
  0x87, 0xd1, 0xbe, 0x73, 0x50, 0x23, 0x3f, 0x4f, 0x10, 0x58, 0xbe, 0x81, 0x24,
  0xa9, 0xbe, 0x1c, 0xfd, 0xb2, 0x3e, 0x9e, 0xb7, 0xa0, 0xbf, 0x63, 0xa5, 0x22,
  0xbf, 0x98, 0xa0, 0x57, 0xbf, 0xf4, 0xf9, 0x88, 0xbe, 0x44, 0x1c, 0xa4, 0x3e,
  0x9c, 0x86, 0x00, 0x3f, 0xbe, 0x58, 0x28, 0xbe, 0xa8, 0xa4, 0xea, 0xbe, 0xfa,
  0x54, 0x8e, 0xbe, 0x69, 0xd8, 0x62, 0x3d, 0xad, 0xcc, 0x3b, 0x3e, 0xfd, 0x7f,
  0x67, 0x3d, 0xea, 0xfa, 0x8a, 0xbe, 0xce, 0x59, 0x61, 0xbf, 0xea, 0xaf, 0xf5,
  0xbe, 0x20, 0x9f, 0xbc, 0x3d, 0x5f, 0x30, 0x6e, 0xbd, 0x09, 0xb6, 0x31, 0xbf,
  0xbc, 0x29, 0x49, 0xbf, 0x4c, 0x63, 0xcb, 0x3e, 0xf4, 0x13, 0xf1, 0x3e, 0x36,
  0xb5, 0xc5, 0x3e, 0x61, 0xff, 0x4b, 0x3f, 0x90, 0xd8, 0xf9, 0x3e, 0xb7, 0xb9,
  0x97, 0xbe, 0x21, 0x31, 0x58, 0x3f, 0xd2, 0x2c, 0x3d, 0x3f, 0xd4, 0x43, 0xa9,
  0x3e, 0xb3, 0xa6, 0x9d, 0x3e, 0xec, 0xe7, 0x53, 0x3e, 0x80, 0x0a, 0x05, 0xbe,
  0x6d, 0xf6, 0x05, 0xbe, 0x1e, 0xa9, 0x91, 0xbd, 0x5e, 0xa4, 0x92, 0xbf, 0x14,
  0x9c, 0xf0, 0xbe, 0xbe, 0x13, 0x30, 0xbd, 0xa4, 0xb8, 0x4f, 0xbd, 0xf7, 0x68,
  0x18, 0x3f, 0x9f, 0xef, 0x0c, 0x3e, 0xa2, 0xe0, 0xff, 0xff, 0x04, 0x00, 0x00,
  0x00, 0xf0, 0x00, 0x00, 0x00, 0x08, 0x16, 0x9e, 0xbb, 0x63, 0x07, 0x8b, 0xbc,
  0xd1, 0x4a, 0xd5, 0xbe, 0xb3, 0xc7, 0xbd, 0xbd, 0x29, 0xfa, 0xbe, 0x3e, 0x6c,
  0x0e, 0x2c, 0xbe, 0x24, 0x07, 0xa6, 0x3e, 0x8b, 0x58, 0x9a, 0xbd, 0x2f, 0x82,
  0x83, 0xbc, 0x0c, 0xfa, 0x3b, 0x3e, 0x04, 0xdb, 0x91, 0x3e, 0xf1, 0x97, 0x9b,
  0x3e, 0x18, 0xbe, 0xca, 0x3e, 0xac, 0x64, 0x47, 0x3e, 0x0e, 0x20, 0x07, 0xbf,
  0x46, 0x2c, 0xcd, 0xbe, 0x96, 0x5b, 0xae, 0x3e, 0x7b, 0xbb, 0xcc, 0xbe, 0x1e,
  0x09, 0x17, 0x3e, 0x47, 0x82, 0x5a, 0x3e, 0xc9, 0x44, 0xcd, 0x3e, 0xd8, 0x1f,
  0x6a, 0x3d, 0x17, 0x1c, 0x94, 0x3e, 0x23, 0x80, 0xcb, 0x3e, 0x67, 0x16, 0x61,
  0xbe, 0xea, 0x5e, 0xdd, 0x3e, 0x7e, 0x74, 0x27, 0xbf, 0xac, 0xb2, 0xe3, 0xbe,
  0x60, 0x80, 0x12, 0x3f, 0x98, 0x61, 0x3e, 0xbf, 0x98, 0x19, 0xdd, 0x3d, 0x9c,
  0x4d, 0x94, 0xbe, 0xc0, 0x27, 0x44, 0x3f, 0xd8, 0x6e, 0x75, 0x3e, 0x8d, 0xab,
  0x76, 0x3e, 0xcb, 0x98, 0xee, 0x3c, 0x8b, 0xee, 0xf8, 0x3e, 0x18, 0x84, 0xdc,
  0xbe, 0xbb, 0x8c, 0xcd, 0xbe, 0x36, 0xf1, 0x9a, 0xbe, 0x03, 0x0a, 0xb7, 0x3e,
  0x65, 0x5c, 0xff, 0xbe, 0xb8, 0x3f, 0x22, 0xbe, 0xf5, 0x92, 0x5f, 0xbf, 0x2c,
  0x14, 0xa1, 0x3e, 0x3d, 0x8f, 0x81, 0x3e, 0xd7, 0x61, 0x0f, 0x3e, 0x15, 0xe1,
  0x85, 0x3e, 0x34, 0xbe, 0x5b, 0x3e, 0xbb, 0xfa, 0x21, 0xbf, 0x63, 0x0a, 0x3b,
  0xbf, 0x02, 0xc2, 0xe1, 0xbc, 0x83, 0x23, 0x71, 0x3e, 0x8a, 0x32, 0xee, 0xbc,
  0xb3, 0x70, 0x0f, 0x3f, 0x21, 0x52, 0x78, 0x3e, 0x75, 0xab, 0xdc, 0x3d, 0xf6,
  0xc9, 0x55, 0x3e, 0x37, 0x78, 0x23, 0x3f, 0xe5, 0x7e, 0x03, 0x3f, 0x9e, 0xe1,
  0xff, 0xff, 0x04, 0x00, 0x00, 0x00, 0xf0, 0x00, 0x00, 0x00, 0x64, 0x78, 0x06,
  0xbf, 0xfc, 0x34, 0xc4, 0x3d, 0xb3, 0x09, 0xd9, 0xbe, 0x7e, 0xe9, 0x20, 0x3e,
  0xf3, 0x33, 0x72, 0x3e, 0x39, 0x57, 0xe3, 0xbd, 0xb8, 0x3f, 0xd7, 0x3d, 0x00,
  0xf7, 0x2c, 0xbe, 0x1f, 0x0b, 0x53, 0xbe, 0xfa, 0x36, 0x75, 0x3e, 0xf5, 0x3a,
  0xa7, 0xbd, 0x8f, 0xd6, 0x4a, 0xbe, 0x40, 0xf8, 0x8a, 0xbc, 0xb6, 0x09, 0xd4,
  0xbd, 0x87, 0x1c, 0x0c, 0x3f, 0x5d, 0x36, 0xfa, 0xbb, 0x09, 0xd8, 0x5b, 0x3e,
  0x5f, 0x06, 0xec, 0xbd, 0x5e, 0x1c, 0x42, 0xbf, 0xe2, 0xf2, 0x4d, 0x3e, 0x4a,
  0x87, 0x67, 0x3e, 0xe7, 0x5c, 0x3d, 0x3d, 0x01, 0x40, 0x98, 0xbc, 0x29, 0xd7,
  0x9e, 0x3d, 0xa6, 0x82, 0x09, 0xbe, 0x33, 0x6f, 0xc6, 0x3e, 0xf1, 0x2a, 0xca,
  0x3e, 0x9a, 0xf7, 0x06, 0xbf, 0xc1, 0x16, 0x11, 0x3f, 0x53, 0xdc, 0x8c, 0xbe,
  0xd5, 0x4c, 0x1b, 0x3e, 0x4f, 0x9d, 0x54, 0x3e, 0x00, 0x90, 0x1a, 0xbe, 0xe0,
  0x92, 0x9e, 0x3e, 0xea, 0xd2, 0x05, 0xbf, 0xe4, 0x92, 0xef, 0xbe, 0x18, 0x66,
  0xb7, 0xbe, 0x16, 0x69, 0x25, 0x3f, 0x49, 0x36, 0x0d, 0x3f, 0xf4, 0xc5, 0xd2,
  0xbe, 0x14, 0x69, 0x0f, 0x3f, 0x06, 0x38, 0x07, 0xbf, 0x65, 0xc0, 0x69, 0xbe,
  0x1b, 0xc9, 0x93, 0xbf, 0xd8, 0x0a, 0x02, 0xbf, 0x98, 0xe4, 0xb3, 0x3e, 0x49,
  0xc3, 0x87, 0xbe, 0x92, 0x2b, 0x3b, 0xbe, 0xe1, 0xec, 0xc7, 0xbe, 0xc6, 0x36,
  0x85, 0xbd, 0x8c, 0xab, 0xc8, 0x3e, 0xb6, 0x93, 0x15, 0xbf, 0xe6, 0x82, 0x8d,
  0x3e, 0xaa, 0x28, 0xe8, 0xbe, 0x4e, 0x12, 0x9e, 0x3e, 0x2a, 0xbe, 0x33, 0x3d,
  0xc8, 0x99, 0xa2, 0xbe, 0x8c, 0x44, 0x0a, 0x3f, 0x1c, 0x19, 0xe2, 0xbe, 0xaa,
  0x44, 0xe1, 0xbb, 0x9a, 0xe2, 0xff, 0xff, 0x04, 0x00, 0x00, 0x00, 0xd0, 0x02,
  0x00, 0x00, 0xff, 0x73, 0xec, 0xbd, 0xa8, 0x12, 0xd0, 0x3e, 0x6b, 0x4f, 0x7c,
  0xbf, 0x84, 0x06, 0x25, 0xbf, 0x4a, 0xae, 0xaf, 0xbe, 0xc0, 0xf5, 0xa8, 0xbe,
  0x4a, 0xe6, 0x73, 0xbe, 0xb1, 0xfd, 0xbc, 0xbe, 0x11, 0x6a, 0x8a, 0xbe, 0xdc,
  0x79, 0x59, 0xbf, 0xcf, 0xf0, 0xf6, 0xbe, 0xcb, 0x94, 0x6f, 0x3f, 0xae, 0x5c,
  0x45, 0x3f, 0x07, 0x67, 0x40, 0xbf, 0xef, 0x92, 0x08, 0x3e, 0x92, 0x7d, 0x42,
  0x3e, 0x9b, 0xb1, 0xe4, 0xbe, 0x60, 0x26, 0xc6, 0x3e, 0xf4, 0xd8, 0x3a, 0xbe,
  0x9b, 0x08, 0x41, 0x3f, 0x57, 0xed, 0x09, 0x3f, 0x5d, 0x88, 0x8d, 0xbf, 0x21,
  0xaf, 0x19, 0xbf, 0x89, 0xa4, 0xd5, 0xbe, 0x6e, 0x16, 0xc5, 0x3e, 0x10, 0x6d,
  0x90, 0x3e, 0x67, 0x86, 0xfc, 0xbe, 0xe9, 0x56, 0x85, 0xbf, 0x71, 0xbb, 0x3e,
  0x3e, 0x65, 0xb3, 0xbf, 0x3e, 0xc9, 0xce, 0x31, 0xbd, 0x10, 0x1a, 0xa8, 0xbd,
  0x81, 0xf7, 0x52, 0xbe, 0x7c, 0xb6, 0x60, 0xbd, 0x74, 0x33, 0xa1, 0xbc, 0x28,
  0x39, 0x1a, 0xbe, 0xe4, 0x83, 0xea, 0x3e, 0x8d, 0xec, 0x80, 0xbe, 0xeb, 0x12,
  0xfc, 0x3d, 0x78, 0x83, 0x65, 0x3c, 0x26, 0x2b, 0xdc, 0x3d, 0x22, 0xeb, 0x98,
  0xbe, 0x97, 0x13, 0x99, 0x3d, 0x03, 0x3d, 0x6e, 0xbd, 0x4e, 0x5b, 0xbd, 0x3e,
  0x57, 0x95, 0x8a, 0x3f, 0xef, 0xfe, 0x8c, 0xbf, 0x60, 0xbb, 0x18, 0x3f, 0x4a,
  0x9a, 0x63, 0x3f, 0x95, 0x35, 0x6d, 0x3e, 0x4b, 0x55, 0x8b, 0x3c, 0xcb, 0xd3,
  0x57, 0x3c, 0xf0, 0x50, 0x8e, 0xbe, 0x9a, 0xcc, 0x28, 0xbf, 0xb5, 0x00, 0x72,
  0xbf, 0xcb, 0x68, 0x1e, 0xbe, 0x75, 0x9b, 0x2b, 0xbe, 0x5c, 0x88, 0x16, 0x3f,
  0x67, 0x04, 0x2d, 0xbf, 0x63, 0x66, 0x3d, 0xbd, 0xb8, 0x19, 0x10, 0x3f, 0xd9,
  0x49, 0x16, 0xbe, 0x67, 0x1a, 0x85, 0x3e, 0xd5, 0x03, 0x09, 0x3f, 0x53, 0x20,
  0x4a, 0xbf, 0x09, 0xf0, 0xb7, 0x3f, 0xf8, 0xd5, 0x97, 0x3e, 0xf5, 0xab, 0x12,
  0xbd, 0x76, 0x74, 0x41, 0xbf, 0x26, 0xd8, 0x10, 0xbf, 0xb1, 0x00, 0x16, 0xbf,
  0xb4, 0x1c, 0x5d, 0x3f, 0x31, 0xa5, 0x6f, 0x3e, 0x71, 0xd3, 0x15, 0xbe, 0x16,
  0x19, 0x9a, 0x3f, 0x95, 0xc7, 0x9e, 0x3e, 0x42, 0x45, 0x02, 0x3f, 0xd1, 0x87,
  0xe6, 0x3e, 0xfb, 0x72, 0x32, 0xbe, 0xac, 0xc5, 0x2d, 0x3f, 0xac, 0xb1, 0xbf,
  0xbe, 0x73, 0xc6, 0xe4, 0xbe, 0x26, 0x40, 0x7d, 0xbf, 0xe2, 0x3b, 0x6c, 0x3f,
  0x37, 0xf0, 0xbf, 0xbe, 0x08, 0x8d, 0x2c, 0xbe, 0x92, 0xe0, 0x81, 0x3f, 0x22,
  0x53, 0xdb, 0x3e, 0x21, 0xec, 0x05, 0xbf, 0xf7, 0x33, 0x15, 0x3f, 0x68, 0x68,
  0x80, 0x3d, 0x84, 0x4f, 0x99, 0x3e, 0x78, 0x28, 0x50, 0x3f, 0x32, 0xa8, 0x08,
  0x3d, 0x45, 0x41, 0xb4, 0xbe, 0x4b, 0xec, 0x2b, 0x3f, 0xc8, 0x58, 0x3a, 0x3e,
  0x0f, 0xba, 0xaf, 0xbd, 0x7b, 0x0d, 0xbe, 0xbe, 0xc1, 0xcc, 0x20, 0x3e, 0x37,
  0xc8, 0x02, 0xc0, 0xcb, 0x69, 0xbe, 0xbe, 0x9a, 0x54, 0x31, 0x3e, 0x31, 0xf6,
  0xfe, 0x3d, 0xdc, 0x4d, 0x39, 0x3f, 0x0f, 0xa7, 0xbb, 0xbf, 0xd4, 0x3a, 0x45,
  0x3e, 0x08, 0xd9, 0x21, 0x3f, 0xd9, 0x84, 0x63, 0xbf, 0x2e, 0x86, 0xab, 0x3e,
  0x34, 0xe5, 0x05, 0x3e, 0x1b, 0x48, 0x91, 0xbd, 0x96, 0x31, 0xe5, 0x3d, 0xbb,
  0x5b, 0x24, 0x3f, 0xcc, 0xce, 0x01, 0x3e, 0xbc, 0xc2, 0xe5, 0x3e, 0xbd, 0x03,
  0xb4, 0xbe, 0x77, 0x06, 0x19, 0xbf, 0x01, 0x71, 0xde, 0x3e, 0x7d, 0x93, 0xa7,
  0x3d, 0x3f, 0xcd, 0x04, 0xbd, 0x11, 0xe3, 0xaa, 0x3f, 0x7e, 0x7c, 0xfa, 0xbe,
  0x85, 0x94, 0xd8, 0x3f, 0x77, 0x32, 0x8d, 0x3f, 0x3a, 0x1e, 0x42, 0x3d, 0x85,
  0x15, 0xb4, 0xbf, 0xa7, 0x44, 0xba, 0xbd, 0xf9, 0x03, 0x10, 0x3e, 0x6f, 0x2c,
  0x2b, 0xbe, 0x47, 0xa0, 0x0b, 0x3d, 0xdf, 0xae, 0x49, 0xbe, 0xf3, 0xe5, 0x32,
  0x3e, 0x7d, 0xe8, 0x1d, 0xbf, 0xc2, 0xea, 0xcf, 0x3e, 0x83, 0x82, 0x1c, 0xbe,
  0x12, 0x6b, 0x09, 0xbf, 0x41, 0x92, 0x8b, 0x3e, 0xac, 0xc1, 0x0c, 0x3f, 0x22,
  0x25, 0x93, 0xbe, 0xcf, 0x0b, 0x24, 0xbf, 0x2a, 0x11, 0x85, 0xbe, 0x80, 0xc1,
  0xda, 0xbe, 0x70, 0x30, 0x5d, 0xbd, 0x7b, 0x32, 0x8e, 0x3e, 0x9a, 0x92, 0x0e,
  0xbd, 0x0d, 0x81, 0x06, 0x3e, 0x8c, 0x1b, 0xbe, 0xbe, 0x5a, 0x20, 0x95, 0x3f,
  0xe0, 0xcd, 0x1f, 0x3f, 0xcc, 0x9e, 0x80, 0xbe, 0xea, 0x42, 0x22, 0x3d, 0xe2,
  0xa1, 0xbf, 0x3e, 0x42, 0x37, 0x98, 0xbe, 0x09, 0xe0, 0x5f, 0x3e, 0x50, 0xd3,
  0x38, 0xbf, 0xfb, 0x0b, 0x3a, 0x3f, 0x5a, 0xc7, 0x27, 0xbf, 0x87, 0x55, 0x38,
  0x3e, 0xdb, 0x01, 0x6a, 0x3f, 0xab, 0x51, 0xa4, 0x3f, 0x6c, 0x5f, 0xd0, 0xbe,
  0x9f, 0xd2, 0x13, 0xbe, 0x16, 0x8b, 0xdb, 0xbd, 0x07, 0xd1, 0x27, 0x3f, 0xcc,
  0xa3, 0x2f, 0x3d, 0xd4, 0x24, 0x44, 0xbe, 0x54, 0x51, 0x3e, 0xbe, 0x18, 0x3c,
  0x98, 0xbe, 0x54, 0x43, 0x7b, 0x3f, 0x43, 0x39, 0x99, 0x3e, 0x88, 0x40, 0x5b,
  0x3e, 0x34, 0x5d, 0xa0, 0xbf, 0x68, 0x72, 0x34, 0x3e, 0x28, 0x3e, 0x4c, 0xbf,
  0xbf, 0x0b, 0x1c, 0x3f, 0x21, 0xa2, 0x8b, 0xbf, 0x14, 0x8f, 0x77, 0xbe, 0x1e,
  0xcd, 0x1e, 0x3f, 0x6d, 0x43, 0x44, 0x3f, 0x76, 0xe5, 0xff, 0xff, 0x04, 0x00,
  0x00, 0x00, 0x2c, 0x01, 0x00, 0x00, 0x66, 0x57, 0xf4, 0xbc, 0x0a, 0x1c, 0xcd,
  0x3c, 0x38, 0xd2, 0x24, 0x3e, 0x8a, 0x86, 0x9e, 0x3d, 0xf9, 0x3c, 0x5b, 0x3d,
  0xa4, 0xcb, 0xab, 0xbc, 0x1d, 0x7e, 0xf0, 0xbd, 0x14, 0x2b, 0xe5, 0xbd, 0xee,
  0x60, 0x41, 0xbe, 0xf1, 0xec, 0x91, 0x3d, 0x71, 0x9a, 0x8b, 0x3d, 0x70, 0x73,
  0x16, 0x3e, 0x40, 0x44, 0xc1, 0x3e, 0xde, 0x2c, 0x10, 0xbc, 0x0d, 0x78, 0x52,
  0x3e, 0x85, 0xbe, 0xb6, 0x3d, 0xb2, 0x47, 0x07, 0xbe, 0x8d, 0xd4, 0x3b, 0x3e,
  0x69, 0x53, 0xb3, 0x3e, 0x7b, 0xea, 0x31, 0x3e, 0xce, 0x1b, 0x11, 0xbf, 0x84,
  0xa1, 0x39, 0x3e, 0xd1, 0x65, 0x24, 0x3e, 0x92, 0x48, 0xd4, 0xbe, 0xd6, 0x61,
  0xc4, 0xbd, 0x3c, 0xaf, 0x86, 0x3e, 0x0b, 0xac, 0x1a, 0xbe, 0x0a, 0x8b, 0x91,
  0xba, 0xdf, 0x81, 0xbb, 0xbe, 0xe0, 0x44, 0x62, 0xbe, 0xdb, 0xe9, 0x96, 0x3e,
  0x93, 0x4d, 0xa0, 0xbe, 0x1e, 0xf9, 0x53, 0x3d, 0x43, 0xb4, 0x04, 0x3f, 0x8a,
  0x8f, 0x86, 0x3e, 0xec, 0xf4, 0x93, 0xbb, 0x29, 0x47, 0x02, 0xbe, 0x9f, 0xbc,
  0x10, 0x3e, 0x86, 0xbe, 0x16, 0xbe, 0x5c, 0xd8, 0x92, 0xbe, 0x4b, 0xd1, 0xe9,
  0x3e, 0x56, 0x9e, 0x2c, 0xbf, 0xac, 0x97, 0x04, 0xbf, 0x38, 0x06, 0x04, 0xbf,
  0x41, 0x85, 0xea, 0xbd, 0x83, 0x53, 0x0f, 0x3f, 0x23, 0x3a, 0x15, 0xbf, 0x0a,
  0xd0, 0x40, 0x3f, 0x53, 0xd7, 0x1c, 0xbe, 0xb3, 0xe7, 0xf2, 0xbd, 0xf2, 0x5e,
  0xd8, 0xbe, 0xd8, 0x30, 0xc0, 0xbe, 0x23, 0xbf, 0x53, 0x3e, 0x72, 0xac, 0xb1,
  0x3e, 0xd9, 0x80, 0x45, 0xbf, 0x27, 0xd5, 0xad, 0x3e, 0x8e, 0x10, 0x34, 0x3f,
  0x2c, 0x2a, 0x04, 0xbf, 0x44, 0x11, 0x9c, 0xbe, 0x9e, 0x18, 0xd5, 0xbe, 0x37,
  0x60, 0xc3, 0x3c, 0x12, 0xb4, 0x89, 0xbe, 0x20, 0x8e, 0x90, 0x3d, 0x97, 0xa1,
  0xc7, 0x3c, 0x43, 0xe2, 0x3b, 0xbf, 0xb0, 0xbd, 0xea, 0xbe, 0x08, 0x01, 0x4c,
  0x3f, 0xb2, 0x59, 0x55, 0x3f, 0xf4, 0x98, 0xda, 0x3e, 0xf0, 0x3b, 0xb0, 0xbe,
  0x06, 0x11, 0x1b, 0x3e, 0x10, 0x41, 0xe7, 0xbe, 0xc4, 0x94, 0xa7, 0x3d, 0xab,
  0xc9, 0x6d, 0xbe, 0x37, 0x92, 0x66, 0xbe, 0xae, 0xe6, 0xff, 0xff, 0x04, 0x00,
  0x00, 0x00, 0x2c, 0x01, 0x00, 0x00, 0xb6, 0x18, 0x3e, 0xbe, 0xff, 0x71, 0xe5,
  0xbe, 0x55, 0x48, 0xc2, 0xbd, 0x97, 0x9e, 0x4b, 0x3e, 0x02, 0x47, 0xa4, 0x3d,
  0xad, 0x14, 0x29, 0xbe, 0x0a, 0x17, 0x9c, 0xbd, 0xb2, 0x00, 0xcc, 0x3d, 0x19,
  0xb3, 0x60, 0xbe, 0x15, 0xbe, 0x00, 0xbf, 0x0b, 0x94, 0x68, 0x3e, 0x14, 0x8d,
  0x16, 0xbe, 0xa0, 0x12, 0xb2, 0x3e, 0xe5, 0x52, 0x3b, 0x3f, 0xac, 0x60, 0xc8,
  0xbe, 0xda, 0xde, 0x2e, 0xbf, 0xc5, 0xf6, 0x73, 0xbe, 0x4b, 0x96, 0x7a, 0xbe,
  0x51, 0x39, 0x59, 0x3e, 0x77, 0x11, 0x89, 0x3e, 0x39, 0x2f, 0x54, 0x3f, 0x50,
  0x09, 0xd1, 0x3e, 0x27, 0xaa, 0x1e, 0xbb, 0x88, 0xcc, 0xea, 0xbe, 0x39, 0xfd,
  0xfb, 0xbd, 0xb3, 0x15, 0xb7, 0xbe, 0xa0, 0x2b, 0xe7, 0x3b, 0xea, 0xbf, 0x0d,
  0x3f, 0x36, 0x22, 0x43, 0x3e, 0x6b, 0x9e, 0x0e, 0xbe, 0xa7, 0xb1, 0xbb, 0xbe,
  0xeb, 0x90, 0xe7, 0xbe, 0xbe, 0x61, 0xd4, 0xbe, 0x9e, 0xb4, 0x4b, 0x3f, 0xa4,
  0x7d, 0x7c, 0x3f, 0x69, 0xdb, 0x00, 0xbe, 0xf9, 0x48, 0x2a, 0x3f, 0x3e, 0x45,
  0x4b, 0x3f, 0x2a, 0x2e, 0x65, 0xbf, 0xc2, 0x1e, 0xee, 0xbd, 0xb4, 0x8e, 0xb4,
  0xbc, 0xc7, 0x6d, 0x41, 0xbf, 0xc9, 0x5f, 0xe5, 0x3e, 0xda, 0x70, 0x1a, 0xbf,
  0x54, 0x6d, 0xc2, 0x3e, 0x0b, 0xdb, 0x27, 0xbe, 0xcf, 0x52, 0x1a, 0x3e, 0x20,
  0x7a, 0x60, 0x3e, 0xb4, 0xc8, 0xe3, 0xbd, 0x4e, 0xcb, 0x06, 0xbf, 0xb6, 0xab,
  0xed, 0x3d, 0xba, 0x2c, 0xed, 0xbd, 0x72, 0x65, 0x62, 0xbe, 0xa4, 0x31, 0x8d,
  0x3c, 0x47, 0xf0, 0x3b, 0x3f, 0x9c, 0x16, 0x38, 0x3f, 0x0d, 0x61, 0x19, 0xbf,
  0x43, 0xbd, 0x1e, 0x3e, 0x3c, 0x15, 0xe8, 0x3b, 0xe6, 0x12, 0xf0, 0x3e, 0xce,
  0x00, 0x83, 0xbd, 0x16, 0x07, 0x8c, 0x3e, 0x72, 0xc7, 0x68, 0xbe, 0x18, 0x52,
  0xad, 0x3d, 0xea, 0xbb, 0x86, 0xbd, 0x57, 0x39, 0xc1, 0x3b, 0xcf, 0xe3, 0xae,
  0x3c, 0x10, 0xa7, 0x96, 0x3e, 0x0a, 0x06, 0x8e, 0x3d, 0xb7, 0xc8, 0xf9, 0xbe,
  0xed, 0x6e, 0x95, 0xbe, 0x83, 0x09, 0xa9, 0x3e, 0x0a, 0xcf, 0x63, 0xbd, 0x11,
  0x57, 0xde, 0xbe, 0xd1, 0x64, 0x92, 0xbe, 0xe6, 0xe7, 0xff, 0xff, 0x04, 0x00,
  0x00, 0x00, 0xb0, 0x04, 0x00, 0x00, 0x75, 0x21, 0x19, 0xbf, 0xde, 0xd2, 0x85,
  0xbe, 0x06, 0x6b, 0xac, 0xbe, 0x6d, 0x35, 0x5b, 0xbf, 0x4e, 0x13, 0x23, 0xbf,
  0x62, 0x2f, 0xa5, 0xbf, 0x59, 0x6d, 0xae, 0xbf, 0xb5, 0xa2, 0x22, 0xbf, 0xa4,
  0x29, 0x52, 0xbe, 0x73, 0x38, 0x27, 0xbf, 0xcf, 0x54, 0x62, 0xbf, 0x84, 0x5e,
  0xb9, 0x3f, 0x75, 0x32, 0x86, 0x3e, 0xe1, 0xf4, 0x52, 0x3f, 0xd0, 0x60, 0xaa,
  0xbe, 0x39, 0x59, 0x8b, 0x3e, 0x14, 0x3c, 0x34, 0xbf, 0x86, 0x83, 0x9d, 0x3f,
  0xc4, 0x8b, 0x88, 0x3f, 0x1d, 0x92, 0x14, 0x3f, 0xb3, 0xa3, 0x35, 0xbe, 0x22,
  0xee, 0xee, 0xbe, 0x8f, 0x4d, 0x88, 0x3d, 0xfd, 0x86, 0x9c, 0x3e, 0xa3, 0x88,
  0x62, 0x3f, 0x21, 0x21, 0x69, 0x3f, 0x43, 0x31, 0x48, 0xbe, 0xbc, 0xb8, 0xb9,
  0x3f, 0xfc, 0xc1, 0x50, 0xbf, 0x7a, 0x2e, 0x56, 0x3d, 0x4d, 0x6f, 0xed, 0x3e,
  0xb4, 0x5f, 0x58, 0x3e, 0xbe, 0x34, 0xb6, 0xbe, 0xdf, 0x46, 0xf6, 0x3e, 0xb1,
  0x96, 0xf2, 0xbe, 0x1c, 0x4c, 0x97, 0xbe, 0xa5, 0x6c, 0x34, 0x3f, 0xd4, 0x28,
  0x70, 0xbf, 0xcc, 0xfc, 0x3f, 0xbc, 0xf2, 0x0c, 0x94, 0x3a, 0x03, 0xaa, 0x83,
  0x3f, 0x9c, 0x77, 0xd4, 0x3e, 0x93, 0x6e, 0x20, 0xbf, 0x05, 0x46, 0xf7, 0x3e,
  0x43, 0x40, 0x19, 0xbf, 0x45, 0x56, 0x31, 0x3e, 0x9c, 0x0f, 0x9e, 0xbf, 0x14,
  0xfd, 0x9a, 0xbd, 0x38, 0xf6, 0x98, 0xbf, 0x0b, 0x1f, 0x80, 0xbf, 0xf5, 0x1e,
  0x88, 0xbf, 0x31, 0x39, 0x81, 0x3e, 0xe9, 0xd5, 0xf4, 0xbe, 0x5d, 0x89, 0x97,
  0x3e, 0x11, 0x85, 0x71, 0x3d, 0x9b, 0x1d, 0xd5, 0xbe, 0x6f, 0xc1, 0x59, 0x3f,
  0x86, 0x5b, 0x54, 0x3f, 0x6c, 0x7b, 0x11, 0x3f, 0x85, 0xdd, 0xb4, 0x3e, 0xbc,
  0x0d, 0x04, 0x3e, 0x59, 0x44, 0x0b, 0x3f, 0x5b, 0x15, 0x63, 0xbf, 0xd4, 0x3b,
  0xa0, 0x3f, 0x1e, 0x98, 0x91, 0x3e, 0x72, 0xb5, 0x29, 0xbf, 0x39, 0x35, 0xb9,
  0xbe, 0xf4, 0x33, 0x33, 0xbf, 0x03, 0xcd, 0x05, 0xbf, 0x50, 0xc0, 0x2f, 0x3e,
  0xb6, 0x1d, 0xc5, 0x3d, 0x9e, 0xb0, 0x53, 0x3f, 0x8d, 0xc8, 0x08, 0xbf, 0xf3,
  0xaa, 0x87, 0xbe, 0x3d, 0x20, 0x4f, 0x3e, 0xe5, 0x16, 0x09, 0xbf, 0xd4, 0x90,
  0x45, 0x3f, 0x70, 0x59, 0xaa, 0x3c, 0x2b, 0x0d, 0x43, 0xbe, 0xdb, 0x95, 0xb9,
  0x3f, 0xe6, 0xe1, 0x35, 0x3d, 0x94, 0xec, 0xbe, 0xbe, 0x54, 0x46, 0x5f, 0xbf,
  0x99, 0x28, 0xd3, 0x3e, 0x05, 0x9c, 0xc7, 0xbe, 0x91, 0x3e, 0x95, 0xbe, 0x20,
  0x85, 0x01, 0xbf, 0x83, 0x75, 0x92, 0x3c, 0x01, 0x8f, 0x3b, 0xbf, 0x73, 0x19,
  0x5a, 0x3e, 0x05, 0x39, 0xba, 0x3e, 0xa2, 0x9c, 0x43, 0xbe, 0xd4, 0xe4, 0x79,
  0xbe, 0x64, 0x28, 0x3b, 0xbf, 0x3c, 0x18, 0xb0, 0x3f, 0x3b, 0x9b, 0xeb, 0xbe,
  0x0e, 0xfc, 0xa0, 0xbf, 0x5f, 0x5d, 0xb2, 0x3e, 0x06, 0x9f, 0x9d, 0xbd, 0x85,
  0xb3, 0x33, 0x3e, 0xd6, 0x27, 0xb2, 0xbf, 0xfe, 0xec, 0xd6, 0xbe, 0x3d, 0x16,
  0x36, 0xbe, 0xf9, 0x97, 0x8d, 0x3e, 0xe5, 0x77, 0xbb, 0x3e, 0xcb, 0x99, 0x84,
  0x3e, 0x40, 0xb6, 0xce, 0x3e, 0xcd, 0xf9, 0x89, 0x3e, 0x28, 0xf8, 0xb4, 0xbe,
  0xdd, 0xf8, 0x19, 0xbe, 0x68, 0x07, 0x5b, 0x3f, 0x65, 0x8c, 0x8d, 0x3f, 0xda,
  0x04, 0x80, 0x3f, 0x38, 0x17, 0x7b, 0xbe, 0x38, 0x50, 0xc9, 0x3e, 0x9e, 0x31,
  0x8e, 0xbe, 0x63, 0x61, 0x40, 0x3f, 0x0f, 0x2d, 0x06, 0x3f, 0xb1, 0x5e, 0x2d,
  0xbe, 0x49, 0x73, 0x1d, 0xbf, 0xda, 0x71, 0x24, 0xbe, 0xf7, 0xe9, 0xfd, 0xbd,
  0x45, 0x2d, 0x21, 0xbf, 0xb7, 0x7e, 0xf0, 0xbe, 0xf8, 0x7c, 0x5f, 0xbf, 0x67,
  0x4d, 0xb8, 0x3e, 0x84, 0x2c, 0x27, 0x3e, 0x22, 0x24, 0x7f, 0xbf, 0x17, 0x9f,
  0x44, 0xbf, 0xe7, 0x15, 0x36, 0xbf, 0x34, 0x28, 0x99, 0x3f, 0x4a, 0xcd, 0xcf,
  0x3e, 0xa8, 0xfa, 0xa8, 0xbc, 0x07, 0x81, 0x39, 0xbf, 0x11, 0x0f, 0x14, 0x3f,
  0xf7, 0x53, 0x19, 0x3d, 0x4a, 0x64, 0x7d, 0x3f, 0xb6, 0x50, 0xa1, 0xbe, 0x26,
  0xa5, 0x88, 0x3d, 0x4a, 0xe9, 0xb0, 0xbe, 0x82, 0x54, 0x46, 0x3f, 0xb2, 0xac,
  0x84, 0x3f, 0x8d, 0x53, 0x26, 0xbf, 0x53, 0xab, 0xdc, 0x3d, 0x0f, 0xbc, 0x90,
  0xbf, 0x97, 0xf8, 0xe4, 0x3d, 0xc9, 0x53, 0x60, 0x3f, 0x5e, 0xfb, 0x18, 0x3f,
  0xda, 0x19, 0x29, 0xbe, 0x89, 0x61, 0xeb, 0x3d, 0xd7, 0x53, 0x6e, 0x3f, 0xa0,
  0x72, 0x9c, 0xbe, 0xac, 0x06, 0x5a, 0x3e, 0x88, 0x4a, 0x9e, 0x3e, 0x46, 0x54,
  0xcb, 0xbd, 0x47, 0x42, 0x10, 0x3f, 0x1b, 0xd9, 0x1c, 0xbe, 0xc5, 0x13, 0x2d,
  0xbe, 0x4a, 0x04, 0x6f, 0x3d, 0xa7, 0x9d, 0x8d, 0xbf, 0x25, 0x36, 0x98, 0x3f,
  0x85, 0x90, 0x08, 0x3f, 0xa1, 0xc3, 0xda, 0x3e, 0x74, 0x04, 0xc3, 0x3d, 0x91,
  0x28, 0x42, 0xbf, 0xf9, 0x3e, 0x04, 0x3f, 0x37, 0x16, 0x8b, 0xbe, 0xa1, 0x65,
  0x48, 0xbf, 0x9b, 0x7e, 0xf3, 0xbe, 0x40, 0x69, 0x9f, 0xbe, 0xa0, 0xab, 0xa5,
  0xbe, 0x1b, 0x2a, 0x1a, 0x3e, 0x86, 0xc2, 0xa2, 0xbf, 0x94, 0xad, 0x53, 0x3d,
  0xc8, 0x2f, 0xaa, 0xbf, 0x4e, 0xd0, 0x89, 0xbe, 0xfc, 0x00, 0x64, 0x3e, 0x7e,
  0xb1, 0xa5, 0x3f, 0xae, 0xce, 0xfc, 0xbd, 0x0d, 0x05, 0x43, 0xbf, 0x4b, 0x24,
  0xc3, 0x3e, 0x20, 0xe5, 0x66, 0xbf, 0xd4, 0x30, 0x72, 0x3e, 0xf2, 0xcf, 0xc4,
  0x3e, 0xa4, 0xf4, 0x35, 0x3f, 0xb9, 0x04, 0x41, 0x3f, 0x97, 0xd9, 0x97, 0x3e,
  0xe8, 0xb8, 0x8d, 0xbe, 0xf1, 0xda, 0x9c, 0xbe, 0xad, 0x65, 0xc9, 0x3e, 0x37,
  0xca, 0x0a, 0xbe, 0xe0, 0x17, 0x76, 0xbf, 0xb8, 0x0a, 0x00, 0xbf, 0xa3, 0x6d,
  0xf1, 0xbe, 0x15, 0x02, 0xd8, 0x3d, 0x0e, 0x15, 0x70, 0x3d, 0xdb, 0x32, 0xad,
  0x3d, 0x39, 0x79, 0x70, 0xbf, 0x72, 0x9f, 0x25, 0xbe, 0x12, 0xb6, 0x05, 0x3e,
  0x45, 0xa3, 0x7f, 0xbf, 0x4a, 0xee, 0x84, 0xbf, 0x26, 0x59, 0x26, 0xbf, 0x9b,
  0x21, 0x89, 0xbf, 0xde, 0x61, 0xd7, 0xbf, 0x01, 0x96, 0x9d, 0x3f, 0x18, 0x97,
  0xde, 0xbf, 0xd4, 0x82, 0xa9, 0x3f, 0x30, 0xe4, 0x80, 0x3d, 0x12, 0x2d, 0x22,
  0xbd, 0x45, 0x0f, 0xb2, 0xbe, 0x4c, 0x23, 0x14, 0xbe, 0x6f, 0x14, 0x7e, 0x3e,
  0xfc, 0x92, 0x75, 0xbf, 0x2a, 0xfb, 0x97, 0x3e, 0x3f, 0x7d, 0xd5, 0xbe, 0x85,
  0x2a, 0x89, 0x3f, 0xdf, 0x5c, 0x7b, 0x3e, 0xeb, 0x6d, 0x0b, 0x3f, 0x47, 0xc2,
  0x6d, 0xbe, 0x89, 0x0b, 0xc5, 0xbf, 0xef, 0x8b, 0x33, 0xbc, 0x38, 0xf2, 0xb6,
  0xbe, 0x0e, 0xa8, 0xf6, 0xbe, 0x78, 0x27, 0x3d, 0xbf, 0x7b, 0x98, 0x0b, 0x3e,
  0xb6, 0xb5, 0xc6, 0x3d, 0x42, 0x65, 0xf5, 0xbe, 0x01, 0x05, 0x82, 0xbf, 0x90,
  0xad, 0x4b, 0xbe, 0xe0, 0xae, 0x5c, 0x3f, 0x92, 0xc1, 0x91, 0x3d, 0xd9, 0xc6,
  0x09, 0xbf, 0x30, 0xcd, 0x13, 0xbf, 0x8d, 0x7e, 0x9f, 0x3f, 0xd5, 0x6b, 0xbc,
  0x3d, 0x7b, 0xaf, 0x6f, 0x3f, 0x2e, 0x8e, 0x16, 0xc0, 0xbc, 0x1a, 0xc5, 0xbd,
  0x7e, 0x8d, 0xf8, 0xbc, 0x31, 0xe6, 0xe5, 0xbe, 0x81, 0xa6, 0x6e, 0xbd, 0xdf,
  0xb3, 0x07, 0x3e, 0x1f, 0x2d, 0x37, 0x3d, 0x0b, 0x13, 0xce, 0x3e, 0x9c, 0x6e,
  0x03, 0x3f, 0x0d, 0x12, 0x80, 0x3f, 0x93, 0x81, 0xf1, 0xbe, 0x53, 0x69, 0xef,
  0x3e, 0x7d, 0x4a, 0x2b, 0xbe, 0x72, 0x71, 0xe5, 0x3e, 0x68, 0xe7, 0x7c, 0x3e,
  0xd0, 0xdf, 0xf7, 0x3e, 0x4c, 0x7b, 0x8a, 0xbf, 0xbe, 0xaa, 0xd9, 0xbe, 0x5e,
  0xa8, 0xd6, 0xbe, 0x52, 0x4c, 0x9e, 0x3d, 0xe6, 0x11, 0x5f, 0x3e, 0x11, 0xa6,
  0xf6, 0xbe, 0x05, 0x5b, 0x04, 0xbf, 0x31, 0xcb, 0x08, 0x3f, 0xef, 0x1e, 0x63,
  0xbf, 0xa4, 0x1c, 0xb0, 0x3d, 0x4f, 0xc8, 0x4b, 0xbf, 0xdb, 0x46, 0x49, 0x3f,
  0x5b, 0xb7, 0xcc, 0x3e, 0xa7, 0xee, 0x00, 0xbf, 0x32, 0xc7, 0x9c, 0x3c, 0x4f,
  0x3e, 0x9f, 0xbe, 0x5b, 0xe8, 0xcd, 0xbf, 0xdf, 0xd7, 0x68, 0xbe, 0x0b, 0x4e,
  0x2b, 0x3e, 0x35, 0x4e, 0xeb, 0x3e, 0xef, 0x6f, 0x8b, 0x3d, 0x6f, 0x21, 0x24,
  0xbf, 0xc9, 0xb4, 0xdc, 0xbe, 0xe2, 0xe9, 0xda, 0x3f, 0x87, 0x38, 0x15, 0x3f,
  0x56, 0x8a, 0xe1, 0x3d, 0xd9, 0x9c, 0xcb, 0xbe, 0xf4, 0x6b, 0xd9, 0xbe, 0x6d,
  0xfc, 0x13, 0xbf, 0x3a, 0xbd, 0xbf, 0x3f, 0x52, 0xf5, 0x30, 0xbf, 0x36, 0x39,
  0xae, 0x3d, 0x71, 0x16, 0x26, 0x3e, 0x36, 0xe9, 0x1c, 0xbf, 0xdd, 0xce, 0x48,
  0xbf, 0x3e, 0xb7, 0x3a, 0x3f, 0x17, 0x52, 0xe5, 0x3e, 0x39, 0xbb, 0xdc, 0xbe,
  0x6b, 0x9c, 0x52, 0x3f, 0x80, 0xe3, 0xba, 0xbf, 0xfe, 0x49, 0xaf, 0xbf, 0xa7,
  0x16, 0xeb, 0xbe, 0x97, 0xd0, 0x17, 0x3f, 0x2e, 0x02, 0xe1, 0x3e, 0xf1, 0x67,
  0x9a, 0x3e, 0xa2, 0x65, 0xb2, 0x3d, 0x38, 0x79, 0x7f, 0xbf, 0xa2, 0xec, 0xff,
  0xff, 0x04, 0x00, 0x00, 0x00, 0x90, 0x01, 0x00, 0x00, 0xab, 0x82, 0xe4, 0xbe,
  0xdd, 0xc5, 0x05, 0x3f, 0x8e, 0x80, 0x83, 0xbe, 0x54, 0xba, 0xc5, 0x3e, 0x4a,
  0xda, 0x71, 0xbe, 0x9a, 0x66, 0xaa, 0xbe, 0x7a, 0x19, 0xeb, 0xbe, 0xba, 0xe0,
  0x6b, 0xbc, 0x12, 0xe6, 0xe2, 0xbd, 0xd1, 0xf8, 0x94, 0xbe, 0x0c, 0xcc, 0xac,
  0x3e, 0x4f, 0x2d, 0x1d, 0xbf, 0x87, 0x89, 0x88, 0xbf, 0x5f, 0xa7, 0x6e, 0x3e,
  0x4a, 0xb1, 0x4b, 0x3f, 0xd3, 0xf9, 0x7e, 0xbe, 0xcb, 0x2e, 0x2a, 0x3e, 0x99,
  0x70, 0x79, 0x3f, 0x17, 0xa9, 0xea, 0x3d, 0xb7, 0xd1, 0xad, 0xbf, 0x9a, 0xad,
  0x82, 0xbd, 0x0e, 0xfd, 0x3d, 0xbd, 0x73, 0x31, 0x45, 0x3f, 0xdf, 0xc1, 0x36,
  0xbf, 0x3e, 0x37, 0xe1, 0xbe, 0xce, 0x91, 0x36, 0xbf, 0xb0, 0x0a, 0x3a, 0x3f,
  0x3d, 0xa1, 0x6f, 0xbd, 0xc3, 0xfc, 0x79, 0x3f, 0x60, 0xf7, 0xc6, 0x3e, 0x52,
  0xaf, 0xe1, 0x3e, 0x19, 0xa9, 0xad, 0xbe, 0xbe, 0x65, 0xd4, 0x3e, 0xad, 0xe4,
  0xf8, 0x3e, 0xe7, 0x02, 0x99, 0x3c, 0x30, 0x12, 0xc1, 0xbe, 0x8c, 0xac, 0x87,
  0xbe, 0x7d, 0xde, 0xf2, 0xbe, 0x63, 0xb7, 0x8d, 0x3e, 0x86, 0x48, 0x28, 0xbf,
  0x33, 0xd0, 0xd9, 0xbe, 0x5d, 0xaa, 0xc4, 0xbe, 0x68, 0x75, 0x4c, 0x3e, 0xa1,
  0x54, 0x0b, 0x3f, 0xa4, 0x3e, 0x6d, 0x3f, 0x0f, 0x16, 0x89, 0x3f, 0x63, 0x17,
  0xda, 0xbd, 0xa1, 0xa3, 0x4e, 0x3f, 0x66, 0xbf, 0x38, 0x3d, 0x58, 0xd8, 0x36,
  0x3f, 0xcd, 0x28, 0x75, 0xbf, 0x90, 0xd5, 0xe1, 0x3e, 0x67, 0x89, 0x0c, 0xbf,
  0x45, 0x75, 0x48, 0x3f, 0x0d, 0xfa, 0x1c, 0xbe, 0x45, 0x62, 0x73, 0xbd, 0xb9,
  0x89, 0x06, 0x3d, 0xe6, 0xd1, 0xae, 0x3d, 0x84, 0x05, 0x20, 0xbf, 0xa6, 0xe1,
  0x0e, 0xbf, 0x3a, 0x79, 0x59, 0x3c, 0x66, 0x35, 0xef, 0xbe, 0xf6, 0x2c, 0x10,
  0xbf, 0x8a, 0x6d, 0xe4, 0xbd, 0x92, 0xac, 0xd9, 0xbe, 0xb4, 0x68, 0x58, 0x3f,
  0x84, 0x8b, 0x39, 0x3e, 0xbe, 0xc2, 0x4d, 0x3f, 0x27, 0x41, 0x5d, 0xbf, 0x1b,
  0x39, 0x63, 0xbf, 0x28, 0x6f, 0xa0, 0xbe, 0x11, 0x9c, 0x77, 0x3e, 0xca, 0x9e,
  0x51, 0x3e, 0x8c, 0x2e, 0x82, 0x3f, 0xd4, 0xc0, 0x49, 0xbf, 0x6f, 0x0d, 0x71,
  0x3e, 0xf4, 0xca, 0x76, 0x3f, 0x12, 0x28, 0x75, 0x3e, 0xf7, 0x9f, 0x97, 0xbc,
  0x1c, 0xe4, 0x63, 0xbf, 0x4d, 0x12, 0x92, 0x3e, 0x5b, 0x5d, 0x47, 0x3f, 0xe4,
  0xfa, 0x9a, 0xbe, 0xad, 0x57, 0x45, 0xbe, 0x7b, 0x4c, 0x2d, 0x3e, 0xd8, 0x53,
  0xc2, 0xbe, 0xb2, 0x09, 0x9d, 0xbe, 0x5e, 0x00, 0x80, 0xbf, 0x83, 0x08, 0x02,
  0xbe, 0xf7, 0xff, 0x63, 0x3e, 0x5b, 0xfd, 0x05, 0x3f, 0x1b, 0x80, 0xc9, 0x3e,
  0x70, 0xa2, 0x01, 0x3e, 0xf5, 0x71, 0x09, 0xbe, 0x4f, 0xab, 0x26, 0x3f, 0xaf,
  0x6b, 0xf3, 0x3e, 0x8c, 0x44, 0x5a, 0xbf, 0xaf, 0xb5, 0x30, 0xbf, 0xed, 0xef,
  0x53, 0xbf, 0x99, 0x02, 0xd2, 0x3d, 0x3e, 0xee, 0xff, 0xff, 0x04, 0x00, 0x00,
  0x00, 0x50, 0x00, 0x00, 0x00, 0x00, 0x00, 0x00, 0x00, 0x00, 0x00, 0x00, 0x00,
  0x00, 0x00, 0x00, 0x00, 0x00, 0x00, 0x00, 0x00, 0x00, 0x00, 0x00, 0x00, 0x00,
  0x00, 0x00, 0x00, 0x00, 0x00, 0x00, 0x00, 0x00, 0x00, 0x00, 0x00, 0x00, 0x00,
  0x00, 0x00, 0x00, 0x00, 0x00, 0x00, 0x00, 0x00, 0x00, 0x00, 0x00, 0x00, 0x00,
  0x00, 0x00, 0x00, 0x00, 0x00, 0x00, 0x00, 0x00, 0x00, 0x00, 0x00, 0x00, 0x00,
  0x00, 0x00, 0x00, 0x00, 0x00, 0x00, 0x00, 0x00, 0x00, 0x00, 0x00, 0x00, 0x00,
  0x00, 0x00, 0x00, 0x00, 0x00, 0x00, 0x00, 0x9a, 0xee, 0xff, 0xff, 0x04, 0x00,
  0x00, 0x00, 0x90, 0x01, 0x00, 0x00, 0x9c, 0x91, 0xba, 0xbe, 0x83, 0x89, 0x92,
  0xbe, 0x8e, 0xae, 0x7c, 0x3f, 0xd4, 0x31, 0x11, 0x3f, 0x32, 0x65, 0xe4, 0x3e,
  0x93, 0x51, 0xa1, 0xbb, 0x2a, 0x0a, 0x63, 0xbf, 0x43, 0x44, 0xe5, 0x3e, 0x12,
  0x24, 0xbc, 0xbd, 0xb0, 0x4b, 0x39, 0xbe, 0x37, 0x5d, 0x73, 0x3e, 0x9b, 0x58,
  0xb2, 0xbe, 0xd3, 0x6f, 0x5d, 0x3e, 0x99, 0xe1, 0xbd, 0x3e, 0x65, 0xd1, 0x8c,
  0xbf, 0x59, 0x38, 0x8d, 0xbe, 0xe4, 0x0f, 0xb0, 0xbf, 0x73, 0x1d, 0x52, 0xbf,
  0x20, 0x08, 0x5b, 0x3e, 0x65, 0xe9, 0x2b, 0x3e, 0x26, 0xce, 0x86, 0xbe, 0xfb,
  0x75, 0x0e, 0x3f, 0x35, 0x62, 0x04, 0xbe, 0x0b, 0xc6, 0xa1, 0xbf, 0x90, 0x52,
  0x58, 0xbf, 0xa0, 0x5b, 0xaa, 0x3e, 0xb8, 0xc5, 0x9c, 0xbc, 0x54, 0xda, 0x60,
  0xbf, 0x4b, 0x32, 0x7c, 0x3e, 0x50, 0x6e, 0x0b, 0x3c, 0x08, 0xaf, 0x73, 0x3f,
  0x36, 0x27, 0x27, 0xbe, 0x41, 0x7a, 0x11, 0xbe, 0x2d, 0xc5, 0xd3, 0xbd, 0x37,
  0x0f, 0xf1, 0xbe, 0x54, 0x6c, 0xcb, 0x3e, 0x9a, 0x1c, 0xda, 0x3e, 0x3f, 0x0f,
  0x13, 0x3f, 0x2e, 0x65, 0x85, 0xbe, 0x4a, 0xd3, 0x9c, 0x3e, 0x58, 0xd3, 0x59,
  0x3e, 0xe5, 0x14, 0xa5, 0x3c, 0xea, 0xce, 0x85, 0x3e, 0xe6, 0xb6, 0x05, 0xc0,
  0xaa, 0xd6, 0x0e, 0x3f, 0xd5, 0xeb, 0x6a, 0xbf, 0x59, 0xf8, 0x3b, 0x3d, 0xd3,
  0xac, 0x5f, 0x3f, 0x84, 0x00, 0x7a, 0x3f, 0xf4, 0x9c, 0x6d, 0x3e, 0x06, 0x69,
  0x2c, 0xbe, 0x5b, 0x77, 0x06, 0xbe, 0x1b, 0xde, 0x39, 0xbe, 0xbd, 0xdc, 0x0c,
  0xbe, 0xb1, 0x13, 0x1b, 0xbf, 0x24, 0x0c, 0xf6, 0xbe, 0xa9, 0x53, 0x9a, 0x3e,
  0x0a, 0x62, 0xc4, 0x3e, 0x2a, 0xae, 0x92, 0xbd, 0x7d, 0xdf, 0x37, 0xbf, 0xc2,
  0xae, 0xfa, 0x3e, 0x4d, 0x2d, 0x63, 0xbf, 0xe5, 0x7f, 0x09, 0xbe, 0xe7, 0x4b,
  0x19, 0xbf, 0x55, 0xf7, 0xbb, 0x3f, 0x45, 0xeb, 0x91, 0x3e, 0x51, 0xcd, 0xa8,
  0x3e, 0x72, 0x8d, 0x12, 0xbf, 0x0f, 0x22, 0x18, 0x3f, 0xc0, 0xa1, 0x0a, 0x3f,
  0x51, 0x1d, 0x2a, 0xbf, 0x9b, 0xa4, 0x69, 0x3f, 0xed, 0xf7, 0x86, 0xbf, 0xb4,
  0x06, 0x3e, 0x3f, 0x4e, 0x4d, 0xdd, 0x3d, 0xc0, 0x23, 0xac, 0xbe, 0xaf, 0xbd,
  0x5a, 0x3e, 0x74, 0x6d, 0x05, 0xbf, 0xeb, 0x5b, 0xb5, 0xbe, 0x28, 0x3b, 0x9d,
  0xbe, 0x74, 0x51, 0xd7, 0xbd, 0x7d, 0xca, 0x86, 0x3e, 0x7a, 0xeb, 0xa1, 0xbd,
  0xe9, 0x71, 0x1c, 0x3d, 0xf0, 0xab, 0x3d, 0xbf, 0x68, 0x12, 0x83, 0x3c, 0xd2,
  0x2c, 0x44, 0x3f, 0x7f, 0x0f, 0x85, 0xbd, 0xed, 0xbd, 0x85, 0x3d, 0x52, 0x91,
  0x0b, 0xbf, 0x7a, 0x81, 0x4a, 0xbc, 0xb4, 0x40, 0x2c, 0x3e, 0xf9, 0x75, 0x40,
  0x3f, 0xf3, 0x2b, 0x74, 0xbf, 0x27, 0x7c, 0x7d, 0x3e, 0x17, 0x07, 0x24, 0xbd,
  0xf8, 0x18, 0x7d, 0xbf, 0xa8, 0xc7, 0x64, 0x3e, 0xd3, 0xb0, 0xf5, 0x3e, 0x5f,
  0x99, 0x0d, 0x3f, 0x36, 0xf0, 0xff, 0xff, 0x04, 0x00, 0x00, 0x00, 0x84, 0x03,
  0x00, 0x00, 0xe2, 0xc1, 0x3b, 0xbf, 0x0c, 0xa7, 0xbc, 0x3e, 0xd6, 0x12, 0xf9,
  0xbd, 0xca, 0x79, 0x3c, 0xbb, 0xfc, 0x7a, 0x4e, 0x3e, 0x02, 0x07, 0xb4, 0xbd,
  0x03, 0xfd, 0xf7, 0x3e, 0xc8, 0xa0, 0xb6, 0x3d, 0x0a, 0x24, 0xe5, 0xbd, 0x72,
  0x9f, 0x72, 0x3f, 0xaf, 0x79, 0x66, 0x3e, 0xf2, 0x7b, 0x16, 0x3f, 0xb0, 0x36,
  0xca, 0xbe, 0x2b, 0xee, 0x22, 0x3e, 0x9e, 0x7c, 0x93, 0x3e, 0x23, 0x43, 0x12,
  0xbf, 0xe9, 0x35, 0x35, 0x3f, 0xe1, 0x30, 0x89, 0x3d, 0xa6, 0x22, 0x80, 0xbe,
  0x94, 0x82, 0xca, 0xbe, 0xbf, 0x66, 0xaa, 0x3e, 0x38, 0xc2, 0x24, 0x3c, 0x82,
  0x4b, 0x9a, 0xbe, 0x81, 0xad, 0x1a, 0x3f, 0x08, 0xe3, 0x85, 0x3f, 0xa3, 0xfd,
  0x31, 0xbe, 0x9e, 0x41, 0x70, 0xbf, 0xf0, 0x93, 0xee, 0xbf, 0xff, 0xc0, 0xe8,
  0xbd, 0x4e, 0x23, 0x58, 0x3e, 0x89, 0x37, 0x3b, 0x3f, 0x2f, 0x55, 0x99, 0xbe,
  0x5c, 0x4d, 0x28, 0x3f, 0xda, 0x82, 0x8e, 0x3e, 0xa5, 0xd4, 0xcf, 0xbe, 0x22,
  0x04, 0x03, 0xbf, 0xf9, 0x6f, 0x45, 0x3e, 0x54, 0xb1, 0x5d, 0x3f, 0x9c, 0x09,
  0x99, 0x3e, 0x98, 0xb5, 0xbe, 0x3d, 0x26, 0xc1, 0x15, 0x3e, 0x90, 0xc7, 0x17,
  0x3e, 0x92, 0x8b, 0xac, 0x3f, 0x21, 0x16, 0x4c, 0xbe, 0xfc, 0x6a, 0x94, 0xbe,
  0xdf, 0xf1, 0xa9, 0x3e, 0x62, 0x01, 0x2e, 0x3e, 0xf0, 0x32, 0x8d, 0xbe, 0x5f,
  0x46, 0x98, 0xbe, 0x2a, 0x23, 0xe9, 0x3d, 0xa7, 0xdd, 0x7b, 0xbf, 0x31, 0x5b,
  0x51, 0xbf, 0xb8, 0xc6, 0x7d, 0xbe, 0x4b, 0xe1, 0xc9, 0x3e, 0x3e, 0x9d, 0x33,
  0x3e, 0x64, 0xae, 0xcc, 0xbf, 0x3f, 0xfd, 0x5c, 0xbf, 0x94, 0xcf, 0x05, 0xc0,
  0x2f, 0x49, 0xd3, 0x3e, 0xde, 0xe0, 0xfa, 0xbd, 0x67, 0x9f, 0x9f, 0x3e, 0xac,
  0xbc, 0x74, 0xbe, 0xd1, 0x35, 0x80, 0x3d, 0x52, 0x49, 0x6d, 0xbf, 0xe6, 0x9d,
  0x0d, 0x3f, 0xc3, 0x40, 0xf6, 0xbd, 0x18, 0x86, 0x36, 0x3f, 0xd5, 0x3d, 0x25,
  0x3f, 0xcf, 0xe2, 0xf5, 0x3d, 0xd1, 0x2b, 0xcb, 0xbd, 0x38, 0xc5, 0x9f, 0x3e,
  0x8a, 0x63, 0x35, 0x3f, 0xd9, 0x79, 0x5b, 0x3f, 0x29, 0x53, 0x32, 0xbf, 0x1f,
  0x80, 0x0d, 0xbf, 0x60, 0x67, 0xb8, 0x3e, 0x8b, 0xf7, 0x4c, 0x3f, 0xd5, 0x51,
  0x96, 0xbe, 0x3e, 0x8b, 0x3c, 0x3e, 0x21, 0xd9, 0xcb, 0x3e, 0xa4, 0x51, 0x70,
  0xbf, 0x5d, 0x81, 0x26, 0x3f, 0x5e, 0x5e, 0x60, 0xbe, 0xf1, 0xc0, 0xcc, 0x3d,
  0x66, 0x51, 0xb9, 0x3e, 0x73, 0x08, 0x39, 0x3d, 0xc6, 0x82, 0x22, 0x3e, 0x51,
  0xe4, 0x3c, 0xbc, 0x81, 0xf7, 0x1f, 0x3f, 0x8c, 0xd9, 0x16, 0x3f, 0xa5, 0x8c,
  0xec, 0x3d, 0xaa, 0x31, 0x2e, 0xbf, 0x67, 0x42, 0x8a, 0x3f, 0x78, 0xaf, 0x02,
  0x3f, 0x54, 0x74, 0x5c, 0xbf, 0xe6, 0xdc, 0xa4, 0xbc, 0xa7, 0x66, 0xcf, 0xbd,
  0x44, 0x1f, 0xc3, 0xbe, 0xb7, 0x73, 0x32, 0x3c, 0x26, 0x9b, 0xaf, 0x3e, 0x9b,
  0x38, 0x31, 0x3e, 0xf2, 0x78, 0xcf, 0x3e, 0x90, 0xe6, 0x89, 0x3f, 0x6f, 0x61,
  0x0b, 0x3f, 0xb0, 0xa5, 0x0f, 0x3f, 0xc6, 0xed, 0x0e, 0x3f, 0x0d, 0x88, 0x53,
  0x3f, 0x8c, 0xd4, 0xcc, 0x3e, 0x79, 0x8a, 0xec, 0x3e, 0x99, 0xa1, 0x8a, 0xbe,
  0x09, 0xff, 0x10, 0x3f, 0x97, 0x54, 0xa7, 0x3e, 0x41, 0x99, 0xbc, 0xbe, 0x49,
  0xf5, 0xfb, 0x3e, 0x33, 0x41, 0x9b, 0xbf, 0x8e, 0x7e, 0x2e, 0xbe, 0x63, 0x2c,
  0xff, 0xbe, 0x74, 0xd4, 0x3d, 0x3e, 0x25, 0x43, 0x29, 0x3f, 0x28, 0x6d, 0x2f,
  0x3f, 0x02, 0xb9, 0x23, 0xbe, 0xbf, 0x34, 0x2f, 0xbe, 0x72, 0x64, 0x56, 0x3f,
  0x16, 0xfc, 0x1d, 0x3f, 0x25, 0x4f, 0xcd, 0xbe, 0x52, 0x4a, 0x59, 0xbf, 0x01,
  0xfd, 0x34, 0xbf, 0x15, 0xae, 0x06, 0x3e, 0x7b, 0xa4, 0x01, 0x3d, 0x1a, 0x70,
  0x2e, 0xbf, 0x70, 0x37, 0x32, 0xbf, 0x58, 0xe9, 0x74, 0x3e, 0x5b, 0xc9, 0xcd,
  0xbf, 0x8b, 0x7d, 0xa9, 0x3e, 0x4a, 0xe7, 0xaa, 0x3e, 0xa3, 0xf5, 0x0f, 0xbf,
  0x09, 0x3e, 0xfa, 0xbe, 0xe2, 0x7e, 0xce, 0x3c, 0xab, 0x4a, 0xb4, 0xbd, 0xdb,
  0x55, 0xba, 0x3e, 0xb4, 0x12, 0x24, 0xbf, 0x27, 0xb3, 0xfa, 0x3d, 0x99, 0x3a,
  0xb7, 0xbe, 0x06, 0x8c, 0x1d, 0xbf, 0x4b, 0xc3, 0xd1, 0xbb, 0x9e, 0x57, 0x69,
  0xbd, 0xdd, 0xdf, 0x5e, 0x3e, 0x0c, 0xe9, 0xc5, 0x3e, 0x8c, 0x7b, 0x98, 0xbf,
  0x01, 0x27, 0x80, 0xbf, 0xdb, 0x38, 0xa5, 0xbc, 0x4b, 0x12, 0x15, 0xbf, 0x85,
  0xc9, 0x9d, 0xbe, 0xbc, 0xa1, 0x7d, 0xbf, 0xe7, 0x13, 0x8f, 0xbf, 0x14, 0x1b,
  0x92, 0xbe, 0x03, 0x9f, 0xc1, 0xbf, 0x1a, 0xca, 0x33, 0xbe, 0x50, 0x5f, 0x3c,
  0x3f, 0xdb, 0xdc, 0x32, 0x3e, 0xb6, 0xe2, 0xdb, 0x3e, 0x6b, 0x96, 0x0f, 0xbf,
  0xef, 0x4a, 0x66, 0xbe, 0x4a, 0xab, 0xb3, 0x3e, 0x2b, 0x61, 0x1d, 0x3f, 0x9f,
  0x5e, 0xfd, 0xbe, 0x74, 0xdc, 0xdb, 0xbe, 0xd0, 0x1d, 0x89, 0x3f, 0x75, 0x58,
  0x3f, 0x3f, 0x1c, 0xbc, 0x56, 0xbf, 0x85, 0xa9, 0x99, 0xbf, 0x77, 0xd3, 0x97,
  0xbe, 0xc0, 0xd5, 0x0b, 0xbf, 0x1c, 0x05, 0x55, 0x3f, 0x2d, 0x46, 0x1f, 0x3f,
  0xbc, 0x29, 0x25, 0x3e, 0x0b, 0xec, 0x8c, 0x3e, 0x10, 0xc1, 0xa9, 0x3e, 0x68,
  0xbe, 0xf3, 0x3d, 0x63, 0xf8, 0xc2, 0xbd, 0x9a, 0x30, 0x68, 0x3f, 0xb7, 0x01,
  0xf1, 0x3d, 0x83, 0xe5, 0x53, 0xbf, 0x8a, 0x73, 0x12, 0xbe, 0x22, 0x5c, 0x80,
  0x3d, 0xc0, 0xce, 0xc1, 0x3f, 0xda, 0xdd, 0x49, 0x3e, 0x68, 0x0d, 0x5d, 0x3f,
  0x1d, 0x5e, 0x42, 0xbf, 0x02, 0xe4, 0xda, 0x3e, 0x71, 0xe9, 0x86, 0xbd, 0x50,
  0xf6, 0x55, 0xbf, 0xeb, 0x19, 0x94, 0x3e, 0x76, 0xd2, 0xaa, 0xbe, 0x73, 0xec,
  0x88, 0x3e, 0x18, 0x73, 0x4e, 0xbe, 0x3b, 0x1b, 0x11, 0xbf, 0xb7, 0x56, 0x15,
  0x3e, 0x81, 0xa9, 0x52, 0x3d, 0x7a, 0x82, 0x20, 0xbf, 0x0d, 0x6f, 0xe1, 0x3e,
  0xdb, 0xfe, 0x36, 0xbf, 0xe6, 0xa9, 0x6f, 0xbd, 0x17, 0x62, 0xd6, 0xbd, 0xed,
  0x17, 0xb4, 0x3e, 0xf9, 0xb4, 0x37, 0xbf, 0x56, 0x88, 0xba, 0x3e, 0xa9, 0xcb,
  0x31, 0xbf, 0x93, 0xb8, 0x0e, 0xbf, 0x1f, 0x0c, 0x41, 0xbf, 0x05, 0xb3, 0x62,
  0xbf, 0x77, 0xea, 0xff, 0x3e, 0x7e, 0x03, 0xe7, 0x3d, 0xeb, 0x74, 0x51, 0x3d,
  0xd1, 0xb7, 0x2f, 0xbf, 0x1d, 0xe1, 0x4d, 0xbf, 0x13, 0xe5, 0x34, 0xbf, 0x77,
  0xdc, 0x52, 0xbf, 0xd9, 0xb4, 0xf4, 0xbe, 0x79, 0xec, 0x40, 0x3f, 0x92, 0xe4,
  0xaa, 0x3d, 0xab, 0x7a, 0x2f, 0xbf, 0x8e, 0xc8, 0xbf, 0xbf, 0xd8, 0x5f, 0x50,
  0xbe, 0x91, 0x69, 0x0a, 0xbe, 0xc6, 0xf3, 0xff, 0xff, 0x04, 0x00, 0x00, 0x00,
  0x2c, 0x01, 0x00, 0x00, 0xa3, 0x20, 0x0e, 0xbd, 0xdc, 0xcc, 0x70, 0x3d, 0x8f,
  0xde, 0x20, 0x3e, 0x5c, 0xd0, 0xcb, 0x3d, 0x09, 0x82, 0xc9, 0x3d, 0x7c, 0xaf,
  0x81, 0xbc, 0xb7, 0xf4, 0x1c, 0x3e, 0xf9, 0xbf, 0xb4, 0xbd, 0x3e, 0x65, 0xf2,
  0xbd, 0x2b, 0x7a, 0x45, 0xbe, 0xad, 0x7d, 0xb9, 0x3e, 0x0b, 0xb5, 0x5f, 0xbe,
  0xf2, 0x1e, 0x09, 0xbd, 0xbc, 0x1a, 0xd0, 0xbd, 0x66, 0x09, 0xd3, 0xbd, 0x60,
  0xcb, 0x54, 0x3f, 0xdc, 0xf5, 0x9a, 0xbe, 0xc2, 0x21, 0x2d, 0x3e, 0x22, 0xe3,
  0x17, 0xbe, 0x62, 0x48, 0xd5, 0x3e, 0xd1, 0xae, 0x3f, 0xbe, 0xd9, 0xa6, 0x00,
  0xbe, 0xe7, 0x1c, 0xd9, 0x3e, 0x21, 0x0a, 0xce, 0xbd, 0x8f, 0x5e, 0x2b, 0xbf,
  0x27, 0x4f, 0xfe, 0x3c, 0xe6, 0xd4, 0x90, 0x3e, 0x5c, 0x5e, 0x8b, 0xbe, 0x4c,
  0xeb, 0xa3, 0x3d, 0x81, 0x44, 0x8a, 0x3e, 0x5b, 0x4b, 0xfa, 0xbc, 0xbe, 0x1b,
  0x5f, 0x3f, 0x82, 0xd6, 0x48, 0x3c, 0x7f, 0x92, 0x68, 0x3e, 0xd9, 0x27, 0xa2,
  0xbe, 0xd4, 0x7c, 0x3a, 0x3e, 0x05, 0xb8, 0x65, 0xbe, 0xac, 0xc1, 0x93, 0x3e,
  0x40, 0x7b, 0x11, 0xbf, 0xaf, 0xb1, 0xc0, 0xbe, 0xc4, 0x47, 0x7f, 0x3e, 0x32,
  0x38, 0x77, 0xbe, 0x13, 0x5b, 0x7d, 0x3f, 0x1e, 0x60, 0x88, 0xbe, 0x1d, 0xbd,
  0xb9, 0xbe, 0xa8, 0xf4, 0xda, 0x3d, 0xd2, 0xc4, 0x02, 0x3d, 0x30, 0x07, 0xc7,
  0x3e, 0xb5, 0xad, 0x1c, 0x3f, 0x34, 0x8d, 0x2f, 0xbf, 0x1a, 0x1e, 0x28, 0xbf,
  0x2c, 0x22, 0x2a, 0xbd, 0xa4, 0x0f, 0xa8, 0xbc, 0xdf, 0x37, 0xe1, 0xbe, 0xc1,
  0x97, 0x6a, 0xbf, 0x93, 0x51, 0xc2, 0x3e, 0xf0, 0x10, 0x54, 0xbe, 0x07, 0xdc,
  0xa9, 0x3f, 0x2a, 0xe4, 0x51, 0xbf, 0x42, 0x8d, 0x76, 0xbf, 0xd3, 0x39, 0xb1,
  0xbe, 0x50, 0xf9, 0x7b, 0x3e, 0x05, 0xd1, 0x06, 0x3f, 0xc3, 0x2e, 0x96, 0x3e,
  0x65, 0x10, 0x36, 0x3e, 0xe7, 0x22, 0x33, 0xbf, 0x3a, 0x97, 0x5a, 0x3f, 0x7e,
  0xfe, 0x70, 0xbf, 0x5f, 0x07, 0xab, 0xbe, 0x74, 0x61, 0xbf, 0x3e, 0x32, 0x08,
  0xab, 0xbe, 0xda, 0xee, 0xe6, 0xbe, 0x5b, 0xab, 0x06, 0xbf, 0x07, 0xec, 0x5c,
  0x3d, 0x4d, 0xf8, 0x9e, 0x3d, 0xfe, 0xf4, 0xff, 0xff, 0x04, 0x00, 0x00, 0x00,
  0x2c, 0x01, 0x00, 0x00, 0x3a, 0xd9, 0x04, 0x3e, 0xec, 0x55, 0x8c, 0x3e, 0x4a,
  0x81, 0x11, 0x3d, 0x48, 0xec, 0x41, 0x3c, 0x0d, 0x27, 0x13, 0xbf, 0x83, 0x39,
  0x15, 0x3f, 0xc9, 0x4b, 0xed, 0x3c, 0x98, 0x65, 0x03, 0xbe, 0x20, 0xf5, 0x08,
  0x3e, 0x1e, 0x51, 0xe9, 0xbe, 0x0d, 0xf0, 0x2b, 0xbe, 0x55, 0xa1, 0x9f, 0xbd,
  0xf4, 0x82, 0xe3, 0x3f, 0x3b, 0xf0, 0xe4, 0xbe, 0x9a, 0x19, 0x92, 0x3e, 0xf1,
  0x62, 0x30, 0xbe, 0x3b, 0x98, 0x26, 0x3f, 0xae, 0xd2, 0x69, 0xbd, 0x37, 0x77,
  0xa5, 0x3e, 0xe6, 0xc4, 0x86, 0x3f, 0x67, 0xb6, 0x80, 0x3d, 0xc8, 0xf7, 0xd8,
  0x3d, 0x66, 0xe2, 0x5f, 0x3e, 0xfa, 0x31, 0x0f, 0x3e, 0x5e, 0xd2, 0xfc, 0x3c,
  0x27, 0x43, 0x5a, 0xbd, 0xca, 0x34, 0xc0, 0x3b, 0x1a, 0xc3, 0xce, 0x3e, 0x7a,
  0x2a, 0x72, 0xbd, 0x65, 0x2b, 0xbd, 0xbe, 0x0d, 0x65, 0xb4, 0x3d, 0x34, 0xbe,
  0x38, 0x3f, 0xef, 0xc3, 0x16, 0x3e, 0xc6, 0x0b, 0x72, 0x3d, 0xdc, 0x7e, 0x2f,
  0x3f, 0x0f, 0xae, 0x11, 0x3f, 0xc3, 0xbb, 0x07, 0xbf, 0x44, 0xb6, 0x8c, 0x3c,
  0x26, 0x69, 0x99, 0x3e, 0x39, 0x24, 0x7f, 0x3f, 0x93, 0xa2, 0x2e, 0x3f, 0x05,
  0x35, 0x75, 0x3e, 0x96, 0x17, 0x02, 0x3f, 0x27, 0xb1, 0x7b, 0x3f, 0x90, 0xca,
  0x53, 0xbf, 0x9c, 0x19, 0x7c, 0x3f, 0xc5, 0x41, 0x3f, 0x3e, 0xbb, 0xa5, 0x24,
  0x3f, 0xcc, 0x81, 0xe6, 0x3e, 0xc0, 0x3a, 0xeb, 0x3c, 0xf7, 0x43, 0x90, 0x3d,
  0x31, 0xa1, 0x85, 0xbf, 0x93, 0xc0, 0x90, 0xbf, 0x0b, 0x6f, 0x35, 0x3f, 0x01,
  0xec, 0x72, 0xba, 0x2b, 0x81, 0x49, 0x3f, 0xc6, 0xd1, 0x37, 0x3f, 0x07, 0xb3,
  0xc3, 0x3d, 0x50, 0xc3, 0x0d, 0x3f, 0x55, 0xc2, 0xf9, 0xbe, 0xea, 0x8e, 0x37,
  0xbd, 0x2c, 0x82, 0x92, 0x3e, 0xa0, 0x33, 0xae, 0x3e, 0x7b, 0x87, 0x3a, 0x3d,
  0x53, 0xe3, 0xfe, 0x3e, 0x20, 0x20, 0x0e, 0xbf, 0xad, 0xdd, 0xb7, 0x3e, 0xb0,
  0xfb, 0xed, 0xbd, 0x2e, 0xec, 0x8a, 0x3e, 0x2e, 0x8e, 0xa0, 0x3e, 0x32, 0x44,
  0x62, 0x3e, 0x56, 0xcb, 0xcf, 0x3e, 0x3a, 0x06, 0x13, 0x3c, 0x53, 0x1e, 0xc5,
  0x3c, 0xdb, 0xbb, 0x70, 0xbd, 0x36, 0xf6, 0xff, 0xff, 0x04, 0x00, 0x00, 0x00,
  0xb0, 0x04, 0x00, 0x00, 0x26, 0x88, 0x68, 0xbe, 0x46, 0xe6, 0x97, 0xba, 0x6a,
  0x57, 0x2e, 0xbf, 0xb6, 0xec, 0x32, 0x3e, 0x0e, 0xb1, 0x31, 0xbe, 0x96, 0x20,
  0x2f, 0xbf, 0xdd, 0x00, 0x96, 0xbe, 0xb0, 0xc7, 0x02, 0x3f, 0x31, 0x45, 0x4e,
  0xbf, 0x56, 0x47, 0xc1, 0xbd, 0x61, 0x9a, 0xf8, 0x3e, 0x6a, 0x18, 0x32, 0xbf,
  0xc6, 0xed, 0x3e, 0xbf, 0xd6, 0xb3, 0x42, 0xbe, 0x9b, 0x7e, 0x97, 0xbf, 0xe0,
  0xe7, 0x96, 0x3d, 0xce, 0x34, 0xaf, 0x3f, 0xef, 0x8b, 0x2e, 0xbf, 0xb7, 0xdd,
  0x92, 0xbe, 0xf5, 0xd9, 0x09, 0xbf, 0x87, 0xb1, 0x8e, 0xbf, 0x55, 0x9e, 0x02,
  0x3f, 0x2c, 0xd5, 0x08, 0xbf, 0x58, 0x92, 0x8e, 0x3f, 0x51, 0x1c, 0x87, 0xbf,
  0x0b, 0xcb, 0x25, 0xba, 0x00, 0x7b, 0x97, 0xbf, 0x8f, 0x13, 0xec, 0x3b, 0xba,
  0x37, 0x1b, 0xbe, 0xc7, 0xd7, 0x8a, 0xbf, 0xb2, 0xd9, 0x80, 0x3f, 0x81, 0x9c,
  0x10, 0x3e, 0xba, 0x63, 0xb3, 0x3e, 0x9a, 0xeb, 0x5d, 0xbf, 0x44, 0xc8, 0xe0,
  0xbe, 0x62, 0xdf, 0x67, 0x3f, 0xe5, 0xe6, 0xc0, 0xbe, 0xb9, 0x5f, 0x76, 0xbf,
  0x80, 0x58, 0xd2, 0x3e, 0xf6, 0x3b, 0xae, 0x3d, 0x5a, 0xf0, 0xcf, 0xbe, 0x8f,
  0x7c, 0xb4, 0x3e, 0x58, 0xc1, 0xe0, 0xbd, 0xd2, 0xea, 0x8e, 0x3f, 0xe3, 0x3c,
  0x74, 0x3e, 0x9e, 0xfe, 0x59, 0xbf, 0xf1, 0xc0, 0xd3, 0x3e, 0x47, 0xee, 0xc2,
  0xbd, 0xcc, 0xee, 0x32, 0xbf, 0x42, 0x03, 0xb0, 0xbd, 0x08, 0x06, 0xb1, 0x3e,
  0x67, 0xb7, 0x46, 0xbf, 0x85, 0xb1, 0x00, 0x3f, 0x8d, 0xc6, 0x34, 0x3f, 0xb3,
  0xe2, 0x19, 0x3e, 0x8a, 0x80, 0xfb, 0xbc, 0x0e, 0xfa, 0x3d, 0xbf, 0xad, 0x03,
  0xd7, 0x3e, 0x7c, 0x07, 0x51, 0xbf, 0xb8, 0x1f, 0x13, 0x3f, 0x01, 0xe6, 0x81,
  0x3f, 0x6b, 0x45, 0x9d, 0x3f, 0x0a, 0xe5, 0xa3, 0x3e, 0xc9, 0xa7, 0x15, 0x3f,
  0x4e, 0x89, 0x10, 0xbe, 0xec, 0xcd, 0x66, 0x3f, 0xdf, 0x32, 0x41, 0x3e, 0x9c,
  0x73, 0xa2, 0x3e, 0x9b, 0xda, 0x72, 0xbe, 0x77, 0x5a, 0xe6, 0xbe, 0x4a, 0x61,
  0x23, 0xbe, 0x44, 0x34, 0x41, 0x3f, 0x87, 0x74, 0xcd, 0xbe, 0x98, 0xeb, 0x0a,
  0x3d, 0x2b, 0xad, 0xf0, 0x3e, 0x2d, 0xf7, 0x86, 0x3e, 0x75, 0x59, 0x9e, 0x3d,
  0x78, 0xd1, 0x88, 0x3f, 0x37, 0x3e, 0x8f, 0x3f, 0x85, 0x7a, 0x38, 0x3f, 0xd2,
