const unsigned char sr2by1_3_tflite[] = {
  0x1c, 0x00, 0x00, 0x00, 0x54, 0x46, 0x4c, 0x33, 0x14, 0x00, 0x20, 0x00, 0x04,
  0x00, 0x08, 0x00, 0x0c, 0x00, 0x10, 0x00, 0x14, 0x00, 0x00, 0x00, 0x18, 0x00,
  0x1c, 0x00, 0x14, 0x00, 0x00, 0x00, 0x03, 0x00, 0x00, 0x00, 0x7c, 0x02, 0x00,
  0x00, 0x70, 0x02, 0x00, 0x00, 0x60, 0x03, 0x00, 0x00, 0x0c, 0x00, 0x00, 0x00,
  0x08, 0x03, 0x00, 0x00, 0x7c, 0x02, 0x00, 0x00, 0x96, 0x00, 0x00, 0x00, 0xdc,
  0x8a, 0x00, 0x00, 0xd8, 0x8a, 0x00, 0x00, 0xc8, 0x89, 0x00, 0x00, 0x50, 0x89,
  0x00, 0x00, 0xf8, 0x88, 0x00, 0x00, 0xa8, 0x88, 0x00, 0x00, 0x50, 0x88, 0x00,
  0x00, 0xe4, 0x87, 0x00, 0x00, 0x70, 0x87, 0x00, 0x00, 0x08, 0x87, 0x00, 0x00,
  0xa0, 0x86, 0x00, 0x00, 0x08, 0x86, 0x00, 0x00, 0x2c, 0x84, 0x00, 0x00, 0x50,
  0x82, 0x00, 0x00, 0x94, 0x7e, 0x00, 0x00, 0x6c, 0x7d, 0x00, 0x00, 0x44, 0x7c,
  0x00, 0x00, 0x14, 0x7a, 0x00, 0x00, 0x38, 0x78, 0x00, 0x00, 0x5c, 0x76, 0x00,
  0x00, 0xa0, 0x72, 0x00, 0x00, 0x78, 0x71, 0x00, 0x00, 0x50, 0x70, 0x00, 0x00,
  0xfc, 0x6e, 0x00, 0x00, 0x34, 0x6e, 0x00, 0x00, 0x6c, 0x6d, 0x00, 0x00, 0x90,
  0x6c, 0x00, 0x00, 0x64, 0x6b, 0x00, 0x00, 0x38, 0x6a, 0x00, 0x00, 0xe4, 0x68,
  0x00, 0x00, 0x1c, 0x68, 0x00, 0x00, 0x54, 0x67, 0x00, 0x00, 0xa8, 0x66, 0x00,
  0x00, 0x08, 0x66, 0x00, 0x00, 0x68, 0x65, 0x00, 0x00, 0xdc, 0x64, 0x00, 0x00,
  0x14, 0x64, 0x00, 0x00, 0x4c, 0x63, 0x00, 0x00, 0xa0, 0x62, 0x00, 0x00, 0x00,
  0x62, 0x00, 0x00, 0x60, 0x61, 0x00, 0x00, 0xb4, 0x60, 0x00, 0x00, 0xec, 0x5f,
  0x00, 0x00, 0x24, 0x5f, 0x00, 0x00, 0x48, 0x5e, 0x00, 0x00, 0xa8, 0x5d, 0x00,
  0x00, 0x54, 0x5d, 0x00, 0x00, 0xb4, 0x5c, 0x00, 0x00, 0x08, 0x5c, 0x00, 0x00,
  0x40, 0x5b, 0x00, 0x00, 0x78, 0x5a, 0x00, 0x00, 0x24, 0x59, 0x00, 0x00, 0xf8,
  0x57, 0x00, 0x00, 0xcc, 0x56, 0x00, 0x00, 0x9c, 0x54, 0x00, 0x00, 0xd4, 0x53,
  0x00, 0x00, 0x78, 0x53, 0x00, 0x00, 0xb0, 0x52, 0x00, 0x00, 0x5c, 0x51, 0x00,
  0x00, 0x30, 0x50, 0x00, 0x00, 0x04, 0x4f, 0x00, 0x00, 0x48, 0x4b, 0x00, 0x00,
  0x68, 0x49, 0x00, 0x00, 0x88, 0x47, 0x00, 0x00, 0xfc, 0x40, 0x00, 0x00, 0xd0,
  0x3f, 0x00, 0x00, 0x60, 0x3f, 0x00, 0x00, 0x34, 0x3e, 0x00, 0x00, 0x78, 0x3a,
  0x00, 0x00, 0xf8, 0x37, 0x00, 0x00, 0x64, 0x37, 0x00, 0x00, 0xe4, 0x34, 0x00,
  0x00, 0xa0, 0x34, 0x00, 0x00, 0x04, 0x34, 0x00, 0x00, 0x58, 0x33, 0x00, 0x00,
  0xcc, 0x32, 0x00, 0x00, 0x54, 0x32, 0x00, 0x00, 0xe4, 0x31, 0x00, 0x00, 0x68,
  0x31, 0x00, 0x00, 0xd8, 0x30, 0x00, 0x00, 0x24, 0x30, 0x00, 0x00, 0xcc, 0x2f,
  0x00, 0x00, 0x94, 0x89, 0x00, 0x00, 0x90, 0x89, 0x00, 0x00, 0x8c, 0x89, 0x00,
  0x00, 0x88, 0x89, 0x00, 0x00, 0x84, 0x89, 0x00, 0x00, 0x80, 0x89, 0x00, 0x00,
  0x7c, 0x89, 0x00, 0x00, 0x78, 0x89, 0x00, 0x00, 0x74, 0x89, 0x00, 0x00, 0x70,
  0x89, 0x00, 0x00, 0x6c, 0x89, 0x00, 0x00, 0x68, 0x89, 0x00, 0x00, 0x64, 0x89,
  0x00, 0x00, 0x60, 0x89, 0x00, 0x00, 0x5c, 0x89, 0x00, 0x00, 0x58, 0x89, 0x00,
  0x00, 0x54, 0x89, 0x00, 0x00, 0x50, 0x89, 0x00, 0x00, 0x4c, 0x89, 0x00, 0x00,
  0x48, 0x89, 0x00, 0x00, 0x44, 0x89, 0x00, 0x00, 0x40, 0x89, 0x00, 0x00, 0x3c,
  0x89, 0x00, 0x00, 0x38, 0x89, 0x00, 0x00, 0x34, 0x89, 0x00, 0x00, 0x30, 0x89,
  0x00, 0x00, 0x2c, 0x89, 0x00, 0x00, 0x28, 0x89, 0x00, 0x00, 0x24, 0x89, 0x00,
  0x00, 0x20, 0x89, 0x00, 0x00, 0x1c, 0x89, 0x00, 0x00, 0x18, 0x89, 0x00, 0x00,
  0x14, 0x89, 0x00, 0x00, 0x10, 0x89, 0x00, 0x00, 0x0c, 0x89, 0x00, 0x00, 0x08,
  0x89, 0x00, 0x00, 0x04, 0x89, 0x00, 0x00, 0x00, 0x89, 0x00, 0x00, 0xfc, 0x88,
  0x00, 0x00, 0xf8, 0x88, 0x00, 0x00, 0xf4, 0x88, 0x00, 0x00, 0xf0, 0x88, 0x00,
  0x00, 0xec, 0x88, 0x00, 0x00, 0xe8, 0x88, 0x00, 0x00, 0xe4, 0x88, 0x00, 0x00,
  0xe0, 0x88, 0x00, 0x00, 0xdc, 0x88, 0x00, 0x00, 0xd8, 0x88, 0x00, 0x00, 0xd4,
  0x88, 0x00, 0x00, 0xd0, 0x88, 0x00, 0x00, 0xcc, 0x88, 0x00, 0x00, 0xc8, 0x88,
  0x00, 0x00, 0xc4, 0x88, 0x00, 0x00, 0xc0, 0x88, 0x00, 0x00, 0xbc, 0x88, 0x00,
  0x00, 0xb8, 0x88, 0x00, 0x00, 0xb4, 0x88, 0x00, 0x00, 0xb0, 0x88, 0x00, 0x00,
  0xac, 0x88, 0x00, 0x00, 0xa8, 0x88, 0x00, 0x00, 0xa4, 0x88, 0x00, 0x00, 0xa0,
  0x88, 0x00, 0x00, 0x9c, 0x88, 0x00, 0x00, 0x98, 0x88, 0x00, 0x00, 0x94, 0x88,
  0x00, 0x00, 0x90, 0x88, 0x00, 0x00, 0x8c, 0x88, 0x00, 0x00, 0xdc, 0x00, 0x00,
  0x00, 0x01, 0x00, 0x00, 0x00, 0x14, 0x01, 0x00, 0x00, 0x04, 0x00, 0x00, 0x00,
  0x48, 0x2e, 0x00, 0x00, 0x8c, 0x2d, 0x00, 0x00, 0x14, 0x2c, 0x00, 0x00, 0xb0,
  0x25, 0x00, 0x00, 0x01, 0x00, 0x00, 0x00, 0x10, 0x00, 0x00, 0x00, 0x0c, 0x00,
  0x14, 0x00, 0x10, 0x00, 0x0c, 0x00, 0x08, 0x00, 0x04, 0x00, 0x0c, 0x00, 0x00,
  0x00, 0x10, 0x00, 0x00, 0x00, 0x18, 0x00, 0x00, 0x00, 0x28, 0x00, 0x00, 0x00,
  0x2c, 0x00, 0x00, 0x00, 0x05, 0x00, 0x00, 0x00, 0x73, 0x65, 0x72, 0x76, 0x65,
  0x00, 0x00, 0x00, 0x0f, 0x00, 0x00, 0x00, 0x73, 0x65, 0x72, 0x76, 0x69, 0x6e,
  0x67, 0x5f, 0x64, 0x65, 0x66, 0x61, 0x75, 0x6c, 0x74, 0x00, 0x01, 0x00, 0x00,
  0x00, 0x14, 0x00, 0x00, 0x00, 0x01, 0x00, 0x00, 0x00, 0x24, 0x00, 0x00, 0x00,
  0x08, 0x00, 0x0c, 0x00, 0x08, 0x00, 0x04, 0x00, 0x08, 0x00, 0x00, 0x00, 0x93,
  0x00, 0x00, 0x00, 0x04, 0x00, 0x00, 0x00, 0x06, 0x00, 0x00, 0x00, 0x6f, 0x75,
  0x74, 0x70, 0x75, 0x74, 0x00, 0x00, 0x22, 0x79, 0xff, 0xff, 0x04, 0x00, 0x00,
  0x00, 0x03, 0x00, 0x00, 0x00, 0x69, 0x6d, 0x67, 0x00, 0x01, 0x00, 0x00, 0x00,
  0x0c, 0x00, 0x00, 0x00, 0x08, 0x00, 0x0c, 0x00, 0x04, 0x00, 0x08, 0x00, 0x08,
  0x00, 0x00, 0x00, 0x08, 0x00, 0x00, 0x00, 0x95, 0x00, 0x00, 0x00, 0x13, 0x00,
  0x00, 0x00, 0x6d, 0x69, 0x6e, 0x5f, 0x72, 0x75, 0x6e, 0x74, 0x69, 0x6d, 0x65,
  0x5f, 0x76, 0x65, 0x72, 0x73, 0x69, 0x6f, 0x6e, 0x00, 0x66, 0x79, 0xff, 0xff,
  0x04, 0x00, 0x00, 0x00, 0x10, 0x00, 0x00, 0x00, 0x31, 0x2e, 0x31, 0x33, 0x2e,
  0x31, 0x00, 0x00, 0x00, 0x00, 0x00, 0x00, 0x00, 0x00, 0x00, 0x00, 0x0f, 0x00,
  0x00, 0x00, 0x4d, 0x4c, 0x49, 0x52, 0x20, 0x43, 0x6f, 0x6e, 0x76, 0x65, 0x72,
  0x74, 0x65, 0x64, 0x2e, 0x00, 0x00, 0x00, 0x0e, 0x00, 0x18, 0x00, 0x04, 0x00,
  0x08, 0x00, 0x0c, 0x00, 0x10, 0x00, 0x14, 0x00, 0x0e, 0x00, 0x00, 0x00, 0x40,
  0x01, 0x00, 0x00, 0x34, 0x01, 0x00, 0x00, 0x28, 0x01, 0x00, 0x00, 0x14, 0x00,
  0x00, 0x00, 0x04, 0x00, 0x00, 0x00, 0x04, 0x00, 0x00, 0x00, 0x6d, 0x61, 0x69,
  0x6e, 0x00, 0x00, 0x00, 0x00, 0x43, 0x00, 0x00, 0x00, 0xd0, 0x2c, 0x00, 0x00,
  0x0c, 0x2c, 0x00, 0x00, 0x60, 0x2b, 0x00, 0x00, 0x94, 0x2a, 0x00, 0x00, 0xe8,
  0x29, 0x00, 0x00, 0x4c, 0x29, 0x00, 0x00, 0x84, 0x28, 0x00, 0x00, 0xe8, 0x27,
  0x00, 0x00, 0x4c, 0x27, 0x00, 0x00, 0x98, 0x26, 0x00, 0x00, 0xfc, 0x25, 0x00,
  0x00, 0x60, 0x25, 0x00, 0x00, 0xac, 0x24, 0x00, 0x00, 0x18, 0x24, 0x00, 0x00,
  0x7c, 0x23, 0x00, 0x00, 0xe0, 0x22, 0x00, 0x00, 0x20, 0x22, 0x00, 0x00, 0x84,
  0x21, 0x00, 0x00, 0xe8, 0x20, 0x00, 0x00, 0x34, 0x20, 0x00, 0x00, 0x98, 0x1f,
  0x00, 0x00, 0xfc, 0x1e, 0x00, 0x00, 0x48, 0x1e, 0x00, 0x00, 0xc4, 0x1d, 0x00,
  0x00, 0x28, 0x1d, 0x00, 0x00, 0x8c, 0x1c, 0x00, 0x00, 0xcc, 0x1b, 0x00, 0x00,
  0x30, 0x1b, 0x00, 0x00, 0x94, 0x1a, 0x00, 0x00, 0xe0, 0x19, 0x00, 0x00, 0x44,
  0x19, 0x00, 0x00, 0xa8, 0x18, 0x00, 0x00, 0xf4, 0x17, 0x00, 0x00, 0x70, 0x17,
  0x00, 0x00, 0xd4, 0x16, 0x00, 0x00, 0x38, 0x16, 0x00, 0x00, 0x78, 0x15, 0x00,
  0x00, 0xdc, 0x14, 0x00, 0x00, 0x40, 0x14, 0x00, 0x00, 0x88, 0x13, 0x00, 0x00,
  0xec, 0x12, 0x00, 0x00, 0x50, 0x12, 0x00, 0x00, 0x98, 0x11, 0x00, 0x00, 0x14,
  0x11, 0x00, 0x00, 0x78, 0x10, 0x00, 0x00, 0xdc, 0x0f, 0x00, 0x00, 0x1c, 0x0f,
  0x00, 0x00, 0x80, 0x0e, 0x00, 0x00, 0xe4, 0x0d, 0x00, 0x00, 0x2c, 0x0d, 0x00,
  0x00, 0x90, 0x0c, 0x00, 0x00, 0xf4, 0x0b, 0x00, 0x00, 0x3c, 0x0b, 0x00, 0x00,
  0xb8, 0x0a, 0x00, 0x00, 0x1c, 0x0a, 0x00, 0x00, 0x80, 0x09, 0x00, 0x00, 0xc0,
  0x08, 0x00, 0x00, 0x24, 0x08, 0x00, 0x00, 0x88, 0x07, 0x00, 0x00, 0xd0, 0x06,
  0x00, 0x00, 0x34, 0x06, 0x00, 0x00, 0x98, 0x05, 0x00, 0x00, 0xe0, 0x04, 0x00,
  0x00, 0x5c, 0x04, 0x00, 0x00, 0xb0, 0x03, 0x00, 0x00, 0x10, 0x03, 0x00, 0x00,
  0x68, 0x02, 0x00, 0x00, 0x01, 0x00, 0x00, 0x00, 0x93, 0x00, 0x00, 0x00, 0x01,
  0x00, 0x00, 0x00, 0x00, 0x00, 0x00, 0x00, 0x94, 0x00, 0x00, 0x00, 0xc8, 0x85,
  0x00, 0x00, 0x80, 0x85, 0x00, 0x00, 0xd4, 0x84, 0x00, 0x00, 0x68, 0x84, 0x00,
  0x00, 0x10, 0x84, 0x00, 0x00, 0xc0, 0x83, 0x00, 0x00, 0x68, 0x83, 0x00, 0x00,
  0xf8, 0x82, 0x00, 0x00, 0x7c, 0x82, 0x00, 0x00, 0x14, 0x82, 0x00, 0x00, 0xb0,
  0x81, 0x00, 0x00, 0x14, 0x81, 0x00, 0x00, 0x38, 0x7f, 0x00, 0x00, 0x5c, 0x7d,
  0x00, 0x00, 0xa0, 0x79, 0x00, 0x00, 0x78, 0x78, 0x00, 0x00, 0x50, 0x77, 0x00,
  0x00, 0x20, 0x75, 0x00, 0x00, 0x44, 0x73, 0x00, 0x00, 0x68, 0x71, 0x00, 0x00,
  0xac, 0x6d, 0x00, 0x00, 0x84, 0x6c, 0x00, 0x00, 0x5c, 0x6b, 0x00, 0x00, 0x04,
  0x6a, 0x00, 0x00, 0x3c, 0x69, 0x00, 0x00, 0x78, 0x68, 0x00, 0x00, 0x98, 0x67,
  0x00, 0x00, 0x6c, 0x66, 0x00, 0x00, 0x44, 0x65, 0x00, 0x00, 0xec, 0x63, 0x00,
  0x00, 0x24, 0x63, 0x00, 0x00, 0x60, 0x62, 0x00, 0x00, 0xb0, 0x61, 0x00, 0x00,
  0x10, 0x61, 0x00, 0x00, 0x74, 0x60, 0x00, 0x00, 0xe4, 0x5f, 0x00, 0x00, 0x1c,
  0x5f, 0x00, 0x00, 0x58, 0x5e, 0x00, 0x00, 0xa8, 0x5d, 0x00, 0x00, 0x08, 0x5d,
  0x00, 0x00, 0x6c, 0x5c, 0x00, 0x00, 0xbc, 0x5b, 0x00, 0x00, 0xf4, 0x5a, 0x00,
  0x00, 0x30, 0x5a, 0x00, 0x00, 0x50, 0x59, 0x00, 0x00, 0xbc, 0x58, 0x00, 0x00,
  0x5c, 0x58, 0x00, 0x00, 0xc0, 0x57, 0x00, 0x00, 0x10, 0x57, 0x00, 0x00, 0x48,
  0x56, 0x00, 0x00, 0x84, 0x55, 0x00, 0x00, 0x2c, 0x54, 0x00, 0x00, 0x00, 0x53,
  0x00, 0x00, 0xd8, 0x51, 0x00, 0x00, 0xa4, 0x4f, 0x00, 0x00, 0xe8, 0x4e, 0x00,
  0x00, 0x80, 0x4e, 0x00, 0x00, 0xbc, 0x4d, 0x00, 0x00, 0x64, 0x4c, 0x00, 0x00,
  0x38, 0x4b, 0x00, 0x00, 0x10, 0x4a, 0x00, 0x00, 0x50, 0x46, 0x00, 0x00, 0x70,
  0x44, 0x00, 0x00, 0x94, 0x42, 0x00, 0x00, 0x04, 0x3c, 0x00, 0x00, 0xe4, 0x3a,
  0x00, 0x00, 0x68, 0x3a, 0x00, 0x00, 0x40, 0x39, 0x00, 0x00, 0x80, 0x35, 0x00,
  0x00, 0x0c, 0x33, 0x00, 0x00, 0x6c, 0x32, 0x00, 0x00, 0xfc, 0x2f, 0x00, 0x00,
  0xac, 0x2f, 0x00, 0x00, 0x00, 0x2f, 0x00, 0x00, 0x50, 0x2e, 0x00, 0x00, 0xc4,
  0x2d, 0x00, 0x00, 0x4c, 0x2d, 0x00, 0x00, 0xd8, 0x2c, 0x00, 0x00, 0x5c, 0x2c,
  0x00, 0x00, 0xcc, 0x2b, 0x00, 0x00, 0x28, 0x2b, 0x00, 0x00, 0xc0, 0x2a, 0x00,
  0x00, 0x04, 0x2a, 0x00, 0x00, 0x3c, 0x29, 0x00, 0x00, 0x88, 0x28, 0x00, 0x00,
  0xc4, 0x27, 0x00, 0x00, 0x28, 0x27, 0x00, 0x00, 0x6c, 0x26, 0x00, 0x00, 0xc4,
  0x25, 0x00, 0x00, 0x28, 0x25, 0x00, 0x00, 0x70, 0x24, 0x00, 0x00, 0xd8, 0x23,
  0x00, 0x00, 0x3c, 0x23, 0x00, 0x00, 0x84, 0x22, 0x00, 0x00, 0xf8, 0x21, 0x00,
  0x00, 0x58, 0x21, 0x00, 0x00, 0xbc, 0x20, 0x00, 0x00, 0xfc, 0x1f, 0x00, 0x00,
  0x60, 0x1f, 0x00, 0x00, 0xc4, 0x1e, 0x00, 0x00, 0x0c, 0x1e, 0x00, 0x00, 0x74,
  0x1d, 0x00, 0x00, 0xd8, 0x1c, 0x00, 0x00, 0x20, 0x1c, 0x00, 0x00, 0x90, 0x1b,
  0x00, 0x00, 0x04, 0x1b, 0x00, 0x00, 0x68, 0x1a, 0x00, 0x00, 0xa8, 0x19, 0x00,
  0x00, 0x0c, 0x19, 0x00, 0x00, 0x70, 0x18, 0x00, 0x00, 0xb8, 0x17, 0x00, 0x00,
  0x20, 0x17, 0x00, 0x00, 0x84, 0x16, 0x00, 0x00, 0xcc, 0x15, 0x00, 0x00, 0x3c,
  0x15, 0x00, 0x00, 0xb0, 0x14, 0x00, 0x00, 0x14, 0x14, 0x00, 0x00, 0x54, 0x13,
  0x00, 0x00, 0xb8, 0x12, 0x00, 0x00, 0x1c, 0x12, 0x00, 0x00, 0x60, 0x11, 0x00,
  0x00, 0xc8, 0x10, 0x00, 0x00, 0x2c, 0x10, 0x00, 0x00, 0x70, 0x0f, 0x00, 0x00,
  0xe0, 0x0e, 0x00, 0x00, 0x54, 0x0e, 0x00, 0x00, 0xb8, 0x0d, 0x00, 0x00, 0xf8,
  0x0c, 0x00, 0x00, 0x5c, 0x0c, 0x00, 0x00, 0xc0, 0x0b, 0x00, 0x00, 0x04, 0x0b,
  0x00, 0x00, 0x6c, 0x0a, 0x00, 0x00, 0xd0, 0x09, 0x00, 0x00, 0x14, 0x09, 0x00,
  0x00, 0x84, 0x08, 0x00, 0x00, 0xf8, 0x07, 0x00, 0x00, 0x5c, 0x07, 0x00, 0x00,
  0x9c, 0x06, 0x00, 0x00, 0x00, 0x06, 0x00, 0x00, 0x64, 0x05, 0x00, 0x00, 0xa8,
  0x04, 0x00, 0x00, 0x10, 0x04, 0x00, 0x00, 0x74, 0x03, 0x00, 0x00, 0xb8, 0x02,
  0x00, 0x00, 0x28, 0x02, 0x00, 0x00, 0x9c, 0x01, 0x00, 0x00, 0xf0, 0x00, 0x00,
  0x00, 0x50, 0x00, 0x00, 0x00, 0xde, 0xd8, 0xff, 0xff, 0x00, 0x00, 0x00, 0x01,
  0x02, 0x00, 0x00, 0x00, 0x30, 0x00, 0x00, 0x00, 0x24, 0x00, 0x00, 0x00, 0x10,
  0x00, 0x00, 0x00, 0x00, 0x00, 0x0a, 0x00, 0x10, 0x00, 0x0f, 0x00, 0x04, 0x00,
  0x08, 0x00, 0x0a, 0x00, 0x00, 0x00, 0x01, 0x00, 0x00, 0x00, 0x01, 0x00, 0x00,
  0x00, 0x00, 0x00, 0x00, 0x01, 0x01, 0x00, 0x00, 0x00, 0x93, 0x00, 0x00, 0x00,
  0x03, 0x00, 0x00, 0x00, 0x92, 0x00, 0x00, 0x00, 0x48, 0x00, 0x00, 0x00, 0x50,
  0x00, 0x00, 0x00, 0xe8, 0x7c, 0xff, 0xff, 0x3c, 0x00, 0x00, 0x00, 0x94, 0x00,
  0x00, 0x00, 0x20, 0x00, 0x00, 0x00, 0x44, 0x00, 0x00, 0x00, 0x04, 0x00, 0x00,
  0x00, 0x04, 0x00, 0x00, 0x00, 0x01, 0x00, 0x00, 0x00, 0xff, 0xff, 0xff, 0xff,
  0xff, 0xff, 0xff, 0xff, 0x01, 0x00, 0x00, 0x00, 0x0c, 0x00, 0x00, 0x00, 0x42,
  0x69, 0x61, 0x73, 0x41, 0x64, 0x64, 0x5f, 0x31, 0x39, 0x3a, 0x30, 0x00, 0x00,
  0x00, 0x00, 0x04, 0x00, 0x00, 0x00, 0x01, 0x00, 0x00, 0x00, 0x01, 0x00, 0x00,
  0x00, 0x01, 0x00, 0x00, 0x00, 0x01, 0x00, 0x00, 0x00, 0xd0, 0x7c, 0xff, 0xff,
  0x12, 0xd8, 0xff, 0xff, 0x00, 0x00, 0x00, 0x02, 0x01, 0x00, 0x00, 0x00, 0x28,
  0x00, 0x00, 0x00, 0x1c, 0x00, 0x00, 0x00, 0x04, 0x00, 0x00, 0x00, 0x64, 0xff,
  0xff, 0xff, 0x01, 0x00, 0x00, 0x00, 0x01, 0x00, 0x00, 0x00, 0x01, 0x00, 0x00,
  0x00, 0x00, 0x00, 0x00, 0x01, 0x01, 0x00, 0x00, 0x00, 0x92, 0x00, 0x00, 0x00,
  0x03, 0x00, 0x00, 0x00, 0x91, 0x00, 0x00, 0x00, 0x46, 0x00, 0x00, 0x00, 0x45,
  0x00, 0x00, 0x00, 0x84, 0x7d, 0xff, 0xff, 0x3c, 0x00, 0x00, 0x00, 0x93, 0x00,
  0x00, 0x00, 0x20, 0x00, 0x00, 0x00, 0x44, 0x00, 0x00, 0x00, 0x04, 0x00, 0x00,
  0x00, 0x04, 0x00, 0x00, 0x00, 0x01, 0x00, 0x00, 0x00, 0xff, 0xff, 0xff, 0xff,
  0xff, 0xff, 0xff, 0xff, 0x14, 0x00, 0x00, 0x00, 0x0d, 0x00, 0x00, 0x00, 0x64,
  0x65, 0x70, 0x74, 0x68, 0x77, 0x69, 0x73, 0x65, 0x5f, 0x33, 0x39, 0x32, 0x00,
  0x00, 0x00, 0x04, 0x00, 0x00, 0x00, 0x01, 0x00, 0x00, 0x00, 0x01, 0x00, 0x00,
  0x00, 0x01, 0x00, 0x00, 0x00, 0x14, 0x00, 0x00, 0x00, 0x6c, 0x7d, 0xff, 0xff,
  0xae, 0xd8, 0xff, 0xff, 0x00, 0x00, 0x00, 0x02, 0x01, 0x00, 0x00, 0x00, 0x34,
  0x00, 0x00, 0x00, 0x28, 0x00, 0x00, 0x00, 0x10, 0x00, 0x00, 0x00, 0x0c, 0x00,
  0x14, 0x00, 0x13, 0x00, 0x08, 0x00, 0x0c, 0x00, 0x04, 0x00, 0x0c, 0x00, 0x00,
  0x00, 0x01, 0x00, 0x00, 0x00, 0x01, 0x00, 0x00, 0x00, 0x01, 0x00, 0x00, 0x00,
  0x00, 0x00, 0x00, 0x01, 0x01, 0x00, 0x00, 0x00, 0x91, 0x00, 0x00, 0x00, 0x03,
  0x00, 0x00, 0x00, 0x90, 0x00, 0x00, 0x00, 0x44, 0x00, 0x00, 0x00, 0x45, 0x00,
  0x00, 0x00, 0x2c, 0x7e, 0xff, 0xff, 0x3c, 0x00, 0x00, 0x00, 0x92, 0x00, 0x00,
  0x00, 0x20, 0x00, 0x00, 0x00, 0x44, 0x00, 0x00, 0x00, 0x04, 0x00, 0x00, 0x00,
  0x04, 0x00, 0x00, 0x00, 0x01, 0x00, 0x00, 0x00, 0xff, 0xff, 0xff, 0xff, 0xff,
  0xff, 0xff, 0xff, 0x14, 0x00, 0x00, 0x00, 0x0d, 0x00, 0x00, 0x00, 0x64, 0x65,
  0x70, 0x74, 0x68, 0x77, 0x69, 0x73, 0x65, 0x5f, 0x33, 0x38, 0x31, 0x00, 0x00,
  0x00, 0x04, 0x00, 0x00, 0x00, 0x01, 0x00, 0x00, 0x00, 0x01, 0x00, 0x00, 0x00,
  0x01, 0x00, 0x00, 0x00, 0x14, 0x00, 0x00, 0x00, 0x14, 0x7e, 0xff, 0xff, 0x56,
  0xd9, 0xff, 0xff, 0x00, 0x00, 0x00, 0x0b, 0x03, 0x00, 0x00, 0x00, 0x18, 0x00,
  0x00, 0x00, 0x0c, 0x00, 0x00, 0x00, 0x04, 0x00, 0x00, 0x00, 0x30, 0x7e, 0xff,
  0xff, 0x01, 0x00, 0x00, 0x00, 0x90, 0x00, 0x00, 0x00, 0x02, 0x00, 0x00, 0x00,
  0x8f, 0x00, 0x00, 0x00, 0x8c, 0x00, 0x00, 0x00, 0xb4, 0x7e, 0xff, 0xff, 0x34,
  0x00, 0x00, 0x00, 0x91, 0x00, 0x00, 0x00, 0x20, 0x00, 0x00, 0x00, 0x3c, 0x00,
  0x00, 0x00, 0x04, 0x00, 0x00, 0x00, 0x04, 0x00, 0x00, 0x00, 0x01, 0x00, 0x00,
  0x00, 0xff, 0xff, 0xff, 0xff, 0xff, 0xff, 0xff, 0xff, 0x14, 0x00, 0x00, 0x00,
  0x05, 0x00, 0x00, 0x00, 0x41, 0x64, 0x64, 0x5f, 0x35, 0x00, 0x00, 0x00, 0x04,
  0x00, 0x00, 0x00, 0x01, 0x00, 0x00, 0x00, 0x01, 0x00, 0x00, 0x00, 0x01, 0x00,
  0x00, 0x00, 0x14, 0x00, 0x00, 0x00, 0x94, 0x7e, 0xff, 0xff, 0xd6, 0xd9, 0xff,
  0xff, 0x00, 0x00, 0x00, 0x01, 0x02, 0x00, 0x00, 0x00, 0x20, 0x00, 0x00, 0x00,
  0x14, 0x00, 0x00, 0x00, 0x04, 0x00, 0x00, 0x00, 0x36, 0xdb, 0xff, 0xff, 0x01,
  0x00, 0x00, 0x00, 0x01, 0x00, 0x00, 0x00, 0x01, 0x00, 0x00, 0x00, 0x8f, 0x00,
  0x00, 0x00, 0x03, 0x00, 0x00, 0x00, 0x8e, 0x00, 0x00, 0x00, 0x43, 0x00, 0x00,
  0x00, 0x4f, 0x00, 0x00, 0x00, 0x40, 0x7f, 0xff, 0xff, 0x5c, 0x00, 0x00, 0x00,
  0x90, 0x00, 0x00, 0x00, 0x20, 0x00, 0x00, 0x00, 0x64, 0x00, 0x00, 0x00, 0x04,
  0x00, 0x00, 0x00, 0x04, 0x00, 0x00, 0x00, 0x01, 0x00, 0x00, 0x00, 0xff, 0xff,
  0xff, 0xff, 0xff, 0xff, 0xff, 0xff, 0x14, 0x00, 0x00, 0x00, 0x2d, 0x00, 0x00,
  0x00, 0x42, 0x69, 0x61, 0x73, 0x41, 0x64, 0x64, 0x5f, 0x31, 0x38, 0x3b, 0x64,
  0x65, 0x70, 0x74, 0x68, 0x77, 0x69, 0x73, 0x65, 0x5f, 0x33, 0x39, 0x3b, 0x43,
  0x6f, 0x6e, 0x76, 0x32, 0x44, 0x5f, 0x31, 0x38, 0x3b, 0x63, 0x6f, 0x6e, 0x76,
  0x5f, 0x36, 0x5f, 0x31, 0x5f, 0x62, 0x31, 0x00, 0x00, 0x00, 0x04, 0x00, 0x00,
  0x00, 0x01, 0x00, 0x00, 0x00, 0x01, 0x00, 0x00, 0x00, 0x01, 0x00, 0x00, 0x00,
  0x14, 0x00, 0x00, 0x00, 0x48, 0x7f, 0xff, 0xff, 0x8a, 0xda, 0xff, 0xff, 0x00,
  0x00, 0x00, 0x02, 0x01, 0x00, 0x00, 0x00, 0x24, 0x00, 0x00, 0x00, 0x18, 0x00,
  0x00, 0x00, 0x04, 0x00, 0x00, 0x00, 0x7c, 0xda, 0xff, 0xff, 0x01, 0x00, 0x00,
  0x00, 0x01, 0x00, 0x00, 0x00, 0x01, 0x00, 0x00, 0x00, 0x01, 0x00, 0x00, 0x00,
  0x8e, 0x00, 0x00, 0x00, 0x03, 0x00, 0x00, 0x00, 0x8d, 0x00, 0x00, 0x00, 0x42,
  0x00, 0x00, 0x00, 0x41, 0x00, 0x00, 0x00, 0xf8, 0x7f, 0xff, 0xff, 0x3c, 0x00,
  0x00, 0x00, 0x8f, 0x00, 0x00, 0x00, 0x20, 0x00, 0x00, 0x00, 0x44, 0x00, 0x00,
  0x00, 0x04, 0x00, 0x00, 0x00, 0x04, 0x00, 0x00, 0x00, 0x01, 0x00, 0x00, 0x00,
  0xff, 0xff, 0xff, 0xff, 0xff, 0xff, 0xff, 0xff, 0x0b, 0x00, 0x00, 0x00, 0x0d,
  0x00, 0x00, 0x00, 0x64, 0x65, 0x70, 0x74, 0x68, 0x77, 0x69, 0x73, 0x65, 0x5f,
  0x33, 0x37, 0x32, 0x00, 0x00, 0x00, 0x04, 0x00, 0x00, 0x00, 0x01, 0x00, 0x00,
  0x00, 0x01, 0x00, 0x00, 0x00, 0x01, 0x00, 0x00, 0x00, 0x0b, 0x00, 0x00, 0x00,
  0xe0, 0x7f, 0xff, 0xff, 0x22, 0xdb, 0xff, 0xff, 0x00, 0x00, 0x00, 0x02, 0x01,
  0x00, 0x00, 0x00, 0x24, 0x00, 0x00, 0x00, 0x18, 0x00, 0x00, 0x00, 0x04, 0x00,
  0x00, 0x00, 0x14, 0xdb, 0xff, 0xff, 0x01, 0x00, 0x00, 0x00, 0x01, 0x00, 0x00,
  0x00, 0x01, 0x00, 0x00, 0x00, 0x01, 0x00, 0x00, 0x00, 0x8d, 0x00, 0x00, 0x00,
  0x03, 0x00, 0x00, 0x00, 0x86, 0x00, 0x00, 0x00, 0x40, 0x00, 0x00, 0x00, 0x41,
  0x00, 0x00, 0x00, 0x90, 0x80, 0xff, 0xff, 0x3c, 0x00, 0x00, 0x00, 0x8e, 0x00,
  0x00, 0x00, 0x20, 0x00, 0x00, 0x00, 0x44, 0x00, 0x00, 0x00, 0x04, 0x00, 0x00,
  0x00, 0x04, 0x00, 0x00, 0x00, 0x01, 0x00, 0x00, 0x00, 0xff, 0xff, 0xff, 0xff,
  0xff, 0xff, 0xff, 0xff, 0x0b, 0x00, 0x00, 0x00, 0x0d, 0x00, 0x00, 0x00, 0x64,
  0x65, 0x70, 0x74, 0x68, 0x77, 0x69, 0x73, 0x65, 0x5f, 0x33, 0x36, 0x31, 0x00,
  0x00, 0x00, 0x04, 0x00, 0x00, 0x00, 0x01, 0x00, 0x00, 0x00, 0x01, 0x00, 0x00,
  0x00, 0x01, 0x00, 0x00, 0x00, 0x0b, 0x00, 0x00, 0x00, 0x78, 0x80, 0xff, 0xff,
  0xba, 0xdb, 0xff, 0xff, 0x00, 0x00, 0x00, 0x01, 0x02, 0x00, 0x00, 0x00, 0x20,
  0x00, 0x00, 0x00, 0x14, 0x00, 0x00, 0x00, 0x04, 0x00, 0x00, 0x00, 0x1a, 0xdd,
  0xff, 0xff, 0x01, 0x00, 0x00, 0x00, 0x01, 0x00, 0x00, 0x00, 0x01, 0x00, 0x00,
  0x00, 0x8c, 0x00, 0x00, 0x00, 0x03, 0x00, 0x00, 0x00, 0x8b, 0x00, 0x00, 0x00,
  0x3f, 0x00, 0x00, 0x00, 0x4f, 0x00, 0x00, 0x00, 0x24, 0x81, 0xff, 0xff, 0x5c,
  0x00, 0x00, 0x00, 0x8d, 0x00, 0x00, 0x00, 0x20, 0x00, 0x00, 0x00, 0x64, 0x00,
  0x00, 0x00, 0x04, 0x00, 0x00, 0x00, 0x04, 0x00, 0x00, 0x00, 0x01, 0x00, 0x00,
  0x00, 0xff, 0xff, 0xff, 0xff, 0xff, 0xff, 0xff, 0xff, 0x14, 0x00, 0x00, 0x00,
  0x2c, 0x00, 0x00, 0x00, 0x42, 0x69, 0x61, 0x73, 0x41, 0x64, 0x64, 0x5f, 0x31,
  0x37, 0x3b, 0x64, 0x65, 0x70, 0x74, 0x68, 0x77, 0x69, 0x73, 0x65, 0x5f, 0x33,
  0x39, 0x3b, 0x43, 0x6f, 0x6e, 0x76, 0x32, 0x44, 0x5f, 0x31, 0x37, 0x3b, 0x63,
  0x6f, 0x6e, 0x76, 0x5f, 0x36, 0x5f, 0x31, 0x5f, 0x62, 0x00, 0x00, 0x00, 0x00,
  0x04, 0x00, 0x00, 0x00, 0x01, 0x00, 0x00, 0x00, 0x01, 0x00, 0x00, 0x00, 0x01,
  0x00, 0x00, 0x00, 0x14, 0x00, 0x00, 0x00, 0x2c, 0x81, 0xff, 0xff, 0x6e, 0xdc,
  0xff, 0xff, 0x00, 0x00, 0x00, 0x02, 0x01, 0x00, 0x00, 0x00, 0x24, 0x00, 0x00,
  0x00, 0x18, 0x00, 0x00, 0x00, 0x04, 0x00, 0x00, 0x00, 0x60, 0xdc, 0xff, 0xff,
  0x01, 0x00, 0x00, 0x00, 0x01, 0x00, 0x00, 0x00, 0x01, 0x00, 0x00, 0x00, 0x01,
  0x00, 0x00, 0x00, 0x8b, 0x00, 0x00, 0x00, 0x03, 0x00, 0x00, 0x00, 0x8a, 0x00,
  0x00, 0x00, 0x3e, 0x00, 0x00, 0x00, 0x45, 0x00, 0x00, 0x00, 0xdc, 0x81, 0xff,
  0xff, 0x3c, 0x00, 0x00, 0x00, 0x8c, 0x00, 0x00, 0x00, 0x20, 0x00, 0x00, 0x00,
  0x44, 0x00, 0x00, 0x00, 0x04, 0x00, 0x00, 0x00, 0x04, 0x00, 0x00, 0x00, 0x01,
  0x00, 0x00, 0x00, 0xff, 0xff, 0xff, 0xff, 0xff, 0xff, 0xff, 0xff, 0x14, 0x00,
  0x00, 0x00, 0x0d, 0x00, 0x00, 0x00, 0x64, 0x65, 0x70, 0x74, 0x68, 0x77, 0x69,
  0x73, 0x65, 0x5f, 0x33, 0x35, 0x31, 0x00, 0x00, 0x00, 0x04, 0x00, 0x00, 0x00,
  0x01, 0x00, 0x00, 0x00, 0x01, 0x00, 0x00, 0x00, 0x01, 0x00, 0x00, 0x00, 0x14,
  0x00, 0x00, 0x00, 0xc4, 0x81, 0xff, 0xff, 0x06, 0xdd, 0xff, 0xff, 0x00, 0x00,
  0x00, 0x02, 0x01, 0x00, 0x00, 0x00, 0x24, 0x00, 0x00, 0x00, 0x18, 0x00, 0x00,
  0x00, 0x04, 0x00, 0x00, 0x00, 0xf8, 0xdc, 0xff, 0xff, 0x01, 0x00, 0x00, 0x00,
  0x01, 0x00, 0x00, 0x00, 0x01, 0x00, 0x00, 0x00, 0x01, 0x00, 0x00, 0x00, 0x8a,
  0x00, 0x00, 0x00, 0x03, 0x00, 0x00, 0x00, 0x89, 0x00, 0x00, 0x00, 0x3d, 0x00,
  0x00, 0x00, 0x45, 0x00, 0x00, 0x00, 0x74, 0x82, 0xff, 0xff, 0x3c, 0x00, 0x00,
  0x00, 0x8b, 0x00, 0x00, 0x00, 0x20, 0x00, 0x00, 0x00, 0x44, 0x00, 0x00, 0x00,
  0x04, 0x00, 0x00, 0x00, 0x04, 0x00, 0x00, 0x00, 0x01, 0x00, 0x00, 0x00, 0xff,
  0xff, 0xff, 0xff, 0xff, 0xff, 0xff, 0xff, 0x14, 0x00, 0x00, 0x00, 0x0d, 0x00,
  0x00, 0x00, 0x64, 0x65, 0x70, 0x74, 0x68, 0x77, 0x69, 0x73, 0x65, 0x5f, 0x33,
  0x34, 0x31, 0x00, 0x00, 0x00, 0x04, 0x00, 0x00, 0x00, 0x01, 0x00, 0x00, 0x00,
  0x01, 0x00, 0x00, 0x00, 0x01, 0x00, 0x00, 0x00, 0x14, 0x00, 0x00, 0x00, 0x5c,
  0x82, 0xff, 0xff, 0x9e, 0xdd, 0xff, 0xff, 0x00, 0x00, 0x00, 0x01, 0x02, 0x00,
  0x00, 0x00, 0x24, 0x00, 0x00, 0x00, 0x18, 0x00, 0x00, 0x00, 0x04, 0x00, 0x00,
  0x00, 0x04, 0xe1, 0xff, 0xff, 0x01, 0x00, 0x00, 0x00, 0x01, 0x00, 0x00, 0x00,
  0x00, 0x00, 0x00, 0x01, 0x01, 0x00, 0x00, 0x00, 0x89, 0x00, 0x00, 0x00, 0x03,
  0x00, 0x00, 0x00, 0x88, 0x00, 0x00, 0x00, 0x3c, 0x00, 0x00, 0x00, 0x01, 0x00,
  0x00, 0x00, 0x0c, 0x83, 0xff, 0xff, 0x60, 0x00, 0x00, 0x00, 0x8a, 0x00, 0x00,
  0x00, 0x20, 0x00, 0x00, 0x00, 0x68, 0x00, 0x00, 0x00, 0x04, 0x00, 0x00, 0x00,
  0x04, 0x00, 0x00, 0x00, 0x01, 0x00, 0x00, 0x00, 0xff, 0xff, 0xff, 0xff, 0xff,
  0xff, 0xff, 0xff, 0x14, 0x00, 0x00, 0x00, 0x33, 0x00, 0x00, 0x00, 0x52, 0x65,
  0x6c, 0x75, 0x5f, 0x35, 0x3b, 0x42, 0x69, 0x61, 0x73, 0x41, 0x64, 0x64, 0x5f,
  0x31, 0x36, 0x3b, 0x64, 0x65, 0x70, 0x74, 0x68, 0x77, 0x69, 0x73, 0x65, 0x5f,
  0x33, 0x39, 0x3b, 0x43, 0x6f, 0x6e, 0x76, 0x32, 0x44, 0x5f, 0x31, 0x36, 0x3b,
  0x63, 0x6f, 0x6e, 0x76, 0x5f, 0x36, 0x5f, 0x30, 0x5f, 0x62, 0x00, 0x04, 0x00,
  0x00, 0x00, 0x01, 0x00, 0x00, 0x00, 0x01, 0x00, 0x00, 0x00, 0x01, 0x00, 0x00,
  0x00, 0x14, 0x00, 0x00, 0x00, 0x18, 0x83, 0xff, 0xff, 0x5a, 0xde, 0xff, 0xff,
  0x00, 0x00, 0x00, 0x02, 0x01, 0x00, 0x00, 0x00, 0x24, 0x00, 0x00, 0x00, 0x18,
  0x00, 0x00, 0x00, 0x04, 0x00, 0x00, 0x00, 0x4c, 0xde, 0xff, 0xff, 0x01, 0x00,
  0x00, 0x00, 0x01, 0x00, 0x00, 0x00, 0x01, 0x00, 0x00, 0x00, 0x01, 0x00, 0x00,
  0x00, 0x88, 0x00, 0x00, 0x00, 0x03, 0x00, 0x00, 0x00, 0x87, 0x00, 0x00, 0x00,
  0x3b, 0x00, 0x00, 0x00, 0x41, 0x00, 0x00, 0x00, 0xc8, 0x83, 0xff, 0xff, 0x3c,
  0x00, 0x00, 0x00, 0x89, 0x00, 0x00, 0x00, 0x20, 0x00, 0x00, 0x00, 0x44, 0x00,
  0x00, 0x00, 0x04, 0x00, 0x00, 0x00, 0x04, 0x00, 0x00, 0x00, 0x01, 0x00, 0x00,
  0x00, 0xff, 0xff, 0xff, 0xff, 0xff, 0xff, 0xff, 0xff, 0x0b, 0x00, 0x00, 0x00,
  0x0d, 0x00, 0x00, 0x00, 0x64, 0x65, 0x70, 0x74, 0x68, 0x77, 0x69, 0x73, 0x65,
  0x5f, 0x33, 0x33, 0x31, 0x00, 0x00, 0x00, 0x04, 0x00, 0x00, 0x00, 0x01, 0x00,
  0x00, 0x00, 0x01, 0x00, 0x00, 0x00, 0x01, 0x00, 0x00, 0x00, 0x0b, 0x00, 0x00,
  0x00, 0xb0, 0x83, 0xff, 0xff, 0xf2, 0xde, 0xff, 0xff, 0x00, 0x00, 0x00, 0x02,
  0x01, 0x00, 0x00, 0x00, 0x24, 0x00, 0x00, 0x00, 0x18, 0x00, 0x00, 0x00, 0x04,
  0x00, 0x00, 0x00, 0xe4, 0xde, 0xff, 0xff, 0x01, 0x00, 0x00, 0x00, 0x01, 0x00,
  0x00, 0x00, 0x01, 0x00, 0x00, 0x00, 0x01, 0x00, 0x00, 0x00, 0x87, 0x00, 0x00,
  0x00, 0x03, 0x00, 0x00, 0x00, 0x86, 0x00, 0x00, 0x00, 0x3a, 0x00, 0x00, 0x00,
  0x41, 0x00, 0x00, 0x00, 0x60, 0x84, 0xff, 0xff, 0x3c, 0x00, 0x00, 0x00, 0x88,
  0x00, 0x00, 0x00, 0x20, 0x00, 0x00, 0x00, 0x44, 0x00, 0x00, 0x00, 0x04, 0x00,
  0x00, 0x00, 0x04, 0x00, 0x00, 0x00, 0x01, 0x00, 0x00, 0x00, 0xff, 0xff, 0xff,
  0xff, 0xff, 0xff, 0xff, 0xff, 0x0b, 0x00, 0x00, 0x00, 0x0d, 0x00, 0x00, 0x00,
  0x64, 0x65, 0x70, 0x74, 0x68, 0x77, 0x69, 0x73, 0x65, 0x5f, 0x33, 0x32, 0x31,
  0x00, 0x00, 0x00, 0x04, 0x00, 0x00, 0x00, 0x01, 0x00, 0x00, 0x00, 0x01, 0x00,
  0x00, 0x00, 0x01, 0x00, 0x00, 0x00, 0x0b, 0x00, 0x00, 0x00, 0x48, 0x84, 0xff,
  0xff, 0x8a, 0xdf, 0xff, 0xff, 0x00, 0x00, 0x00, 0x0b, 0x03, 0x00, 0x00, 0x00,
  0x18, 0x00, 0x00, 0x00, 0x0c, 0x00, 0x00, 0x00, 0x04, 0x00, 0x00, 0x00, 0x64,
  0x84, 0xff, 0xff, 0x01, 0x00, 0x00, 0x00, 0x86, 0x00, 0x00, 0x00, 0x02, 0x00,
  0x00, 0x00, 0x85, 0x00, 0x00, 0x00, 0x82, 0x00, 0x00, 0x00, 0xe8, 0x84, 0xff,
  0xff, 0x34, 0x00, 0x00, 0x00, 0x87, 0x00, 0x00, 0x00, 0x20, 0x00, 0x00, 0x00,
  0x3c, 0x00, 0x00, 0x00, 0x04, 0x00, 0x00, 0x00, 0x04, 0x00, 0x00, 0x00, 0x01,
  0x00, 0x00, 0x00, 0xff, 0xff, 0xff, 0xff, 0xff, 0xff, 0xff, 0xff, 0x0b, 0x00,
  0x00, 0x00, 0x05, 0x00, 0x00, 0x00, 0x41, 0x64, 0x64, 0x5f, 0x34, 0x00, 0x00,
  0x00, 0x04, 0x00, 0x00, 0x00, 0x01, 0x00, 0x00, 0x00, 0x01, 0x00, 0x00, 0x00,
  0x01, 0x00, 0x00, 0x00, 0x0b, 0x00, 0x00, 0x00, 0xc8, 0x84, 0xff, 0xff, 0x0a,
  0xe0, 0xff, 0xff, 0x00, 0x00, 0x00, 0x01, 0x02, 0x00, 0x00, 0x00, 0x20, 0x00,
  0x00, 0x00, 0x14, 0x00, 0x00, 0x00, 0x04, 0x00, 0x00, 0x00, 0x6a, 0xe1, 0xff,
  0xff, 0x01, 0x00, 0x00, 0x00, 0x01, 0x00, 0x00, 0x00, 0x01, 0x00, 0x00, 0x00,
  0x85, 0x00, 0x00, 0x00, 0x03, 0x00, 0x00, 0x00, 0x84, 0x00, 0x00, 0x00, 0x39,
  0x00, 0x00, 0x00, 0x4e, 0x00, 0x00, 0x00, 0x74, 0x85, 0xff, 0xff, 0x5c, 0x00,
  0x00, 0x00, 0x86, 0x00, 0x00, 0x00, 0x20, 0x00, 0x00, 0x00, 0x64, 0x00, 0x00,
  0x00, 0x04, 0x00, 0x00, 0x00, 0x04, 0x00, 0x00, 0x00, 0x01, 0x00, 0x00, 0x00,
  0xff, 0xff, 0xff, 0xff, 0xff, 0xff, 0xff, 0xff, 0x0b, 0x00, 0x00, 0x00, 0x2d,
  0x00, 0x00, 0x00, 0x42, 0x69, 0x61, 0x73, 0x41, 0x64, 0x64, 0x5f, 0x31, 0x35,
  0x3b, 0x64, 0x65, 0x70, 0x74, 0x68, 0x77, 0x69, 0x73, 0x65, 0x5f, 0x33, 0x37,
  0x3b, 0x43, 0x6f, 0x6e, 0x76, 0x32, 0x44, 0x5f, 0x31, 0x35, 0x3b, 0x63, 0x6f,
  0x6e, 0x76, 0x5f, 0x35, 0x5f, 0x31, 0x5f, 0x62, 0x31, 0x00, 0x00, 0x00, 0x04,
  0x00, 0x00, 0x00, 0x01, 0x00, 0x00, 0x00, 0x01, 0x00, 0x00, 0x00, 0x01, 0x00,
  0x00, 0x00, 0x0b, 0x00, 0x00, 0x00, 0x7c, 0x85, 0xff, 0xff, 0xbe, 0xe0, 0xff,
  0xff, 0x00, 0x00, 0x00, 0x02, 0x01, 0x00, 0x00, 0x00, 0x24, 0x00, 0x00, 0x00,
  0x18, 0x00, 0x00, 0x00, 0x04, 0x00, 0x00, 0x00, 0xb0, 0xe0, 0xff, 0xff, 0x01,
  0x00, 0x00, 0x00, 0x01, 0x00, 0x00, 0x00, 0x01, 0x00, 0x00, 0x00, 0x01, 0x00,
  0x00, 0x00, 0x84, 0x00, 0x00, 0x00, 0x03, 0x00, 0x00, 0x00, 0x83, 0x00, 0x00,
  0x00, 0x38, 0x00, 0x00, 0x00, 0x37, 0x00, 0x00, 0x00, 0x2c, 0x86, 0xff, 0xff,
  0x3c, 0x00, 0x00, 0x00, 0x85, 0x00, 0x00, 0x00, 0x20, 0x00, 0x00, 0x00, 0x44,
  0x00, 0x00, 0x00, 0x04, 0x00, 0x00, 0x00, 0x04, 0x00, 0x00, 0x00, 0x01, 0x00,
  0x00, 0x00, 0xff, 0xff, 0xff, 0xff, 0xff, 0xff, 0xff, 0xff, 0x06, 0x00, 0x00,
  0x00, 0x0d, 0x00, 0x00, 0x00, 0x64, 0x65, 0x70, 0x74, 0x68, 0x77, 0x69, 0x73,
  0x65, 0x5f, 0x33, 0x31, 0x32, 0x00, 0x00, 0x00, 0x04, 0x00, 0x00, 0x00, 0x01,
  0x00, 0x00, 0x00, 0x01, 0x00, 0x00, 0x00, 0x01, 0x00, 0x00, 0x00, 0x06, 0x00,
  0x00, 0x00, 0x14, 0x86, 0xff, 0xff, 0x56, 0xe1, 0xff, 0xff, 0x00, 0x00, 0x00,
  0x02, 0x01, 0x00, 0x00, 0x00, 0x24, 0x00, 0x00, 0x00, 0x18, 0x00, 0x00, 0x00,
  0x04, 0x00, 0x00, 0x00, 0x48, 0xe1, 0xff, 0xff, 0x01, 0x00, 0x00, 0x00, 0x01,
  0x00, 0x00, 0x00, 0x01, 0x00, 0x00, 0x00, 0x01, 0x00, 0x00, 0x00, 0x83, 0x00,
  0x00, 0x00, 0x03, 0x00, 0x00, 0x00, 0x7c, 0x00, 0x00, 0x00, 0x36, 0x00, 0x00,
  0x00, 0x37, 0x00, 0x00, 0x00, 0xc4, 0x86, 0xff, 0xff, 0x3c, 0x00, 0x00, 0x00,
  0x84, 0x00, 0x00, 0x00, 0x20, 0x00, 0x00, 0x00, 0x44, 0x00, 0x00, 0x00, 0x04,
  0x00, 0x00, 0x00, 0x04, 0x00, 0x00, 0x00, 0x01, 0x00, 0x00, 0x00, 0xff, 0xff,
  0xff, 0xff, 0xff, 0xff, 0xff, 0xff, 0x06, 0x00, 0x00, 0x00, 0x0d, 0x00, 0x00,
  0x00, 0x64, 0x65, 0x70, 0x74, 0x68, 0x77, 0x69, 0x73, 0x65, 0x5f, 0x33, 0x30,
  0x31, 0x00, 0x00, 0x00, 0x04, 0x00, 0x00, 0x00, 0x01, 0x00, 0x00, 0x00, 0x01,
  0x00, 0x00, 0x00, 0x01, 0x00, 0x00, 0x00, 0x06, 0x00, 0x00, 0x00, 0xac, 0x86,
  0xff, 0xff, 0xee, 0xe1, 0xff, 0xff, 0x00, 0x00, 0x00, 0x01, 0x02, 0x00, 0x00,
  0x00, 0x20, 0x00, 0x00, 0x00, 0x14, 0x00, 0x00, 0x00, 0x04, 0x00, 0x00, 0x00,
  0x4e, 0xe3, 0xff, 0xff, 0x01, 0x00, 0x00, 0x00, 0x01, 0x00, 0x00, 0x00, 0x01,
  0x00, 0x00, 0x00, 0x82, 0x00, 0x00, 0x00, 0x03, 0x00, 0x00, 0x00, 0x81, 0x00,
  0x00, 0x00, 0x35, 0x00, 0x00, 0x00, 0x4e, 0x00, 0x00, 0x00, 0x58, 0x87, 0xff,
  0xff, 0x5c, 0x00, 0x00, 0x00, 0x83, 0x00, 0x00, 0x00, 0x20, 0x00, 0x00, 0x00,
  0x64, 0x00, 0x00, 0x00, 0x04, 0x00, 0x00, 0x00, 0x04, 0x00, 0x00, 0x00, 0x01,
  0x00, 0x00, 0x00, 0xff, 0xff, 0xff, 0xff, 0xff, 0xff, 0xff, 0xff, 0x0b, 0x00,
  0x00, 0x00, 0x2c, 0x00, 0x00, 0x00, 0x42, 0x69, 0x61, 0x73, 0x41, 0x64, 0x64,
  0x5f, 0x31, 0x34, 0x3b, 0x64, 0x65, 0x70, 0x74, 0x68, 0x77, 0x69, 0x73, 0x65,
  0x5f, 0x33, 0x37, 0x3b, 0x43, 0x6f, 0x6e, 0x76, 0x32, 0x44, 0x5f, 0x31, 0x34,
  0x3b, 0x63, 0x6f, 0x6e, 0x76, 0x5f, 0x35, 0x5f, 0x31, 0x5f, 0x62, 0x00, 0x00,
  0x00, 0x00, 0x04, 0x00, 0x00, 0x00, 0x01, 0x00, 0x00, 0x00, 0x01, 0x00, 0x00,
  0x00, 0x01, 0x00, 0x00, 0x00, 0x0b, 0x00, 0x00, 0x00, 0x60, 0x87, 0xff, 0xff,
  0xa2, 0xe2, 0xff, 0xff, 0x00, 0x00, 0x00, 0x02, 0x01, 0x00, 0x00, 0x00, 0x24,
  0x00, 0x00, 0x00, 0x18, 0x00, 0x00, 0x00, 0x04, 0x00, 0x00, 0x00, 0x94, 0xe2,
  0xff, 0xff, 0x01, 0x00, 0x00, 0x00, 0x01, 0x00, 0x00, 0x00, 0x01, 0x00, 0x00,
  0x00, 0x01, 0x00, 0x00, 0x00, 0x81, 0x00, 0x00, 0x00, 0x03, 0x00, 0x00, 0x00,
  0x80, 0x00, 0x00, 0x00, 0x34, 0x00, 0x00, 0x00, 0x41, 0x00, 0x00, 0x00, 0x10,
  0x88, 0xff, 0xff, 0x3c, 0x00, 0x00, 0x00, 0x82, 0x00, 0x00, 0x00, 0x20, 0x00,
  0x00, 0x00, 0x44, 0x00, 0x00, 0x00, 0x04, 0x00, 0x00, 0x00, 0x04, 0x00, 0x00,
  0x00, 0x01, 0x00, 0x00, 0x00, 0xff, 0xff, 0xff, 0xff, 0xff, 0xff, 0xff, 0xff,
  0x0b, 0x00, 0x00, 0x00, 0x0d, 0x00, 0x00, 0x00, 0x64, 0x65, 0x70, 0x74, 0x68,
  0x77, 0x69, 0x73, 0x65, 0x5f, 0x32, 0x39, 0x31, 0x00, 0x00, 0x00, 0x04, 0x00,
  0x00, 0x00, 0x01, 0x00, 0x00, 0x00, 0x01, 0x00, 0x00, 0x00, 0x01, 0x00, 0x00,
  0x00, 0x0b, 0x00, 0x00, 0x00, 0xf8, 0x87, 0xff, 0xff, 0x3a, 0xe3, 0xff, 0xff,
  0x00, 0x00, 0x00, 0x02, 0x01, 0x00, 0x00, 0x00, 0x24, 0x00, 0x00, 0x00, 0x18,
  0x00, 0x00, 0x00, 0x04, 0x00, 0x00, 0x00, 0x2c, 0xe3, 0xff, 0xff, 0x01, 0x00,
  0x00, 0x00, 0x01, 0x00, 0x00, 0x00, 0x01, 0x00, 0x00, 0x00, 0x01, 0x00, 0x00,
  0x00, 0x80, 0x00, 0x00, 0x00, 0x03, 0x00, 0x00, 0x00, 0x7f, 0x00, 0x00, 0x00,
  0x33, 0x00, 0x00, 0x00, 0x41, 0x00, 0x00, 0x00, 0xa8, 0x88, 0xff, 0xff, 0x3c,
  0x00, 0x00, 0x00, 0x81, 0x00, 0x00, 0x00, 0x20, 0x00, 0x00, 0x00, 0x44, 0x00,
  0x00, 0x00, 0x04, 0x00, 0x00, 0x00, 0x04, 0x00, 0x00, 0x00, 0x01, 0x00, 0x00,
  0x00, 0xff, 0xff, 0xff, 0xff, 0xff, 0xff, 0xff, 0xff, 0x0b, 0x00, 0x00, 0x00,
  0x0d, 0x00, 0x00, 0x00, 0x64, 0x65, 0x70, 0x74, 0x68, 0x77, 0x69, 0x73, 0x65,
  0x5f, 0x32, 0x38, 0x31, 0x00, 0x00, 0x00, 0x04, 0x00, 0x00, 0x00, 0x01, 0x00,
  0x00, 0x00, 0x01, 0x00, 0x00, 0x00, 0x01, 0x00, 0x00, 0x00, 0x0b, 0x00, 0x00,
  0x00, 0x90, 0x88, 0xff, 0xff, 0xd2, 0xe3, 0xff, 0xff, 0x00, 0x00, 0x00, 0x01,
  0x02, 0x00, 0x00, 0x00, 0x24, 0x00, 0x00, 0x00, 0x18, 0x00, 0x00, 0x00, 0x04,
  0x00, 0x00, 0x00, 0x38, 0xe7, 0xff, 0xff, 0x01, 0x00, 0x00, 0x00, 0x01, 0x00,
  0x00, 0x00, 0x00, 0x00, 0x00, 0x01, 0x01, 0x00, 0x00, 0x00, 0x7f, 0x00, 0x00,
  0x00, 0x03, 0x00, 0x00, 0x00, 0x7e, 0x00, 0x00, 0x00, 0x32, 0x00, 0x00, 0x00,
  0x02, 0x00, 0x00, 0x00, 0x40, 0x89, 0xff, 0xff, 0x60, 0x00, 0x00, 0x00, 0x80,
  0x00, 0x00, 0x00, 0x20, 0x00, 0x00, 0x00, 0x68, 0x00, 0x00, 0x00, 0x04, 0x00,
  0x00, 0x00, 0x04, 0x00, 0x00, 0x00, 0x01, 0x00, 0x00, 0x00, 0xff, 0xff, 0xff,
  0xff, 0xff, 0xff, 0xff, 0xff, 0x0b, 0x00, 0x00, 0x00, 0x33, 0x00, 0x00, 0x00,
  0x52, 0x65, 0x6c, 0x75, 0x5f, 0x34, 0x3b, 0x42, 0x69, 0x61, 0x73, 0x41, 0x64,
  0x64, 0x5f, 0x31, 0x33, 0x3b, 0x64, 0x65, 0x70, 0x74, 0x68, 0x77, 0x69, 0x73,
  0x65, 0x5f, 0x33, 0x37, 0x3b, 0x43, 0x6f, 0x6e, 0x76, 0x32, 0x44, 0x5f, 0x31,
  0x33, 0x3b, 0x63, 0x6f, 0x6e, 0x76, 0x5f, 0x35, 0x5f, 0x30, 0x5f, 0x62, 0x00,
  0x04, 0x00, 0x00, 0x00, 0x01, 0x00, 0x00, 0x00, 0x01, 0x00, 0x00, 0x00, 0x01,
  0x00, 0x00, 0x00, 0x0b, 0x00, 0x00, 0x00, 0x4c, 0x89, 0xff, 0xff, 0x8e, 0xe4,
  0xff, 0xff, 0x00, 0x00, 0x00, 0x02, 0x01, 0x00, 0x00, 0x00, 0x24, 0x00, 0x00,
  0x00, 0x18, 0x00, 0x00, 0x00, 0x04, 0x00, 0x00, 0x00, 0x80, 0xe4, 0xff, 0xff,
  0x01, 0x00, 0x00, 0x00, 0x01, 0x00, 0x00, 0x00, 0x01, 0x00, 0x00, 0x00, 0x01,
  0x00, 0x00, 0x00, 0x7e, 0x00, 0x00, 0x00, 0x03, 0x00, 0x00, 0x00, 0x7d, 0x00,
  0x00, 0x00, 0x31, 0x00, 0x00, 0x00, 0x37, 0x00, 0x00, 0x00, 0xfc, 0x89, 0xff,
  0xff, 0x3c, 0x00, 0x00, 0x00, 0x7f, 0x00, 0x00, 0x00, 0x20, 0x00, 0x00, 0x00,
  0x44, 0x00, 0x00, 0x00, 0x04, 0x00, 0x00, 0x00, 0x04, 0x00, 0x00, 0x00, 0x01,
  0x00, 0x00, 0x00, 0xff, 0xff, 0xff, 0xff, 0xff, 0xff, 0xff, 0xff, 0x06, 0x00,
  0x00, 0x00, 0x0d, 0x00, 0x00, 0x00, 0x64, 0x65, 0x70, 0x74, 0x68, 0x77, 0x69,
  0x73, 0x65, 0x5f, 0x32, 0x37, 0x31, 0x00, 0x00, 0x00, 0x04, 0x00, 0x00, 0x00,
  0x01, 0x00, 0x00, 0x00, 0x01, 0x00, 0x00, 0x00, 0x01, 0x00, 0x00, 0x00, 0x06,
  0x00, 0x00, 0x00, 0xe4, 0x89, 0xff, 0xff, 0x26, 0xe5, 0xff, 0xff, 0x00, 0x00,
  0x00, 0x02, 0x01, 0x00, 0x00, 0x00, 0x24, 0x00, 0x00, 0x00, 0x18, 0x00, 0x00,
  0x00, 0x04, 0x00, 0x00, 0x00, 0x18, 0xe5, 0xff, 0xff, 0x01, 0x00, 0x00, 0x00,
  0x01, 0x00, 0x00, 0x00, 0x01, 0x00, 0x00, 0x00, 0x01, 0x00, 0x00, 0x00, 0x7d,
  0x00, 0x00, 0x00, 0x03, 0x00, 0x00, 0x00, 0x7c, 0x00, 0x00, 0x00, 0x30, 0x00,
  0x00, 0x00, 0x37, 0x00, 0x00, 0x00, 0x94, 0x8a, 0xff, 0xff, 0x3c, 0x00, 0x00,
  0x00, 0x7e, 0x00, 0x00, 0x00, 0x20, 0x00, 0x00, 0x00, 0x44, 0x00, 0x00, 0x00,
  0x04, 0x00, 0x00, 0x00, 0x04, 0x00, 0x00, 0x00, 0x01, 0x00, 0x00, 0x00, 0xff,
  0xff, 0xff, 0xff, 0xff, 0xff, 0xff, 0xff, 0x06, 0x00, 0x00, 0x00, 0x0d, 0x00,
  0x00, 0x00, 0x64, 0x65, 0x70, 0x74, 0x68, 0x77, 0x69, 0x73, 0x65, 0x5f, 0x32,
  0x36, 0x31, 0x00, 0x00, 0x00, 0x04, 0x00, 0x00, 0x00, 0x01, 0x00, 0x00, 0x00,
  0x01, 0x00, 0x00, 0x00, 0x01, 0x00, 0x00, 0x00, 0x06, 0x00, 0x00, 0x00, 0x7c,
  0x8a, 0xff, 0xff, 0xbe, 0xe5, 0xff, 0xff, 0x00, 0x00, 0x00, 0x0b, 0x03, 0x00,
  0x00, 0x00, 0x18, 0x00, 0x00, 0x00, 0x0c, 0x00, 0x00, 0x00, 0x04, 0x00, 0x00,
  0x00, 0x98, 0x8a, 0xff, 0xff, 0x01, 0x00, 0x00, 0x00, 0x7c, 0x00, 0x00, 0x00,
  0x02, 0x00, 0x00, 0x00, 0x7b, 0x00, 0x00, 0x00, 0x78, 0x00, 0x00, 0x00, 0x1c,
  0x8b, 0xff, 0xff, 0x34, 0x00, 0x00, 0x00, 0x7d, 0x00, 0x00, 0x00, 0x20, 0x00,
  0x00, 0x00, 0x3c, 0x00, 0x00, 0x00, 0x04, 0x00, 0x00, 0x00, 0x04, 0x00, 0x00,
  0x00, 0x01, 0x00, 0x00, 0x00, 0xff, 0xff, 0xff, 0xff, 0xff, 0xff, 0xff, 0xff,
  0x06, 0x00, 0x00, 0x00, 0x05, 0x00, 0x00, 0x00, 0x41, 0x64, 0x64, 0x5f, 0x33,
  0x00, 0x00, 0x00, 0x04, 0x00, 0x00, 0x00, 0x01, 0x00, 0x00, 0x00, 0x01, 0x00,
  0x00, 0x00, 0x01, 0x00, 0x00, 0x00, 0x06, 0x00, 0x00, 0x00, 0xfc, 0x8a, 0xff,
  0xff, 0x3e, 0xe6, 0xff, 0xff, 0x00, 0x00, 0x00, 0x01, 0x02, 0x00, 0x00, 0x00,
  0x20, 0x00, 0x00, 0x00, 0x14, 0x00, 0x00, 0x00, 0x04, 0x00, 0x00, 0x00, 0x9e,
  0xe7, 0xff, 0xff, 0x01, 0x00, 0x00, 0x00, 0x01, 0x00, 0x00, 0x00, 0x01, 0x00,
  0x00, 0x00, 0x7b, 0x00, 0x00, 0x00, 0x03, 0x00, 0x00, 0x00, 0x7a, 0x00, 0x00,
  0x00, 0x2f, 0x00, 0x00, 0x00, 0x4d, 0x00, 0x00, 0x00, 0xa8, 0x8b, 0xff, 0xff,
  0x5c, 0x00, 0x00, 0x00, 0x7c, 0x00, 0x00, 0x00, 0x20, 0x00, 0x00, 0x00, 0x64,
  0x00, 0x00, 0x00, 0x04, 0x00, 0x00, 0x00, 0x04, 0x00, 0x00, 0x00, 0x01, 0x00,
  0x00, 0x00, 0xff, 0xff, 0xff, 0xff, 0xff, 0xff, 0xff, 0xff, 0x06, 0x00, 0x00,
  0x00, 0x2d, 0x00, 0x00, 0x00, 0x42, 0x69, 0x61, 0x73, 0x41, 0x64, 0x64, 0x5f,
  0x31, 0x32, 0x3b, 0x64, 0x65, 0x70, 0x74, 0x68, 0x77, 0x69, 0x73, 0x65, 0x5f,
  0x33, 0x31, 0x3b, 0x43, 0x6f, 0x6e, 0x76, 0x32, 0x44, 0x5f, 0x31, 0x32, 0x3b,
  0x63, 0x6f, 0x6e, 0x76, 0x5f, 0x34, 0x5f, 0x31, 0x5f, 0x62, 0x31, 0x00, 0x00,
  0x00, 0x04, 0x00, 0x00, 0x00, 0x01, 0x00, 0x00, 0x00, 0x01, 0x00, 0x00, 0x00,
  0x01, 0x00, 0x00, 0x00, 0x06, 0x00, 0x00, 0x00, 0xb0, 0x8b, 0xff, 0xff, 0xf2,
  0xe6, 0xff, 0xff, 0x00, 0x00, 0x00, 0x02, 0x01, 0x00, 0x00, 0x00, 0x24, 0x00,
  0x00, 0x00, 0x18, 0x00, 0x00, 0x00, 0x04, 0x00, 0x00, 0x00, 0xe4, 0xe6, 0xff,
  0xff, 0x01, 0x00, 0x00, 0x00, 0x01, 0x00, 0x00, 0x00, 0x01, 0x00, 0x00, 0x00,
  0x01, 0x00, 0x00, 0x00, 0x7a, 0x00, 0x00, 0x00, 0x03, 0x00, 0x00, 0x00, 0x79,
  0x00, 0x00, 0x00, 0x2e, 0x00, 0x00, 0x00, 0x2d, 0x00, 0x00, 0x00, 0x60, 0x8c,
  0xff, 0xff, 0x3c, 0x00, 0x00, 0x00, 0x7b, 0x00, 0x00, 0x00, 0x20, 0x00, 0x00,
  0x00, 0x44, 0x00, 0x00, 0x00, 0x04, 0x00, 0x00, 0x00, 0x04, 0x00, 0x00, 0x00,
  0x01, 0x00, 0x00, 0x00, 0xff, 0xff, 0xff, 0xff, 0xff, 0xff, 0xff, 0xff, 0x04,
  0x00, 0x00, 0x00, 0x0d, 0x00, 0x00, 0x00, 0x64, 0x65, 0x70, 0x74, 0x68, 0x77,
  0x69, 0x73, 0x65, 0x5f, 0x32, 0x35, 0x32, 0x00, 0x00, 0x00, 0x04, 0x00, 0x00,
  0x00, 0x01, 0x00, 0x00, 0x00, 0x01, 0x00, 0x00, 0x00, 0x01, 0x00, 0x00, 0x00,
  0x04, 0x00, 0x00, 0x00, 0x48, 0x8c, 0xff, 0xff, 0x8a, 0xe7, 0xff, 0xff, 0x00,
  0x00, 0x00, 0x02, 0x01, 0x00, 0x00, 0x00, 0x24, 0x00, 0x00, 0x00, 0x18, 0x00,
  0x00, 0x00, 0x04, 0x00, 0x00, 0x00, 0x7c, 0xe7, 0xff, 0xff, 0x01, 0x00, 0x00,
  0x00, 0x01, 0x00, 0x00, 0x00, 0x01, 0x00, 0x00, 0x00, 0x01, 0x00, 0x00, 0x00,
  0x79, 0x00, 0x00, 0x00, 0x03, 0x00, 0x00, 0x00, 0x72, 0x00, 0x00, 0x00, 0x2c,
  0x00, 0x00, 0x00, 0x2d, 0x00, 0x00, 0x00, 0xf8, 0x8c, 0xff, 0xff, 0x3c, 0x00,
  0x00, 0x00, 0x7a, 0x00, 0x00, 0x00, 0x20, 0x00, 0x00, 0x00, 0x44, 0x00, 0x00,
  0x00, 0x04, 0x00, 0x00, 0x00, 0x04, 0x00, 0x00, 0x00, 0x01, 0x00, 0x00, 0x00,
  0xff, 0xff, 0xff, 0xff, 0xff, 0xff, 0xff, 0xff, 0x04, 0x00, 0x00, 0x00, 0x0d,
  0x00, 0x00, 0x00, 0x64, 0x65, 0x70, 0x74, 0x68, 0x77, 0x69, 0x73, 0x65, 0x5f,
  0x32, 0x34, 0x31, 0x00, 0x00, 0x00, 0x04, 0x00, 0x00, 0x00, 0x01, 0x00, 0x00,
  0x00, 0x01, 0x00, 0x00, 0x00, 0x01, 0x00, 0x00, 0x00, 0x04, 0x00, 0x00, 0x00,
  0xe0, 0x8c, 0xff, 0xff, 0x22, 0xe8, 0xff, 0xff, 0x00, 0x00, 0x00, 0x01, 0x02,
  0x00, 0x00, 0x00, 0x20, 0x00, 0x00, 0x00, 0x14, 0x00, 0x00, 0x00, 0x04, 0x00,
  0x00, 0x00, 0x82, 0xe9, 0xff, 0xff, 0x01, 0x00, 0x00, 0x00, 0x01, 0x00, 0x00,
  0x00, 0x01, 0x00, 0x00, 0x00, 0x78, 0x00, 0x00, 0x00, 0x03, 0x00, 0x00, 0x00,
  0x77, 0x00, 0x00, 0x00, 0x2b, 0x00, 0x00, 0x00, 0x4d, 0x00, 0x00, 0x00, 0x8c,
  0x8d, 0xff, 0xff, 0x5c, 0x00, 0x00, 0x00, 0x79, 0x00, 0x00, 0x00, 0x20, 0x00,
  0x00, 0x00, 0x64, 0x00, 0x00, 0x00, 0x04, 0x00, 0x00, 0x00, 0x04, 0x00, 0x00,
  0x00, 0x01, 0x00, 0x00, 0x00, 0xff, 0xff, 0xff, 0xff, 0xff, 0xff, 0xff, 0xff,
  0x06, 0x00, 0x00, 0x00, 0x2c, 0x00, 0x00, 0x00, 0x42, 0x69, 0x61, 0x73, 0x41,
  0x64, 0x64, 0x5f, 0x31, 0x31, 0x3b, 0x64, 0x65, 0x70, 0x74, 0x68, 0x77, 0x69,
  0x73, 0x65, 0x5f, 0x33, 0x31, 0x3b, 0x43, 0x6f, 0x6e, 0x76, 0x32, 0x44, 0x5f,
  0x31, 0x31, 0x3b, 0x63, 0x6f, 0x6e, 0x76, 0x5f, 0x34, 0x5f, 0x31, 0x5f, 0x62,
  0x00, 0x00, 0x00, 0x00, 0x04, 0x00, 0x00, 0x00, 0x01, 0x00, 0x00, 0x00, 0x01,
  0x00, 0x00, 0x00, 0x01, 0x00, 0x00, 0x00, 0x06, 0x00, 0x00, 0x00, 0x94, 0x8d,
  0xff, 0xff, 0xd6, 0xe8, 0xff, 0xff, 0x00, 0x00, 0x00, 0x02, 0x01, 0x00, 0x00,
  0x00, 0x24, 0x00, 0x00, 0x00, 0x18, 0x00, 0x00, 0x00, 0x04, 0x00, 0x00, 0x00,
  0xc8, 0xe8, 0xff, 0xff, 0x01, 0x00, 0x00, 0x00, 0x01, 0x00, 0x00, 0x00, 0x01,
  0x00, 0x00, 0x00, 0x01, 0x00, 0x00, 0x00, 0x77, 0x00, 0x00, 0x00, 0x03, 0x00,
  0x00, 0x00, 0x76, 0x00, 0x00, 0x00, 0x2a, 0x00, 0x00, 0x00, 0x37, 0x00, 0x00,
  0x00, 0x44, 0x8e, 0xff, 0xff, 0x3c, 0x00, 0x00, 0x00, 0x78, 0x00, 0x00, 0x00,
  0x20, 0x00, 0x00, 0x00, 0x44, 0x00, 0x00, 0x00, 0x04, 0x00, 0x00, 0x00, 0x04,
  0x00, 0x00, 0x00, 0x01, 0x00, 0x00, 0x00, 0xff, 0xff, 0xff, 0xff, 0xff, 0xff,
  0xff, 0xff, 0x06, 0x00, 0x00, 0x00, 0x0d, 0x00, 0x00, 0x00, 0x64, 0x65, 0x70,
  0x74, 0x68, 0x77, 0x69, 0x73, 0x65, 0x5f, 0x32, 0x33, 0x31, 0x00, 0x00, 0x00,
  0x04, 0x00, 0x00, 0x00, 0x01, 0x00, 0x00, 0x00, 0x01, 0x00, 0x00, 0x00, 0x01,
  0x00, 0x00, 0x00, 0x06, 0x00, 0x00, 0x00, 0x2c, 0x8e, 0xff, 0xff, 0x6e, 0xe9,
  0xff, 0xff, 0x00, 0x00, 0x00, 0x02, 0x01, 0x00, 0x00, 0x00, 0x24, 0x00, 0x00,
  0x00, 0x18, 0x00, 0x00, 0x00, 0x04, 0x00, 0x00, 0x00, 0x60, 0xe9, 0xff, 0xff,
  0x01, 0x00, 0x00, 0x00, 0x01, 0x00, 0x00, 0x00, 0x01, 0x00, 0x00, 0x00, 0x01,
  0x00, 0x00, 0x00, 0x76, 0x00, 0x00, 0x00, 0x03, 0x00, 0x00, 0x00, 0x75, 0x00,
  0x00, 0x00, 0x29, 0x00, 0x00, 0x00, 0x37, 0x00, 0x00, 0x00, 0xdc, 0x8e, 0xff,
  0xff, 0x3c, 0x00, 0x00, 0x00, 0x77, 0x00, 0x00, 0x00, 0x20, 0x00, 0x00, 0x00,
  0x44, 0x00, 0x00, 0x00, 0x04, 0x00, 0x00, 0x00, 0x04, 0x00, 0x00, 0x00, 0x01,
  0x00, 0x00, 0x00, 0xff, 0xff, 0xff, 0xff, 0xff, 0xff, 0xff, 0xff, 0x06, 0x00,
  0x00, 0x00, 0x0d, 0x00, 0x00, 0x00, 0x64, 0x65, 0x70, 0x74, 0x68, 0x77, 0x69,
  0x73, 0x65, 0x5f, 0x32, 0x32, 0x31, 0x00, 0x00, 0x00, 0x04, 0x00, 0x00, 0x00,
  0x01, 0x00, 0x00, 0x00, 0x01, 0x00, 0x00, 0x00, 0x01, 0x00, 0x00, 0x00, 0x06,
  0x00, 0x00, 0x00, 0xc4, 0x8e, 0xff, 0xff, 0x06, 0xea, 0xff, 0xff, 0x00, 0x00,
  0x00, 0x01, 0x02, 0x00, 0x00, 0x00, 0x24, 0x00, 0x00, 0x00, 0x18, 0x00, 0x00,
  0x00, 0x04, 0x00, 0x00, 0x00, 0x6c, 0xed, 0xff, 0xff, 0x01, 0x00, 0x00, 0x00,
  0x01, 0x00, 0x00, 0x00, 0x00, 0x00, 0x00, 0x01, 0x01, 0x00, 0x00, 0x00, 0x75,
  0x00, 0x00, 0x00, 0x03, 0x00, 0x00, 0x00, 0x74, 0x00, 0x00, 0x00, 0x28, 0x00,
  0x00, 0x00, 0x03, 0x00, 0x00, 0x00, 0x74, 0x8f, 0xff, 0xff, 0x60, 0x00, 0x00,
  0x00, 0x76, 0x00, 0x00, 0x00, 0x20, 0x00, 0x00, 0x00, 0x68, 0x00, 0x00, 0x00,
  0x04, 0x00, 0x00, 0x00, 0x04, 0x00, 0x00, 0x00, 0x01, 0x00, 0x00, 0x00, 0xff,
  0xff, 0xff, 0xff, 0xff, 0xff, 0xff, 0xff, 0x06, 0x00, 0x00, 0x00, 0x33, 0x00,
  0x00, 0x00, 0x52, 0x65, 0x6c, 0x75, 0x5f, 0x33, 0x3b, 0x42, 0x69, 0x61, 0x73,
  0x41, 0x64, 0x64, 0x5f, 0x31, 0x30, 0x3b, 0x64, 0x65, 0x70, 0x74, 0x68, 0x77,
  0x69, 0x73, 0x65, 0x5f, 0x33, 0x31, 0x3b, 0x43, 0x6f, 0x6e, 0x76, 0x32, 0x44,
  0x5f, 0x31, 0x30, 0x3b, 0x63, 0x6f, 0x6e, 0x76, 0x5f, 0x34, 0x5f, 0x30, 0x5f,
  0x62, 0x00, 0x04, 0x00, 0x00, 0x00, 0x01, 0x00, 0x00, 0x00, 0x01, 0x00, 0x00,
  0x00, 0x01, 0x00, 0x00, 0x00, 0x06, 0x00, 0x00, 0x00, 0x80, 0x8f, 0xff, 0xff,
  0xc2, 0xea, 0xff, 0xff, 0x00, 0x00, 0x00, 0x02, 0x01, 0x00, 0x00, 0x00, 0x24,
  0x00, 0x00, 0x00, 0x18, 0x00, 0x00, 0x00, 0x04, 0x00, 0x00, 0x00, 0xb4, 0xea,
  0xff, 0xff, 0x01, 0x00, 0x00, 0x00, 0x01, 0x00, 0x00, 0x00, 0x01, 0x00, 0x00,
  0x00, 0x01, 0x00, 0x00, 0x00, 0x74, 0x00, 0x00, 0x00, 0x03, 0x00, 0x00, 0x00,
  0x73, 0x00, 0x00, 0x00, 0x27, 0x00, 0x00, 0x00, 0x2d, 0x00, 0x00, 0x00, 0x30,
  0x90, 0xff, 0xff, 0x3c, 0x00, 0x00, 0x00, 0x75, 0x00, 0x00, 0x00, 0x20, 0x00,
  0x00, 0x00, 0x44, 0x00, 0x00, 0x00, 0x04, 0x00, 0x00, 0x00, 0x04, 0x00, 0x00,
  0x00, 0x01, 0x00, 0x00, 0x00, 0xff, 0xff, 0xff, 0xff, 0xff, 0xff, 0xff, 0xff,
  0x04, 0x00, 0x00, 0x00, 0x0d, 0x00, 0x00, 0x00, 0x64, 0x65, 0x70, 0x74, 0x68,
  0x77, 0x69, 0x73, 0x65, 0x5f, 0x32, 0x31, 0x31, 0x00, 0x00, 0x00, 0x04, 0x00,
  0x00, 0x00, 0x01, 0x00, 0x00, 0x00, 0x01, 0x00, 0x00, 0x00, 0x01, 0x00, 0x00,
  0x00, 0x04, 0x00, 0x00, 0x00, 0x18, 0x90, 0xff, 0xff, 0x5a, 0xeb, 0xff, 0xff,
  0x00, 0x00, 0x00, 0x02, 0x01, 0x00, 0x00, 0x00, 0x24, 0x00, 0x00, 0x00, 0x18,
  0x00, 0x00, 0x00, 0x04, 0x00, 0x00, 0x00, 0x4c, 0xeb, 0xff, 0xff, 0x01, 0x00,
  0x00, 0x00, 0x01, 0x00, 0x00, 0x00, 0x01, 0x00, 0x00, 0x00, 0x01, 0x00, 0x00,
  0x00, 0x73, 0x00, 0x00, 0x00, 0x03, 0x00, 0x00, 0x00, 0x72, 0x00, 0x00, 0x00,
  0x26, 0x00, 0x00, 0x00, 0x2d, 0x00, 0x00, 0x00, 0xc8, 0x90, 0xff, 0xff, 0x3c,
  0x00, 0x00, 0x00, 0x74, 0x00, 0x00, 0x00, 0x20, 0x00, 0x00, 0x00, 0x44, 0x00,
  0x00, 0x00, 0x04, 0x00, 0x00, 0x00, 0x04, 0x00, 0x00, 0x00, 0x01, 0x00, 0x00,
  0x00, 0xff, 0xff, 0xff, 0xff, 0xff, 0xff, 0xff, 0xff, 0x04, 0x00, 0x00, 0x00,
  0x0d, 0x00, 0x00, 0x00, 0x64, 0x65, 0x70, 0x74, 0x68, 0x77, 0x69, 0x73, 0x65,
  0x5f, 0x32, 0x30, 0x31, 0x00, 0x00, 0x00, 0x04, 0x00, 0x00, 0x00, 0x01, 0x00,
  0x00, 0x00, 0x01, 0x00, 0x00, 0x00, 0x01, 0x00, 0x00, 0x00, 0x04, 0x00, 0x00,
  0x00, 0xb0, 0x90, 0xff, 0xff, 0xf2, 0xeb, 0xff, 0xff, 0x00, 0x00, 0x00, 0x0b,
  0x03, 0x00, 0x00, 0x00, 0x18, 0x00, 0x00, 0x00, 0x0c, 0x00, 0x00, 0x00, 0x04,
  0x00, 0x00, 0x00, 0xcc, 0x90, 0xff, 0xff, 0x01, 0x00, 0x00, 0x00, 0x72, 0x00,
  0x00, 0x00, 0x02, 0x00, 0x00, 0x00, 0x71, 0x00, 0x00, 0x00, 0x6e, 0x00, 0x00,
  0x00, 0x50, 0x91, 0xff, 0xff, 0x34, 0x00, 0x00, 0x00, 0x73, 0x00, 0x00, 0x00,
  0x20, 0x00, 0x00, 0x00, 0x3c, 0x00, 0x00, 0x00, 0x04, 0x00, 0x00, 0x00, 0x04,
  0x00, 0x00, 0x00, 0x01, 0x00, 0x00, 0x00, 0xff, 0xff, 0xff, 0xff, 0xff, 0xff,
  0xff, 0xff, 0x04, 0x00, 0x00, 0x00, 0x05, 0x00, 0x00, 0x00, 0x41, 0x64, 0x64,
  0x5f, 0x32, 0x00, 0x00, 0x00, 0x04, 0x00, 0x00, 0x00, 0x01, 0x00, 0x00, 0x00,
  0x01, 0x00, 0x00, 0x00, 0x01, 0x00, 0x00, 0x00, 0x04, 0x00, 0x00, 0x00, 0x30,
  0x91, 0xff, 0xff, 0x72, 0xec, 0xff, 0xff, 0x00, 0x00, 0x00, 0x01, 0x02, 0x00,
  0x00, 0x00, 0x20, 0x00, 0x00, 0x00, 0x14, 0x00, 0x00, 0x00, 0x04, 0x00, 0x00,
  0x00, 0xd2, 0xed, 0xff, 0xff, 0x01, 0x00, 0x00, 0x00, 0x01, 0x00, 0x00, 0x00,
  0x01, 0x00, 0x00, 0x00, 0x71, 0x00, 0x00, 0x00, 0x03, 0x00, 0x00, 0x00, 0x70,
  0x00, 0x00, 0x00, 0x25, 0x00, 0x00, 0x00, 0x4c, 0x00, 0x00, 0x00, 0xdc, 0x91,
  0xff, 0xff, 0x58, 0x00, 0x00, 0x00, 0x72, 0x00, 0x00, 0x00, 0x20, 0x00, 0x00,
  0x00, 0x60, 0x00, 0x00, 0x00, 0x04, 0x00, 0x00, 0x00, 0x04, 0x00, 0x00, 0x00,
  0x01, 0x00, 0x00, 0x00, 0xff, 0xff, 0xff, 0xff, 0xff, 0xff, 0xff, 0xff, 0x04,
  0x00, 0x00, 0x00, 0x2b, 0x00, 0x00, 0x00, 0x42, 0x69, 0x61, 0x73, 0x41, 0x64,
  0x64, 0x5f, 0x39, 0x3b, 0x64, 0x65, 0x70, 0x74, 0x68, 0x77, 0x69, 0x73, 0x65,
  0x5f, 0x32, 0x35, 0x3b, 0x43, 0x6f, 0x6e, 0x76, 0x32, 0x44, 0x5f, 0x39, 0x3b,
  0x63, 0x6f, 0x6e, 0x76, 0x5f, 0x33, 0x5f, 0x31, 0x5f, 0x62, 0x31, 0x00, 0x04,
  0x00, 0x00, 0x00, 0x01, 0x00, 0x00, 0x00, 0x01, 0x00, 0x00, 0x00, 0x01, 0x00,
  0x00, 0x00, 0x04, 0x00, 0x00, 0x00, 0xe0, 0x91, 0xff, 0xff, 0x22, 0xed, 0xff,
  0xff, 0x00, 0x00, 0x00, 0x02, 0x01, 0x00, 0x00, 0x00, 0x24, 0x00, 0x00, 0x00,
  0x18, 0x00, 0x00, 0x00, 0x04, 0x00, 0x00, 0x00, 0x14, 0xed, 0xff, 0xff, 0x01,
  0x00, 0x00, 0x00, 0x01, 0x00, 0x00, 0x00, 0x01, 0x00, 0x00, 0x00, 0x01, 0x00,
  0x00, 0x00, 0x70, 0x00, 0x00, 0x00, 0x03, 0x00, 0x00, 0x00, 0x6f, 0x00, 0x00,
  0x00, 0x24, 0x00, 0x00, 0x00, 0x37, 0x00, 0x00, 0x00, 0x90, 0x92, 0xff, 0xff,
  0x3c, 0x00, 0x00, 0x00, 0x71, 0x00, 0x00, 0x00, 0x20, 0x00, 0x00, 0x00, 0x44,
  0x00, 0x00, 0x00, 0x04, 0x00, 0x00, 0x00, 0x04, 0x00, 0x00, 0x00, 0x01, 0x00,
  0x00, 0x00, 0xff, 0xff, 0xff, 0xff, 0xff, 0xff, 0xff, 0xff, 0x06, 0x00, 0x00,
  0x00, 0x0d, 0x00, 0x00, 0x00, 0x64, 0x65, 0x70, 0x74, 0x68, 0x77, 0x69, 0x73,
  0x65, 0x5f, 0x31, 0x39, 0x31, 0x00, 0x00, 0x00, 0x04, 0x00, 0x00, 0x00, 0x01,
  0x00, 0x00, 0x00, 0x01, 0x00, 0x00, 0x00, 0x01, 0x00, 0x00, 0x00, 0x06, 0x00,
  0x00, 0x00, 0x78, 0x92, 0xff, 0xff, 0xba, 0xed, 0xff, 0xff, 0x00, 0x00, 0x00,
  0x02, 0x01, 0x00, 0x00, 0x00, 0x24, 0x00, 0x00, 0x00, 0x18, 0x00, 0x00, 0x00,
  0x04, 0x00, 0x00, 0x00, 0xac, 0xed, 0xff, 0xff, 0x01, 0x00, 0x00, 0x00, 0x01,
  0x00, 0x00, 0x00, 0x01, 0x00, 0x00, 0x00, 0x01, 0x00, 0x00, 0x00, 0x6f, 0x00,
  0x00, 0x00, 0x03, 0x00, 0x00, 0x00, 0x68, 0x00, 0x00, 0x00, 0x23, 0x00, 0x00,
  0x00, 0x37, 0x00, 0x00, 0x00, 0x28, 0x93, 0xff, 0xff, 0x3c, 0x00, 0x00, 0x00,
  0x70, 0x00, 0x00, 0x00, 0x20, 0x00, 0x00, 0x00, 0x44, 0x00, 0x00, 0x00, 0x04,
  0x00, 0x00, 0x00, 0x04, 0x00, 0x00, 0x00, 0x01, 0x00, 0x00, 0x00, 0xff, 0xff,
  0xff, 0xff, 0xff, 0xff, 0xff, 0xff, 0x06, 0x00, 0x00, 0x00, 0x0d, 0x00, 0x00,
  0x00, 0x64, 0x65, 0x70, 0x74, 0x68, 0x77, 0x69, 0x73, 0x65, 0x5f, 0x31, 0x38,
  0x31, 0x00, 0x00, 0x00, 0x04, 0x00, 0x00, 0x00, 0x01, 0x00, 0x00, 0x00, 0x01,
  0x00, 0x00, 0x00, 0x01, 0x00, 0x00, 0x00, 0x06, 0x00, 0x00, 0x00, 0x10, 0x93,
  0xff, 0xff, 0x52, 0xee, 0xff, 0xff, 0x00, 0x00, 0x00, 0x01, 0x02, 0x00, 0x00,
  0x00, 0x20, 0x00, 0x00, 0x00, 0x14, 0x00, 0x00, 0x00, 0x04, 0x00, 0x00, 0x00,
  0xb2, 0xef, 0xff, 0xff, 0x01, 0x00, 0x00, 0x00, 0x01, 0x00, 0x00, 0x00, 0x01,
  0x00, 0x00, 0x00, 0x6e, 0x00, 0x00, 0x00, 0x03, 0x00, 0x00, 0x00, 0x6d, 0x00,
  0x00, 0x00, 0x22, 0x00, 0x00, 0x00, 0x4c, 0x00, 0x00, 0x00, 0xbc, 0x93, 0xff,
  0xff, 0x58, 0x00, 0x00, 0x00, 0x6f, 0x00, 0x00, 0x00, 0x20, 0x00, 0x00, 0x00,
  0x60, 0x00, 0x00, 0x00, 0x04, 0x00, 0x00, 0x00, 0x04, 0x00, 0x00, 0x00, 0x01,
  0x00, 0x00, 0x00, 0xff, 0xff, 0xff, 0xff, 0xff, 0xff, 0xff, 0xff, 0x04, 0x00,
  0x00, 0x00, 0x2a, 0x00, 0x00, 0x00, 0x42, 0x69, 0x61, 0x73, 0x41, 0x64, 0x64,
  0x5f, 0x38, 0x3b, 0x64, 0x65, 0x70, 0x74, 0x68, 0x77, 0x69, 0x73, 0x65, 0x5f,
  0x32, 0x35, 0x3b, 0x43, 0x6f, 0x6e, 0x76, 0x32, 0x44, 0x5f, 0x38, 0x3b, 0x63,
  0x6f, 0x6e, 0x76, 0x5f, 0x33, 0x5f, 0x31, 0x5f, 0x62, 0x00, 0x00, 0x04, 0x00,
  0x00, 0x00, 0x01, 0x00, 0x00, 0x00, 0x01, 0x00, 0x00, 0x00, 0x01, 0x00, 0x00,
  0x00, 0x04, 0x00, 0x00, 0x00, 0xc0, 0x93, 0xff, 0xff, 0x02, 0xef, 0xff, 0xff,
  0x00, 0x00, 0x00, 0x02, 0x01, 0x00, 0x00, 0x00, 0x24, 0x00, 0x00, 0x00, 0x18,
  0x00, 0x00, 0x00, 0x04, 0x00, 0x00, 0x00, 0xf4, 0xee, 0xff, 0xff, 0x01, 0x00,
  0x00, 0x00, 0x01, 0x00, 0x00, 0x00, 0x01, 0x00, 0x00, 0x00, 0x01, 0x00, 0x00,
  0x00, 0x6d, 0x00, 0x00, 0x00, 0x03, 0x00, 0x00, 0x00, 0x6c, 0x00, 0x00, 0x00,
  0x21, 0x00, 0x00, 0x00, 0x2d, 0x00, 0x00, 0x00, 0x70, 0x94, 0xff, 0xff, 0x3c,
  0x00, 0x00, 0x00, 0x6e, 0x00, 0x00, 0x00, 0x20, 0x00, 0x00, 0x00, 0x44, 0x00,
  0x00, 0x00, 0x04, 0x00, 0x00, 0x00, 0x04, 0x00, 0x00, 0x00, 0x01, 0x00, 0x00,
  0x00, 0xff, 0xff, 0xff, 0xff, 0xff, 0xff, 0xff, 0xff, 0x04, 0x00, 0x00, 0x00,
  0x0d, 0x00, 0x00, 0x00, 0x64, 0x65, 0x70, 0x74, 0x68, 0x77, 0x69, 0x73, 0x65,
  0x5f, 0x31, 0x37, 0x31, 0x00, 0x00, 0x00, 0x04, 0x00, 0x00, 0x00, 0x01, 0x00,
  0x00, 0x00, 0x01, 0x00, 0x00, 0x00, 0x01, 0x00, 0x00, 0x00, 0x04, 0x00, 0x00,
  0x00, 0x58, 0x94, 0xff, 0xff, 0x9a, 0xef, 0xff, 0xff, 0x00, 0x00, 0x00, 0x02,
  0x01, 0x00, 0x00, 0x00, 0x24, 0x00, 0x00, 0x00, 0x18, 0x00, 0x00, 0x00, 0x04,
  0x00, 0x00, 0x00, 0x8c, 0xef, 0xff, 0xff, 0x01, 0x00, 0x00, 0x00, 0x01, 0x00,
  0x00, 0x00, 0x01, 0x00, 0x00, 0x00, 0x01, 0x00, 0x00, 0x00, 0x6c, 0x00, 0x00,
  0x00, 0x03, 0x00, 0x00, 0x00, 0x6b, 0x00, 0x00, 0x00, 0x20, 0x00, 0x00, 0x00,
  0x2d, 0x00, 0x00, 0x00, 0x08, 0x95, 0xff, 0xff, 0x3c, 0x00, 0x00, 0x00, 0x6d,
  0x00, 0x00, 0x00, 0x20, 0x00, 0x00, 0x00, 0x44, 0x00, 0x00, 0x00, 0x04, 0x00,
  0x00, 0x00, 0x04, 0x00, 0x00, 0x00, 0x01, 0x00, 0x00, 0x00, 0xff, 0xff, 0xff,
  0xff, 0xff, 0xff, 0xff, 0xff, 0x04, 0x00, 0x00, 0x00, 0x0d, 0x00, 0x00, 0x00,
  0x64, 0x65, 0x70, 0x74, 0x68, 0x77, 0x69, 0x73, 0x65, 0x5f, 0x31, 0x36, 0x31,
  0x00, 0x00, 0x00, 0x04, 0x00, 0x00, 0x00, 0x01, 0x00, 0x00, 0x00, 0x01, 0x00,
  0x00, 0x00, 0x01, 0x00, 0x00, 0x00, 0x04, 0x00, 0x00, 0x00, 0xf0, 0x94, 0xff,
  0xff, 0x32, 0xf0, 0xff, 0xff, 0x00, 0x00, 0x00, 0x01, 0x02, 0x00, 0x00, 0x00,
  0x24, 0x00, 0x00, 0x00, 0x18, 0x00, 0x00, 0x00, 0x04, 0x00, 0x00, 0x00, 0x98,
  0xf3, 0xff, 0xff, 0x01, 0x00, 0x00, 0x00, 0x01, 0x00, 0x00, 0x00, 0x00, 0x00,
  0x00, 0x01, 0x01, 0x00, 0x00, 0x00, 0x6b, 0x00, 0x00, 0x00, 0x03, 0x00, 0x00,
  0x00, 0x6a, 0x00, 0x00, 0x00, 0x1f, 0x00, 0x00, 0x00, 0x04, 0x00, 0x00, 0x00,
  0xa0, 0x95, 0xff, 0xff, 0x60, 0x00, 0x00, 0x00, 0x6c, 0x00, 0x00, 0x00, 0x20,
  0x00, 0x00, 0x00, 0x68, 0x00, 0x00, 0x00, 0x04, 0x00, 0x00, 0x00, 0x04, 0x00,
  0x00, 0x00, 0x01, 0x00, 0x00, 0x00, 0xff, 0xff, 0xff, 0xff, 0xff, 0xff, 0xff,
  0xff, 0x04, 0x00, 0x00, 0x00, 0x31, 0x00, 0x00, 0x00, 0x52, 0x65, 0x6c, 0x75,
  0x5f, 0x32, 0x3b, 0x42, 0x69, 0x61, 0x73, 0x41, 0x64, 0x64, 0x5f, 0x37, 0x3b,
  0x64, 0x65, 0x70, 0x74, 0x68, 0x77, 0x69, 0x73, 0x65, 0x5f, 0x32, 0x35, 0x3b,
  0x43, 0x6f, 0x6e, 0x76, 0x32, 0x44, 0x5f, 0x37, 0x3b, 0x63, 0x6f, 0x6e, 0x76,
  0x5f, 0x33, 0x5f, 0x30, 0x5f, 0x62, 0x00, 0x00, 0x00, 0x04, 0x00, 0x00, 0x00,
  0x01, 0x00, 0x00, 0x00, 0x01, 0x00, 0x00, 0x00, 0x01, 0x00, 0x00, 0x00, 0x04,
  0x00, 0x00, 0x00, 0xac, 0x95, 0xff, 0xff, 0xee, 0xf0, 0xff, 0xff, 0x00, 0x00,
  0x00, 0x02, 0x01, 0x00, 0x00, 0x00, 0x24, 0x00, 0x00, 0x00, 0x18, 0x00, 0x00,
  0x00, 0x04, 0x00, 0x00, 0x00, 0xe0, 0xf0, 0xff, 0xff, 0x01, 0x00, 0x00, 0x00,
  0x01, 0x00, 0x00, 0x00, 0x01, 0x00, 0x00, 0x00, 0x01, 0x00, 0x00, 0x00, 0x6a,
  0x00, 0x00, 0x00, 0x03, 0x00, 0x00, 0x00, 0x69, 0x00, 0x00, 0x00, 0x1e, 0x00,
  0x00, 0x00, 0x37, 0x00, 0x00, 0x00, 0x5c, 0x96, 0xff, 0xff, 0x3c, 0x00, 0x00,
  0x00, 0x6b, 0x00, 0x00, 0x00, 0x20, 0x00, 0x00, 0x00, 0x44, 0x00, 0x00, 0x00,
  0x04, 0x00, 0x00, 0x00, 0x04, 0x00, 0x00, 0x00, 0x01, 0x00, 0x00, 0x00, 0xff,
  0xff, 0xff, 0xff, 0xff, 0xff, 0xff, 0xff, 0x06, 0x00, 0x00, 0x00, 0x0d, 0x00,
  0x00, 0x00, 0x64, 0x65, 0x70, 0x74, 0x68, 0x77, 0x69, 0x73, 0x65, 0x5f, 0x31,
  0x35, 0x31, 0x00, 0x00, 0x00, 0x04, 0x00, 0x00, 0x00, 0x01, 0x00, 0x00, 0x00,
  0x01, 0x00, 0x00, 0x00, 0x01, 0x00, 0x00, 0x00, 0x06, 0x00, 0x00, 0x00, 0x44,
  0x96, 0xff, 0xff, 0x86, 0xf1, 0xff, 0xff, 0x00, 0x00, 0x00, 0x02, 0x01, 0x00,
  0x00, 0x00, 0x24, 0x00, 0x00, 0x00, 0x18, 0x00, 0x00, 0x00, 0x04, 0x00, 0x00,
  0x00, 0x78, 0xf1, 0xff, 0xff, 0x01, 0x00, 0x00, 0x00, 0x01, 0x00, 0x00, 0x00,
  0x01, 0x00, 0x00, 0x00, 0x01, 0x00, 0x00, 0x00, 0x69, 0x00, 0x00, 0x00, 0x03,
  0x00, 0x00, 0x00, 0x68, 0x00, 0x00, 0x00, 0x1d, 0x00, 0x00, 0x00, 0x37, 0x00,
  0x00, 0x00, 0xf4, 0x96, 0xff, 0xff, 0x3c, 0x00, 0x00, 0x00, 0x6a, 0x00, 0x00,
  0x00, 0x20, 0x00, 0x00, 0x00, 0x44, 0x00, 0x00, 0x00, 0x04, 0x00, 0x00, 0x00,
  0x04, 0x00, 0x00, 0x00, 0x01, 0x00, 0x00, 0x00, 0xff, 0xff, 0xff, 0xff, 0xff,
  0xff, 0xff, 0xff, 0x06, 0x00, 0x00, 0x00, 0x0d, 0x00, 0x00, 0x00, 0x64, 0x65,
  0x70, 0x74, 0x68, 0x77, 0x69, 0x73, 0x65, 0x5f, 0x31, 0x34, 0x31, 0x00, 0x00,
  0x00, 0x04, 0x00, 0x00, 0x00, 0x01, 0x00, 0x00, 0x00, 0x01, 0x00, 0x00, 0x00,
  0x01, 0x00, 0x00, 0x00, 0x06, 0x00, 0x00, 0x00, 0xdc, 0x96, 0xff, 0xff, 0x1e,
  0xf2, 0xff, 0xff, 0x00, 0x00, 0x00, 0x0b, 0x03, 0x00, 0x00, 0x00, 0x18, 0x00,
  0x00, 0x00, 0x0c, 0x00, 0x00, 0x00, 0x04, 0x00, 0x00, 0x00, 0xf8, 0x96, 0xff,
  0xff, 0x01, 0x00, 0x00, 0x00, 0x68, 0x00, 0x00, 0x00, 0x02, 0x00, 0x00, 0x00,
  0x67, 0x00, 0x00, 0x00, 0x64, 0x00, 0x00, 0x00, 0x7c, 0x97, 0xff, 0xff, 0x34,
  0x00, 0x00, 0x00, 0x69, 0x00, 0x00, 0x00, 0x20, 0x00, 0x00, 0x00, 0x3c, 0x00,
  0x00, 0x00, 0x04, 0x00, 0x00, 0x00, 0x04, 0x00, 0x00, 0x00, 0x01, 0x00, 0x00,
  0x00, 0xff, 0xff, 0xff, 0xff, 0xff, 0xff, 0xff, 0xff, 0x06, 0x00, 0x00, 0x00,
  0x05, 0x00, 0x00, 0x00, 0x41, 0x64, 0x64, 0x5f, 0x31, 0x00, 0x00, 0x00, 0x04,
  0x00, 0x00, 0x00, 0x01, 0x00, 0x00, 0x00, 0x01, 0x00, 0x00, 0x00, 0x01, 0x00,
  0x00, 0x00, 0x06, 0x00, 0x00, 0x00, 0x5c, 0x97, 0xff, 0xff, 0x9e, 0xf2, 0xff,
  0xff, 0x00, 0x00, 0x00, 0x01, 0x02, 0x00, 0x00, 0x00, 0x20, 0x00, 0x00, 0x00,
  0x14, 0x00, 0x00, 0x00, 0x04, 0x00, 0x00, 0x00, 0xfe, 0xf3, 0xff, 0xff, 0x01,
  0x00, 0x00, 0x00, 0x01, 0x00, 0x00, 0x00, 0x01, 0x00, 0x00, 0x00, 0x67, 0x00,
  0x00, 0x00, 0x03, 0x00, 0x00, 0x00, 0x66, 0x00, 0x00, 0x00, 0x1c, 0x00, 0x00,
  0x00, 0x4b, 0x00, 0x00, 0x00, 0x08, 0x98, 0xff, 0xff, 0x58, 0x00, 0x00, 0x00,
  0x68, 0x00, 0x00, 0x00, 0x20, 0x00, 0x00, 0x00, 0x60, 0x00, 0x00, 0x00, 0x04,
  0x00, 0x00, 0x00, 0x04, 0x00, 0x00, 0x00, 0x01, 0x00, 0x00, 0x00, 0xff, 0xff,
  0xff, 0xff, 0xff, 0xff, 0xff, 0xff, 0x06, 0x00, 0x00, 0x00, 0x2b, 0x00, 0x00,
  0x00, 0x42, 0x69, 0x61, 0x73, 0x41, 0x64, 0x64, 0x5f, 0x36, 0x3b, 0x64, 0x65,
  0x70, 0x74, 0x68, 0x77, 0x69, 0x73, 0x65, 0x5f, 0x33, 0x31, 0x3b, 0x43, 0x6f,
  0x6e, 0x76, 0x32, 0x44, 0x5f, 0x36, 0x3b, 0x63, 0x6f, 0x6e, 0x76, 0x5f, 0x32,
  0x5f, 0x31, 0x5f, 0x62, 0x31, 0x00, 0x04, 0x00, 0x00, 0x00, 0x01, 0x00, 0x00,
  0x00, 0x01, 0x00, 0x00, 0x00, 0x01, 0x00, 0x00, 0x00, 0x06, 0x00, 0x00, 0x00,
  0x0c, 0x98, 0xff, 0xff, 0x4e, 0xf3, 0xff, 0xff, 0x00, 0x00, 0x00, 0x02, 0x01,
  0x00, 0x00, 0x00, 0x24, 0x00, 0x00, 0x00, 0x18, 0x00, 0x00, 0x00, 0x04, 0x00,
  0x00, 0x00, 0x40, 0xf3, 0xff, 0xff, 0x01, 0x00, 0x00, 0x00, 0x01, 0x00, 0x00,
  0x00, 0x01, 0x00, 0x00, 0x00, 0x01, 0x00, 0x00, 0x00, 0x66, 0x00, 0x00, 0x00,
  0x03, 0x00, 0x00, 0x00, 0x65, 0x00, 0x00, 0x00, 0x1b, 0x00, 0x00, 0x00, 0x41,
  0x00, 0x00, 0x00, 0xbc, 0x98, 0xff, 0xff, 0x3c, 0x00, 0x00, 0x00, 0x67, 0x00,
  0x00, 0x00, 0x20, 0x00, 0x00, 0x00, 0x44, 0x00, 0x00, 0x00, 0x04, 0x00, 0x00,
  0x00, 0x04, 0x00, 0x00, 0x00, 0x01, 0x00, 0x00, 0x00, 0xff, 0xff, 0xff, 0xff,
  0xff, 0xff, 0xff, 0xff, 0x0b, 0x00, 0x00, 0x00, 0x0d, 0x00, 0x00, 0x00, 0x64,
  0x65, 0x70, 0x74, 0x68, 0x77, 0x69, 0x73, 0x65, 0x5f, 0x31, 0x33, 0x31, 0x00,
  0x00, 0x00, 0x04, 0x00, 0x00, 0x00, 0x01, 0x00, 0x00, 0x00, 0x01, 0x00, 0x00,
  0x00, 0x01, 0x00, 0x00, 0x00, 0x0b, 0x00, 0x00, 0x00, 0xa4, 0x98, 0xff, 0xff,
  0xe6, 0xf3, 0xff, 0xff, 0x00, 0x00, 0x00, 0x02, 0x01, 0x00, 0x00, 0x00, 0x24,
  0x00, 0x00, 0x00, 0x18, 0x00, 0x00, 0x00, 0x04, 0x00, 0x00, 0x00, 0xd8, 0xf3,
  0xff, 0xff, 0x01, 0x00, 0x00, 0x00, 0x01, 0x00, 0x00, 0x00, 0x01, 0x00, 0x00,
  0x00, 0x01, 0x00, 0x00, 0x00, 0x65, 0x00, 0x00, 0x00, 0x03, 0x00, 0x00, 0x00,
  0x5e, 0x00, 0x00, 0x00, 0x1a, 0x00, 0x00, 0x00, 0x41, 0x00, 0x00, 0x00, 0x54,
  0x99, 0xff, 0xff, 0x3c, 0x00, 0x00, 0x00, 0x66, 0x00, 0x00, 0x00, 0x20, 0x00,
  0x00, 0x00, 0x44, 0x00, 0x00, 0x00, 0x04, 0x00, 0x00, 0x00, 0x04, 0x00, 0x00,
  0x00, 0x01, 0x00, 0x00, 0x00, 0xff, 0xff, 0xff, 0xff, 0xff, 0xff, 0xff, 0xff,
  0x0b, 0x00, 0x00, 0x00, 0x0d, 0x00, 0x00, 0x00, 0x64, 0x65, 0x70, 0x74, 0x68,
  0x77, 0x69, 0x73, 0x65, 0x5f, 0x31, 0x32, 0x31, 0x00, 0x00, 0x00, 0x04, 0x00,
  0x00, 0x00, 0x01, 0x00, 0x00, 0x00, 0x01, 0x00, 0x00, 0x00, 0x01, 0x00, 0x00,
  0x00, 0x0b, 0x00, 0x00, 0x00, 0x3c, 0x99, 0xff, 0xff, 0x7e, 0xf4, 0xff, 0xff,
  0x00, 0x00, 0x00, 0x01, 0x02, 0x00, 0x00, 0x00, 0x20, 0x00, 0x00, 0x00, 0x14,
  0x00, 0x00, 0x00, 0x04, 0x00, 0x00, 0x00, 0xde, 0xf5, 0xff, 0xff, 0x01, 0x00,
  0x00, 0x00, 0x01, 0x00, 0x00, 0x00, 0x01, 0x00, 0x00, 0x00, 0x64, 0x00, 0x00,
  0x00, 0x03, 0x00, 0x00, 0x00, 0x63, 0x00, 0x00, 0x00, 0x19, 0x00, 0x00, 0x00,
  0x4b, 0x00, 0x00, 0x00, 0xe8, 0x99, 0xff, 0xff, 0x58, 0x00, 0x00, 0x00, 0x65,
  0x00, 0x00, 0x00, 0x20, 0x00, 0x00, 0x00, 0x60, 0x00, 0x00, 0x00, 0x04, 0x00,
  0x00, 0x00, 0x04, 0x00, 0x00, 0x00, 0x01, 0x00, 0x00, 0x00, 0xff, 0xff, 0xff,
  0xff, 0xff, 0xff, 0xff, 0xff, 0x06, 0x00, 0x00, 0x00, 0x2a, 0x00, 0x00, 0x00,
  0x42, 0x69, 0x61, 0x73, 0x41, 0x64, 0x64, 0x5f, 0x35, 0x3b, 0x64, 0x65, 0x70,
  0x74, 0x68, 0x77, 0x69, 0x73, 0x65, 0x5f, 0x33, 0x31, 0x3b, 0x43, 0x6f, 0x6e,
  0x76, 0x32, 0x44, 0x5f, 0x35, 0x3b, 0x63, 0x6f, 0x6e, 0x76, 0x5f, 0x32, 0x5f,
  0x31, 0x5f, 0x62, 0x00, 0x00, 0x04, 0x00, 0x00, 0x00, 0x01, 0x00, 0x00, 0x00,
  0x01, 0x00, 0x00, 0x00, 0x01, 0x00, 0x00, 0x00, 0x06, 0x00, 0x00, 0x00, 0xec,
  0x99, 0xff, 0xff, 0x2e, 0xf5, 0xff, 0xff, 0x00, 0x00, 0x00, 0x02, 0x01, 0x00,
  0x00, 0x00, 0x24, 0x00, 0x00, 0x00, 0x18, 0x00, 0x00, 0x00, 0x04, 0x00, 0x00,
  0x00, 0x20, 0xf5, 0xff, 0xff, 0x01, 0x00, 0x00, 0x00, 0x01, 0x00, 0x00, 0x00,
  0x01, 0x00, 0x00, 0x00, 0x01, 0x00, 0x00, 0x00, 0x63, 0x00, 0x00, 0x00, 0x03,
  0x00, 0x00, 0x00, 0x62, 0x00, 0x00, 0x00, 0x18, 0x00, 0x00, 0x00, 0x37, 0x00,
  0x00, 0x00, 0x9c, 0x9a, 0xff, 0xff, 0x3c, 0x00, 0x00, 0x00, 0x64, 0x00, 0x00,
  0x00, 0x20, 0x00, 0x00, 0x00, 0x44, 0x00, 0x00, 0x00, 0x04, 0x00, 0x00, 0x00,
  0x04, 0x00, 0x00, 0x00, 0x01, 0x00, 0x00, 0x00, 0xff, 0xff, 0xff, 0xff, 0xff,
  0xff, 0xff, 0xff, 0x06, 0x00, 0x00, 0x00, 0x0d, 0x00, 0x00, 0x00, 0x64, 0x65,
  0x70, 0x74, 0x68, 0x77, 0x69, 0x73, 0x65, 0x5f, 0x31, 0x31, 0x31, 0x00, 0x00,
  0x00, 0x04, 0x00, 0x00, 0x00, 0x01, 0x00, 0x00, 0x00, 0x01, 0x00, 0x00, 0x00,
  0x01, 0x00, 0x00, 0x00, 0x06, 0x00, 0x00, 0x00, 0x84, 0x9a, 0xff, 0xff, 0xc6,
  0xf5, 0xff, 0xff, 0x00, 0x00, 0x00, 0x02, 0x01, 0x00, 0x00, 0x00, 0x24, 0x00,
  0x00, 0x00, 0x18, 0x00, 0x00, 0x00, 0x04, 0x00, 0x00, 0x00, 0xb8, 0xf5, 0xff,
  0xff, 0x01, 0x00, 0x00, 0x00, 0x01, 0x00, 0x00, 0x00, 0x01, 0x00, 0x00, 0x00,
  0x01, 0x00, 0x00, 0x00, 0x62, 0x00, 0x00, 0x00, 0x03, 0x00, 0x00, 0x00, 0x61,
  0x00, 0x00, 0x00, 0x17, 0x00, 0x00, 0x00, 0x37, 0x00, 0x00, 0x00, 0x34, 0x9b,
  0xff, 0xff, 0x3c, 0x00, 0x00, 0x00, 0x63, 0x00, 0x00, 0x00, 0x20, 0x00, 0x00,
  0x00, 0x44, 0x00, 0x00, 0x00, 0x04, 0x00, 0x00, 0x00, 0x04, 0x00, 0x00, 0x00,
  0x01, 0x00, 0x00, 0x00, 0xff, 0xff, 0xff, 0xff, 0xff, 0xff, 0xff, 0xff, 0x06,
  0x00, 0x00, 0x00, 0x0d, 0x00, 0x00, 0x00, 0x64, 0x65, 0x70, 0x74, 0x68, 0x77,
  0x69, 0x73, 0x65, 0x5f, 0x31, 0x30, 0x31, 0x00, 0x00, 0x00, 0x04, 0x00, 0x00,
  0x00, 0x01, 0x00, 0x00, 0x00, 0x01, 0x00, 0x00, 0x00, 0x01, 0x00, 0x00, 0x00,
  0x06, 0x00, 0x00, 0x00, 0x1c, 0x9b, 0xff, 0xff, 0x5e, 0xf6, 0xff, 0xff, 0x00,
  0x00, 0x00, 0x01, 0x02, 0x00, 0x00, 0x00, 0x24, 0x00, 0x00, 0x00, 0x18, 0x00,
  0x00, 0x00, 0x04, 0x00, 0x00, 0x00, 0xc4, 0xf9, 0xff, 0xff, 0x01, 0x00, 0x00,
  0x00, 0x01, 0x00, 0x00, 0x00, 0x00, 0x00, 0x00, 0x01, 0x01, 0x00, 0x00, 0x00,
  0x61, 0x00, 0x00, 0x00, 0x03, 0x00, 0x00, 0x00, 0x60, 0x00, 0x00, 0x00, 0x16,
  0x00, 0x00, 0x00, 0x05, 0x00, 0x00, 0x00, 0xcc, 0x9b, 0xff, 0xff, 0x60, 0x00,
  0x00, 0x00, 0x62, 0x00, 0x00, 0x00, 0x20, 0x00, 0x00, 0x00, 0x68, 0x00, 0x00,
  0x00, 0x04, 0x00, 0x00, 0x00, 0x04, 0x00, 0x00, 0x00, 0x01, 0x00, 0x00, 0x00,
  0xff, 0xff, 0xff, 0xff, 0xff, 0xff, 0xff, 0xff, 0x06, 0x00, 0x00, 0x00, 0x31,
  0x00, 0x00, 0x00, 0x52, 0x65, 0x6c, 0x75, 0x5f, 0x31, 0x3b, 0x42, 0x69, 0x61,
  0x73, 0x41, 0x64, 0x64, 0x5f, 0x34, 0x3b, 0x64, 0x65, 0x70, 0x74, 0x68, 0x77,
  0x69, 0x73, 0x65, 0x5f, 0x33, 0x31, 0x3b, 0x43, 0x6f, 0x6e, 0x76, 0x32, 0x44,
  0x5f, 0x34, 0x3b, 0x63, 0x6f, 0x6e, 0x76, 0x5f, 0x32, 0x5f, 0x30, 0x5f, 0x62,
  0x00, 0x00, 0x00, 0x04, 0x00, 0x00, 0x00, 0x01, 0x00, 0x00, 0x00, 0x01, 0x00,
  0x00, 0x00, 0x01, 0x00, 0x00, 0x00, 0x06, 0x00, 0x00, 0x00, 0xd8, 0x9b, 0xff,
  0xff, 0x1a, 0xf7, 0xff, 0xff, 0x00, 0x00, 0x00, 0x02, 0x01, 0x00, 0x00, 0x00,
  0x24, 0x00, 0x00, 0x00, 0x18, 0x00, 0x00, 0x00, 0x04, 0x00, 0x00, 0x00, 0x0c,
  0xf7, 0xff, 0xff, 0x01, 0x00, 0x00, 0x00, 0x01, 0x00, 0x00, 0x00, 0x01, 0x00,
  0x00, 0x00, 0x01, 0x00, 0x00, 0x00, 0x60, 0x00, 0x00, 0x00, 0x03, 0x00, 0x00,
  0x00, 0x5f, 0x00, 0x00, 0x00, 0x15, 0x00, 0x00, 0x00, 0x41, 0x00, 0x00, 0x00,
  0x88, 0x9c, 0xff, 0xff, 0x3c, 0x00, 0x00, 0x00, 0x61, 0x00, 0x00, 0x00, 0x20,
  0x00, 0x00, 0x00, 0x44, 0x00, 0x00, 0x00, 0x04, 0x00, 0x00, 0x00, 0x04, 0x00,
  0x00, 0x00, 0x01, 0x00, 0x00, 0x00, 0xff, 0xff, 0xff, 0xff, 0xff, 0xff, 0xff,
  0xff, 0x0b, 0x00, 0x00, 0x00, 0x0c, 0x00, 0x00, 0x00, 0x64, 0x65, 0x70, 0x74,
  0x68, 0x77, 0x69, 0x73, 0x65, 0x5f, 0x39, 0x31, 0x00, 0x00, 0x00, 0x00, 0x04,
  0x00, 0x00, 0x00, 0x01, 0x00, 0x00, 0x00, 0x01, 0x00, 0x00, 0x00, 0x01, 0x00,
  0x00, 0x00, 0x0b, 0x00, 0x00, 0x00, 0x70, 0x9c, 0xff, 0xff, 0xb2, 0xf7, 0xff,
  0xff, 0x00, 0x00, 0x00, 0x02, 0x01, 0x00, 0x00, 0x00, 0x24, 0x00, 0x00, 0x00,
  0x18, 0x00, 0x00, 0x00, 0x04, 0x00, 0x00, 0x00, 0xa4, 0xf7, 0xff, 0xff, 0x01,
  0x00, 0x00, 0x00, 0x01, 0x00, 0x00, 0x00, 0x01, 0x00, 0x00, 0x00, 0x01, 0x00,
  0x00, 0x00, 0x5f, 0x00, 0x00, 0x00, 0x03, 0x00, 0x00, 0x00, 0x5e, 0x00, 0x00,
  0x00, 0x14, 0x00, 0x00, 0x00, 0x41, 0x00, 0x00, 0x00, 0x20, 0x9d, 0xff, 0xff,
  0x3c, 0x00, 0x00, 0x00, 0x60, 0x00, 0x00, 0x00, 0x20, 0x00, 0x00, 0x00, 0x44,
  0x00, 0x00, 0x00, 0x04, 0x00, 0x00, 0x00, 0x04, 0x00, 0x00, 0x00, 0x01, 0x00,
  0x00, 0x00, 0xff, 0xff, 0xff, 0xff, 0xff, 0xff, 0xff, 0xff, 0x0b, 0x00, 0x00,
  0x00, 0x0c, 0x00, 0x00, 0x00, 0x64, 0x65, 0x70, 0x74, 0x68, 0x77, 0x69, 0x73,
  0x65, 0x5f, 0x38, 0x31, 0x00, 0x00, 0x00, 0x00, 0x04, 0x00, 0x00, 0x00, 0x01,
  0x00, 0x00, 0x00, 0x01, 0x00, 0x00, 0x00, 0x01, 0x00, 0x00, 0x00, 0x0b, 0x00,
  0x00, 0x00, 0x08, 0x9d, 0xff, 0xff, 0x4a, 0xf8, 0xff, 0xff, 0x00, 0x00, 0x00,
  0x0b, 0x03, 0x00, 0x00, 0x00, 0x18, 0x00, 0x00, 0x00, 0x0c, 0x00, 0x00, 0x00,
  0x04, 0x00, 0x00, 0x00, 0x24, 0x9d, 0xff, 0xff, 0x01, 0x00, 0x00, 0x00, 0x5e,
  0x00, 0x00, 0x00, 0x02, 0x00, 0x00, 0x00, 0x5d, 0x00, 0x00, 0x00, 0x5a, 0x00,
  0x00, 0x00, 0x00, 0x00, 0x0a, 0x00, 0x08, 0x00, 0x00, 0x00, 0x00, 0x00, 0x04,
  0x00, 0x0a, 0x00, 0x00, 0x00, 0x01, 0x00, 0x00, 0x00, 0xbc, 0x9d, 0xff, 0xff,
  0x30, 0x00, 0x00, 0x00, 0x5f, 0x00, 0x00, 0x00, 0x20, 0x00, 0x00, 0x00, 0x38,
  0x00, 0x00, 0x00, 0x04, 0x00, 0x00, 0x00, 0x04, 0x00, 0x00, 0x00, 0x01, 0x00,
  0x00, 0x00, 0xff, 0xff, 0xff, 0xff, 0xff, 0xff, 0xff, 0xff, 0x0b, 0x00, 0x00,
  0x00, 0x03, 0x00, 0x00, 0x00, 0x41, 0x64, 0x64, 0x00, 0x04, 0x00, 0x00, 0x00,
  0x01, 0x00, 0x00, 0x00, 0x01, 0x00, 0x00, 0x00, 0x01, 0x00, 0x00, 0x00, 0x0b,
  0x00, 0x00, 0x00, 0x98, 0x9d, 0xff, 0xff, 0xda, 0xf8, 0xff, 0xff, 0x00, 0x00,
  0x00, 0x01, 0x02, 0x00, 0x00, 0x00, 0x20, 0x00, 0x00, 0x00, 0x14, 0x00, 0x00,
  0x00, 0x04, 0x00, 0x00, 0x00, 0x3a, 0xfa, 0xff, 0xff, 0x01, 0x00, 0x00, 0x00,
  0x01, 0x00, 0x00, 0x00, 0x01, 0x00, 0x00, 0x00, 0x5d, 0x00, 0x00, 0x00, 0x03,
  0x00, 0x00, 0x00, 0x5c, 0x00, 0x00, 0x00, 0x13, 0x00, 0x00, 0x00, 0x4a, 0x00,
  0x00, 0x00, 0x44, 0x9e, 0xff, 0xff, 0x58, 0x00, 0x00, 0x00, 0x5e, 0x00, 0x00,
  0x00, 0x20, 0x00, 0x00, 0x00, 0x60, 0x00, 0x00, 0x00, 0x04, 0x00, 0x00, 0x00,
  0x04, 0x00, 0x00, 0x00, 0x01, 0x00, 0x00, 0x00, 0xff, 0xff, 0xff, 0xff, 0xff,
  0xff, 0xff, 0xff, 0x0b, 0x00, 0x00, 0x00, 0x2b, 0x00, 0x00, 0x00, 0x42, 0x69,
  0x61, 0x73, 0x41, 0x64, 0x64, 0x5f, 0x33, 0x3b, 0x64, 0x65, 0x70, 0x74, 0x68,
  0x77, 0x69, 0x73, 0x65, 0x5f, 0x33, 0x37, 0x3b, 0x43, 0x6f, 0x6e, 0x76, 0x32,
  0x44, 0x5f, 0x33, 0x3b, 0x63, 0x6f, 0x6e, 0x76, 0x5f, 0x31, 0x5f, 0x31, 0x5f,
  0x62, 0x31, 0x00, 0x04, 0x00, 0x00, 0x00, 0x01, 0x00, 0x00, 0x00, 0x01, 0x00,
  0x00, 0x00, 0x01, 0x00, 0x00, 0x00, 0x0b, 0x00, 0x00, 0x00, 0x48, 0x9e, 0xff,
  0xff, 0x8a, 0xf9, 0xff, 0xff, 0x00, 0x00, 0x00, 0x02, 0x01, 0x00, 0x00, 0x00,
  0x24, 0x00, 0x00, 0x00, 0x18, 0x00, 0x00, 0x00, 0x04, 0x00, 0x00, 0x00, 0x7c,
  0xf9, 0xff, 0xff, 0x01, 0x00, 0x00, 0x00, 0x01, 0x00, 0x00, 0x00, 0x01, 0x00,
  0x00, 0x00, 0x01, 0x00, 0x00, 0x00, 0x5c, 0x00, 0x00, 0x00, 0x03, 0x00, 0x00,
  0x00, 0x5b, 0x00, 0x00, 0x00, 0x12, 0x00, 0x00, 0x00, 0x45, 0x00, 0x00, 0x00,
  0xf8, 0x9e, 0xff, 0xff, 0x3c, 0x00, 0x00, 0x00, 0x5d, 0x00, 0x00, 0x00, 0x20,
  0x00, 0x00, 0x00, 0x44, 0x00, 0x00, 0x00, 0x04, 0x00, 0x00, 0x00, 0x04, 0x00,
  0x00, 0x00, 0x01, 0x00, 0x00, 0x00, 0xff, 0xff, 0xff, 0xff, 0xff, 0xff, 0xff,
  0xff, 0x14, 0x00, 0x00, 0x00, 0x0c, 0x00, 0x00, 0x00, 0x64, 0x65, 0x70, 0x74,
  0x68, 0x77, 0x69, 0x73, 0x65, 0x5f, 0x37, 0x31, 0x00, 0x00, 0x00, 0x00, 0x04,
  0x00, 0x00, 0x00, 0x01, 0x00, 0x00, 0x00, 0x01, 0x00, 0x00, 0x00, 0x01, 0x00,
  0x00, 0x00, 0x14, 0x00, 0x00, 0x00, 0xe0, 0x9e, 0xff, 0xff, 0x22, 0xfa, 0xff,
  0xff, 0x00, 0x00, 0x00, 0x02, 0x01, 0x00, 0x00, 0x00, 0x24, 0x00, 0x00, 0x00,
  0x18, 0x00, 0x00, 0x00, 0x04, 0x00, 0x00, 0x00, 0x14, 0xfa, 0xff, 0xff, 0x01,
  0x00, 0x00, 0x00, 0x01, 0x00, 0x00, 0x00, 0x01, 0x00, 0x00, 0x00, 0x01, 0x00,
  0x00, 0x00, 0x5b, 0x00, 0x00, 0x00, 0x03, 0x00, 0x00, 0x00, 0x54, 0x00, 0x00,
  0x00, 0x11, 0x00, 0x00, 0x00, 0x45, 0x00, 0x00, 0x00, 0x90, 0x9f, 0xff, 0xff,
  0x3c, 0x00, 0x00, 0x00, 0x5c, 0x00, 0x00, 0x00, 0x20, 0x00, 0x00, 0x00, 0x44,
  0x00, 0x00, 0x00, 0x04, 0x00, 0x00, 0x00, 0x04, 0x00, 0x00, 0x00, 0x01, 0x00,
  0x00, 0x00, 0xff, 0xff, 0xff, 0xff, 0xff, 0xff, 0xff, 0xff, 0x14, 0x00, 0x00,
  0x00, 0x0c, 0x00, 0x00, 0x00, 0x64, 0x65, 0x70, 0x74, 0x68, 0x77, 0x69, 0x73,
  0x65, 0x5f, 0x36, 0x31, 0x00, 0x00, 0x00, 0x00, 0x04, 0x00, 0x00, 0x00, 0x01,
  0x00, 0x00, 0x00, 0x01, 0x00, 0x00, 0x00, 0x01, 0x00, 0x00, 0x00, 0x14, 0x00,
  0x00, 0x00, 0x78, 0x9f, 0xff, 0xff, 0xba, 0xfa, 0xff, 0xff, 0x00, 0x00, 0x00,
  0x01, 0x02, 0x00, 0x00, 0x00, 0x20, 0x00, 0x00, 0x00, 0x14, 0x00, 0x00, 0x00,
  0x04, 0x00, 0x00, 0x00, 0x1a, 0xfc, 0xff, 0xff, 0x01, 0x00, 0x00, 0x00, 0x01,
  0x00, 0x00, 0x00, 0x01, 0x00, 0x00, 0x00, 0x5a, 0x00, 0x00, 0x00, 0x03, 0x00,
  0x00, 0x00, 0x59, 0x00, 0x00, 0x00, 0x10, 0x00, 0x00, 0x00, 0x4a, 0x00, 0x00,
  0x00, 0x24, 0xa0, 0xff, 0xff, 0x58, 0x00, 0x00, 0x00, 0x5b, 0x00, 0x00, 0x00,
  0x20, 0x00, 0x00, 0x00, 0x60, 0x00, 0x00, 0x00, 0x04, 0x00, 0x00, 0x00, 0x04,
  0x00, 0x00, 0x00, 0x01, 0x00, 0x00, 0x00, 0xff, 0xff, 0xff, 0xff, 0xff, 0xff,
  0xff, 0xff, 0x0b, 0x00, 0x00, 0x00, 0x2a, 0x00, 0x00, 0x00, 0x42, 0x69, 0x61,
  0x73, 0x41, 0x64, 0x64, 0x5f, 0x32, 0x3b, 0x64, 0x65, 0x70, 0x74, 0x68, 0x77,
  0x69, 0x73, 0x65, 0x5f, 0x33, 0x37, 0x3b, 0x43, 0x6f, 0x6e, 0x76, 0x32, 0x44,
  0x5f, 0x32, 0x3b, 0x63, 0x6f, 0x6e, 0x76, 0x5f, 0x31, 0x5f, 0x31, 0x5f, 0x62,
  0x00, 0x00, 0x04, 0x00, 0x00, 0x00, 0x01, 0x00, 0x00, 0x00, 0x01, 0x00, 0x00,
  0x00, 0x01, 0x00, 0x00, 0x00, 0x0b, 0x00, 0x00, 0x00, 0x28, 0xa0, 0xff, 0xff,
  0x6a, 0xfb, 0xff, 0xff, 0x00, 0x00, 0x00, 0x02, 0x01, 0x00, 0x00, 0x00, 0x24,
  0x00, 0x00, 0x00, 0x18, 0x00, 0x00, 0x00, 0x04, 0x00, 0x00, 0x00, 0x5c, 0xfb,
  0xff, 0xff, 0x01, 0x00, 0x00, 0x00, 0x01, 0x00, 0x00, 0x00, 0x01, 0x00, 0x00,
  0x00, 0x01, 0x00, 0x00, 0x00, 0x59, 0x00, 0x00, 0x00, 0x03, 0x00, 0x00, 0x00,
  0x58, 0x00, 0x00, 0x00, 0x0f, 0x00, 0x00, 0x00, 0x41, 0x00, 0x00, 0x00, 0xd8,
  0xa0, 0xff, 0xff, 0x3c, 0x00, 0x00, 0x00, 0x5a, 0x00, 0x00, 0x00, 0x20, 0x00,
  0x00, 0x00, 0x44, 0x00, 0x00, 0x00, 0x04, 0x00, 0x00, 0x00, 0x04, 0x00, 0x00,
  0x00, 0x01, 0x00, 0x00, 0x00, 0xff, 0xff, 0xff, 0xff, 0xff, 0xff, 0xff, 0xff,
  0x0b, 0x00, 0x00, 0x00, 0x0c, 0x00, 0x00, 0x00, 0x64, 0x65, 0x70, 0x74, 0x68,
  0x77, 0x69, 0x73, 0x65, 0x5f, 0x35, 0x31, 0x00, 0x00, 0x00, 0x00, 0x04, 0x00,
  0x00, 0x00, 0x01, 0x00, 0x00, 0x00, 0x01, 0x00, 0x00, 0x00, 0x01, 0x00, 0x00,
  0x00, 0x0b, 0x00, 0x00, 0x00, 0xc0, 0xa0, 0xff, 0xff, 0x02, 0xfc, 0xff, 0xff,
  0x00, 0x00, 0x00, 0x02, 0x01, 0x00, 0x00, 0x00, 0x24, 0x00, 0x00, 0x00, 0x18,
  0x00, 0x00, 0x00, 0x04, 0x00, 0x00, 0x00, 0xf4, 0xfb, 0xff, 0xff, 0x01, 0x00,
  0x00, 0x00, 0x01, 0x00, 0x00, 0x00, 0x01, 0x00, 0x00, 0x00, 0x01, 0x00, 0x00,
  0x00, 0x58, 0x00, 0x00, 0x00, 0x03, 0x00, 0x00, 0x00, 0x57, 0x00, 0x00, 0x00,
  0x0e, 0x00, 0x00, 0x00, 0x41, 0x00, 0x00, 0x00, 0x70, 0xa1, 0xff, 0xff, 0x3c,
  0x00, 0x00, 0x00, 0x59, 0x00, 0x00, 0x00, 0x20, 0x00, 0x00, 0x00, 0x44, 0x00,
  0x00, 0x00, 0x04, 0x00, 0x00, 0x00, 0x04, 0x00, 0x00, 0x00, 0x01, 0x00, 0x00,
  0x00, 0xff, 0xff, 0xff, 0xff, 0xff, 0xff, 0xff, 0xff, 0x0b, 0x00, 0x00, 0x00,
  0x0c, 0x00, 0x00, 0x00, 0x64, 0x65, 0x70, 0x74, 0x68, 0x77, 0x69, 0x73, 0x65,
  0x5f, 0x34, 0x31, 0x00, 0x00, 0x00, 0x00, 0x04, 0x00, 0x00, 0x00, 0x01, 0x00,
  0x00, 0x00, 0x01, 0x00, 0x00, 0x00, 0x01, 0x00, 0x00, 0x00, 0x0b, 0x00, 0x00,
  0x00, 0x58, 0xa1, 0xff, 0xff, 0x9a, 0xfc, 0xff, 0xff, 0x00, 0x00, 0x00, 0x01,
  0x02, 0x00, 0x00, 0x00, 0x30, 0x00, 0x00, 0x00, 0x24, 0x00, 0x00, 0x00, 0x10,
  0x00, 0x00, 0x00, 0x0c, 0x00, 0x10, 0x00, 0x00, 0x00, 0x04, 0x00, 0x08, 0x00,
  0x0f, 0x00, 0x0c, 0x00, 0x00, 0x00, 0x01, 0x00, 0x00, 0x00, 0x01, 0x00, 0x00,
  0x00, 0x00, 0x00, 0x00, 0x01, 0x01, 0x00, 0x00, 0x00, 0x57, 0x00, 0x00, 0x00,
  0x03, 0x00, 0x00, 0x00, 0x56, 0x00, 0x00, 0x00, 0x0d, 0x00, 0x00, 0x00, 0x06,
  0x00, 0x00, 0x00, 0x14, 0xa2, 0xff, 0xff, 0x5c, 0x00, 0x00, 0x00, 0x58, 0x00,
  0x00, 0x00, 0x20, 0x00, 0x00, 0x00, 0x64, 0x00, 0x00, 0x00, 0x04, 0x00, 0x00,
  0x00, 0x04, 0x00, 0x00, 0x00, 0x01, 0x00, 0x00, 0x00, 0xff, 0xff, 0xff, 0xff,
  0xff, 0xff, 0xff, 0xff, 0x0b, 0x00, 0x00, 0x00, 0x2f, 0x00, 0x00, 0x00, 0x52,
  0x65, 0x6c, 0x75, 0x3b, 0x42, 0x69, 0x61, 0x73, 0x41, 0x64, 0x64, 0x5f, 0x31,
  0x3b, 0x64, 0x65, 0x70, 0x74, 0x68, 0x77, 0x69, 0x73, 0x65, 0x5f, 0x33, 0x37,
  0x3b, 0x43, 0x6f, 0x6e, 0x76, 0x32, 0x44, 0x5f, 0x31, 0x3b, 0x63, 0x6f, 0x6e,
  0x76, 0x5f, 0x31, 0x5f, 0x30, 0x5f, 0x62, 0x00, 0x04, 0x00, 0x00, 0x00, 0x01,
  0x00, 0x00, 0x00, 0x01, 0x00, 0x00, 0x00, 0x01, 0x00, 0x00, 0x00, 0x0b, 0x00,
  0x00, 0x00, 0x1c, 0xa2, 0xff, 0xff, 0x5e, 0xfd, 0xff, 0xff, 0x00, 0x00, 0x00,
  0x02, 0x01, 0x00, 0x00, 0x00, 0x24, 0x00, 0x00, 0x00, 0x18, 0x00, 0x00, 0x00,
  0x04, 0x00, 0x00, 0x00, 0x50, 0xfd, 0xff, 0xff, 0x01, 0x00, 0x00, 0x00, 0x01,
  0x00, 0x00, 0x00, 0x01, 0x00, 0x00, 0x00, 0x01, 0x00, 0x00, 0x00, 0x56, 0x00,
  0x00, 0x00, 0x03, 0x00, 0x00, 0x00, 0x55, 0x00, 0x00, 0x00, 0x0c, 0x00, 0x00,
  0x00, 0x45, 0x00, 0x00, 0x00, 0xcc, 0xa2, 0xff, 0xff, 0x3c, 0x00, 0x00, 0x00,
  0x57, 0x00, 0x00, 0x00, 0x20, 0x00, 0x00, 0x00, 0x44, 0x00, 0x00, 0x00, 0x04,
  0x00, 0x00, 0x00, 0x04, 0x00, 0x00, 0x00, 0x01, 0x00, 0x00, 0x00, 0xff, 0xff,
  0xff, 0xff, 0xff, 0xff, 0xff, 0xff, 0x14, 0x00, 0x00, 0x00, 0x0d, 0x00, 0x00,
  0x00, 0x64, 0x65, 0x70, 0x74, 0x68, 0x77, 0x69, 0x73, 0x65, 0x5f, 0x33, 0x31,
  0x30, 0x00, 0x00, 0x00, 0x04, 0x00, 0x00, 0x00, 0x01, 0x00, 0x00, 0x00, 0x01,
  0x00, 0x00, 0x00, 0x01, 0x00, 0x00, 0x00, 0x14, 0x00, 0x00, 0x00, 0xb4, 0xa2,
  0xff, 0xff, 0xf6, 0xfd, 0xff, 0xff, 0x00, 0x00, 0x00, 0x02, 0x01, 0x00, 0x00,
  0x00, 0x24, 0x00, 0x00, 0x00, 0x18, 0x00, 0x00, 0x00, 0x04, 0x00, 0x00, 0x00,
  0xe8, 0xfd, 0xff, 0xff, 0x01, 0x00, 0x00, 0x00, 0x01, 0x00, 0x00, 0x00, 0x01,
  0x00, 0x00, 0x00, 0x01, 0x00, 0x00, 0x00, 0x55, 0x00, 0x00, 0x00, 0x03, 0x00,
  0x00, 0x00, 0x54, 0x00, 0x00, 0x00, 0x0b, 0x00, 0x00, 0x00, 0x45, 0x00, 0x00,
  0x00, 0x64, 0xa3, 0xff, 0xff, 0x3c, 0x00, 0x00, 0x00, 0x56, 0x00, 0x00, 0x00,
  0x20, 0x00, 0x00, 0x00, 0x44, 0x00, 0x00, 0x00, 0x04, 0x00, 0x00, 0x00, 0x04,
  0x00, 0x00, 0x00, 0x01, 0x00, 0x00, 0x00, 0xff, 0xff, 0xff, 0xff, 0xff, 0xff,
  0xff, 0xff, 0x14, 0x00, 0x00, 0x00, 0x0d, 0x00, 0x00, 0x00, 0x64, 0x65, 0x70,
  0x74, 0x68, 0x77, 0x69, 0x73, 0x65, 0x5f, 0x32, 0x31, 0x30, 0x00, 0x00, 0x00,
  0x04, 0x00, 0x00, 0x00, 0x01, 0x00, 0x00, 0x00, 0x01, 0x00, 0x00, 0x00, 0x01,
  0x00, 0x00, 0x00, 0x14, 0x00, 0x00, 0x00, 0x64, 0xa4, 0xff, 0xff, 0x00, 0x00,
  0x0e, 0x00, 0x1a, 0x00, 0x08, 0x00, 0x0c, 0x00, 0x10, 0x00, 0x07, 0x00, 0x14,
  0x00, 0x0e, 0x00, 0x00, 0x00, 0x00, 0x00, 0x00, 0x01, 0x02, 0x00, 0x00, 0x00,
  0x2c, 0x00, 0x00, 0x00, 0x20, 0x00, 0x00, 0x00, 0x10, 0x00, 0x00, 0x00, 0x00,
  0x00, 0x0a, 0x00, 0x0c, 0x00, 0x00, 0x00, 0x04, 0x00, 0x08, 0x00, 0x0a, 0x00,
  0x00, 0x00, 0x01, 0x00, 0x00, 0x00, 0x01, 0x00, 0x00, 0x00, 0x01, 0x00, 0x00,
  0x00, 0x54, 0x00, 0x00, 0x00, 0x03, 0x00, 0x00, 0x00, 0x53, 0x00, 0x00, 0x00,
  0x0a, 0x00, 0x00, 0x00, 0x49, 0x00, 0x00, 0x00, 0xe0, 0xfd, 0xff, 0xff, 0x03,
  0x00, 0x00, 0x00, 0x00, 0x00, 0x00, 0x03, 0x01, 0x00, 0x00, 0x00, 0x24, 0xa4,
  0xff, 0xff, 0x54, 0x00, 0x00, 0x00, 0x55, 0x00, 0x00, 0x00, 0x20, 0x00, 0x00,
  0x00, 0x5c, 0x00, 0x00, 0x00, 0x04, 0x00, 0x00, 0x00, 0x04, 0x00, 0x00, 0x00,
  0x01, 0x00, 0x00, 0x00, 0xff, 0xff, 0xff, 0xff, 0xff, 0xff, 0xff, 0xff, 0x14,
  0x00, 0x00, 0x00, 0x25, 0x00, 0x00, 0x00, 0x42, 0x69, 0x61, 0x73, 0x41, 0x64,
  0x64, 0x3b, 0x64, 0x65, 0x70, 0x74, 0x68, 0x77, 0x69, 0x73, 0x65, 0x5f, 0x33,
  0x39, 0x3b, 0x43, 0x6f, 0x6e, 0x76, 0x32, 0x44, 0x3b, 0x63, 0x6f, 0x6e, 0x76,
  0x5f, 0x30, 0x5f, 0x62, 0x31, 0x00, 0x00, 0x00, 0x04, 0x00, 0x00, 0x00, 0x01,
  0x00, 0x00, 0x00, 0x01, 0x00, 0x00, 0x00, 0x01, 0x00, 0x00, 0x00, 0x14, 0x00,
  0x00, 0x00, 0x24, 0xa4, 0xff, 0xff, 0x66, 0xff, 0xff, 0xff, 0x00, 0x00, 0x00,
  0x02, 0x01, 0x00, 0x00, 0x00, 0x24, 0x00, 0x00, 0x00, 0x18, 0x00, 0x00, 0x00,
  0x04, 0x00, 0x00, 0x00, 0x58, 0xff, 0xff, 0xff, 0x01, 0x00, 0x00, 0x00, 0x01,
  0x00, 0x00, 0x00, 0x01, 0x00, 0x00, 0x00, 0x01, 0x00, 0x00, 0x00, 0x53, 0x00,
  0x00, 0x00, 0x03, 0x00, 0x00, 0x00, 0x52, 0x00, 0x00, 0x00, 0x09, 0x00, 0x00,
  0x00, 0x47, 0x00, 0x00, 0x00, 0xd4, 0xa4, 0xff, 0xff, 0x3c, 0x00, 0x00, 0x00,
  0x54, 0x00, 0x00, 0x00, 0x20, 0x00, 0x00, 0x00, 0x44, 0x00, 0x00, 0x00, 0x04,
  0x00, 0x00, 0x00, 0x04, 0x00, 0x00, 0x00, 0x01, 0x00, 0x00, 0x00, 0xff, 0xff,
  0xff, 0xff, 0xff, 0xff, 0xff, 0xff, 0x01, 0x00, 0x00, 0x00, 0x0d, 0x00, 0x00,
  0x00, 0x64, 0x65, 0x70, 0x74, 0x68, 0x77, 0x69, 0x73, 0x65, 0x5f, 0x31, 0x31,
  0x30, 0x00, 0x00, 0x00, 0x04, 0x00, 0x00, 0x00, 0x01, 0x00, 0x00, 0x00, 0x01,
  0x00, 0x00, 0x00, 0x01, 0x00, 0x00, 0x00, 0x01, 0x00, 0x00, 0x00, 0xd4, 0xa5,
  0xff, 0xff, 0x00, 0x00, 0x0e, 0x00, 0x18, 0x00, 0x08, 0x00, 0x0c, 0x00, 0x10,
  0x00, 0x07, 0x00, 0x14, 0x00, 0x0e, 0x00, 0x00, 0x00, 0x00, 0x00, 0x00, 0x02,
  0x01, 0x00, 0x00, 0x00, 0x30, 0x00, 0x00, 0x00, 0x24, 0x00, 0x00, 0x00, 0x10,
  0x00, 0x00, 0x00, 0x0c, 0x00, 0x10, 0x00, 0x00, 0x00, 0x08, 0x00, 0x0c, 0x00,
  0x04, 0x00, 0x0c, 0x00, 0x00, 0x00, 0x01, 0x00, 0x00, 0x00, 0x01, 0x00, 0x00,
  0x00, 0x01, 0x00, 0x00, 0x00, 0x01, 0x00, 0x00, 0x00, 0x52, 0x00, 0x00, 0x00,
  0x03, 0x00, 0x00, 0x00, 0x51, 0x00, 0x00, 0x00, 0x08, 0x00, 0x00, 0x00, 0x47,
  0x00, 0x00, 0x00, 0x54, 0xff, 0xff, 0xff, 0x04, 0x00, 0x00, 0x00, 0x00, 0x00,
  0x00, 0x04, 0x01, 0x00, 0x00, 0x00, 0x98, 0xa5, 0xff, 0xff, 0x38, 0x00, 0x00,
  0x00, 0x53, 0x00, 0x00, 0x00, 0x20, 0x00, 0x00, 0x00, 0x40, 0x00, 0x00, 0x00,
  0x04, 0x00, 0x00, 0x00, 0x04, 0x00, 0x00, 0x00, 0x01, 0x00, 0x00, 0x00, 0xff,
  0xff, 0xff, 0xff, 0xff, 0xff, 0xff, 0xff, 0x01, 0x00, 0x00, 0x00, 0x0a, 0x00,
  0x00, 0x00, 0x64, 0x65, 0x70, 0x74, 0x68, 0x77, 0x69, 0x73, 0x65, 0x31, 0x00,
  0x00, 0x04, 0x00, 0x00, 0x00, 0x01, 0x00, 0x00, 0x00, 0x01, 0x00, 0x00, 0x00,
  0x01, 0x00, 0x00, 0x00, 0x01, 0x00, 0x00, 0x00, 0x94, 0xa6, 0xff, 0xff, 0x00,
  0x00, 0x0e, 0x00, 0x16, 0x00, 0x00, 0x00, 0x08, 0x00, 0x0c, 0x00, 0x07, 0x00,
  0x10, 0x00, 0x0e, 0x00, 0x00, 0x00, 0x00, 0x00, 0x00, 0x4d, 0x24, 0x00, 0x00,
  0x00, 0x18, 0x00, 0x00, 0x00, 0x0c, 0x00, 0x00, 0x00, 0x00, 0x00, 0x06, 0x00,
  0x08, 0x00, 0x07, 0x00, 0x06, 0x00, 0x00, 0x00, 0x00, 0x00, 0x00, 0x01, 0x01,
  0x00, 0x00, 0x00, 0x51, 0x00, 0x00, 0x00, 0x02, 0x00, 0x00, 0x00, 0x00, 0x00,
  0x00, 0x00, 0x07, 0x00, 0x00, 0x00, 0x0c, 0x00, 0x10, 0x00, 0x0b, 0x00, 0x00,
  0x00, 0x0c, 0x00, 0x04, 0x00, 0x0c, 0x00, 0x00, 0x00, 0x64, 0x00, 0x00, 0x00,
  0x00, 0x00, 0x00, 0x64, 0x01, 0x00, 0x00, 0x00, 0x50, 0xa6, 0xff, 0xff, 0x38,
  0x00, 0x00, 0x00, 0x52, 0x00, 0x00, 0x00, 0x20, 0x00, 0x00, 0x00, 0x40, 0x00,
  0x00, 0x00, 0x04, 0x00, 0x00, 0x00, 0x04, 0x00, 0x00, 0x00, 0x01, 0x00, 0x00,
  0x00, 0xff, 0xff, 0xff, 0xff, 0xff, 0xff, 0xff, 0xff, 0x01, 0x00, 0x00, 0x00,
  0x09, 0x00, 0x00, 0x00, 0x4d, 0x69, 0x72, 0x72, 0x6f, 0x72, 0x50, 0x61, 0x64,
  0x00, 0x00, 0x00, 0x04, 0x00, 0x00, 0x00, 0x01, 0x00, 0x00, 0x00, 0x01, 0x00,
  0x00, 0x00, 0x01, 0x00, 0x00, 0x00, 0x01, 0x00, 0x00, 0x00, 0x34, 0xa6, 0xff,
  0xff, 0x46, 0xa7, 0xff, 0xff, 0x04, 0x00, 0x00, 0x00, 0x04, 0x00, 0x00, 0x00,
  0xb2, 0x4d, 0xbc, 0xb9, 0xf2, 0xa6, 0xff, 0xff, 0x34, 0x00, 0x00, 0x00, 0x51,
  0x00, 0x00, 0x00, 0x08, 0x00, 0x00, 0x00, 0x30, 0x00, 0x00, 0x00, 0x1d, 0x00,
  0x00, 0x00, 0x42, 0x69, 0x61, 0x73, 0x41, 0x64, 0x64, 0x5f, 0x31, 0x39, 0x3b,
  0x43, 0x6f, 0x6e, 0x76, 0x32, 0x44, 0x5f, 0x31, 0x39, 0x3b, 0x63, 0x6f, 0x6e,
  0x76, 0x5f, 0x37, 0x5f, 0x62, 0x00, 0x00, 0x00, 0x01, 0x00, 0x00, 0x00, 0x01,
  0x00, 0x00, 0x00, 0x88, 0xa6, 0xff, 0xff, 0x9a, 0xa7, 0xff, 0xff, 0x04, 0x00,
  0x00, 0x00, 0x50, 0x00, 0x00, 0x00, 0x06, 0xf2, 0x3e, 0x3d, 0x9f, 0xcd, 0xf7,
  0x3d, 0x02, 0xe6, 0xb0, 0x3d, 0x81, 0xb9, 0x11, 0xbe, 0xd2, 0x8a, 0xc9, 0x3c,
  0x0f, 0xe0, 0x59, 0xbd, 0x01, 0x46, 0x93, 0xbc, 0xa1, 0x26, 0xe5, 0xbc, 0xda,
  0xad, 0x61, 0xbd, 0x3d, 0x04, 0xb4, 0x3c, 0x68, 0xd4, 0x91, 0xbd, 0x23, 0x22,
  0x3a, 0x3d, 0x5a, 0x2e, 0x96, 0xbd, 0x89, 0x76, 0xd4, 0x3c, 0x4d, 0xe0, 0x9a,
  0x3c, 0x6e, 0xa9, 0xf5, 0x3d, 0xce, 0xe1, 0xd8, 0xb9, 0x27, 0x8a, 0xc2, 0xbc,
  0xeb, 0xe8, 0x2b, 0x3e, 0x6f, 0x2e, 0xaf, 0x3d, 0x92, 0xa7, 0xff, 0xff, 0x44,
  0x00, 0x00, 0x00, 0x50, 0x00, 0x00, 0x00, 0x08, 0x00, 0x00, 0x00, 0x40, 0x00,
  0x00, 0x00, 0x2c, 0x00, 0x00, 0x00, 0x42, 0x69, 0x61, 0x73, 0x41, 0x64, 0x64,
  0x5f, 0x31, 0x38, 0x3b, 0x64, 0x65, 0x70, 0x74, 0x68, 0x77, 0x69, 0x73, 0x65,
  0x5f, 0x33, 0x39, 0x3b, 0x43, 0x6f, 0x6e, 0x76, 0x32, 0x44, 0x5f, 0x31, 0x38,
  0x3b, 0x63, 0x6f, 0x6e, 0x76, 0x5f, 0x36, 0x5f, 0x31, 0x5f, 0x62, 0x00, 0x00,
  0x00, 0x00, 0x01, 0x00, 0x00, 0x00, 0x14, 0x00, 0x00, 0x00, 0x38, 0xa7, 0xff,
  0xff, 0x4a, 0xa8, 0xff, 0xff, 0x04, 0x00, 0x00, 0x00, 0x2c, 0x00, 0x00, 0x00,
  0x33, 0x1a, 0x70, 0x3e, 0xec, 0x55, 0x2b, 0xbe, 0xf3, 0x06, 0x80, 0xbe, 0x88,
  0x3e, 0x2a, 0xbe, 0xb0, 0x0b, 0x60, 0xbd, 0xbb, 0x52, 0x07, 0x3d, 0xf4, 0xb6,
  0xb8, 0xbd, 0xe9, 0xeb, 0x28, 0x3d, 0x39, 0x84, 0x96, 0xbe, 0x89, 0xa2, 0x11,
  0x3d, 0x5d, 0xd6, 0x84, 0x3e, 0x1e, 0xa8, 0xff, 0xff, 0x44, 0x00, 0x00, 0x00,
  0x4f, 0x00, 0x00, 0x00, 0x08, 0x00, 0x00, 0x00, 0x40, 0x00, 0x00, 0x00, 0x2c,
  0x00, 0x00, 0x00, 0x42, 0x69, 0x61, 0x73, 0x41, 0x64, 0x64, 0x5f, 0x31, 0x35,
  0x3b, 0x64, 0x65, 0x70, 0x74, 0x68, 0x77, 0x69, 0x73, 0x65, 0x5f, 0x33, 0x37,
  0x3b, 0x43, 0x6f, 0x6e, 0x76, 0x32, 0x44, 0x5f, 0x31, 0x35, 0x3b, 0x63, 0x6f,
  0x6e, 0x76, 0x5f, 0x35, 0x5f, 0x31, 0x5f, 0x62, 0x00, 0x00, 0x00, 0x00, 0x01,
  0x00, 0x00, 0x00, 0x0b, 0x00, 0x00, 0x00, 0xc4, 0xa7, 0xff, 0xff, 0xd6, 0xa8,
  0xff, 0xff, 0x04, 0x00, 0x00, 0x00, 0x18, 0x00, 0x00, 0x00, 0xa8, 0xad, 0x1b,
  0x3e, 0xf1, 0x8d, 0x6e, 0x3c, 0x6a, 0xbf, 0xcd, 0xbd, 0x35, 0xa5, 0xd5, 0xbc,
  0x02, 0x7b, 0xa6, 0xbe, 0x4d, 0xfd, 0x10, 0x3f, 0x96, 0xa8, 0xff, 0xff, 0x44,
  0x00, 0x00, 0x00, 0x4e, 0x00, 0x00, 0x00, 0x08, 0x00, 0x00, 0x00, 0x40, 0x00,
  0x00, 0x00, 0x2c, 0x00, 0x00, 0x00, 0x42, 0x69, 0x61, 0x73, 0x41, 0x64, 0x64,
  0x5f, 0x31, 0x32, 0x3b, 0x64, 0x65, 0x70, 0x74, 0x68, 0x77, 0x69, 0x73, 0x65,
  0x5f, 0x33, 0x31, 0x3b, 0x43, 0x6f, 0x6e, 0x76, 0x32, 0x44, 0x5f, 0x31, 0x32,
  0x3b, 0x63, 0x6f, 0x6e, 0x76, 0x5f, 0x34, 0x5f, 0x31, 0x5f, 0x62, 0x00, 0x00,
  0x00, 0x00, 0x01, 0x00, 0x00, 0x00, 0x06, 0x00, 0x00, 0x00, 0x3c, 0xa8, 0xff,
  0xff, 0x4e, 0xa9, 0xff, 0xff, 0x04, 0x00, 0x00, 0x00, 0x10, 0x00, 0x00, 0x00,
  0x31, 0xbe, 0x35, 0xbd, 0x22, 0x1d, 0x1c, 0xbb, 0x7f, 0x4e, 0xaf, 0x3e, 0x28,
  0xd9, 0xa4, 0xbd, 0x06, 0xa9, 0xff, 0xff, 0x40, 0x00, 0x00, 0x00, 0x4d, 0x00,
  0x00, 0x00, 0x08, 0x00, 0x00, 0x00, 0x3c, 0x00, 0x00, 0x00, 0x2a, 0x00, 0x00,
  0x00, 0x42, 0x69, 0x61, 0x73, 0x41, 0x64, 0x64, 0x5f, 0x39, 0x3b, 0x64, 0x65,
  0x70, 0x74, 0x68, 0x77, 0x69, 0x73, 0x65, 0x5f, 0x32, 0x35, 0x3b, 0x43, 0x6f,
  0x6e, 0x76, 0x32, 0x44, 0x5f, 0x39, 0x3b, 0x63, 0x6f, 0x6e, 0x76, 0x5f, 0x33,
  0x5f, 0x31, 0x5f, 0x62, 0x00, 0x00, 0x01, 0x00, 0x00, 0x00, 0x04, 0x00, 0x00,
  0x00, 0xa8, 0xa8, 0xff, 0xff, 0xba, 0xa9, 0xff, 0xff, 0x04, 0x00, 0x00, 0x00,
  0x18, 0x00, 0x00, 0x00, 0xc7, 0x12, 0x45, 0x3e, 0x36, 0x61, 0xe7, 0xbe, 0x06,
  0x04, 0xad, 0xbc, 0xd8, 0x45, 0x6f, 0xbe, 0x14, 0xae, 0x01, 0x3e, 0x0a, 0xc8,
  0x66, 0x3e, 0x7a, 0xa9, 0xff, 0xff, 0x40, 0x00, 0x00, 0x00, 0x4c, 0x00, 0x00,
  0x00, 0x08, 0x00, 0x00, 0x00, 0x3c, 0x00, 0x00, 0x00, 0x2a, 0x00, 0x00, 0x00,
  0x42, 0x69, 0x61, 0x73, 0x41, 0x64, 0x64, 0x5f, 0x36, 0x3b, 0x64, 0x65, 0x70,
  0x74, 0x68, 0x77, 0x69, 0x73, 0x65, 0x5f, 0x33, 0x31, 0x3b, 0x43, 0x6f, 0x6e,
  0x76, 0x32, 0x44, 0x5f, 0x36, 0x3b, 0x63, 0x6f, 0x6e, 0x76, 0x5f, 0x32, 0x5f,
  0x31, 0x5f, 0x62, 0x00, 0x00, 0x01, 0x00, 0x00, 0x00, 0x06, 0x00, 0x00, 0x00,
  0x1c, 0xa9, 0xff, 0xff, 0x2e, 0xaa, 0xff, 0xff, 0x04, 0x00, 0x00, 0x00, 0x2c,
  0x00, 0x00, 0x00, 0x54, 0xb0, 0xe4, 0x3d, 0xd0, 0x8a, 0xb8, 0xbe, 0x04, 0xf3,
  0x4f, 0x3e, 0x3f, 0xa4, 0x21, 0xbf, 0x38, 0xb7, 0x15, 0x3f, 0x7c, 0xbd, 0x2d,
  0xbf, 0x42, 0x31, 0x38, 0x3c, 0x0c, 0x34, 0xaa, 0x3e, 0xef, 0x8c, 0xdb, 0xbd,
  0x37, 0xdb, 0x06, 0x3e, 0x3d, 0xab, 0x16, 0xbf, 0x02, 0xaa, 0xff, 0xff, 0x40,
  0x00, 0x00, 0x00, 0x4b, 0x00, 0x00, 0x00, 0x08, 0x00, 0x00, 0x00, 0x3c, 0x00,
  0x00, 0x00, 0x2a, 0x00, 0x00, 0x00, 0x42, 0x69, 0x61, 0x73, 0x41, 0x64, 0x64,
  0x5f, 0x33, 0x3b, 0x64, 0x65, 0x70, 0x74, 0x68, 0x77, 0x69, 0x73, 0x65, 0x5f,
  0x33, 0x37, 0x3b, 0x43, 0x6f, 0x6e, 0x76, 0x32, 0x44, 0x5f, 0x33, 0x3b, 0x63,
  0x6f, 0x6e, 0x76, 0x5f, 0x31, 0x5f, 0x31, 0x5f, 0x62, 0x00, 0x00, 0x01, 0x00,
  0x00, 0x00, 0x0b, 0x00, 0x00, 0x00, 0xa4, 0xa9, 0xff, 0xff, 0xb6, 0xaa, 0xff,
  0xff, 0x04, 0x00, 0x00, 0x00, 0x50, 0x00, 0x00, 0x00, 0xfb, 0xfa, 0xda, 0xbe,
  0x6f, 0x27, 0x2d, 0xbd, 0xe9, 0x4e, 0x28, 0x3f, 0x5a, 0x4b, 0x1e, 0x40, 0xa3,
  0x66, 0x25, 0x3f, 0xcd, 0x02, 0x43, 0x3f, 0x2b, 0x15, 0xd7, 0x3f, 0x30, 0x94,
  0x31, 0x3f, 0xea, 0x9a, 0xc4, 0xbe, 0x10, 0x2e, 0x7b, 0xbf, 0x12, 0x0b, 0xc2,
  0xbf, 0x79, 0xdb, 0x8b, 0xbe, 0xd0, 0x98, 0x5a, 0xbf, 0x2f, 0xbe, 0x1b, 0x3f,
  0xc7, 0x2e, 0xe6, 0x3e, 0x58, 0x50, 0x38, 0x3f, 0x3a, 0x9e, 0xbb, 0xbe, 0xba,
  0xf6, 0x40, 0xbf, 0x3a, 0xcb, 0xac, 0x3f, 0xaa, 0x2d, 0x7d, 0xbf, 0xae, 0xaa,
  0xff, 0xff, 0x3c, 0x00, 0x00, 0x00, 0x4a, 0x00, 0x00, 0x00, 0x08, 0x00, 0x00,
  0x00, 0x38, 0x00, 0x00, 0x00, 0x24, 0x00, 0x00, 0x00, 0x42, 0x69, 0x61, 0x73,
  0x41, 0x64, 0x64, 0x3b, 0x64, 0x65, 0x70, 0x74, 0x68, 0x77, 0x69, 0x73, 0x65,
  0x5f, 0x33, 0x39, 0x3b, 0x43, 0x6f, 0x6e, 0x76, 0x32, 0x44, 0x3b, 0x63, 0x6f,
  0x6e, 0x76, 0x5f, 0x30, 0x5f, 0x62, 0x00, 0x00, 0x00, 0x00, 0x01, 0x00, 0x00,
  0x00, 0x14, 0x00, 0x00, 0x00, 0x4c, 0xaa, 0xff, 0xff, 0x5e, 0xab, 0xff, 0xff,
  0x04, 0x00, 0x00, 0x00, 0x50, 0x00, 0x00, 0x00, 0x3a, 0xb6, 0x69, 0xbd, 0xfd,
  0x55, 0x69, 0xbd, 0xcd, 0xbf, 0x21, 0xbd, 0xba, 0x12, 0x0d, 0x3d, 0x31, 0x3f,
  0xcc, 0xbc, 0x31, 0xbe, 0x11, 0xbd, 0x08, 0x8e, 0x0a, 0x3d, 0x95, 0x2d, 0xfe,
  0xbc, 0xc0, 0xd8, 0x16, 0x3d, 0xa1, 0x43, 0x0d, 0x3d, 0xa7, 0x38, 0x1b, 0xbd,
  0xb8, 0xa2, 0x35, 0x3d, 0x11, 0xf4, 0x31, 0x3d, 0x5a, 0x18, 0x60, 0x3d, 0x02,
  0xf4, 0x15, 0xbd, 0x2f, 0x0a, 0x18, 0xbd, 0xe6, 0x9d, 0x17, 0xbd, 0xa7, 0x8e,
  0x49, 0xbd, 0xaa, 0xc8, 0x12, 0x3d, 0x3d, 0xec, 0x0a, 0xbd, 0x56, 0xab, 0xff,
  0xff, 0x20, 0x00, 0x00, 0x00, 0x49, 0x00, 0x00, 0x00, 0x08, 0x00, 0x00, 0x00,
  0x28, 0x00, 0x00, 0x00, 0x0a, 0x00, 0x00, 0x00, 0x43, 0x6f, 0x6e, 0x76, 0x32,
  0x44, 0x5f, 0x31, 0x39, 0x31, 0x00, 0x00, 0x04, 0x00, 0x00, 0x00, 0x01, 0x00,
  0x00, 0x00, 0x01, 0x00, 0x00, 0x00, 0x01, 0x00, 0x00, 0x00, 0x14, 0x00, 0x00,
  0x00, 0xe4, 0xaa, 0xff, 0xff, 0xf6, 0xab, 0xff, 0xff, 0x04, 0x00, 0x00, 0x00,
  0x04, 0x00, 0x00, 0x00, 0x00, 0x00, 0x00, 0x00, 0xa2, 0xab, 0xff, 0xff, 0x20,
  0x00, 0x00, 0x00, 0x48, 0x00, 0x00, 0x00, 0x08, 0x00, 0x00, 0x00, 0x1c, 0x00,
  0x00, 0x00, 0x09, 0x00, 0x00, 0x00, 0x43, 0x6f, 0x6e, 0x76, 0x32, 0x44, 0x5f,
  0x31, 0x39, 0x00, 0x00, 0x00, 0x01, 0x00, 0x00, 0x00, 0x01, 0x00, 0x00, 0x00,
  0x24, 0xab, 0xff, 0xff, 0x36, 0xac, 0xff, 0xff, 0x04, 0x00, 0x00, 0x00, 0x30,
  0x02, 0x00, 0x00, 0xe0, 0x8d, 0x0c, 0xbe, 0x27, 0x22, 0xc4, 0xbe, 0xc5, 0x1b,
  0x3f, 0xbd, 0x98, 0xa1, 0x95, 0xbd, 0x6e, 0x48, 0x07, 0x3f, 0xe4, 0x2c, 0xd5,
  0xbd, 0x44, 0x66, 0x83, 0x3b, 0x24, 0xf4, 0x43, 0xbe, 0x43, 0x36, 0x0a, 0x3d,
  0xb8, 0x84, 0xe7, 0x3d, 0xe3, 0x0a, 0xeb, 0x3d, 0xae, 0x43, 0x09, 0x3d, 0x70,
  0x8b, 0x85, 0xbd, 0x86, 0x8e, 0x85, 0x3d, 0xe1, 0x09, 0xc6, 0xbd, 0xfc, 0x60,
  0x27, 0xbc, 0x44, 0xd8, 0x2b, 0x3d, 0xc4, 0x5c, 0x1a, 0xbe, 0xf6, 0x44, 0xc8,
  0xbd, 0x8c, 0x6e, 0x0a, 0xbc, 0x16, 0x01, 0x81, 0xbc, 0x0d, 0x99, 0x05, 0x3f,
  0x4b, 0x82, 0x43, 0xbd, 0x76, 0xa7, 0x90, 0xbc, 0xf0, 0xf0, 0x2c, 0xbe, 0xbe,
  0x2d, 0x4d, 0x3e, 0x25, 0xc0, 0x01, 0x3f, 0x83, 0xe1, 0x17, 0xbe, 0x2d, 0x12,
  0x44, 0x3d, 0x7f, 0x18, 0x1d, 0x3d, 0x5c, 0xb9, 0xb2, 0x3e, 0x8b, 0x84, 0x10,
  0xbe, 0x6c, 0xda, 0x6d, 0xbe, 0x19, 0xca, 0x70, 0x3e, 0xa6, 0x32, 0xe1, 0xbb,
  0x75, 0xae, 0x48, 0xbd, 0xac, 0x56, 0xc0, 0x3c, 0xce, 0x1d, 0xf5, 0xbd, 0xd9,
  0x1c, 0x53, 0xbd, 0x08, 0xaa, 0xe8, 0xbd, 0xec, 0xd9, 0x36, 0xbe, 0xf2, 0xe0,
  0x84, 0xbd, 0x3a, 0x79, 0x85, 0xbe, 0x45, 0x0c, 0xfd, 0x3c, 0xa6, 0x2b, 0xbf,
  0x3d, 0x84, 0x64, 0xf3, 0xbc, 0xb3, 0x55, 0x8f, 0xbe, 0x1b, 0x87, 0x46, 0xbd,
  0x6b, 0x84, 0xbb, 0x3d, 0xb1, 0xbd, 0xca, 0x3e, 0x84, 0x58, 0x42, 0x3e, 0x4f,
  0x78, 0x42, 0x3e, 0x4d, 0x9c, 0xf5, 0x3e, 0x7f, 0x76, 0xd0, 0xbe, 0x35, 0xe2,
  0x35, 0xbc, 0xf1, 0x66, 0xdf, 0x3e, 0x14, 0x71, 0xc6, 0xbd, 0x8c, 0x4a, 0x48,
  0x3d, 0x47, 0x7a, 0xd1, 0x3e, 0x54, 0x15, 0x94, 0xbe, 0xd4, 0x3c, 0x9c, 0xbd,
  0x94, 0xa9, 0x76, 0xbe, 0xb9, 0xb6, 0xc3, 0xbd, 0x52, 0x06, 0x37, 0x3e, 0x3e,
  0x50, 0x52, 0x3d, 0x43, 0xfd, 0xc1, 0x3e, 0xe0, 0xbd, 0x67, 0xbc, 0x8f, 0x3b,
  0x97, 0x3e, 0x35, 0x02, 0x9d, 0x3e, 0xba, 0x0a, 0x0b, 0xbd, 0xc5, 0xd1, 0x5f,
  0xbe, 0x08, 0x0b, 0x54, 0x3e, 0xcc, 0x19, 0x27, 0xbe, 0x59, 0xa6, 0x28, 0xbe,
  0x8c, 0xda, 0x2d, 0x3f, 0x87, 0x8c, 0x57, 0xbe, 0x42, 0x7a, 0x7b, 0x3d, 0xfd,
  0xc8, 0x24, 0x3f, 0xc5, 0x1a, 0xdb, 0xbe, 0x30, 0x84, 0xb1, 0x3d, 0xe6, 0xc7,
  0xe5, 0xbd, 0x44, 0xb7, 0x03, 0x3e, 0xbb, 0x49, 0x60, 0xbe, 0xf6, 0x8b, 0x03,
  0x3e, 0x33, 0xef, 0xed, 0xbd, 0x87, 0xe1, 0xce, 0x3b, 0x9b, 0x47, 0xc2, 0xbe,
  0xbf, 0x52, 0x77, 0x3e, 0x47, 0xd4, 0xba, 0x3e, 0x23, 0xca, 0xcd, 0xbe, 0x81,
  0xf4, 0xc5, 0x3d, 0x6e, 0xf6, 0x85, 0x3e, 0x08, 0x39, 0x00, 0x3d, 0xfe, 0x0d,
  0x39, 0x3f, 0xbd, 0xc8, 0x8d, 0xbe, 0xee, 0x53, 0x67, 0xbe, 0x96, 0x14, 0x89,
  0x3d, 0x63, 0x30, 0xe7, 0xbe, 0xe5, 0x36, 0x87, 0xbe, 0x10, 0x0f, 0xb1, 0x3e,
  0x82, 0x0f, 0xa3, 0xbd, 0x39, 0xc9, 0x9c, 0x3e, 0x44, 0x9f, 0x26, 0x3b, 0x16,
  0x5f, 0x0f, 0x3e, 0x2e, 0x8c, 0x21, 0xbe, 0x35, 0x9c, 0xa5, 0xbd, 0x1e, 0xd9,
  0x1c, 0xbe, 0x00, 0xb4, 0x87, 0xbd, 0x94, 0x76, 0x27, 0xbd, 0x18, 0x27, 0xba,
  0xbd, 0xed, 0xd5, 0x82, 0x3d, 0x65, 0xde, 0x44, 0x3d, 0xff, 0x01, 0xc2, 0xbd,
  0x22, 0xaf, 0x02, 0xbf, 0x64, 0xf6, 0xd0, 0xbd, 0xf7, 0xab, 0x64, 0xbd, 0xdc,
  0x65, 0x81, 0x3e, 0x4b, 0x47, 0xeb, 0x3d, 0x39, 0x8e, 0x04, 0x3f, 0x7a, 0x63,
  0xe0, 0xbd, 0x63, 0xdb, 0xfd, 0xbd, 0x5a, 0xbc, 0x97, 0xbe, 0x90, 0x05, 0x79,
  0xbd, 0x36, 0x5b, 0x1b, 0x3d, 0x39, 0x74, 0x80, 0x3d, 0xf9, 0x50, 0x2f, 0xbe,
  0x0e, 0xeb, 0x92, 0x3e, 0xbd, 0x24, 0x20, 0x3e, 0xfc, 0x24, 0x92, 0x3d, 0x17,
  0x79, 0x78, 0xbc, 0x85, 0x8b, 0x86, 0x3d, 0x1c, 0x2b, 0xde, 0xba, 0xc2, 0x45,
  0x77, 0xbe, 0x07, 0x3d, 0x85, 0x3d, 0xe9, 0x6f, 0xf7, 0xbd, 0x99, 0x10, 0x29,
  0x3d, 0x7a, 0xf4, 0xaf, 0x3d, 0x24, 0x0b, 0xbc, 0xbd, 0x0c, 0x93, 0x20, 0xbe,
  0x96, 0xa8, 0x21, 0xbe, 0x0e, 0xae, 0xff, 0xff, 0x24, 0x00, 0x00, 0x00, 0x47,
  0x00, 0x00, 0x00, 0x08, 0x00, 0x00, 0x00, 0x2c, 0x00, 0x00, 0x00, 0x0d, 0x00,
  0x00, 0x00, 0x64, 0x65, 0x70, 0x74, 0x68, 0x77, 0x69, 0x73, 0x65, 0x5f, 0x33,
  0x39, 0x31, 0x00, 0x00, 0x00, 0x04, 0x00, 0x00, 0x00, 0x01, 0x00, 0x00, 0x00,
  0x01, 0x00, 0x00, 0x00, 0x07, 0x00, 0x00, 0x00, 0x14, 0x00, 0x00, 0x00, 0xa0,
  0xad, 0xff, 0xff, 0xb2, 0xae, 0xff, 0xff, 0x04, 0x00, 0x00, 0x00, 0x50, 0x00,
  0x00, 0x00, 0x00, 0x00, 0x00, 0x00, 0x00, 0x00, 0x00, 0x00, 0x00, 0x00, 0x00,
  0x00, 0x00, 0x00, 0x00, 0x00, 0x00, 0x00, 0x00, 0x00, 0x00, 0x00, 0x00, 0x00,
  0x00, 0x00, 0x00, 0x00, 0x00, 0x00, 0x00, 0x00, 0x00, 0x00, 0x00, 0x00, 0x00,
  0x00, 0x00, 0x00, 0x00, 0x00, 0x00, 0x00, 0x00, 0x00, 0x00, 0x00, 0x00, 0x00,
  0x00, 0x00, 0x00, 0x00, 0x00, 0x00, 0x00, 0x00, 0x00, 0x00, 0x00, 0x00, 0x00,
  0x00, 0x00, 0x00, 0x00, 0x00, 0x00, 0x00, 0x00, 0x00, 0x00, 0x00, 0x00, 0x00,
  0x00, 0x00, 0x00, 0x00, 0xaa, 0xae, 0xff, 0xff, 0x24, 0x00, 0x00, 0x00, 0x46,
  0x00, 0x00, 0x00, 0x08, 0x00, 0x00, 0x00, 0x20, 0x00, 0x00, 0x00, 0x0c, 0x00,
  0x00, 0x00, 0x64, 0x65, 0x70, 0x74, 0x68, 0x77, 0x69, 0x73, 0x65, 0x5f, 0x33,
  0x39, 0x00, 0x00, 0x00, 0x00, 0x01, 0x00, 0x00, 0x00, 0x14, 0x00, 0x00, 0x00,
  0x30, 0xae, 0xff, 0xff, 0x42, 0xaf, 0xff, 0xff, 0x04, 0x00, 0x00, 0x00, 0x30,
  0x02, 0x00, 0x00, 0x87, 0x25, 0x1d, 0x3b, 0x74, 0x0e, 0x35, 0x3d, 0xdc, 0x01,
  0x28, 0xbe, 0x03, 0xb7, 0x0f, 0x3f, 0x3a, 0x4a, 0x51, 0x3e, 0x0e, 0x29, 0x24,
  0xbe, 0xd8, 0xb1, 0x4e, 0x3d, 0x28, 0x16, 0x97, 0x3d, 0x16, 0x1d, 0x00, 0x3d,
  0xa1, 0x8e, 0x0b, 0xbd, 0x73, 0xfe, 0x1b, 0xbe, 0xdb, 0x77, 0x76, 0xbd, 0x12,
  0xa0, 0xb5, 0xbd, 0x14, 0x90, 0xa9, 0x3d, 0x71, 0x12, 0x6b, 0x3d, 0xed, 0x2c,
  0xb3, 0x3d, 0x92, 0xe0, 0x6a, 0x3e, 0xcd, 0xa3, 0x38, 0xbd, 0x36, 0xf2, 0xb5,
  0xbd, 0xf2, 0xf5, 0x01, 0xbe, 0x8f, 0x43, 0x22, 0x3e, 0x6a, 0xf2, 0xf4, 0x3d,
  0x10, 0x24, 0xe4, 0x3d, 0xc0, 0xf5, 0x94, 0xbe, 0xea, 0xbb, 0x42, 0x3c, 0x96,
  0x8b, 0x17, 0xbd, 0x6e, 0x48, 0x72, 0x3d, 0xe1, 0x7a, 0x16, 0x3e, 0xd2, 0x92,
  0x9a, 0x3e, 0x9c, 0xfb, 0xa1, 0x3d, 0x52, 0x75, 0xe9, 0xbd, 0x16, 0x1d, 0x50,
  0xbe, 0xa4, 0x98, 0xa9, 0x3c, 0x49, 0x5e, 0xc1, 0x3d, 0x78, 0x4a, 0x45, 0xbe,
  0x5b, 0x8d, 0x76, 0x3d, 0x9d, 0xb4, 0x6e, 0xbe, 0xc2, 0x78, 0x89, 0xbc, 0x9a,
  0x0d, 0xf7, 0xbd, 0x97, 0xcc, 0x70, 0xbe, 0xc7, 0xa8, 0x04, 0x3e, 0xf3, 0xd8,
  0x45, 0x3e, 0xc4, 0xb9, 0xc3, 0x3e, 0xfb, 0xbc, 0xcf, 0x3c, 0x6b, 0xde, 0xaf,
  0xbd, 0x3c, 0xf0, 0x19, 0xbd, 0x33, 0x73, 0xbd, 0x3d, 0x3e, 0x2f, 0x56, 0x3e,
  0x67, 0x36, 0x20, 0xbf, 0x03, 0x60, 0xa3, 0x3b, 0xf0, 0x14, 0x82, 0x3e, 0xed,
  0x1a, 0xb1, 0x3e, 0x2d, 0x30, 0x13, 0xbd, 0x9b, 0xf9, 0x67, 0x3e, 0xb9, 0xe4,
  0xde, 0x3e, 0x24, 0x9a, 0x9d, 0x3e, 0x02, 0x4b, 0x3e, 0x3e, 0x6e, 0x94, 0xc9,
  0xbd, 0xe2, 0xa0, 0x6b, 0xbe, 0xaa, 0x56, 0x68, 0xbd, 0x4b, 0x71, 0x8f, 0xbe,
  0x58, 0x5a, 0x3c, 0x3e, 0x09, 0xca, 0x1a, 0xbf, 0x26, 0x18, 0x88, 0xbe, 0xd5,
  0x4b, 0x9b, 0xbd, 0x4e, 0xfd, 0x92, 0xbe, 0xad, 0x66, 0x8b, 0x3d, 0x0f, 0x40,
  0x2f, 0x3d, 0xc1, 0xdf, 0x91, 0x3e, 0x2f, 0xb2, 0xd3, 0xbe, 0x3e, 0x35, 0xe1,
  0x3e, 0xe1, 0xda, 0x77, 0xbd, 0xf5, 0x41, 0x45, 0x3e, 0xa1, 0xab, 0xe7, 0x3d,
  0xfd, 0x06, 0x05, 0x3e, 0x7c, 0xcc, 0x9a, 0xbe, 0x27, 0xf6, 0x96, 0x3d, 0xd1,
  0xcc, 0x51, 0x3b, 0x87, 0x90, 0x06, 0xbe, 0x9e, 0x89, 0xf8, 0x3d, 0x08, 0x10,
  0xcc, 0xbe, 0xe8, 0x9f, 0x2c, 0x3d, 0xd9, 0xb3, 0x0b, 0x3f, 0x77, 0x7b, 0xc9,
  0x3d, 0x8d, 0xcb, 0xae, 0xbd, 0x21, 0x0d, 0x37, 0xbe, 0xac, 0x57, 0x90, 0x3c,
  0x7a, 0xa0, 0xee, 0xbe, 0x0f, 0x04, 0x49, 0xbe, 0xf9, 0x19, 0x5f, 0xbe, 0x12,
  0x03, 0xf5, 0xbe, 0x17, 0x61, 0xb7, 0xbe, 0x38, 0x80, 0xb0, 0x3e, 0xcf, 0xab,
  0xd2, 0x3d, 0xd9, 0xb9, 0x0a, 0xbe, 0x17, 0xff, 0xf9, 0x3c, 0xc8, 0xce, 0x47,
  0xbe, 0x9e, 0x72, 0x11, 0xbf, 0x1f, 0x29, 0xb0, 0x3e, 0x15, 0x5f, 0xce, 0xbd,
  0xae, 0xbd, 0x16, 0x3f, 0xae, 0x47, 0xfb, 0x3b, 0x6c, 0xc8, 0xbd, 0xbe, 0x9e,
  0xf3, 0xe6, 0xbd, 0x4b, 0x13, 0x12, 0xbe, 0x00, 0x6c, 0x01, 0x3f, 0xb7, 0xfc,
  0x85, 0x3d, 0xea, 0x33, 0x3f, 0xbd, 0xa0, 0xca, 0xbe, 0x3d, 0xf2, 0xe3, 0xd8,
  0x3e, 0xa6, 0xbf, 0x94, 0x3c, 0xd0, 0x43, 0xdf, 0xbd, 0xda, 0xf4, 0x74, 0xbe,
  0xb2, 0xf8, 0x8a, 0x3c, 0x2a, 0xda, 0xd5, 0x3d, 0x73, 0xec, 0x29, 0xbe, 0xb6,
  0xb0, 0xac, 0x3e, 0x50, 0xb6, 0xa0, 0x3d, 0x1b, 0x5a, 0x73, 0x3e, 0x39, 0x31,
  0x61, 0x3e, 0xd1, 0x09, 0x20, 0xbe, 0xd2, 0x09, 0x32, 0xbb, 0x6d, 0x2d, 0xf0,
  0x3d, 0x22, 0xb1, 0xc4, 0x3b, 0x4c, 0x4e, 0xa1, 0x3e, 0xdd, 0x99, 0x03, 0x3e,
  0xf2, 0xa6, 0x50, 0x3e, 0xb2, 0x82, 0x3a, 0xbd, 0x93, 0xb1, 0xf8, 0x3d, 0x3d,
  0xc5, 0x83, 0xbd, 0x0d, 0xdd, 0xcb, 0xbc, 0x2c, 0xf9, 0xf1, 0x3e, 0x3a, 0x20,
  0xed, 0xbc, 0x8f, 0x75, 0x19, 0x3d, 0x12, 0x1b, 0x47, 0xbd, 0x93, 0xcd, 0x94,
  0x3e, 0x9d, 0x09, 0x91, 0xbd, 0x08, 0x51, 0x54, 0x3d, 0x1b, 0x32, 0x2c, 0x3e,
  0xd6, 0x6f, 0x50, 0x3e, 0x1a, 0xb1, 0xff, 0xff, 0x24, 0x00, 0x00, 0x00, 0x45,
  0x00, 0x00, 0x00, 0x08, 0x00, 0x00, 0x00, 0x2c, 0x00, 0x00, 0x00, 0x0c, 0x00,
  0x00, 0x00, 0x64, 0x65, 0x70, 0x74, 0x68, 0x77, 0x69, 0x73, 0x65, 0x5f, 0x33,
  0x38, 0x00, 0x00, 0x00, 0x00, 0x04, 0x00, 0x00, 0x00, 0x01, 0x00, 0x00, 0x00,
  0x07, 0x00, 0x00, 0x00, 0x01, 0x00, 0x00, 0x00, 0x14, 0x00, 0x00, 0x00, 0xac,
  0xb0, 0xff, 0xff, 0xbe, 0xb1, 0xff, 0xff, 0x04, 0x00, 0x00, 0x00, 0x70, 0x03,
  0x00, 0x00, 0x94, 0xbb, 0x0e, 0xbf, 0xeb, 0x7c, 0xaf, 0x3c, 0xe9, 0x3a, 0xb4,
  0x3d, 0x73, 0xce, 0xa9, 0xbd, 0xff, 0x23, 0xb0, 0xbe, 0x46, 0xff, 0x86, 0xbe,
  0x40, 0x89, 0x06, 0xbf, 0x2a, 0xfc, 0x94, 0xbe, 0x4c, 0x7a, 0x9c, 0xbe, 0x87,
  0x36, 0xb7, 0x3d, 0xe1, 0xfd, 0x48, 0x3f, 0x0e, 0x75, 0xb6, 0x3e, 0x8c, 0x30,
  0x8a, 0x3b, 0x7a, 0x6d, 0x28, 0x3f, 0xd3, 0x95, 0x84, 0x3e, 0x99, 0x1a, 0xc8,
  0xbe, 0x73, 0xc4, 0xe5, 0xbe, 0xcd, 0x89, 0x66, 0x3c, 0x50, 0xa2, 0x74, 0xbe,
  0x19, 0xd7, 0x54, 0x3f, 0x1c, 0x9f, 0xc4, 0x3e, 0x58, 0x72, 0x49, 0x3e, 0x4f,
  0xdf, 0x7b, 0x3e, 0x7b, 0xd5, 0x0e, 0xbe, 0x28, 0xbf, 0x6d, 0x3e, 0x02, 0x73,
  0x31, 0x3e, 0x48, 0x55, 0x69, 0x3e, 0xd0, 0x91, 0xb1, 0xbd, 0x1b, 0xf0, 0x92,
  0x3d, 0x5e, 0x10, 0x6f, 0x3f, 0x46, 0xc3, 0x88, 0xbd, 0x82, 0x3a, 0xee, 0x3d,
  0x23, 0xba, 0x2e, 0xbd, 0x1b, 0x8c, 0x14, 0x3e, 0x62, 0xd0, 0x75, 0xbe, 0x87,
  0x14, 0x3d, 0xbf, 0x8f, 0xc4, 0x05, 0x3f, 0x83, 0x30, 0x92, 0x3e, 0xb9, 0x73,
  0x0a, 0xbf, 0x6e, 0xf8, 0x43, 0xbe, 0xa3, 0xe7, 0xa9, 0xbf, 0xbb, 0x6d, 0x27,
  0xbf, 0xdc, 0xe1, 0xf8, 0x3e, 0xa6, 0x84, 0x9d, 0xbe, 0x33, 0x20, 0xd0, 0xbd,
  0x7d, 0x70, 0x33, 0x3d, 0x5a, 0x12, 0x11, 0xbf, 0x50, 0x9b, 0x8a, 0xbf, 0x82,
  0x66, 0x57, 0x3e, 0x9d, 0xf7, 0x6d, 0xbd, 0xbf, 0x4f, 0x0f, 0x3d, 0xaa, 0x4c,
  0x3c, 0x3f, 0x26, 0x2a, 0xc4, 0x3e, 0x83, 0xd5, 0x93, 0x3e, 0xf9, 0x1d, 0x49,
  0xbf, 0x1e, 0x46, 0x87, 0x3e, 0xce, 0x7b, 0x9d, 0x3f, 0x04, 0xe5, 0x0d, 0x3f,
  0xa1, 0xad, 0x18, 0x3f, 0xc9, 0x16, 0x3c, 0xbf, 0x04, 0xba, 0xb7, 0x3e, 0xc0,
  0x0d, 0x27, 0xbe, 0x8b, 0x18, 0xd0, 0xbe, 0x27, 0x6f, 0xba, 0xbe, 0xc2, 0xaa,
  0xb3, 0x3e, 0x37, 0xff, 0x29, 0x3d, 0xdd, 0xa0, 0xe7, 0xbd, 0xe1, 0xb9, 0x09,
  0x3e, 0x82, 0x29, 0x0e, 0xbf, 0x9c, 0xbe, 0x5c, 0x3f, 0x5d, 0x99, 0x03, 0xbf,
  0xf3, 0x64, 0xa8, 0xbe, 0x13, 0xa2, 0x8e, 0xbe, 0x70, 0x8b, 0x48, 0xbf, 0xa4,
  0x3a, 0x8e, 0x3d, 0x97, 0xda, 0xa3, 0xbd, 0x4b, 0x5a, 0x25, 0xbf, 0x9f, 0x3c,
  0x4c, 0xbd, 0x40, 0x3e, 0xc3, 0x3e, 0xd5, 0xc7, 0x09, 0xbf, 0x1d, 0x9f, 0xb4,
  0xbe, 0x04, 0x7b, 0x88, 0x3f, 0xde, 0xd8, 0x7c, 0x3f, 0x87, 0xca, 0x7c, 0x3e,
  0x82, 0xa8, 0xc6, 0xbd, 0xfc, 0xb7, 0xd6, 0xbc, 0x9d, 0xe2, 0x09, 0xbf, 0x0f,
  0x8d, 0xf8, 0x3d, 0xea, 0x1d, 0x25, 0xbe, 0xc6, 0xf5, 0xa8, 0x3e, 0xde, 0x57,
  0x80, 0xbd, 0xbc, 0x59, 0xd1, 0xbe, 0x31, 0x80, 0xc9, 0xbd, 0xeb, 0xbd, 0x3b,
  0x3d, 0xe9, 0x03, 0xce, 0xbe, 0xc4, 0x39, 0x04, 0xbc, 0x25, 0x35, 0x3d, 0xbf,
  0x92, 0x92, 0x19, 0x3f, 0x9d, 0x7f, 0xe4, 0xbd, 0xb7, 0xbc, 0x2c, 0x3f, 0x1a,
  0x0d, 0x80, 0xbf, 0x0c, 0xff, 0x54, 0x3f, 0x19, 0x21, 0x9e, 0x3e, 0x59, 0xb8,
  0xd0, 0x3c, 0x7c, 0xc5, 0x16, 0x3f, 0xc3, 0x4b, 0x8c, 0xbe, 0xaa, 0xf0, 0x07,
  0xbf, 0x34, 0x54, 0x57, 0xbc, 0x86, 0x08, 0x1a, 0xbe, 0x8b, 0xf6, 0x29, 0xbe,
  0x9e, 0x3c, 0x82, 0x3e, 0x53, 0x96, 0x0e, 0xbe, 0x3d, 0xc9, 0xe2, 0xbd, 0x38,
  0xc0, 0x65, 0xbe, 0x08, 0x23, 0x8c, 0x3e, 0x23, 0x10, 0x68, 0x3e, 0xa5, 0xe6,
  0x3f, 0x3e, 0x99, 0xe3, 0x16, 0xbf, 0xb8, 0x44, 0x90, 0x3c, 0x9e, 0x29, 0xc7,
  0xbe, 0x55, 0xf0, 0xc4, 0x3e, 0x19, 0xcc, 0x81, 0xbe, 0x00, 0x3c, 0xa1, 0xbd,
  0x4e, 0xdb, 0x56, 0x3d, 0xed, 0x20, 0x97, 0xbe, 0xd5, 0x52, 0xaa, 0xbe, 0x19,
  0xf4, 0xc7, 0xbe, 0x40, 0x07, 0x47, 0xbf, 0xa7, 0x22, 0x00, 0xbf, 0x2e, 0x80,
  0x60, 0xbe, 0x32, 0xe7, 0xb7, 0xbc, 0x0d, 0x83, 0x60, 0xbe, 0x93, 0xa6, 0x0d,
  0x3e, 0xbe, 0x5e, 0x79, 0x3e, 0xc9, 0x53, 0xc9, 0xbe, 0xf5, 0xfc, 0x82, 0x3d,
  0x55, 0x94, 0x6d, 0xbf, 0x43, 0x64, 0x5b, 0xbe, 0x89, 0xf4, 0x2d, 0xbd, 0x66,
  0xd2, 0xf0, 0x3e, 0x51, 0x26, 0x01, 0xbe, 0x23, 0x59, 0x16, 0x3d, 0x01, 0x65,
  0x05, 0xbf, 0x86, 0x2a, 0x15, 0xbf, 0x54, 0x3b, 0x7e, 0x3e, 0xc6, 0xc7, 0x63,
  0xbe, 0x44, 0x8a, 0x3b, 0xbe, 0xa1, 0xc6, 0x11, 0xbf, 0xa9, 0xcc, 0xc3, 0x3e,
  0xf3, 0xef, 0xf8, 0x3c, 0x8a, 0x19, 0x9f, 0xbe, 0x26, 0x54, 0x15, 0x3f, 0xc2,
  0x27, 0x4e, 0x3f, 0xe2, 0xef, 0xf8, 0xbd, 0x63, 0x6a, 0x76, 0xbe, 0xdd, 0x3d,
  0x09, 0xbf, 0xfd, 0xe6, 0x21, 0xbf, 0xe1, 0x40, 0x1c, 0xbe, 0x56, 0xc5, 0x0c,
  0xbe, 0x3d, 0x6f, 0x0b, 0x3d, 0x68, 0xa5, 0xa8, 0xbe, 0xc5, 0x9b, 0xfa, 0x3c,
  0xc0, 0xd0, 0xb6, 0x3d, 0x9c, 0xd0, 0x28, 0x3e, 0xef, 0x24, 0xa6, 0xbd, 0x7b,
  0x3a, 0xce, 0x3d, 0xe5, 0xdb, 0xc9, 0xbe, 0xa0, 0x30, 0x0f, 0x3f, 0x77, 0x9f,
  0xee, 0xbd, 0x82, 0x84, 0x46, 0xbe, 0xe6, 0xc8, 0x53, 0xbe, 0xcf, 0xef, 0x7d,
  0xbe, 0x5c, 0x70, 0xd1, 0x3d, 0x75, 0xb0, 0xe8, 0x3e, 0x31, 0x67, 0x23, 0x3e,
  0x85, 0x6f, 0x30, 0x3e, 0xf9, 0x07, 0x22, 0x3e, 0x66, 0x0b, 0xec, 0xbe, 0x8d,
  0xde, 0x6e, 0x3e, 0x75, 0x3f, 0x0e, 0x3f, 0x3a, 0x48, 0x0c, 0xbf, 0xdf, 0x54,
  0x3d, 0x3f, 0xc6, 0x06, 0x4c, 0xbe, 0x46, 0xc6, 0xcf, 0xbe, 0x8c, 0xae, 0x12,
  0x3d, 0xa3, 0x1d, 0x4e, 0x3e, 0x82, 0x66, 0x5e, 0xbf, 0xea, 0xf0, 0xfa, 0x3d,
  0xf3, 0xd8, 0xc3, 0xbd, 0xc9, 0xd4, 0x9c, 0x3e, 0xfc, 0x3a, 0x94, 0x3f, 0x79,
  0x57, 0x7f, 0x3e, 0x43, 0xb2, 0x99, 0xbd, 0x64, 0x3f, 0xa3, 0x3f, 0xfb, 0x2f,
  0xc6, 0xbb, 0xd0, 0xec, 0xd0, 0x3e, 0x48, 0x23, 0x04, 0xbe, 0x15, 0x13, 0x83,
  0x3e, 0xa5, 0xfe, 0x69, 0xbe, 0xbb, 0xb5, 0x8a, 0x3e, 0x7b, 0xd4, 0xd6, 0x3e,
  0x34, 0xb1, 0x70, 0xbe, 0xe7, 0xc4, 0x33, 0x3b, 0xdb, 0x10, 0x3e, 0x3d, 0x71,
  0xab, 0x6f, 0xbc, 0x67, 0xbd, 0x2d, 0x3e, 0xc9, 0xb5, 0x3f, 0x3f, 0x04, 0xfa,
  0xb1, 0xbf, 0x66, 0x45, 0xe4, 0xbd, 0x8c, 0xe8, 0x81, 0xbf, 0xd1, 0xb6, 0xe5,
  0xbe, 0x76, 0x39, 0x0e, 0x3d, 0x63, 0xa7, 0xea, 0x3e, 0x9c, 0xf7, 0x3d, 0xbe,
  0xb1, 0xab, 0x06, 0x3f, 0x63, 0xb6, 0x16, 0xbe, 0xe4, 0x9e, 0x42, 0xbd, 0x9b,
  0xcf, 0x94, 0xbc, 0x4c, 0x90, 0x78, 0xbf, 0x4c, 0xa1, 0x87, 0xbe, 0xd6, 0xb4,
  0xff, 0xff, 0x20, 0x00, 0x00, 0x00, 0x44, 0x00, 0x00, 0x00, 0x08, 0x00, 0x00,
  0x00, 0x28, 0x00, 0x00, 0x00, 0x09, 0x00, 0x00, 0x00, 0x43, 0x6f, 0x6e, 0x76,
  0x32, 0x44, 0x5f, 0x31, 0x38, 0x00, 0x00, 0x00, 0x04, 0x00, 0x00, 0x00, 0x14,
