const unsigned char sr2by1_6_tflite[] = {
  0x1c, 0x00, 0x00, 0x00, 0x54, 0x46, 0x4c, 0x33, 0x14, 0x00, 0x20, 0x00, 0x04,
  0x00, 0x08, 0x00, 0x0c, 0x00, 0x10, 0x00, 0x14, 0x00, 0x00, 0x00, 0x18, 0x00,
  0x1c, 0x00, 0x14, 0x00, 0x00, 0x00, 0x03, 0x00, 0x00, 0x00, 0x7c, 0x02, 0x00,
  0x00, 0x70, 0x02, 0x00, 0x00, 0x60, 0x03, 0x00, 0x00, 0x0c, 0x00, 0x00, 0x00,
  0x08, 0x03, 0x00, 0x00, 0x7c, 0x02, 0x00, 0x00, 0x96, 0x00, 0x00, 0x00, 0xdc,
  0x8a, 0x00, 0x00, 0xd8, 0x8a, 0x00, 0x00, 0xc8, 0x89, 0x00, 0x00, 0x50, 0x89,
  0x00, 0x00, 0xf8, 0x88, 0x00, 0x00, 0xa8, 0x88, 0x00, 0x00, 0x50, 0x88, 0x00,
  0x00, 0xe4, 0x87, 0x00, 0x00, 0x70, 0x87, 0x00, 0x00, 0x08, 0x87, 0x00, 0x00,
  0xa0, 0x86, 0x00, 0x00, 0x08, 0x86, 0x00, 0x00, 0x2c, 0x84, 0x00, 0x00, 0x50,
  0x82, 0x00, 0x00, 0x94, 0x7e, 0x00, 0x00, 0x6c, 0x7d, 0x00, 0x00, 0x44, 0x7c,
  0x00, 0x00, 0x14, 0x7a, 0x00, 0x00, 0x38, 0x78, 0x00, 0x00, 0x5c, 0x76, 0x00,
  0x00, 0xa0, 0x72, 0x00, 0x00, 0x78, 0x71, 0x00, 0x00, 0x50, 0x70, 0x00, 0x00,
  0xfc, 0x6e, 0x00, 0x00, 0x34, 0x6e, 0x00, 0x00, 0x6c, 0x6d, 0x00, 0x00, 0x90,
  0x6c, 0x00, 0x00, 0x64, 0x6b, 0x00, 0x00, 0x38, 0x6a, 0x00, 0x00, 0xe4, 0x68,
  0x00, 0x00, 0x1c, 0x68, 0x00, 0x00, 0x54, 0x67, 0x00, 0x00, 0xa8, 0x66, 0x00,
  0x00, 0x08, 0x66, 0x00, 0x00, 0x68, 0x65, 0x00, 0x00, 0xdc, 0x64, 0x00, 0x00,
  0x14, 0x64, 0x00, 0x00, 0x4c, 0x63, 0x00, 0x00, 0xa0, 0x62, 0x00, 0x00, 0x00,
  0x62, 0x00, 0x00, 0x60, 0x61, 0x00, 0x00, 0xb4, 0x60, 0x00, 0x00, 0xec, 0x5f,
  0x00, 0x00, 0x24, 0x5f, 0x00, 0x00, 0x48, 0x5e, 0x00, 0x00, 0xa8, 0x5d, 0x00,
  0x00, 0x54, 0x5d, 0x00, 0x00, 0xb4, 0x5c, 0x00, 0x00, 0x08, 0x5c, 0x00, 0x00,
  0x40, 0x5b, 0x00, 0x00, 0x78, 0x5a, 0x00, 0x00, 0x24, 0x59, 0x00, 0x00, 0xf8,
  0x57, 0x00, 0x00, 0xcc, 0x56, 0x00, 0x00, 0x9c, 0x54, 0x00, 0x00, 0xd4, 0x53,
  0x00, 0x00, 0x78, 0x53, 0x00, 0x00, 0xb0, 0x52, 0x00, 0x00, 0x5c, 0x51, 0x00,
  0x00, 0x30, 0x50, 0x00, 0x00, 0x04, 0x4f, 0x00, 0x00, 0x48, 0x4b, 0x00, 0x00,
  0x68, 0x49, 0x00, 0x00, 0x88, 0x47, 0x00, 0x00, 0xfc, 0x40, 0x00, 0x00, 0xd0,
  0x3f, 0x00, 0x00, 0x60, 0x3f, 0x00, 0x00, 0x34, 0x3e, 0x00, 0x00, 0x78, 0x3a,
  0x00, 0x00, 0xf8, 0x37, 0x00, 0x00, 0x64, 0x37, 0x00, 0x00, 0xe4, 0x34, 0x00,
  0x00, 0xa0, 0x34, 0x00, 0x00, 0x04, 0x34, 0x00, 0x00, 0x58, 0x33, 0x00, 0x00,
  0xcc, 0x32, 0x00, 0x00, 0x54, 0x32, 0x00, 0x00, 0xe4, 0x31, 0x00, 0x00, 0x68,
  0x31, 0x00, 0x00, 0xd8, 0x30, 0x00, 0x00, 0x24, 0x30, 0x00, 0x00, 0xcc, 0x2f,
  0x00, 0x00, 0x94, 0x89, 0x00, 0x00, 0x90, 0x89, 0x00, 0x00, 0x8c, 0x89, 0x00,
  0x00, 0x88, 0x89, 0x00, 0x00, 0x84, 0x89, 0x00, 0x00, 0x80, 0x89, 0x00, 0x00,
  0x7c, 0x89, 0x00, 0x00, 0x78, 0x89, 0x00, 0x00, 0x74, 0x89, 0x00, 0x00, 0x70,
  0x89, 0x00, 0x00, 0x6c, 0x89, 0x00, 0x00, 0x68, 0x89, 0x00, 0x00, 0x64, 0x89,
  0x00, 0x00, 0x60, 0x89, 0x00, 0x00, 0x5c, 0x89, 0x00, 0x00, 0x58, 0x89, 0x00,
  0x00, 0x54, 0x89, 0x00, 0x00, 0x50, 0x89, 0x00, 0x00, 0x4c, 0x89, 0x00, 0x00,
  0x48, 0x89, 0x00, 0x00, 0x44, 0x89, 0x00, 0x00, 0x40, 0x89, 0x00, 0x00, 0x3c,
  0x89, 0x00, 0x00, 0x38, 0x89, 0x00, 0x00, 0x34, 0x89, 0x00, 0x00, 0x30, 0x89,
  0x00, 0x00, 0x2c, 0x89, 0x00, 0x00, 0x28, 0x89, 0x00, 0x00, 0x24, 0x89, 0x00,
  0x00, 0x20, 0x89, 0x00, 0x00, 0x1c, 0x89, 0x00, 0x00, 0x18, 0x89, 0x00, 0x00,
  0x14, 0x89, 0x00, 0x00, 0x10, 0x89, 0x00, 0x00, 0x0c, 0x89, 0x00, 0x00, 0x08,
  0x89, 0x00, 0x00, 0x04, 0x89, 0x00, 0x00, 0x00, 0x89, 0x00, 0x00, 0xfc, 0x88,
  0x00, 0x00, 0xf8, 0x88, 0x00, 0x00, 0xf4, 0x88, 0x00, 0x00, 0xf0, 0x88, 0x00,
  0x00, 0xec, 0x88, 0x00, 0x00, 0xe8, 0x88, 0x00, 0x00, 0xe4, 0x88, 0x00, 0x00,
  0xe0, 0x88, 0x00, 0x00, 0xdc, 0x88, 0x00, 0x00, 0xd8, 0x88, 0x00, 0x00, 0xd4,
  0x88, 0x00, 0x00, 0xd0, 0x88, 0x00, 0x00, 0xcc, 0x88, 0x00, 0x00, 0xc8, 0x88,
  0x00, 0x00, 0xc4, 0x88, 0x00, 0x00, 0xc0, 0x88, 0x00, 0x00, 0xbc, 0x88, 0x00,
  0x00, 0xb8, 0x88, 0x00, 0x00, 0xb4, 0x88, 0x00, 0x00, 0xb0, 0x88, 0x00, 0x00,
  0xac, 0x88, 0x00, 0x00, 0xa8, 0x88, 0x00, 0x00, 0xa4, 0x88, 0x00, 0x00, 0xa0,
  0x88, 0x00, 0x00, 0x9c, 0x88, 0x00, 0x00, 0x98, 0x88, 0x00, 0x00, 0x94, 0x88,
  0x00, 0x00, 0x90, 0x88, 0x00, 0x00, 0x8c, 0x88, 0x00, 0x00, 0xdc, 0x00, 0x00,
  0x00, 0x01, 0x00, 0x00, 0x00, 0x14, 0x01, 0x00, 0x00, 0x04, 0x00, 0x00, 0x00,
  0x48, 0x2e, 0x00, 0x00, 0x8c, 0x2d, 0x00, 0x00, 0x14, 0x2c, 0x00, 0x00, 0xb0,
  0x25, 0x00, 0x00, 0x01, 0x00, 0x00, 0x00, 0x10, 0x00, 0x00, 0x00, 0x0c, 0x00,
  0x14, 0x00, 0x10, 0x00, 0x0c, 0x00, 0x08, 0x00, 0x04, 0x00, 0x0c, 0x00, 0x00,
  0x00, 0x10, 0x00, 0x00, 0x00, 0x18, 0x00, 0x00, 0x00, 0x28, 0x00, 0x00, 0x00,
  0x2c, 0x00, 0x00, 0x00, 0x05, 0x00, 0x00, 0x00, 0x73, 0x65, 0x72, 0x76, 0x65,
  0x00, 0x00, 0x00, 0x0f, 0x00, 0x00, 0x00, 0x73, 0x65, 0x72, 0x76, 0x69, 0x6e,
  0x67, 0x5f, 0x64, 0x65, 0x66, 0x61, 0x75, 0x6c, 0x74, 0x00, 0x01, 0x00, 0x00,
  0x00, 0x14, 0x00, 0x00, 0x00, 0x01, 0x00, 0x00, 0x00, 0x24, 0x00, 0x00, 0x00,
  0x08, 0x00, 0x0c, 0x00, 0x08, 0x00, 0x04, 0x00, 0x08, 0x00, 0x00, 0x00, 0x93,
  0x00, 0x00, 0x00, 0x04, 0x00, 0x00, 0x00, 0x06, 0x00, 0x00, 0x00, 0x6f, 0x75,
  0x74, 0x70, 0x75, 0x74, 0x00, 0x00, 0x22, 0x79, 0xff, 0xff, 0x04, 0x00, 0x00,
  0x00, 0x03, 0x00, 0x00, 0x00, 0x69, 0x6d, 0x67, 0x00, 0x01, 0x00, 0x00, 0x00,
  0x0c, 0x00, 0x00, 0x00, 0x08, 0x00, 0x0c, 0x00, 0x04, 0x00, 0x08, 0x00, 0x08,
  0x00, 0x00, 0x00, 0x08, 0x00, 0x00, 0x00, 0x95, 0x00, 0x00, 0x00, 0x13, 0x00,
  0x00, 0x00, 0x6d, 0x69, 0x6e, 0x5f, 0x72, 0x75, 0x6e, 0x74, 0x69, 0x6d, 0x65,
  0x5f, 0x76, 0x65, 0x72, 0x73, 0x69, 0x6f, 0x6e, 0x00, 0x66, 0x79, 0xff, 0xff,
  0x04, 0x00, 0x00, 0x00, 0x10, 0x00, 0x00, 0x00, 0x31, 0x2e, 0x31, 0x33, 0x2e,
  0x31, 0x00, 0x00, 0x00, 0x00, 0x00, 0x00, 0x00, 0x00, 0x00, 0x00, 0x0f, 0x00,
  0x00, 0x00, 0x4d, 0x4c, 0x49, 0x52, 0x20, 0x43, 0x6f, 0x6e, 0x76, 0x65, 0x72,
  0x74, 0x65, 0x64, 0x2e, 0x00, 0x00, 0x00, 0x0e, 0x00, 0x18, 0x00, 0x04, 0x00,
  0x08, 0x00, 0x0c, 0x00, 0x10, 0x00, 0x14, 0x00, 0x0e, 0x00, 0x00, 0x00, 0x40,
  0x01, 0x00, 0x00, 0x34, 0x01, 0x00, 0x00, 0x28, 0x01, 0x00, 0x00, 0x14, 0x00,
  0x00, 0x00, 0x04, 0x00, 0x00, 0x00, 0x04, 0x00, 0x00, 0x00, 0x6d, 0x61, 0x69,
  0x6e, 0x00, 0x00, 0x00, 0x00, 0x43, 0x00, 0x00, 0x00, 0xd0, 0x2c, 0x00, 0x00,
  0x0c, 0x2c, 0x00, 0x00, 0x60, 0x2b, 0x00, 0x00, 0x94, 0x2a, 0x00, 0x00, 0xe8,
  0x29, 0x00, 0x00, 0x4c, 0x29, 0x00, 0x00, 0x84, 0x28, 0x00, 0x00, 0xe8, 0x27,
  0x00, 0x00, 0x4c, 0x27, 0x00, 0x00, 0x98, 0x26, 0x00, 0x00, 0xfc, 0x25, 0x00,
  0x00, 0x60, 0x25, 0x00, 0x00, 0xac, 0x24, 0x00, 0x00, 0x18, 0x24, 0x00, 0x00,
  0x7c, 0x23, 0x00, 0x00, 0xe0, 0x22, 0x00, 0x00, 0x20, 0x22, 0x00, 0x00, 0x84,
  0x21, 0x00, 0x00, 0xe8, 0x20, 0x00, 0x00, 0x34, 0x20, 0x00, 0x00, 0x98, 0x1f,
  0x00, 0x00, 0xfc, 0x1e, 0x00, 0x00, 0x48, 0x1e, 0x00, 0x00, 0xc4, 0x1d, 0x00,
  0x00, 0x28, 0x1d, 0x00, 0x00, 0x8c, 0x1c, 0x00, 0x00, 0xcc, 0x1b, 0x00, 0x00,
  0x30, 0x1b, 0x00, 0x00, 0x94, 0x1a, 0x00, 0x00, 0xe0, 0x19, 0x00, 0x00, 0x44,
  0x19, 0x00, 0x00, 0xa8, 0x18, 0x00, 0x00, 0xf4, 0x17, 0x00, 0x00, 0x70, 0x17,
  0x00, 0x00, 0xd4, 0x16, 0x00, 0x00, 0x38, 0x16, 0x00, 0x00, 0x78, 0x15, 0x00,
  0x00, 0xdc, 0x14, 0x00, 0x00, 0x40, 0x14, 0x00, 0x00, 0x88, 0x13, 0x00, 0x00,
  0xec, 0x12, 0x00, 0x00, 0x50, 0x12, 0x00, 0x00, 0x98, 0x11, 0x00, 0x00, 0x14,
  0x11, 0x00, 0x00, 0x78, 0x10, 0x00, 0x00, 0xdc, 0x0f, 0x00, 0x00, 0x1c, 0x0f,
  0x00, 0x00, 0x80, 0x0e, 0x00, 0x00, 0xe4, 0x0d, 0x00, 0x00, 0x2c, 0x0d, 0x00,
  0x00, 0x90, 0x0c, 0x00, 0x00, 0xf4, 0x0b, 0x00, 0x00, 0x3c, 0x0b, 0x00, 0x00,
  0xb8, 0x0a, 0x00, 0x00, 0x1c, 0x0a, 0x00, 0x00, 0x80, 0x09, 0x00, 0x00, 0xc0,
  0x08, 0x00, 0x00, 0x24, 0x08, 0x00, 0x00, 0x88, 0x07, 0x00, 0x00, 0xd0, 0x06,
  0x00, 0x00, 0x34, 0x06, 0x00, 0x00, 0x98, 0x05, 0x00, 0x00, 0xe0, 0x04, 0x00,
  0x00, 0x5c, 0x04, 0x00, 0x00, 0xb0, 0x03, 0x00, 0x00, 0x10, 0x03, 0x00, 0x00,
  0x68, 0x02, 0x00, 0x00, 0x01, 0x00, 0x00, 0x00, 0x93, 0x00, 0x00, 0x00, 0x01,
  0x00, 0x00, 0x00, 0x00, 0x00, 0x00, 0x00, 0x94, 0x00, 0x00, 0x00, 0xc8, 0x85,
  0x00, 0x00, 0x80, 0x85, 0x00, 0x00, 0xd4, 0x84, 0x00, 0x00, 0x68, 0x84, 0x00,
  0x00, 0x10, 0x84, 0x00, 0x00, 0xc0, 0x83, 0x00, 0x00, 0x68, 0x83, 0x00, 0x00,
  0xf8, 0x82, 0x00, 0x00, 0x7c, 0x82, 0x00, 0x00, 0x14, 0x82, 0x00, 0x00, 0xb0,
  0x81, 0x00, 0x00, 0x14, 0x81, 0x00, 0x00, 0x38, 0x7f, 0x00, 0x00, 0x5c, 0x7d,
  0x00, 0x00, 0xa0, 0x79, 0x00, 0x00, 0x78, 0x78, 0x00, 0x00, 0x50, 0x77, 0x00,
  0x00, 0x20, 0x75, 0x00, 0x00, 0x44, 0x73, 0x00, 0x00, 0x68, 0x71, 0x00, 0x00,
  0xac, 0x6d, 0x00, 0x00, 0x84, 0x6c, 0x00, 0x00, 0x5c, 0x6b, 0x00, 0x00, 0x04,
  0x6a, 0x00, 0x00, 0x3c, 0x69, 0x00, 0x00, 0x78, 0x68, 0x00, 0x00, 0x98, 0x67,
  0x00, 0x00, 0x6c, 0x66, 0x00, 0x00, 0x44, 0x65, 0x00, 0x00, 0xec, 0x63, 0x00,
  0x00, 0x24, 0x63, 0x00, 0x00, 0x60, 0x62, 0x00, 0x00, 0xb0, 0x61, 0x00, 0x00,
  0x10, 0x61, 0x00, 0x00, 0x74, 0x60, 0x00, 0x00, 0xe4, 0x5f, 0x00, 0x00, 0x1c,
  0x5f, 0x00, 0x00, 0x58, 0x5e, 0x00, 0x00, 0xa8, 0x5d, 0x00, 0x00, 0x08, 0x5d,
  0x00, 0x00, 0x6c, 0x5c, 0x00, 0x00, 0xbc, 0x5b, 0x00, 0x00, 0xf4, 0x5a, 0x00,
  0x00, 0x30, 0x5a, 0x00, 0x00, 0x50, 0x59, 0x00, 0x00, 0xbc, 0x58, 0x00, 0x00,
  0x5c, 0x58, 0x00, 0x00, 0xc0, 0x57, 0x00, 0x00, 0x10, 0x57, 0x00, 0x00, 0x48,
  0x56, 0x00, 0x00, 0x84, 0x55, 0x00, 0x00, 0x2c, 0x54, 0x00, 0x00, 0x00, 0x53,
  0x00, 0x00, 0xd8, 0x51, 0x00, 0x00, 0xa4, 0x4f, 0x00, 0x00, 0xe8, 0x4e, 0x00,
  0x00, 0x80, 0x4e, 0x00, 0x00, 0xbc, 0x4d, 0x00, 0x00, 0x64, 0x4c, 0x00, 0x00,
  0x38, 0x4b, 0x00, 0x00, 0x10, 0x4a, 0x00, 0x00, 0x50, 0x46, 0x00, 0x00, 0x70,
  0x44, 0x00, 0x00, 0x94, 0x42, 0x00, 0x00, 0x04, 0x3c, 0x00, 0x00, 0xe4, 0x3a,
  0x00, 0x00, 0x68, 0x3a, 0x00, 0x00, 0x40, 0x39, 0x00, 0x00, 0x80, 0x35, 0x00,
  0x00, 0x0c, 0x33, 0x00, 0x00, 0x6c, 0x32, 0x00, 0x00, 0xfc, 0x2f, 0x00, 0x00,
  0xac, 0x2f, 0x00, 0x00, 0x00, 0x2f, 0x00, 0x00, 0x50, 0x2e, 0x00, 0x00, 0xc4,
  0x2d, 0x00, 0x00, 0x4c, 0x2d, 0x00, 0x00, 0xd8, 0x2c, 0x00, 0x00, 0x5c, 0x2c,
  0x00, 0x00, 0xcc, 0x2b, 0x00, 0x00, 0x28, 0x2b, 0x00, 0x00, 0xc0, 0x2a, 0x00,
  0x00, 0x04, 0x2a, 0x00, 0x00, 0x3c, 0x29, 0x00, 0x00, 0x88, 0x28, 0x00, 0x00,
  0xc4, 0x27, 0x00, 0x00, 0x28, 0x27, 0x00, 0x00, 0x6c, 0x26, 0x00, 0x00, 0xc4,
  0x25, 0x00, 0x00, 0x28, 0x25, 0x00, 0x00, 0x70, 0x24, 0x00, 0x00, 0xd8, 0x23,
  0x00, 0x00, 0x3c, 0x23, 0x00, 0x00, 0x84, 0x22, 0x00, 0x00, 0xf8, 0x21, 0x00,
  0x00, 0x58, 0x21, 0x00, 0x00, 0xbc, 0x20, 0x00, 0x00, 0xfc, 0x1f, 0x00, 0x00,
  0x60, 0x1f, 0x00, 0x00, 0xc4, 0x1e, 0x00, 0x00, 0x0c, 0x1e, 0x00, 0x00, 0x74,
  0x1d, 0x00, 0x00, 0xd8, 0x1c, 0x00, 0x00, 0x20, 0x1c, 0x00, 0x00, 0x90, 0x1b,
  0x00, 0x00, 0x04, 0x1b, 0x00, 0x00, 0x68, 0x1a, 0x00, 0x00, 0xa8, 0x19, 0x00,
  0x00, 0x0c, 0x19, 0x00, 0x00, 0x70, 0x18, 0x00, 0x00, 0xb8, 0x17, 0x00, 0x00,
  0x20, 0x17, 0x00, 0x00, 0x84, 0x16, 0x00, 0x00, 0xcc, 0x15, 0x00, 0x00, 0x3c,
  0x15, 0x00, 0x00, 0xb0, 0x14, 0x00, 0x00, 0x14, 0x14, 0x00, 0x00, 0x54, 0x13,
  0x00, 0x00, 0xb8, 0x12, 0x00, 0x00, 0x1c, 0x12, 0x00, 0x00, 0x60, 0x11, 0x00,
  0x00, 0xc8, 0x10, 0x00, 0x00, 0x2c, 0x10, 0x00, 0x00, 0x70, 0x0f, 0x00, 0x00,
  0xe0, 0x0e, 0x00, 0x00, 0x54, 0x0e, 0x00, 0x00, 0xb8, 0x0d, 0x00, 0x00, 0xf8,
  0x0c, 0x00, 0x00, 0x5c, 0x0c, 0x00, 0x00, 0xc0, 0x0b, 0x00, 0x00, 0x04, 0x0b,
  0x00, 0x00, 0x6c, 0x0a, 0x00, 0x00, 0xd0, 0x09, 0x00, 0x00, 0x14, 0x09, 0x00,
  0x00, 0x84, 0x08, 0x00, 0x00, 0xf8, 0x07, 0x00, 0x00, 0x5c, 0x07, 0x00, 0x00,
  0x9c, 0x06, 0x00, 0x00, 0x00, 0x06, 0x00, 0x00, 0x64, 0x05, 0x00, 0x00, 0xa8,
  0x04, 0x00, 0x00, 0x10, 0x04, 0x00, 0x00, 0x74, 0x03, 0x00, 0x00, 0xb8, 0x02,
  0x00, 0x00, 0x28, 0x02, 0x00, 0x00, 0x9c, 0x01, 0x00, 0x00, 0xf0, 0x00, 0x00,
  0x00, 0x50, 0x00, 0x00, 0x00, 0xde, 0xd8, 0xff, 0xff, 0x00, 0x00, 0x00, 0x01,
  0x02, 0x00, 0x00, 0x00, 0x30, 0x00, 0x00, 0x00, 0x24, 0x00, 0x00, 0x00, 0x10,
  0x00, 0x00, 0x00, 0x00, 0x00, 0x0a, 0x00, 0x10, 0x00, 0x0f, 0x00, 0x04, 0x00,
  0x08, 0x00, 0x0a, 0x00, 0x00, 0x00, 0x01, 0x00, 0x00, 0x00, 0x01, 0x00, 0x00,
  0x00, 0x00, 0x00, 0x00, 0x01, 0x01, 0x00, 0x00, 0x00, 0x93, 0x00, 0x00, 0x00,
  0x03, 0x00, 0x00, 0x00, 0x92, 0x00, 0x00, 0x00, 0x48, 0x00, 0x00, 0x00, 0x50,
  0x00, 0x00, 0x00, 0xe8, 0x7c, 0xff, 0xff, 0x3c, 0x00, 0x00, 0x00, 0x94, 0x00,
  0x00, 0x00, 0x20, 0x00, 0x00, 0x00, 0x44, 0x00, 0x00, 0x00, 0x04, 0x00, 0x00,
  0x00, 0x04, 0x00, 0x00, 0x00, 0x01, 0x00, 0x00, 0x00, 0xff, 0xff, 0xff, 0xff,
  0xff, 0xff, 0xff, 0xff, 0x01, 0x00, 0x00, 0x00, 0x0c, 0x00, 0x00, 0x00, 0x42,
  0x69, 0x61, 0x73, 0x41, 0x64, 0x64, 0x5f, 0x31, 0x39, 0x3a, 0x30, 0x00, 0x00,
  0x00, 0x00, 0x04, 0x00, 0x00, 0x00, 0x01, 0x00, 0x00, 0x00, 0x01, 0x00, 0x00,
  0x00, 0x01, 0x00, 0x00, 0x00, 0x01, 0x00, 0x00, 0x00, 0xd0, 0x7c, 0xff, 0xff,
  0x12, 0xd8, 0xff, 0xff, 0x00, 0x00, 0x00, 0x02, 0x01, 0x00, 0x00, 0x00, 0x28,
  0x00, 0x00, 0x00, 0x1c, 0x00, 0x00, 0x00, 0x04, 0x00, 0x00, 0x00, 0x64, 0xff,
  0xff, 0xff, 0x01, 0x00, 0x00, 0x00, 0x01, 0x00, 0x00, 0x00, 0x01, 0x00, 0x00,
  0x00, 0x00, 0x00, 0x00, 0x01, 0x01, 0x00, 0x00, 0x00, 0x92, 0x00, 0x00, 0x00,
  0x03, 0x00, 0x00, 0x00, 0x91, 0x00, 0x00, 0x00, 0x46, 0x00, 0x00, 0x00, 0x45,
  0x00, 0x00, 0x00, 0x84, 0x7d, 0xff, 0xff, 0x3c, 0x00, 0x00, 0x00, 0x93, 0x00,
  0x00, 0x00, 0x20, 0x00, 0x00, 0x00, 0x44, 0x00, 0x00, 0x00, 0x04, 0x00, 0x00,
  0x00, 0x04, 0x00, 0x00, 0x00, 0x01, 0x00, 0x00, 0x00, 0xff, 0xff, 0xff, 0xff,
  0xff, 0xff, 0xff, 0xff, 0x14, 0x00, 0x00, 0x00, 0x0d, 0x00, 0x00, 0x00, 0x64,
  0x65, 0x70, 0x74, 0x68, 0x77, 0x69, 0x73, 0x65, 0x5f, 0x33, 0x39, 0x32, 0x00,
  0x00, 0x00, 0x04, 0x00, 0x00, 0x00, 0x01, 0x00, 0x00, 0x00, 0x01, 0x00, 0x00,
  0x00, 0x01, 0x00, 0x00, 0x00, 0x14, 0x00, 0x00, 0x00, 0x6c, 0x7d, 0xff, 0xff,
  0xae, 0xd8, 0xff, 0xff, 0x00, 0x00, 0x00, 0x02, 0x01, 0x00, 0x00, 0x00, 0x34,
  0x00, 0x00, 0x00, 0x28, 0x00, 0x00, 0x00, 0x10, 0x00, 0x00, 0x00, 0x0c, 0x00,
  0x14, 0x00, 0x13, 0x00, 0x08, 0x00, 0x0c, 0x00, 0x04, 0x00, 0x0c, 0x00, 0x00,
  0x00, 0x01, 0x00, 0x00, 0x00, 0x01, 0x00, 0x00, 0x00, 0x01, 0x00, 0x00, 0x00,
  0x00, 0x00, 0x00, 0x01, 0x01, 0x00, 0x00, 0x00, 0x91, 0x00, 0x00, 0x00, 0x03,
  0x00, 0x00, 0x00, 0x90, 0x00, 0x00, 0x00, 0x44, 0x00, 0x00, 0x00, 0x45, 0x00,
  0x00, 0x00, 0x2c, 0x7e, 0xff, 0xff, 0x3c, 0x00, 0x00, 0x00, 0x92, 0x00, 0x00,
  0x00, 0x20, 0x00, 0x00, 0x00, 0x44, 0x00, 0x00, 0x00, 0x04, 0x00, 0x00, 0x00,
  0x04, 0x00, 0x00, 0x00, 0x01, 0x00, 0x00, 0x00, 0xff, 0xff, 0xff, 0xff, 0xff,
  0xff, 0xff, 0xff, 0x14, 0x00, 0x00, 0x00, 0x0d, 0x00, 0x00, 0x00, 0x64, 0x65,
  0x70, 0x74, 0x68, 0x77, 0x69, 0x73, 0x65, 0x5f, 0x33, 0x38, 0x31, 0x00, 0x00,
  0x00, 0x04, 0x00, 0x00, 0x00, 0x01, 0x00, 0x00, 0x00, 0x01, 0x00, 0x00, 0x00,
  0x01, 0x00, 0x00, 0x00, 0x14, 0x00, 0x00, 0x00, 0x14, 0x7e, 0xff, 0xff, 0x56,
  0xd9, 0xff, 0xff, 0x00, 0x00, 0x00, 0x0b, 0x03, 0x00, 0x00, 0x00, 0x18, 0x00,
  0x00, 0x00, 0x0c, 0x00, 0x00, 0x00, 0x04, 0x00, 0x00, 0x00, 0x30, 0x7e, 0xff,
  0xff, 0x01, 0x00, 0x00, 0x00, 0x90, 0x00, 0x00, 0x00, 0x02, 0x00, 0x00, 0x00,
  0x8f, 0x00, 0x00, 0x00, 0x8c, 0x00, 0x00, 0x00, 0xb4, 0x7e, 0xff, 0xff, 0x34,
  0x00, 0x00, 0x00, 0x91, 0x00, 0x00, 0x00, 0x20, 0x00, 0x00, 0x00, 0x3c, 0x00,
  0x00, 0x00, 0x04, 0x00, 0x00, 0x00, 0x04, 0x00, 0x00, 0x00, 0x01, 0x00, 0x00,
  0x00, 0xff, 0xff, 0xff, 0xff, 0xff, 0xff, 0xff, 0xff, 0x14, 0x00, 0x00, 0x00,
  0x05, 0x00, 0x00, 0x00, 0x41, 0x64, 0x64, 0x5f, 0x35, 0x00, 0x00, 0x00, 0x04,
  0x00, 0x00, 0x00, 0x01, 0x00, 0x00, 0x00, 0x01, 0x00, 0x00, 0x00, 0x01, 0x00,
  0x00, 0x00, 0x14, 0x00, 0x00, 0x00, 0x94, 0x7e, 0xff, 0xff, 0xd6, 0xd9, 0xff,
  0xff, 0x00, 0x00, 0x00, 0x01, 0x02, 0x00, 0x00, 0x00, 0x20, 0x00, 0x00, 0x00,
  0x14, 0x00, 0x00, 0x00, 0x04, 0x00, 0x00, 0x00, 0x36, 0xdb, 0xff, 0xff, 0x01,
  0x00, 0x00, 0x00, 0x01, 0x00, 0x00, 0x00, 0x01, 0x00, 0x00, 0x00, 0x8f, 0x00,
  0x00, 0x00, 0x03, 0x00, 0x00, 0x00, 0x8e, 0x00, 0x00, 0x00, 0x43, 0x00, 0x00,
  0x00, 0x4f, 0x00, 0x00, 0x00, 0x40, 0x7f, 0xff, 0xff, 0x5c, 0x00, 0x00, 0x00,
  0x90, 0x00, 0x00, 0x00, 0x20, 0x00, 0x00, 0x00, 0x64, 0x00, 0x00, 0x00, 0x04,
  0x00, 0x00, 0x00, 0x04, 0x00, 0x00, 0x00, 0x01, 0x00, 0x00, 0x00, 0xff, 0xff,
  0xff, 0xff, 0xff, 0xff, 0xff, 0xff, 0x14, 0x00, 0x00, 0x00, 0x2d, 0x00, 0x00,
  0x00, 0x42, 0x69, 0x61, 0x73, 0x41, 0x64, 0x64, 0x5f, 0x31, 0x38, 0x3b, 0x64,
  0x65, 0x70, 0x74, 0x68, 0x77, 0x69, 0x73, 0x65, 0x5f, 0x33, 0x39, 0x3b, 0x43,
  0x6f, 0x6e, 0x76, 0x32, 0x44, 0x5f, 0x31, 0x38, 0x3b, 0x63, 0x6f, 0x6e, 0x76,
  0x5f, 0x36, 0x5f, 0x31, 0x5f, 0x62, 0x31, 0x00, 0x00, 0x00, 0x04, 0x00, 0x00,
  0x00, 0x01, 0x00, 0x00, 0x00, 0x01, 0x00, 0x00, 0x00, 0x01, 0x00, 0x00, 0x00,
  0x14, 0x00, 0x00, 0x00, 0x48, 0x7f, 0xff, 0xff, 0x8a, 0xda, 0xff, 0xff, 0x00,
  0x00, 0x00, 0x02, 0x01, 0x00, 0x00, 0x00, 0x24, 0x00, 0x00, 0x00, 0x18, 0x00,
  0x00, 0x00, 0x04, 0x00, 0x00, 0x00, 0x7c, 0xda, 0xff, 0xff, 0x01, 0x00, 0x00,
  0x00, 0x01, 0x00, 0x00, 0x00, 0x01, 0x00, 0x00, 0x00, 0x01, 0x00, 0x00, 0x00,
  0x8e, 0x00, 0x00, 0x00, 0x03, 0x00, 0x00, 0x00, 0x8d, 0x00, 0x00, 0x00, 0x42,
  0x00, 0x00, 0x00, 0x41, 0x00, 0x00, 0x00, 0xf8, 0x7f, 0xff, 0xff, 0x3c, 0x00,
  0x00, 0x00, 0x8f, 0x00, 0x00, 0x00, 0x20, 0x00, 0x00, 0x00, 0x44, 0x00, 0x00,
  0x00, 0x04, 0x00, 0x00, 0x00, 0x04, 0x00, 0x00, 0x00, 0x01, 0x00, 0x00, 0x00,
  0xff, 0xff, 0xff, 0xff, 0xff, 0xff, 0xff, 0xff, 0x0b, 0x00, 0x00, 0x00, 0x0d,
  0x00, 0x00, 0x00, 0x64, 0x65, 0x70, 0x74, 0x68, 0x77, 0x69, 0x73, 0x65, 0x5f,
  0x33, 0x37, 0x32, 0x00, 0x00, 0x00, 0x04, 0x00, 0x00, 0x00, 0x01, 0x00, 0x00,
  0x00, 0x01, 0x00, 0x00, 0x00, 0x01, 0x00, 0x00, 0x00, 0x0b, 0x00, 0x00, 0x00,
  0xe0, 0x7f, 0xff, 0xff, 0x22, 0xdb, 0xff, 0xff, 0x00, 0x00, 0x00, 0x02, 0x01,
  0x00, 0x00, 0x00, 0x24, 0x00, 0x00, 0x00, 0x18, 0x00, 0x00, 0x00, 0x04, 0x00,
  0x00, 0x00, 0x14, 0xdb, 0xff, 0xff, 0x01, 0x00, 0x00, 0x00, 0x01, 0x00, 0x00,
  0x00, 0x01, 0x00, 0x00, 0x00, 0x01, 0x00, 0x00, 0x00, 0x8d, 0x00, 0x00, 0x00,
  0x03, 0x00, 0x00, 0x00, 0x86, 0x00, 0x00, 0x00, 0x40, 0x00, 0x00, 0x00, 0x41,
  0x00, 0x00, 0x00, 0x90, 0x80, 0xff, 0xff, 0x3c, 0x00, 0x00, 0x00, 0x8e, 0x00,
  0x00, 0x00, 0x20, 0x00, 0x00, 0x00, 0x44, 0x00, 0x00, 0x00, 0x04, 0x00, 0x00,
  0x00, 0x04, 0x00, 0x00, 0x00, 0x01, 0x00, 0x00, 0x00, 0xff, 0xff, 0xff, 0xff,
  0xff, 0xff, 0xff, 0xff, 0x0b, 0x00, 0x00, 0x00, 0x0d, 0x00, 0x00, 0x00, 0x64,
  0x65, 0x70, 0x74, 0x68, 0x77, 0x69, 0x73, 0x65, 0x5f, 0x33, 0x36, 0x31, 0x00,
  0x00, 0x00, 0x04, 0x00, 0x00, 0x00, 0x01, 0x00, 0x00, 0x00, 0x01, 0x00, 0x00,
  0x00, 0x01, 0x00, 0x00, 0x00, 0x0b, 0x00, 0x00, 0x00, 0x78, 0x80, 0xff, 0xff,
  0xba, 0xdb, 0xff, 0xff, 0x00, 0x00, 0x00, 0x01, 0x02, 0x00, 0x00, 0x00, 0x20,
  0x00, 0x00, 0x00, 0x14, 0x00, 0x00, 0x00, 0x04, 0x00, 0x00, 0x00, 0x1a, 0xdd,
  0xff, 0xff, 0x01, 0x00, 0x00, 0x00, 0x01, 0x00, 0x00, 0x00, 0x01, 0x00, 0x00,
  0x00, 0x8c, 0x00, 0x00, 0x00, 0x03, 0x00, 0x00, 0x00, 0x8b, 0x00, 0x00, 0x00,
  0x3f, 0x00, 0x00, 0x00, 0x4f, 0x00, 0x00, 0x00, 0x24, 0x81, 0xff, 0xff, 0x5c,
  0x00, 0x00, 0x00, 0x8d, 0x00, 0x00, 0x00, 0x20, 0x00, 0x00, 0x00, 0x64, 0x00,
  0x00, 0x00, 0x04, 0x00, 0x00, 0x00, 0x04, 0x00, 0x00, 0x00, 0x01, 0x00, 0x00,
  0x00, 0xff, 0xff, 0xff, 0xff, 0xff, 0xff, 0xff, 0xff, 0x14, 0x00, 0x00, 0x00,
  0x2c, 0x00, 0x00, 0x00, 0x42, 0x69, 0x61, 0x73, 0x41, 0x64, 0x64, 0x5f, 0x31,
  0x37, 0x3b, 0x64, 0x65, 0x70, 0x74, 0x68, 0x77, 0x69, 0x73, 0x65, 0x5f, 0x33,
  0x39, 0x3b, 0x43, 0x6f, 0x6e, 0x76, 0x32, 0x44, 0x5f, 0x31, 0x37, 0x3b, 0x63,
  0x6f, 0x6e, 0x76, 0x5f, 0x36, 0x5f, 0x31, 0x5f, 0x62, 0x00, 0x00, 0x00, 0x00,
  0x04, 0x00, 0x00, 0x00, 0x01, 0x00, 0x00, 0x00, 0x01, 0x00, 0x00, 0x00, 0x01,
  0x00, 0x00, 0x00, 0x14, 0x00, 0x00, 0x00, 0x2c, 0x81, 0xff, 0xff, 0x6e, 0xdc,
  0xff, 0xff, 0x00, 0x00, 0x00, 0x02, 0x01, 0x00, 0x00, 0x00, 0x24, 0x00, 0x00,
  0x00, 0x18, 0x00, 0x00, 0x00, 0x04, 0x00, 0x00, 0x00, 0x60, 0xdc, 0xff, 0xff,
  0x01, 0x00, 0x00, 0x00, 0x01, 0x00, 0x00, 0x00, 0x01, 0x00, 0x00, 0x00, 0x01,
  0x00, 0x00, 0x00, 0x8b, 0x00, 0x00, 0x00, 0x03, 0x00, 0x00, 0x00, 0x8a, 0x00,
  0x00, 0x00, 0x3e, 0x00, 0x00, 0x00, 0x45, 0x00, 0x00, 0x00, 0xdc, 0x81, 0xff,
  0xff, 0x3c, 0x00, 0x00, 0x00, 0x8c, 0x00, 0x00, 0x00, 0x20, 0x00, 0x00, 0x00,
  0x44, 0x00, 0x00, 0x00, 0x04, 0x00, 0x00, 0x00, 0x04, 0x00, 0x00, 0x00, 0x01,
  0x00, 0x00, 0x00, 0xff, 0xff, 0xff, 0xff, 0xff, 0xff, 0xff, 0xff, 0x14, 0x00,
  0x00, 0x00, 0x0d, 0x00, 0x00, 0x00, 0x64, 0x65, 0x70, 0x74, 0x68, 0x77, 0x69,
  0x73, 0x65, 0x5f, 0x33, 0x35, 0x31, 0x00, 0x00, 0x00, 0x04, 0x00, 0x00, 0x00,
  0x01, 0x00, 0x00, 0x00, 0x01, 0x00, 0x00, 0x00, 0x01, 0x00, 0x00, 0x00, 0x14,
  0x00, 0x00, 0x00, 0xc4, 0x81, 0xff, 0xff, 0x06, 0xdd, 0xff, 0xff, 0x00, 0x00,
  0x00, 0x02, 0x01, 0x00, 0x00, 0x00, 0x24, 0x00, 0x00, 0x00, 0x18, 0x00, 0x00,
  0x00, 0x04, 0x00, 0x00, 0x00, 0xf8, 0xdc, 0xff, 0xff, 0x01, 0x00, 0x00, 0x00,
  0x01, 0x00, 0x00, 0x00, 0x01, 0x00, 0x00, 0x00, 0x01, 0x00, 0x00, 0x00, 0x8a,
  0x00, 0x00, 0x00, 0x03, 0x00, 0x00, 0x00, 0x89, 0x00, 0x00, 0x00, 0x3d, 0x00,
  0x00, 0x00, 0x45, 0x00, 0x00, 0x00, 0x74, 0x82, 0xff, 0xff, 0x3c, 0x00, 0x00,
  0x00, 0x8b, 0x00, 0x00, 0x00, 0x20, 0x00, 0x00, 0x00, 0x44, 0x00, 0x00, 0x00,
  0x04, 0x00, 0x00, 0x00, 0x04, 0x00, 0x00, 0x00, 0x01, 0x00, 0x00, 0x00, 0xff,
  0xff, 0xff, 0xff, 0xff, 0xff, 0xff, 0xff, 0x14, 0x00, 0x00, 0x00, 0x0d, 0x00,
  0x00, 0x00, 0x64, 0x65, 0x70, 0x74, 0x68, 0x77, 0x69, 0x73, 0x65, 0x5f, 0x33,
  0x34, 0x31, 0x00, 0x00, 0x00, 0x04, 0x00, 0x00, 0x00, 0x01, 0x00, 0x00, 0x00,
  0x01, 0x00, 0x00, 0x00, 0x01, 0x00, 0x00, 0x00, 0x14, 0x00, 0x00, 0x00, 0x5c,
  0x82, 0xff, 0xff, 0x9e, 0xdd, 0xff, 0xff, 0x00, 0x00, 0x00, 0x01, 0x02, 0x00,
  0x00, 0x00, 0x24, 0x00, 0x00, 0x00, 0x18, 0x00, 0x00, 0x00, 0x04, 0x00, 0x00,
  0x00, 0x04, 0xe1, 0xff, 0xff, 0x01, 0x00, 0x00, 0x00, 0x01, 0x00, 0x00, 0x00,
  0x00, 0x00, 0x00, 0x01, 0x01, 0x00, 0x00, 0x00, 0x89, 0x00, 0x00, 0x00, 0x03,
  0x00, 0x00, 0x00, 0x88, 0x00, 0x00, 0x00, 0x3c, 0x00, 0x00, 0x00, 0x01, 0x00,
  0x00, 0x00, 0x0c, 0x83, 0xff, 0xff, 0x60, 0x00, 0x00, 0x00, 0x8a, 0x00, 0x00,
  0x00, 0x20, 0x00, 0x00, 0x00, 0x68, 0x00, 0x00, 0x00, 0x04, 0x00, 0x00, 0x00,
  0x04, 0x00, 0x00, 0x00, 0x01, 0x00, 0x00, 0x00, 0xff, 0xff, 0xff, 0xff, 0xff,
  0xff, 0xff, 0xff, 0x14, 0x00, 0x00, 0x00, 0x33, 0x00, 0x00, 0x00, 0x52, 0x65,
  0x6c, 0x75, 0x5f, 0x35, 0x3b, 0x42, 0x69, 0x61, 0x73, 0x41, 0x64, 0x64, 0x5f,
  0x31, 0x36, 0x3b, 0x64, 0x65, 0x70, 0x74, 0x68, 0x77, 0x69, 0x73, 0x65, 0x5f,
  0x33, 0x39, 0x3b, 0x43, 0x6f, 0x6e, 0x76, 0x32, 0x44, 0x5f, 0x31, 0x36, 0x3b,
  0x63, 0x6f, 0x6e, 0x76, 0x5f, 0x36, 0x5f, 0x30, 0x5f, 0x62, 0x00, 0x04, 0x00,
  0x00, 0x00, 0x01, 0x00, 0x00, 0x00, 0x01, 0x00, 0x00, 0x00, 0x01, 0x00, 0x00,
  0x00, 0x14, 0x00, 0x00, 0x00, 0x18, 0x83, 0xff, 0xff, 0x5a, 0xde, 0xff, 0xff,
  0x00, 0x00, 0x00, 0x02, 0x01, 0x00, 0x00, 0x00, 0x24, 0x00, 0x00, 0x00, 0x18,
  0x00, 0x00, 0x00, 0x04, 0x00, 0x00, 0x00, 0x4c, 0xde, 0xff, 0xff, 0x01, 0x00,
  0x00, 0x00, 0x01, 0x00, 0x00, 0x00, 0x01, 0x00, 0x00, 0x00, 0x01, 0x00, 0x00,
  0x00, 0x88, 0x00, 0x00, 0x00, 0x03, 0x00, 0x00, 0x00, 0x87, 0x00, 0x00, 0x00,
  0x3b, 0x00, 0x00, 0x00, 0x41, 0x00, 0x00, 0x00, 0xc8, 0x83, 0xff, 0xff, 0x3c,
  0x00, 0x00, 0x00, 0x89, 0x00, 0x00, 0x00, 0x20, 0x00, 0x00, 0x00, 0x44, 0x00,
  0x00, 0x00, 0x04, 0x00, 0x00, 0x00, 0x04, 0x00, 0x00, 0x00, 0x01, 0x00, 0x00,
  0x00, 0xff, 0xff, 0xff, 0xff, 0xff, 0xff, 0xff, 0xff, 0x0b, 0x00, 0x00, 0x00,
  0x0d, 0x00, 0x00, 0x00, 0x64, 0x65, 0x70, 0x74, 0x68, 0x77, 0x69, 0x73, 0x65,
  0x5f, 0x33, 0x33, 0x31, 0x00, 0x00, 0x00, 0x04, 0x00, 0x00, 0x00, 0x01, 0x00,
  0x00, 0x00, 0x01, 0x00, 0x00, 0x00, 0x01, 0x00, 0x00, 0x00, 0x0b, 0x00, 0x00,
  0x00, 0xb0, 0x83, 0xff, 0xff, 0xf2, 0xde, 0xff, 0xff, 0x00, 0x00, 0x00, 0x02,
  0x01, 0x00, 0x00, 0x00, 0x24, 0x00, 0x00, 0x00, 0x18, 0x00, 0x00, 0x00, 0x04,
  0x00, 0x00, 0x00, 0xe4, 0xde, 0xff, 0xff, 0x01, 0x00, 0x00, 0x00, 0x01, 0x00,
  0x00, 0x00, 0x01, 0x00, 0x00, 0x00, 0x01, 0x00, 0x00, 0x00, 0x87, 0x00, 0x00,
  0x00, 0x03, 0x00, 0x00, 0x00, 0x86, 0x00, 0x00, 0x00, 0x3a, 0x00, 0x00, 0x00,
  0x41, 0x00, 0x00, 0x00, 0x60, 0x84, 0xff, 0xff, 0x3c, 0x00, 0x00, 0x00, 0x88,
  0x00, 0x00, 0x00, 0x20, 0x00, 0x00, 0x00, 0x44, 0x00, 0x00, 0x00, 0x04, 0x00,
  0x00, 0x00, 0x04, 0x00, 0x00, 0x00, 0x01, 0x00, 0x00, 0x00, 0xff, 0xff, 0xff,
  0xff, 0xff, 0xff, 0xff, 0xff, 0x0b, 0x00, 0x00, 0x00, 0x0d, 0x00, 0x00, 0x00,
  0x64, 0x65, 0x70, 0x74, 0x68, 0x77, 0x69, 0x73, 0x65, 0x5f, 0x33, 0x32, 0x31,
  0x00, 0x00, 0x00, 0x04, 0x00, 0x00, 0x00, 0x01, 0x00, 0x00, 0x00, 0x01, 0x00,
  0x00, 0x00, 0x01, 0x00, 0x00, 0x00, 0x0b, 0x00, 0x00, 0x00, 0x48, 0x84, 0xff,
  0xff, 0x8a, 0xdf, 0xff, 0xff, 0x00, 0x00, 0x00, 0x0b, 0x03, 0x00, 0x00, 0x00,
  0x18, 0x00, 0x00, 0x00, 0x0c, 0x00, 0x00, 0x00, 0x04, 0x00, 0x00, 0x00, 0x64,
  0x84, 0xff, 0xff, 0x01, 0x00, 0x00, 0x00, 0x86, 0x00, 0x00, 0x00, 0x02, 0x00,
  0x00, 0x00, 0x85, 0x00, 0x00, 0x00, 0x82, 0x00, 0x00, 0x00, 0xe8, 0x84, 0xff,
  0xff, 0x34, 0x00, 0x00, 0x00, 0x87, 0x00, 0x00, 0x00, 0x20, 0x00, 0x00, 0x00,
  0x3c, 0x00, 0x00, 0x00, 0x04, 0x00, 0x00, 0x00, 0x04, 0x00, 0x00, 0x00, 0x01,
  0x00, 0x00, 0x00, 0xff, 0xff, 0xff, 0xff, 0xff, 0xff, 0xff, 0xff, 0x0b, 0x00,
  0x00, 0x00, 0x05, 0x00, 0x00, 0x00, 0x41, 0x64, 0x64, 0x5f, 0x34, 0x00, 0x00,
  0x00, 0x04, 0x00, 0x00, 0x00, 0x01, 0x00, 0x00, 0x00, 0x01, 0x00, 0x00, 0x00,
  0x01, 0x00, 0x00, 0x00, 0x0b, 0x00, 0x00, 0x00, 0xc8, 0x84, 0xff, 0xff, 0x0a,
  0xe0, 0xff, 0xff, 0x00, 0x00, 0x00, 0x01, 0x02, 0x00, 0x00, 0x00, 0x20, 0x00,
  0x00, 0x00, 0x14, 0x00, 0x00, 0x00, 0x04, 0x00, 0x00, 0x00, 0x6a, 0xe1, 0xff,
  0xff, 0x01, 0x00, 0x00, 0x00, 0x01, 0x00, 0x00, 0x00, 0x01, 0x00, 0x00, 0x00,
  0x85, 0x00, 0x00, 0x00, 0x03, 0x00, 0x00, 0x00, 0x84, 0x00, 0x00, 0x00, 0x39,
  0x00, 0x00, 0x00, 0x4e, 0x00, 0x00, 0x00, 0x74, 0x85, 0xff, 0xff, 0x5c, 0x00,
  0x00, 0x00, 0x86, 0x00, 0x00, 0x00, 0x20, 0x00, 0x00, 0x00, 0x64, 0x00, 0x00,
  0x00, 0x04, 0x00, 0x00, 0x00, 0x04, 0x00, 0x00, 0x00, 0x01, 0x00, 0x00, 0x00,
  0xff, 0xff, 0xff, 0xff, 0xff, 0xff, 0xff, 0xff, 0x0b, 0x00, 0x00, 0x00, 0x2d,
  0x00, 0x00, 0x00, 0x42, 0x69, 0x61, 0x73, 0x41, 0x64, 0x64, 0x5f, 0x31, 0x35,
  0x3b, 0x64, 0x65, 0x70, 0x74, 0x68, 0x77, 0x69, 0x73, 0x65, 0x5f, 0x33, 0x37,
  0x3b, 0x43, 0x6f, 0x6e, 0x76, 0x32, 0x44, 0x5f, 0x31, 0x35, 0x3b, 0x63, 0x6f,
  0x6e, 0x76, 0x5f, 0x35, 0x5f, 0x31, 0x5f, 0x62, 0x31, 0x00, 0x00, 0x00, 0x04,
  0x00, 0x00, 0x00, 0x01, 0x00, 0x00, 0x00, 0x01, 0x00, 0x00, 0x00, 0x01, 0x00,
  0x00, 0x00, 0x0b, 0x00, 0x00, 0x00, 0x7c, 0x85, 0xff, 0xff, 0xbe, 0xe0, 0xff,
  0xff, 0x00, 0x00, 0x00, 0x02, 0x01, 0x00, 0x00, 0x00, 0x24, 0x00, 0x00, 0x00,
  0x18, 0x00, 0x00, 0x00, 0x04, 0x00, 0x00, 0x00, 0xb0, 0xe0, 0xff, 0xff, 0x01,
  0x00, 0x00, 0x00, 0x01, 0x00, 0x00, 0x00, 0x01, 0x00, 0x00, 0x00, 0x01, 0x00,
  0x00, 0x00, 0x84, 0x00, 0x00, 0x00, 0x03, 0x00, 0x00, 0x00, 0x83, 0x00, 0x00,
  0x00, 0x38, 0x00, 0x00, 0x00, 0x37, 0x00, 0x00, 0x00, 0x2c, 0x86, 0xff, 0xff,
  0x3c, 0x00, 0x00, 0x00, 0x85, 0x00, 0x00, 0x00, 0x20, 0x00, 0x00, 0x00, 0x44,
  0x00, 0x00, 0x00, 0x04, 0x00, 0x00, 0x00, 0x04, 0x00, 0x00, 0x00, 0x01, 0x00,
  0x00, 0x00, 0xff, 0xff, 0xff, 0xff, 0xff, 0xff, 0xff, 0xff, 0x06, 0x00, 0x00,
  0x00, 0x0d, 0x00, 0x00, 0x00, 0x64, 0x65, 0x70, 0x74, 0x68, 0x77, 0x69, 0x73,
  0x65, 0x5f, 0x33, 0x31, 0x32, 0x00, 0x00, 0x00, 0x04, 0x00, 0x00, 0x00, 0x01,
  0x00, 0x00, 0x00, 0x01, 0x00, 0x00, 0x00, 0x01, 0x00, 0x00, 0x00, 0x06, 0x00,
  0x00, 0x00, 0x14, 0x86, 0xff, 0xff, 0x56, 0xe1, 0xff, 0xff, 0x00, 0x00, 0x00,
  0x02, 0x01, 0x00, 0x00, 0x00, 0x24, 0x00, 0x00, 0x00, 0x18, 0x00, 0x00, 0x00,
  0x04, 0x00, 0x00, 0x00, 0x48, 0xe1, 0xff, 0xff, 0x01, 0x00, 0x00, 0x00, 0x01,
  0x00, 0x00, 0x00, 0x01, 0x00, 0x00, 0x00, 0x01, 0x00, 0x00, 0x00, 0x83, 0x00,
  0x00, 0x00, 0x03, 0x00, 0x00, 0x00, 0x7c, 0x00, 0x00, 0x00, 0x36, 0x00, 0x00,
  0x00, 0x37, 0x00, 0x00, 0x00, 0xc4, 0x86, 0xff, 0xff, 0x3c, 0x00, 0x00, 0x00,
  0x84, 0x00, 0x00, 0x00, 0x20, 0x00, 0x00, 0x00, 0x44, 0x00, 0x00, 0x00, 0x04,
  0x00, 0x00, 0x00, 0x04, 0x00, 0x00, 0x00, 0x01, 0x00, 0x00, 0x00, 0xff, 0xff,
  0xff, 0xff, 0xff, 0xff, 0xff, 0xff, 0x06, 0x00, 0x00, 0x00, 0x0d, 0x00, 0x00,
  0x00, 0x64, 0x65, 0x70, 0x74, 0x68, 0x77, 0x69, 0x73, 0x65, 0x5f, 0x33, 0x30,
  0x31, 0x00, 0x00, 0x00, 0x04, 0x00, 0x00, 0x00, 0x01, 0x00, 0x00, 0x00, 0x01,
  0x00, 0x00, 0x00, 0x01, 0x00, 0x00, 0x00, 0x06, 0x00, 0x00, 0x00, 0xac, 0x86,
  0xff, 0xff, 0xee, 0xe1, 0xff, 0xff, 0x00, 0x00, 0x00, 0x01, 0x02, 0x00, 0x00,
  0x00, 0x20, 0x00, 0x00, 0x00, 0x14, 0x00, 0x00, 0x00, 0x04, 0x00, 0x00, 0x00,
  0x4e, 0xe3, 0xff, 0xff, 0x01, 0x00, 0x00, 0x00, 0x01, 0x00, 0x00, 0x00, 0x01,
  0x00, 0x00, 0x00, 0x82, 0x00, 0x00, 0x00, 0x03, 0x00, 0x00, 0x00, 0x81, 0x00,
  0x00, 0x00, 0x35, 0x00, 0x00, 0x00, 0x4e, 0x00, 0x00, 0x00, 0x58, 0x87, 0xff,
  0xff, 0x5c, 0x00, 0x00, 0x00, 0x83, 0x00, 0x00, 0x00, 0x20, 0x00, 0x00, 0x00,
  0x64, 0x00, 0x00, 0x00, 0x04, 0x00, 0x00, 0x00, 0x04, 0x00, 0x00, 0x00, 0x01,
  0x00, 0x00, 0x00, 0xff, 0xff, 0xff, 0xff, 0xff, 0xff, 0xff, 0xff, 0x0b, 0x00,
  0x00, 0x00, 0x2c, 0x00, 0x00, 0x00, 0x42, 0x69, 0x61, 0x73, 0x41, 0x64, 0x64,
  0x5f, 0x31, 0x34, 0x3b, 0x64, 0x65, 0x70, 0x74, 0x68, 0x77, 0x69, 0x73, 0x65,
  0x5f, 0x33, 0x37, 0x3b, 0x43, 0x6f, 0x6e, 0x76, 0x32, 0x44, 0x5f, 0x31, 0x34,
  0x3b, 0x63, 0x6f, 0x6e, 0x76, 0x5f, 0x35, 0x5f, 0x31, 0x5f, 0x62, 0x00, 0x00,
  0x00, 0x00, 0x04, 0x00, 0x00, 0x00, 0x01, 0x00, 0x00, 0x00, 0x01, 0x00, 0x00,
  0x00, 0x01, 0x00, 0x00, 0x00, 0x0b, 0x00, 0x00, 0x00, 0x60, 0x87, 0xff, 0xff,
  0xa2, 0xe2, 0xff, 0xff, 0x00, 0x00, 0x00, 0x02, 0x01, 0x00, 0x00, 0x00, 0x24,
  0x00, 0x00, 0x00, 0x18, 0x00, 0x00, 0x00, 0x04, 0x00, 0x00, 0x00, 0x94, 0xe2,
  0xff, 0xff, 0x01, 0x00, 0x00, 0x00, 0x01, 0x00, 0x00, 0x00, 0x01, 0x00, 0x00,
  0x00, 0x01, 0x00, 0x00, 0x00, 0x81, 0x00, 0x00, 0x00, 0x03, 0x00, 0x00, 0x00,
  0x80, 0x00, 0x00, 0x00, 0x34, 0x00, 0x00, 0x00, 0x41, 0x00, 0x00, 0x00, 0x10,
  0x88, 0xff, 0xff, 0x3c, 0x00, 0x00, 0x00, 0x82, 0x00, 0x00, 0x00, 0x20, 0x00,
  0x00, 0x00, 0x44, 0x00, 0x00, 0x00, 0x04, 0x00, 0x00, 0x00, 0x04, 0x00, 0x00,
  0x00, 0x01, 0x00, 0x00, 0x00, 0xff, 0xff, 0xff, 0xff, 0xff, 0xff, 0xff, 0xff,
  0x0b, 0x00, 0x00, 0x00, 0x0d, 0x00, 0x00, 0x00, 0x64, 0x65, 0x70, 0x74, 0x68,
  0x77, 0x69, 0x73, 0x65, 0x5f, 0x32, 0x39, 0x31, 0x00, 0x00, 0x00, 0x04, 0x00,
  0x00, 0x00, 0x01, 0x00, 0x00, 0x00, 0x01, 0x00, 0x00, 0x00, 0x01, 0x00, 0x00,
  0x00, 0x0b, 0x00, 0x00, 0x00, 0xf8, 0x87, 0xff, 0xff, 0x3a, 0xe3, 0xff, 0xff,
  0x00, 0x00, 0x00, 0x02, 0x01, 0x00, 0x00, 0x00, 0x24, 0x00, 0x00, 0x00, 0x18,
  0x00, 0x00, 0x00, 0x04, 0x00, 0x00, 0x00, 0x2c, 0xe3, 0xff, 0xff, 0x01, 0x00,
  0x00, 0x00, 0x01, 0x00, 0x00, 0x00, 0x01, 0x00, 0x00, 0x00, 0x01, 0x00, 0x00,
  0x00, 0x80, 0x00, 0x00, 0x00, 0x03, 0x00, 0x00, 0x00, 0x7f, 0x00, 0x00, 0x00,
  0x33, 0x00, 0x00, 0x00, 0x41, 0x00, 0x00, 0x00, 0xa8, 0x88, 0xff, 0xff, 0x3c,
  0x00, 0x00, 0x00, 0x81, 0x00, 0x00, 0x00, 0x20, 0x00, 0x00, 0x00, 0x44, 0x00,
  0x00, 0x00, 0x04, 0x00, 0x00, 0x00, 0x04, 0x00, 0x00, 0x00, 0x01, 0x00, 0x00,
  0x00, 0xff, 0xff, 0xff, 0xff, 0xff, 0xff, 0xff, 0xff, 0x0b, 0x00, 0x00, 0x00,
  0x0d, 0x00, 0x00, 0x00, 0x64, 0x65, 0x70, 0x74, 0x68, 0x77, 0x69, 0x73, 0x65,
  0x5f, 0x32, 0x38, 0x31, 0x00, 0x00, 0x00, 0x04, 0x00, 0x00, 0x00, 0x01, 0x00,
  0x00, 0x00, 0x01, 0x00, 0x00, 0x00, 0x01, 0x00, 0x00, 0x00, 0x0b, 0x00, 0x00,
  0x00, 0x90, 0x88, 0xff, 0xff, 0xd2, 0xe3, 0xff, 0xff, 0x00, 0x00, 0x00, 0x01,
  0x02, 0x00, 0x00, 0x00, 0x24, 0x00, 0x00, 0x00, 0x18, 0x00, 0x00, 0x00, 0x04,
  0x00, 0x00, 0x00, 0x38, 0xe7, 0xff, 0xff, 0x01, 0x00, 0x00, 0x00, 0x01, 0x00,
  0x00, 0x00, 0x00, 0x00, 0x00, 0x01, 0x01, 0x00, 0x00, 0x00, 0x7f, 0x00, 0x00,
  0x00, 0x03, 0x00, 0x00, 0x00, 0x7e, 0x00, 0x00, 0x00, 0x32, 0x00, 0x00, 0x00,
  0x02, 0x00, 0x00, 0x00, 0x40, 0x89, 0xff, 0xff, 0x60, 0x00, 0x00, 0x00, 0x80,
  0x00, 0x00, 0x00, 0x20, 0x00, 0x00, 0x00, 0x68, 0x00, 0x00, 0x00, 0x04, 0x00,
  0x00, 0x00, 0x04, 0x00, 0x00, 0x00, 0x01, 0x00, 0x00, 0x00, 0xff, 0xff, 0xff,
  0xff, 0xff, 0xff, 0xff, 0xff, 0x0b, 0x00, 0x00, 0x00, 0x33, 0x00, 0x00, 0x00,
  0x52, 0x65, 0x6c, 0x75, 0x5f, 0x34, 0x3b, 0x42, 0x69, 0x61, 0x73, 0x41, 0x64,
  0x64, 0x5f, 0x31, 0x33, 0x3b, 0x64, 0x65, 0x70, 0x74, 0x68, 0x77, 0x69, 0x73,
  0x65, 0x5f, 0x33, 0x37, 0x3b, 0x43, 0x6f, 0x6e, 0x76, 0x32, 0x44, 0x5f, 0x31,
  0x33, 0x3b, 0x63, 0x6f, 0x6e, 0x76, 0x5f, 0x35, 0x5f, 0x30, 0x5f, 0x62, 0x00,
  0x04, 0x00, 0x00, 0x00, 0x01, 0x00, 0x00, 0x00, 0x01, 0x00, 0x00, 0x00, 0x01,
  0x00, 0x00, 0x00, 0x0b, 0x00, 0x00, 0x00, 0x4c, 0x89, 0xff, 0xff, 0x8e, 0xe4,
  0xff, 0xff, 0x00, 0x00, 0x00, 0x02, 0x01, 0x00, 0x00, 0x00, 0x24, 0x00, 0x00,
  0x00, 0x18, 0x00, 0x00, 0x00, 0x04, 0x00, 0x00, 0x00, 0x80, 0xe4, 0xff, 0xff,
  0x01, 0x00, 0x00, 0x00, 0x01, 0x00, 0x00, 0x00, 0x01, 0x00, 0x00, 0x00, 0x01,
  0x00, 0x00, 0x00, 0x7e, 0x00, 0x00, 0x00, 0x03, 0x00, 0x00, 0x00, 0x7d, 0x00,
  0x00, 0x00, 0x31, 0x00, 0x00, 0x00, 0x37, 0x00, 0x00, 0x00, 0xfc, 0x89, 0xff,
  0xff, 0x3c, 0x00, 0x00, 0x00, 0x7f, 0x00, 0x00, 0x00, 0x20, 0x00, 0x00, 0x00,
  0x44, 0x00, 0x00, 0x00, 0x04, 0x00, 0x00, 0x00, 0x04, 0x00, 0x00, 0x00, 0x01,
  0x00, 0x00, 0x00, 0xff, 0xff, 0xff, 0xff, 0xff, 0xff, 0xff, 0xff, 0x06, 0x00,
  0x00, 0x00, 0x0d, 0x00, 0x00, 0x00, 0x64, 0x65, 0x70, 0x74, 0x68, 0x77, 0x69,
  0x73, 0x65, 0x5f, 0x32, 0x37, 0x31, 0x00, 0x00, 0x00, 0x04, 0x00, 0x00, 0x00,
  0x01, 0x00, 0x00, 0x00, 0x01, 0x00, 0x00, 0x00, 0x01, 0x00, 0x00, 0x00, 0x06,
  0x00, 0x00, 0x00, 0xe4, 0x89, 0xff, 0xff, 0x26, 0xe5, 0xff, 0xff, 0x00, 0x00,
  0x00, 0x02, 0x01, 0x00, 0x00, 0x00, 0x24, 0x00, 0x00, 0x00, 0x18, 0x00, 0x00,
  0x00, 0x04, 0x00, 0x00, 0x00, 0x18, 0xe5, 0xff, 0xff, 0x01, 0x00, 0x00, 0x00,
  0x01, 0x00, 0x00, 0x00, 0x01, 0x00, 0x00, 0x00, 0x01, 0x00, 0x00, 0x00, 0x7d,
  0x00, 0x00, 0x00, 0x03, 0x00, 0x00, 0x00, 0x7c, 0x00, 0x00, 0x00, 0x30, 0x00,
  0x00, 0x00, 0x37, 0x00, 0x00, 0x00, 0x94, 0x8a, 0xff, 0xff, 0x3c, 0x00, 0x00,
  0x00, 0x7e, 0x00, 0x00, 0x00, 0x20, 0x00, 0x00, 0x00, 0x44, 0x00, 0x00, 0x00,
  0x04, 0x00, 0x00, 0x00, 0x04, 0x00, 0x00, 0x00, 0x01, 0x00, 0x00, 0x00, 0xff,
  0xff, 0xff, 0xff, 0xff, 0xff, 0xff, 0xff, 0x06, 0x00, 0x00, 0x00, 0x0d, 0x00,
  0x00, 0x00, 0x64, 0x65, 0x70, 0x74, 0x68, 0x77, 0x69, 0x73, 0x65, 0x5f, 0x32,
  0x36, 0x31, 0x00, 0x00, 0x00, 0x04, 0x00, 0x00, 0x00, 0x01, 0x00, 0x00, 0x00,
  0x01, 0x00, 0x00, 0x00, 0x01, 0x00, 0x00, 0x00, 0x06, 0x00, 0x00, 0x00, 0x7c,
  0x8a, 0xff, 0xff, 0xbe, 0xe5, 0xff, 0xff, 0x00, 0x00, 0x00, 0x0b, 0x03, 0x00,
  0x00, 0x00, 0x18, 0x00, 0x00, 0x00, 0x0c, 0x00, 0x00, 0x00, 0x04, 0x00, 0x00,
  0x00, 0x98, 0x8a, 0xff, 0xff, 0x01, 0x00, 0x00, 0x00, 0x7c, 0x00, 0x00, 0x00,
  0x02, 0x00, 0x00, 0x00, 0x7b, 0x00, 0x00, 0x00, 0x78, 0x00, 0x00, 0x00, 0x1c,
  0x8b, 0xff, 0xff, 0x34, 0x00, 0x00, 0x00, 0x7d, 0x00, 0x00, 0x00, 0x20, 0x00,
  0x00, 0x00, 0x3c, 0x00, 0x00, 0x00, 0x04, 0x00, 0x00, 0x00, 0x04, 0x00, 0x00,
  0x00, 0x01, 0x00, 0x00, 0x00, 0xff, 0xff, 0xff, 0xff, 0xff, 0xff, 0xff, 0xff,
  0x06, 0x00, 0x00, 0x00, 0x05, 0x00, 0x00, 0x00, 0x41, 0x64, 0x64, 0x5f, 0x33,
  0x00, 0x00, 0x00, 0x04, 0x00, 0x00, 0x00, 0x01, 0x00, 0x00, 0x00, 0x01, 0x00,
  0x00, 0x00, 0x01, 0x00, 0x00, 0x00, 0x06, 0x00, 0x00, 0x00, 0xfc, 0x8a, 0xff,
  0xff, 0x3e, 0xe6, 0xff, 0xff, 0x00, 0x00, 0x00, 0x01, 0x02, 0x00, 0x00, 0x00,
  0x20, 0x00, 0x00, 0x00, 0x14, 0x00, 0x00, 0x00, 0x04, 0x00, 0x00, 0x00, 0x9e,
  0xe7, 0xff, 0xff, 0x01, 0x00, 0x00, 0x00, 0x01, 0x00, 0x00, 0x00, 0x01, 0x00,
  0x00, 0x00, 0x7b, 0x00, 0x00, 0x00, 0x03, 0x00, 0x00, 0x00, 0x7a, 0x00, 0x00,
  0x00, 0x2f, 0x00, 0x00, 0x00, 0x4d, 0x00, 0x00, 0x00, 0xa8, 0x8b, 0xff, 0xff,
  0x5c, 0x00, 0x00, 0x00, 0x7c, 0x00, 0x00, 0x00, 0x20, 0x00, 0x00, 0x00, 0x64,
  0x00, 0x00, 0x00, 0x04, 0x00, 0x00, 0x00, 0x04, 0x00, 0x00, 0x00, 0x01, 0x00,
  0x00, 0x00, 0xff, 0xff, 0xff, 0xff, 0xff, 0xff, 0xff, 0xff, 0x06, 0x00, 0x00,
  0x00, 0x2d, 0x00, 0x00, 0x00, 0x42, 0x69, 0x61, 0x73, 0x41, 0x64, 0x64, 0x5f,
  0x31, 0x32, 0x3b, 0x64, 0x65, 0x70, 0x74, 0x68, 0x77, 0x69, 0x73, 0x65, 0x5f,
  0x33, 0x31, 0x3b, 0x43, 0x6f, 0x6e, 0x76, 0x32, 0x44, 0x5f, 0x31, 0x32, 0x3b,
  0x63, 0x6f, 0x6e, 0x76, 0x5f, 0x34, 0x5f, 0x31, 0x5f, 0x62, 0x31, 0x00, 0x00,
  0x00, 0x04, 0x00, 0x00, 0x00, 0x01, 0x00, 0x00, 0x00, 0x01, 0x00, 0x00, 0x00,
  0x01, 0x00, 0x00, 0x00, 0x06, 0x00, 0x00, 0x00, 0xb0, 0x8b, 0xff, 0xff, 0xf2,
  0xe6, 0xff, 0xff, 0x00, 0x00, 0x00, 0x02, 0x01, 0x00, 0x00, 0x00, 0x24, 0x00,
  0x00, 0x00, 0x18, 0x00, 0x00, 0x00, 0x04, 0x00, 0x00, 0x00, 0xe4, 0xe6, 0xff,
  0xff, 0x01, 0x00, 0x00, 0x00, 0x01, 0x00, 0x00, 0x00, 0x01, 0x00, 0x00, 0x00,
  0x01, 0x00, 0x00, 0x00, 0x7a, 0x00, 0x00, 0x00, 0x03, 0x00, 0x00, 0x00, 0x79,
  0x00, 0x00, 0x00, 0x2e, 0x00, 0x00, 0x00, 0x2d, 0x00, 0x00, 0x00, 0x60, 0x8c,
  0xff, 0xff, 0x3c, 0x00, 0x00, 0x00, 0x7b, 0x00, 0x00, 0x00, 0x20, 0x00, 0x00,
  0x00, 0x44, 0x00, 0x00, 0x00, 0x04, 0x00, 0x00, 0x00, 0x04, 0x00, 0x00, 0x00,
  0x01, 0x00, 0x00, 0x00, 0xff, 0xff, 0xff, 0xff, 0xff, 0xff, 0xff, 0xff, 0x04,
  0x00, 0x00, 0x00, 0x0d, 0x00, 0x00, 0x00, 0x64, 0x65, 0x70, 0x74, 0x68, 0x77,
  0x69, 0x73, 0x65, 0x5f, 0x32, 0x35, 0x32, 0x00, 0x00, 0x00, 0x04, 0x00, 0x00,
  0x00, 0x01, 0x00, 0x00, 0x00, 0x01, 0x00, 0x00, 0x00, 0x01, 0x00, 0x00, 0x00,
  0x04, 0x00, 0x00, 0x00, 0x48, 0x8c, 0xff, 0xff, 0x8a, 0xe7, 0xff, 0xff, 0x00,
  0x00, 0x00, 0x02, 0x01, 0x00, 0x00, 0x00, 0x24, 0x00, 0x00, 0x00, 0x18, 0x00,
  0x00, 0x00, 0x04, 0x00, 0x00, 0x00, 0x7c, 0xe7, 0xff, 0xff, 0x01, 0x00, 0x00,
  0x00, 0x01, 0x00, 0x00, 0x00, 0x01, 0x00, 0x00, 0x00, 0x01, 0x00, 0x00, 0x00,
  0x79, 0x00, 0x00, 0x00, 0x03, 0x00, 0x00, 0x00, 0x72, 0x00, 0x00, 0x00, 0x2c,
  0x00, 0x00, 0x00, 0x2d, 0x00, 0x00, 0x00, 0xf8, 0x8c, 0xff, 0xff, 0x3c, 0x00,
  0x00, 0x00, 0x7a, 0x00, 0x00, 0x00, 0x20, 0x00, 0x00, 0x00, 0x44, 0x00, 0x00,
  0x00, 0x04, 0x00, 0x00, 0x00, 0x04, 0x00, 0x00, 0x00, 0x01, 0x00, 0x00, 0x00,
  0xff, 0xff, 0xff, 0xff, 0xff, 0xff, 0xff, 0xff, 0x04, 0x00, 0x00, 0x00, 0x0d,
  0x00, 0x00, 0x00, 0x64, 0x65, 0x70, 0x74, 0x68, 0x77, 0x69, 0x73, 0x65, 0x5f,
  0x32, 0x34, 0x31, 0x00, 0x00, 0x00, 0x04, 0x00, 0x00, 0x00, 0x01, 0x00, 0x00,
  0x00, 0x01, 0x00, 0x00, 0x00, 0x01, 0x00, 0x00, 0x00, 0x04, 0x00, 0x00, 0x00,
  0xe0, 0x8c, 0xff, 0xff, 0x22, 0xe8, 0xff, 0xff, 0x00, 0x00, 0x00, 0x01, 0x02,
  0x00, 0x00, 0x00, 0x20, 0x00, 0x00, 0x00, 0x14, 0x00, 0x00, 0x00, 0x04, 0x00,
  0x00, 0x00, 0x82, 0xe9, 0xff, 0xff, 0x01, 0x00, 0x00, 0x00, 0x01, 0x00, 0x00,
  0x00, 0x01, 0x00, 0x00, 0x00, 0x78, 0x00, 0x00, 0x00, 0x03, 0x00, 0x00, 0x00,
  0x77, 0x00, 0x00, 0x00, 0x2b, 0x00, 0x00, 0x00, 0x4d, 0x00, 0x00, 0x00, 0x8c,
  0x8d, 0xff, 0xff, 0x5c, 0x00, 0x00, 0x00, 0x79, 0x00, 0x00, 0x00, 0x20, 0x00,
  0x00, 0x00, 0x64, 0x00, 0x00, 0x00, 0x04, 0x00, 0x00, 0x00, 0x04, 0x00, 0x00,
  0x00, 0x01, 0x00, 0x00, 0x00, 0xff, 0xff, 0xff, 0xff, 0xff, 0xff, 0xff, 0xff,
  0x06, 0x00, 0x00, 0x00, 0x2c, 0x00, 0x00, 0x00, 0x42, 0x69, 0x61, 0x73, 0x41,
  0x64, 0x64, 0x5f, 0x31, 0x31, 0x3b, 0x64, 0x65, 0x70, 0x74, 0x68, 0x77, 0x69,
  0x73, 0x65, 0x5f, 0x33, 0x31, 0x3b, 0x43, 0x6f, 0x6e, 0x76, 0x32, 0x44, 0x5f,
  0x31, 0x31, 0x3b, 0x63, 0x6f, 0x6e, 0x76, 0x5f, 0x34, 0x5f, 0x31, 0x5f, 0x62,
  0x00, 0x00, 0x00, 0x00, 0x04, 0x00, 0x00, 0x00, 0x01, 0x00, 0x00, 0x00, 0x01,
  0x00, 0x00, 0x00, 0x01, 0x00, 0x00, 0x00, 0x06, 0x00, 0x00, 0x00, 0x94, 0x8d,
  0xff, 0xff, 0xd6, 0xe8, 0xff, 0xff, 0x00, 0x00, 0x00, 0x02, 0x01, 0x00, 0x00,
  0x00, 0x24, 0x00, 0x00, 0x00, 0x18, 0x00, 0x00, 0x00, 0x04, 0x00, 0x00, 0x00,
  0xc8, 0xe8, 0xff, 0xff, 0x01, 0x00, 0x00, 0x00, 0x01, 0x00, 0x00, 0x00, 0x01,
  0x00, 0x00, 0x00, 0x01, 0x00, 0x00, 0x00, 0x77, 0x00, 0x00, 0x00, 0x03, 0x00,
  0x00, 0x00, 0x76, 0x00, 0x00, 0x00, 0x2a, 0x00, 0x00, 0x00, 0x37, 0x00, 0x00,
  0x00, 0x44, 0x8e, 0xff, 0xff, 0x3c, 0x00, 0x00, 0x00, 0x78, 0x00, 0x00, 0x00,
  0x20, 0x00, 0x00, 0x00, 0x44, 0x00, 0x00, 0x00, 0x04, 0x00, 0x00, 0x00, 0x04,
  0x00, 0x00, 0x00, 0x01, 0x00, 0x00, 0x00, 0xff, 0xff, 0xff, 0xff, 0xff, 0xff,
  0xff, 0xff, 0x06, 0x00, 0x00, 0x00, 0x0d, 0x00, 0x00, 0x00, 0x64, 0x65, 0x70,
  0x74, 0x68, 0x77, 0x69, 0x73, 0x65, 0x5f, 0x32, 0x33, 0x31, 0x00, 0x00, 0x00,
  0x04, 0x00, 0x00, 0x00, 0x01, 0x00, 0x00, 0x00, 0x01, 0x00, 0x00, 0x00, 0x01,
  0x00, 0x00, 0x00, 0x06, 0x00, 0x00, 0x00, 0x2c, 0x8e, 0xff, 0xff, 0x6e, 0xe9,
  0xff, 0xff, 0x00, 0x00, 0x00, 0x02, 0x01, 0x00, 0x00, 0x00, 0x24, 0x00, 0x00,
  0x00, 0x18, 0x00, 0x00, 0x00, 0x04, 0x00, 0x00, 0x00, 0x60, 0xe9, 0xff, 0xff,
  0x01, 0x00, 0x00, 0x00, 0x01, 0x00, 0x00, 0x00, 0x01, 0x00, 0x00, 0x00, 0x01,
  0x00, 0x00, 0x00, 0x76, 0x00, 0x00, 0x00, 0x03, 0x00, 0x00, 0x00, 0x75, 0x00,
  0x00, 0x00, 0x29, 0x00, 0x00, 0x00, 0x37, 0x00, 0x00, 0x00, 0xdc, 0x8e, 0xff,
  0xff, 0x3c, 0x00, 0x00, 0x00, 0x77, 0x00, 0x00, 0x00, 0x20, 0x00, 0x00, 0x00,
  0x44, 0x00, 0x00, 0x00, 0x04, 0x00, 0x00, 0x00, 0x04, 0x00, 0x00, 0x00, 0x01,
  0x00, 0x00, 0x00, 0xff, 0xff, 0xff, 0xff, 0xff, 0xff, 0xff, 0xff, 0x06, 0x00,
  0x00, 0x00, 0x0d, 0x00, 0x00, 0x00, 0x64, 0x65, 0x70, 0x74, 0x68, 0x77, 0x69,
  0x73, 0x65, 0x5f, 0x32, 0x32, 0x31, 0x00, 0x00, 0x00, 0x04, 0x00, 0x00, 0x00,
  0x01, 0x00, 0x00, 0x00, 0x01, 0x00, 0x00, 0x00, 0x01, 0x00, 0x00, 0x00, 0x06,
  0x00, 0x00, 0x00, 0xc4, 0x8e, 0xff, 0xff, 0x06, 0xea, 0xff, 0xff, 0x00, 0x00,
  0x00, 0x01, 0x02, 0x00, 0x00, 0x00, 0x24, 0x00, 0x00, 0x00, 0x18, 0x00, 0x00,
  0x00, 0x04, 0x00, 0x00, 0x00, 0x6c, 0xed, 0xff, 0xff, 0x01, 0x00, 0x00, 0x00,
  0x01, 0x00, 0x00, 0x00, 0x00, 0x00, 0x00, 0x01, 0x01, 0x00, 0x00, 0x00, 0x75,
  0x00, 0x00, 0x00, 0x03, 0x00, 0x00, 0x00, 0x74, 0x00, 0x00, 0x00, 0x28, 0x00,
  0x00, 0x00, 0x03, 0x00, 0x00, 0x00, 0x74, 0x8f, 0xff, 0xff, 0x60, 0x00, 0x00,
  0x00, 0x76, 0x00, 0x00, 0x00, 0x20, 0x00, 0x00, 0x00, 0x68, 0x00, 0x00, 0x00,
  0x04, 0x00, 0x00, 0x00, 0x04, 0x00, 0x00, 0x00, 0x01, 0x00, 0x00, 0x00, 0xff,
  0xff, 0xff, 0xff, 0xff, 0xff, 0xff, 0xff, 0x06, 0x00, 0x00, 0x00, 0x33, 0x00,
  0x00, 0x00, 0x52, 0x65, 0x6c, 0x75, 0x5f, 0x33, 0x3b, 0x42, 0x69, 0x61, 0x73,
  0x41, 0x64, 0x64, 0x5f, 0x31, 0x30, 0x3b, 0x64, 0x65, 0x70, 0x74, 0x68, 0x77,
  0x69, 0x73, 0x65, 0x5f, 0x33, 0x31, 0x3b, 0x43, 0x6f, 0x6e, 0x76, 0x32, 0x44,
  0x5f, 0x31, 0x30, 0x3b, 0x63, 0x6f, 0x6e, 0x76, 0x5f, 0x34, 0x5f, 0x30, 0x5f,
  0x62, 0x00, 0x04, 0x00, 0x00, 0x00, 0x01, 0x00, 0x00, 0x00, 0x01, 0x00, 0x00,
  0x00, 0x01, 0x00, 0x00, 0x00, 0x06, 0x00, 0x00, 0x00, 0x80, 0x8f, 0xff, 0xff,
  0xc2, 0xea, 0xff, 0xff, 0x00, 0x00, 0x00, 0x02, 0x01, 0x00, 0x00, 0x00, 0x24,
  0x00, 0x00, 0x00, 0x18, 0x00, 0x00, 0x00, 0x04, 0x00, 0x00, 0x00, 0xb4, 0xea,
  0xff, 0xff, 0x01, 0x00, 0x00, 0x00, 0x01, 0x00, 0x00, 0x00, 0x01, 0x00, 0x00,
  0x00, 0x01, 0x00, 0x00, 0x00, 0x74, 0x00, 0x00, 0x00, 0x03, 0x00, 0x00, 0x00,
  0x73, 0x00, 0x00, 0x00, 0x27, 0x00, 0x00, 0x00, 0x2d, 0x00, 0x00, 0x00, 0x30,
  0x90, 0xff, 0xff, 0x3c, 0x00, 0x00, 0x00, 0x75, 0x00, 0x00, 0x00, 0x20, 0x00,
  0x00, 0x00, 0x44, 0x00, 0x00, 0x00, 0x04, 0x00, 0x00, 0x00, 0x04, 0x00, 0x00,
  0x00, 0x01, 0x00, 0x00, 0x00, 0xff, 0xff, 0xff, 0xff, 0xff, 0xff, 0xff, 0xff,
  0x04, 0x00, 0x00, 0x00, 0x0d, 0x00, 0x00, 0x00, 0x64, 0x65, 0x70, 0x74, 0x68,
  0x77, 0x69, 0x73, 0x65, 0x5f, 0x32, 0x31, 0x31, 0x00, 0x00, 0x00, 0x04, 0x00,
  0x00, 0x00, 0x01, 0x00, 0x00, 0x00, 0x01, 0x00, 0x00, 0x00, 0x01, 0x00, 0x00,
  0x00, 0x04, 0x00, 0x00, 0x00, 0x18, 0x90, 0xff, 0xff, 0x5a, 0xeb, 0xff, 0xff,
  0x00, 0x00, 0x00, 0x02, 0x01, 0x00, 0x00, 0x00, 0x24, 0x00, 0x00, 0x00, 0x18,
  0x00, 0x00, 0x00, 0x04, 0x00, 0x00, 0x00, 0x4c, 0xeb, 0xff, 0xff, 0x01, 0x00,
  0x00, 0x00, 0x01, 0x00, 0x00, 0x00, 0x01, 0x00, 0x00, 0x00, 0x01, 0x00, 0x00,
  0x00, 0x73, 0x00, 0x00, 0x00, 0x03, 0x00, 0x00, 0x00, 0x72, 0x00, 0x00, 0x00,
  0x26, 0x00, 0x00, 0x00, 0x2d, 0x00, 0x00, 0x00, 0xc8, 0x90, 0xff, 0xff, 0x3c,
  0x00, 0x00, 0x00, 0x74, 0x00, 0x00, 0x00, 0x20, 0x00, 0x00, 0x00, 0x44, 0x00,
  0x00, 0x00, 0x04, 0x00, 0x00, 0x00, 0x04, 0x00, 0x00, 0x00, 0x01, 0x00, 0x00,
  0x00, 0xff, 0xff, 0xff, 0xff, 0xff, 0xff, 0xff, 0xff, 0x04, 0x00, 0x00, 0x00,
  0x0d, 0x00, 0x00, 0x00, 0x64, 0x65, 0x70, 0x74, 0x68, 0x77, 0x69, 0x73, 0x65,
  0x5f, 0x32, 0x30, 0x31, 0x00, 0x00, 0x00, 0x04, 0x00, 0x00, 0x00, 0x01, 0x00,
  0x00, 0x00, 0x01, 0x00, 0x00, 0x00, 0x01, 0x00, 0x00, 0x00, 0x04, 0x00, 0x00,
  0x00, 0xb0, 0x90, 0xff, 0xff, 0xf2, 0xeb, 0xff, 0xff, 0x00, 0x00, 0x00, 0x0b,
  0x03, 0x00, 0x00, 0x00, 0x18, 0x00, 0x00, 0x00, 0x0c, 0x00, 0x00, 0x00, 0x04,
  0x00, 0x00, 0x00, 0xcc, 0x90, 0xff, 0xff, 0x01, 0x00, 0x00, 0x00, 0x72, 0x00,
  0x00, 0x00, 0x02, 0x00, 0x00, 0x00, 0x71, 0x00, 0x00, 0x00, 0x6e, 0x00, 0x00,
  0x00, 0x50, 0x91, 0xff, 0xff, 0x34, 0x00, 0x00, 0x00, 0x73, 0x00, 0x00, 0x00,
  0x20, 0x00, 0x00, 0x00, 0x3c, 0x00, 0x00, 0x00, 0x04, 0x00, 0x00, 0x00, 0x04,
  0x00, 0x00, 0x00, 0x01, 0x00, 0x00, 0x00, 0xff, 0xff, 0xff, 0xff, 0xff, 0xff,
  0xff, 0xff, 0x04, 0x00, 0x00, 0x00, 0x05, 0x00, 0x00, 0x00, 0x41, 0x64, 0x64,
  0x5f, 0x32, 0x00, 0x00, 0x00, 0x04, 0x00, 0x00, 0x00, 0x01, 0x00, 0x00, 0x00,
  0x01, 0x00, 0x00, 0x00, 0x01, 0x00, 0x00, 0x00, 0x04, 0x00, 0x00, 0x00, 0x30,
  0x91, 0xff, 0xff, 0x72, 0xec, 0xff, 0xff, 0x00, 0x00, 0x00, 0x01, 0x02, 0x00,
  0x00, 0x00, 0x20, 0x00, 0x00, 0x00, 0x14, 0x00, 0x00, 0x00, 0x04, 0x00, 0x00,
  0x00, 0xd2, 0xed, 0xff, 0xff, 0x01, 0x00, 0x00, 0x00, 0x01, 0x00, 0x00, 0x00,
  0x01, 0x00, 0x00, 0x00, 0x71, 0x00, 0x00, 0x00, 0x03, 0x00, 0x00, 0x00, 0x70,
  0x00, 0x00, 0x00, 0x25, 0x00, 0x00, 0x00, 0x4c, 0x00, 0x00, 0x00, 0xdc, 0x91,
  0xff, 0xff, 0x58, 0x00, 0x00, 0x00, 0x72, 0x00, 0x00, 0x00, 0x20, 0x00, 0x00,
  0x00, 0x60, 0x00, 0x00, 0x00, 0x04, 0x00, 0x00, 0x00, 0x04, 0x00, 0x00, 0x00,
  0x01, 0x00, 0x00, 0x00, 0xff, 0xff, 0xff, 0xff, 0xff, 0xff, 0xff, 0xff, 0x04,
  0x00, 0x00, 0x00, 0x2b, 0x00, 0x00, 0x00, 0x42, 0x69, 0x61, 0x73, 0x41, 0x64,
  0x64, 0x5f, 0x39, 0x3b, 0x64, 0x65, 0x70, 0x74, 0x68, 0x77, 0x69, 0x73, 0x65,
  0x5f, 0x32, 0x35, 0x3b, 0x43, 0x6f, 0x6e, 0x76, 0x32, 0x44, 0x5f, 0x39, 0x3b,
  0x63, 0x6f, 0x6e, 0x76, 0x5f, 0x33, 0x5f, 0x31, 0x5f, 0x62, 0x31, 0x00, 0x04,
  0x00, 0x00, 0x00, 0x01, 0x00, 0x00, 0x00, 0x01, 0x00, 0x00, 0x00, 0x01, 0x00,
  0x00, 0x00, 0x04, 0x00, 0x00, 0x00, 0xe0, 0x91, 0xff, 0xff, 0x22, 0xed, 0xff,
  0xff, 0x00, 0x00, 0x00, 0x02, 0x01, 0x00, 0x00, 0x00, 0x24, 0x00, 0x00, 0x00,
  0x18, 0x00, 0x00, 0x00, 0x04, 0x00, 0x00, 0x00, 0x14, 0xed, 0xff, 0xff, 0x01,
  0x00, 0x00, 0x00, 0x01, 0x00, 0x00, 0x00, 0x01, 0x00, 0x00, 0x00, 0x01, 0x00,
  0x00, 0x00, 0x70, 0x00, 0x00, 0x00, 0x03, 0x00, 0x00, 0x00, 0x6f, 0x00, 0x00,
  0x00, 0x24, 0x00, 0x00, 0x00, 0x37, 0x00, 0x00, 0x00, 0x90, 0x92, 0xff, 0xff,
  0x3c, 0x00, 0x00, 0x00, 0x71, 0x00, 0x00, 0x00, 0x20, 0x00, 0x00, 0x00, 0x44,
  0x00, 0x00, 0x00, 0x04, 0x00, 0x00, 0x00, 0x04, 0x00, 0x00, 0x00, 0x01, 0x00,
  0x00, 0x00, 0xff, 0xff, 0xff, 0xff, 0xff, 0xff, 0xff, 0xff, 0x06, 0x00, 0x00,
  0x00, 0x0d, 0x00, 0x00, 0x00, 0x64, 0x65, 0x70, 0x74, 0x68, 0x77, 0x69, 0x73,
  0x65, 0x5f, 0x31, 0x39, 0x31, 0x00, 0x00, 0x00, 0x04, 0x00, 0x00, 0x00, 0x01,
  0x00, 0x00, 0x00, 0x01, 0x00, 0x00, 0x00, 0x01, 0x00, 0x00, 0x00, 0x06, 0x00,
  0x00, 0x00, 0x78, 0x92, 0xff, 0xff, 0xba, 0xed, 0xff, 0xff, 0x00, 0x00, 0x00,
  0x02, 0x01, 0x00, 0x00, 0x00, 0x24, 0x00, 0x00, 0x00, 0x18, 0x00, 0x00, 0x00,
  0x04, 0x00, 0x00, 0x00, 0xac, 0xed, 0xff, 0xff, 0x01, 0x00, 0x00, 0x00, 0x01,
  0x00, 0x00, 0x00, 0x01, 0x00, 0x00, 0x00, 0x01, 0x00, 0x00, 0x00, 0x6f, 0x00,
  0x00, 0x00, 0x03, 0x00, 0x00, 0x00, 0x68, 0x00, 0x00, 0x00, 0x23, 0x00, 0x00,
  0x00, 0x37, 0x00, 0x00, 0x00, 0x28, 0x93, 0xff, 0xff, 0x3c, 0x00, 0x00, 0x00,
  0x70, 0x00, 0x00, 0x00, 0x20, 0x00, 0x00, 0x00, 0x44, 0x00, 0x00, 0x00, 0x04,
  0x00, 0x00, 0x00, 0x04, 0x00, 0x00, 0x00, 0x01, 0x00, 0x00, 0x00, 0xff, 0xff,
  0xff, 0xff, 0xff, 0xff, 0xff, 0xff, 0x06, 0x00, 0x00, 0x00, 0x0d, 0x00, 0x00,
  0x00, 0x64, 0x65, 0x70, 0x74, 0x68, 0x77, 0x69, 0x73, 0x65, 0x5f, 0x31, 0x38,
  0x31, 0x00, 0x00, 0x00, 0x04, 0x00, 0x00, 0x00, 0x01, 0x00, 0x00, 0x00, 0x01,
  0x00, 0x00, 0x00, 0x01, 0x00, 0x00, 0x00, 0x06, 0x00, 0x00, 0x00, 0x10, 0x93,
  0xff, 0xff, 0x52, 0xee, 0xff, 0xff, 0x00, 0x00, 0x00, 0x01, 0x02, 0x00, 0x00,
  0x00, 0x20, 0x00, 0x00, 0x00, 0x14, 0x00, 0x00, 0x00, 0x04, 0x00, 0x00, 0x00,
  0xb2, 0xef, 0xff, 0xff, 0x01, 0x00, 0x00, 0x00, 0x01, 0x00, 0x00, 0x00, 0x01,
  0x00, 0x00, 0x00, 0x6e, 0x00, 0x00, 0x00, 0x03, 0x00, 0x00, 0x00, 0x6d, 0x00,
  0x00, 0x00, 0x22, 0x00, 0x00, 0x00, 0x4c, 0x00, 0x00, 0x00, 0xbc, 0x93, 0xff,
  0xff, 0x58, 0x00, 0x00, 0x00, 0x6f, 0x00, 0x00, 0x00, 0x20, 0x00, 0x00, 0x00,
  0x60, 0x00, 0x00, 0x00, 0x04, 0x00, 0x00, 0x00, 0x04, 0x00, 0x00, 0x00, 0x01,
  0x00, 0x00, 0x00, 0xff, 0xff, 0xff, 0xff, 0xff, 0xff, 0xff, 0xff, 0x04, 0x00,
  0x00, 0x00, 0x2a, 0x00, 0x00, 0x00, 0x42, 0x69, 0x61, 0x73, 0x41, 0x64, 0x64,
  0x5f, 0x38, 0x3b, 0x64, 0x65, 0x70, 0x74, 0x68, 0x77, 0x69, 0x73, 0x65, 0x5f,
  0x32, 0x35, 0x3b, 0x43, 0x6f, 0x6e, 0x76, 0x32, 0x44, 0x5f, 0x38, 0x3b, 0x63,
  0x6f, 0x6e, 0x76, 0x5f, 0x33, 0x5f, 0x31, 0x5f, 0x62, 0x00, 0x00, 0x04, 0x00,
  0x00, 0x00, 0x01, 0x00, 0x00, 0x00, 0x01, 0x00, 0x00, 0x00, 0x01, 0x00, 0x00,
  0x00, 0x04, 0x00, 0x00, 0x00, 0xc0, 0x93, 0xff, 0xff, 0x02, 0xef, 0xff, 0xff,
  0x00, 0x00, 0x00, 0x02, 0x01, 0x00, 0x00, 0x00, 0x24, 0x00, 0x00, 0x00, 0x18,
  0x00, 0x00, 0x00, 0x04, 0x00, 0x00, 0x00, 0xf4, 0xee, 0xff, 0xff, 0x01, 0x00,
  0x00, 0x00, 0x01, 0x00, 0x00, 0x00, 0x01, 0x00, 0x00, 0x00, 0x01, 0x00, 0x00,
  0x00, 0x6d, 0x00, 0x00, 0x00, 0x03, 0x00, 0x00, 0x00, 0x6c, 0x00, 0x00, 0x00,
  0x21, 0x00, 0x00, 0x00, 0x2d, 0x00, 0x00, 0x00, 0x70, 0x94, 0xff, 0xff, 0x3c,
  0x00, 0x00, 0x00, 0x6e, 0x00, 0x00, 0x00, 0x20, 0x00, 0x00, 0x00, 0x44, 0x00,
  0x00, 0x00, 0x04, 0x00, 0x00, 0x00, 0x04, 0x00, 0x00, 0x00, 0x01, 0x00, 0x00,
  0x00, 0xff, 0xff, 0xff, 0xff, 0xff, 0xff, 0xff, 0xff, 0x04, 0x00, 0x00, 0x00,
  0x0d, 0x00, 0x00, 0x00, 0x64, 0x65, 0x70, 0x74, 0x68, 0x77, 0x69, 0x73, 0x65,
  0x5f, 0x31, 0x37, 0x31, 0x00, 0x00, 0x00, 0x04, 0x00, 0x00, 0x00, 0x01, 0x00,
  0x00, 0x00, 0x01, 0x00, 0x00, 0x00, 0x01, 0x00, 0x00, 0x00, 0x04, 0x00, 0x00,
  0x00, 0x58, 0x94, 0xff, 0xff, 0x9a, 0xef, 0xff, 0xff, 0x00, 0x00, 0x00, 0x02,
  0x01, 0x00, 0x00, 0x00, 0x24, 0x00, 0x00, 0x00, 0x18, 0x00, 0x00, 0x00, 0x04,
  0x00, 0x00, 0x00, 0x8c, 0xef, 0xff, 0xff, 0x01, 0x00, 0x00, 0x00, 0x01, 0x00,
  0x00, 0x00, 0x01, 0x00, 0x00, 0x00, 0x01, 0x00, 0x00, 0x00, 0x6c, 0x00, 0x00,
  0x00, 0x03, 0x00, 0x00, 0x00, 0x6b, 0x00, 0x00, 0x00, 0x20, 0x00, 0x00, 0x00,
  0x2d, 0x00, 0x00, 0x00, 0x08, 0x95, 0xff, 0xff, 0x3c, 0x00, 0x00, 0x00, 0x6d,
  0x00, 0x00, 0x00, 0x20, 0x00, 0x00, 0x00, 0x44, 0x00, 0x00, 0x00, 0x04, 0x00,
  0x00, 0x00, 0x04, 0x00, 0x00, 0x00, 0x01, 0x00, 0x00, 0x00, 0xff, 0xff, 0xff,
  0xff, 0xff, 0xff, 0xff, 0xff, 0x04, 0x00, 0x00, 0x00, 0x0d, 0x00, 0x00, 0x00,
  0x64, 0x65, 0x70, 0x74, 0x68, 0x77, 0x69, 0x73, 0x65, 0x5f, 0x31, 0x36, 0x31,
  0x00, 0x00, 0x00, 0x04, 0x00, 0x00, 0x00, 0x01, 0x00, 0x00, 0x00, 0x01, 0x00,
  0x00, 0x00, 0x01, 0x00, 0x00, 0x00, 0x04, 0x00, 0x00, 0x00, 0xf0, 0x94, 0xff,
  0xff, 0x32, 0xf0, 0xff, 0xff, 0x00, 0x00, 0x00, 0x01, 0x02, 0x00, 0x00, 0x00,
  0x24, 0x00, 0x00, 0x00, 0x18, 0x00, 0x00, 0x00, 0x04, 0x00, 0x00, 0x00, 0x98,
  0xf3, 0xff, 0xff, 0x01, 0x00, 0x00, 0x00, 0x01, 0x00, 0x00, 0x00, 0x00, 0x00,
  0x00, 0x01, 0x01, 0x00, 0x00, 0x00, 0x6b, 0x00, 0x00, 0x00, 0x03, 0x00, 0x00,
  0x00, 0x6a, 0x00, 0x00, 0x00, 0x1f, 0x00, 0x00, 0x00, 0x04, 0x00, 0x00, 0x00,
  0xa0, 0x95, 0xff, 0xff, 0x60, 0x00, 0x00, 0x00, 0x6c, 0x00, 0x00, 0x00, 0x20,
  0x00, 0x00, 0x00, 0x68, 0x00, 0x00, 0x00, 0x04, 0x00, 0x00, 0x00, 0x04, 0x00,
  0x00, 0x00, 0x01, 0x00, 0x00, 0x00, 0xff, 0xff, 0xff, 0xff, 0xff, 0xff, 0xff,
  0xff, 0x04, 0x00, 0x00, 0x00, 0x31, 0x00, 0x00, 0x00, 0x52, 0x65, 0x6c, 0x75,
  0x5f, 0x32, 0x3b, 0x42, 0x69, 0x61, 0x73, 0x41, 0x64, 0x64, 0x5f, 0x37, 0x3b,
  0x64, 0x65, 0x70, 0x74, 0x68, 0x77, 0x69, 0x73, 0x65, 0x5f, 0x32, 0x35, 0x3b,
  0x43, 0x6f, 0x6e, 0x76, 0x32, 0x44, 0x5f, 0x37, 0x3b, 0x63, 0x6f, 0x6e, 0x76,
  0x5f, 0x33, 0x5f, 0x30, 0x5f, 0x62, 0x00, 0x00, 0x00, 0x04, 0x00, 0x00, 0x00,
  0x01, 0x00, 0x00, 0x00, 0x01, 0x00, 0x00, 0x00, 0x01, 0x00, 0x00, 0x00, 0x04,
  0x00, 0x00, 0x00, 0xac, 0x95, 0xff, 0xff, 0xee, 0xf0, 0xff, 0xff, 0x00, 0x00,
  0x00, 0x02, 0x01, 0x00, 0x00, 0x00, 0x24, 0x00, 0x00, 0x00, 0x18, 0x00, 0x00,
  0x00, 0x04, 0x00, 0x00, 0x00, 0xe0, 0xf0, 0xff, 0xff, 0x01, 0x00, 0x00, 0x00,
  0x01, 0x00, 0x00, 0x00, 0x01, 0x00, 0x00, 0x00, 0x01, 0x00, 0x00, 0x00, 0x6a,
  0x00, 0x00, 0x00, 0x03, 0x00, 0x00, 0x00, 0x69, 0x00, 0x00, 0x00, 0x1e, 0x00,
  0x00, 0x00, 0x37, 0x00, 0x00, 0x00, 0x5c, 0x96, 0xff, 0xff, 0x3c, 0x00, 0x00,
  0x00, 0x6b, 0x00, 0x00, 0x00, 0x20, 0x00, 0x00, 0x00, 0x44, 0x00, 0x00, 0x00,
  0x04, 0x00, 0x00, 0x00, 0x04, 0x00, 0x00, 0x00, 0x01, 0x00, 0x00, 0x00, 0xff,
  0xff, 0xff, 0xff, 0xff, 0xff, 0xff, 0xff, 0x06, 0x00, 0x00, 0x00, 0x0d, 0x00,
  0x00, 0x00, 0x64, 0x65, 0x70, 0x74, 0x68, 0x77, 0x69, 0x73, 0x65, 0x5f, 0x31,
  0x35, 0x31, 0x00, 0x00, 0x00, 0x04, 0x00, 0x00, 0x00, 0x01, 0x00, 0x00, 0x00,
  0x01, 0x00, 0x00, 0x00, 0x01, 0x00, 0x00, 0x00, 0x06, 0x00, 0x00, 0x00, 0x44,
  0x96, 0xff, 0xff, 0x86, 0xf1, 0xff, 0xff, 0x00, 0x00, 0x00, 0x02, 0x01, 0x00,
  0x00, 0x00, 0x24, 0x00, 0x00, 0x00, 0x18, 0x00, 0x00, 0x00, 0x04, 0x00, 0x00,
  0x00, 0x78, 0xf1, 0xff, 0xff, 0x01, 0x00, 0x00, 0x00, 0x01, 0x00, 0x00, 0x00,
  0x01, 0x00, 0x00, 0x00, 0x01, 0x00, 0x00, 0x00, 0x69, 0x00, 0x00, 0x00, 0x03,
  0x00, 0x00, 0x00, 0x68, 0x00, 0x00, 0x00, 0x1d, 0x00, 0x00, 0x00, 0x37, 0x00,
  0x00, 0x00, 0xf4, 0x96, 0xff, 0xff, 0x3c, 0x00, 0x00, 0x00, 0x6a, 0x00, 0x00,
  0x00, 0x20, 0x00, 0x00, 0x00, 0x44, 0x00, 0x00, 0x00, 0x04, 0x00, 0x00, 0x00,
  0x04, 0x00, 0x00, 0x00, 0x01, 0x00, 0x00, 0x00, 0xff, 0xff, 0xff, 0xff, 0xff,
  0xff, 0xff, 0xff, 0x06, 0x00, 0x00, 0x00, 0x0d, 0x00, 0x00, 0x00, 0x64, 0x65,
  0x70, 0x74, 0x68, 0x77, 0x69, 0x73, 0x65, 0x5f, 0x31, 0x34, 0x31, 0x00, 0x00,
  0x00, 0x04, 0x00, 0x00, 0x00, 0x01, 0x00, 0x00, 0x00, 0x01, 0x00, 0x00, 0x00,
  0x01, 0x00, 0x00, 0x00, 0x06, 0x00, 0x00, 0x00, 0xdc, 0x96, 0xff, 0xff, 0x1e,
  0xf2, 0xff, 0xff, 0x00, 0x00, 0x00, 0x0b, 0x03, 0x00, 0x00, 0x00, 0x18, 0x00,
  0x00, 0x00, 0x0c, 0x00, 0x00, 0x00, 0x04, 0x00, 0x00, 0x00, 0xf8, 0x96, 0xff,
  0xff, 0x01, 0x00, 0x00, 0x00, 0x68, 0x00, 0x00, 0x00, 0x02, 0x00, 0x00, 0x00,
  0x67, 0x00, 0x00, 0x00, 0x64, 0x00, 0x00, 0x00, 0x7c, 0x97, 0xff, 0xff, 0x34,
  0x00, 0x00, 0x00, 0x69, 0x00, 0x00, 0x00, 0x20, 0x00, 0x00, 0x00, 0x3c, 0x00,
  0x00, 0x00, 0x04, 0x00, 0x00, 0x00, 0x04, 0x00, 0x00, 0x00, 0x01, 0x00, 0x00,
  0x00, 0xff, 0xff, 0xff, 0xff, 0xff, 0xff, 0xff, 0xff, 0x06, 0x00, 0x00, 0x00,
  0x05, 0x00, 0x00, 0x00, 0x41, 0x64, 0x64, 0x5f, 0x31, 0x00, 0x00, 0x00, 0x04,
  0x00, 0x00, 0x00, 0x01, 0x00, 0x00, 0x00, 0x01, 0x00, 0x00, 0x00, 0x01, 0x00,
  0x00, 0x00, 0x06, 0x00, 0x00, 0x00, 0x5c, 0x97, 0xff, 0xff, 0x9e, 0xf2, 0xff,
  0xff, 0x00, 0x00, 0x00, 0x01, 0x02, 0x00, 0x00, 0x00, 0x20, 0x00, 0x00, 0x00,
  0x14, 0x00, 0x00, 0x00, 0x04, 0x00, 0x00, 0x00, 0xfe, 0xf3, 0xff, 0xff, 0x01,
  0x00, 0x00, 0x00, 0x01, 0x00, 0x00, 0x00, 0x01, 0x00, 0x00, 0x00, 0x67, 0x00,
  0x00, 0x00, 0x03, 0x00, 0x00, 0x00, 0x66, 0x00, 0x00, 0x00, 0x1c, 0x00, 0x00,
  0x00, 0x4b, 0x00, 0x00, 0x00, 0x08, 0x98, 0xff, 0xff, 0x58, 0x00, 0x00, 0x00,
  0x68, 0x00, 0x00, 0x00, 0x20, 0x00, 0x00, 0x00, 0x60, 0x00, 0x00, 0x00, 0x04,
  0x00, 0x00, 0x00, 0x04, 0x00, 0x00, 0x00, 0x01, 0x00, 0x00, 0x00, 0xff, 0xff,
  0xff, 0xff, 0xff, 0xff, 0xff, 0xff, 0x06, 0x00, 0x00, 0x00, 0x2b, 0x00, 0x00,
  0x00, 0x42, 0x69, 0x61, 0x73, 0x41, 0x64, 0x64, 0x5f, 0x36, 0x3b, 0x64, 0x65,
  0x70, 0x74, 0x68, 0x77, 0x69, 0x73, 0x65, 0x5f, 0x33, 0x31, 0x3b, 0x43, 0x6f,
  0x6e, 0x76, 0x32, 0x44, 0x5f, 0x36, 0x3b, 0x63, 0x6f, 0x6e, 0x76, 0x5f, 0x32,
  0x5f, 0x31, 0x5f, 0x62, 0x31, 0x00, 0x04, 0x00, 0x00, 0x00, 0x01, 0x00, 0x00,
  0x00, 0x01, 0x00, 0x00, 0x00, 0x01, 0x00, 0x00, 0x00, 0x06, 0x00, 0x00, 0x00,
  0x0c, 0x98, 0xff, 0xff, 0x4e, 0xf3, 0xff, 0xff, 0x00, 0x00, 0x00, 0x02, 0x01,
  0x00, 0x00, 0x00, 0x24, 0x00, 0x00, 0x00, 0x18, 0x00, 0x00, 0x00, 0x04, 0x00,
  0x00, 0x00, 0x40, 0xf3, 0xff, 0xff, 0x01, 0x00, 0x00, 0x00, 0x01, 0x00, 0x00,
  0x00, 0x01, 0x00, 0x00, 0x00, 0x01, 0x00, 0x00, 0x00, 0x66, 0x00, 0x00, 0x00,
  0x03, 0x00, 0x00, 0x00, 0x65, 0x00, 0x00, 0x00, 0x1b, 0x00, 0x00, 0x00, 0x41,
  0x00, 0x00, 0x00, 0xbc, 0x98, 0xff, 0xff, 0x3c, 0x00, 0x00, 0x00, 0x67, 0x00,
  0x00, 0x00, 0x20, 0x00, 0x00, 0x00, 0x44, 0x00, 0x00, 0x00, 0x04, 0x00, 0x00,
  0x00, 0x04, 0x00, 0x00, 0x00, 0x01, 0x00, 0x00, 0x00, 0xff, 0xff, 0xff, 0xff,
  0xff, 0xff, 0xff, 0xff, 0x0b, 0x00, 0x00, 0x00, 0x0d, 0x00, 0x00, 0x00, 0x64,
  0x65, 0x70, 0x74, 0x68, 0x77, 0x69, 0x73, 0x65, 0x5f, 0x31, 0x33, 0x31, 0x00,
  0x00, 0x00, 0x04, 0x00, 0x00, 0x00, 0x01, 0x00, 0x00, 0x00, 0x01, 0x00, 0x00,
  0x00, 0x01, 0x00, 0x00, 0x00, 0x0b, 0x00, 0x00, 0x00, 0xa4, 0x98, 0xff, 0xff,
  0xe6, 0xf3, 0xff, 0xff, 0x00, 0x00, 0x00, 0x02, 0x01, 0x00, 0x00, 0x00, 0x24,
  0x00, 0x00, 0x00, 0x18, 0x00, 0x00, 0x00, 0x04, 0x00, 0x00, 0x00, 0xd8, 0xf3,
  0xff, 0xff, 0x01, 0x00, 0x00, 0x00, 0x01, 0x00, 0x00, 0x00, 0x01, 0x00, 0x00,
  0x00, 0x01, 0x00, 0x00, 0x00, 0x65, 0x00, 0x00, 0x00, 0x03, 0x00, 0x00, 0x00,
  0x5e, 0x00, 0x00, 0x00, 0x1a, 0x00, 0x00, 0x00, 0x41, 0x00, 0x00, 0x00, 0x54,
  0x99, 0xff, 0xff, 0x3c, 0x00, 0x00, 0x00, 0x66, 0x00, 0x00, 0x00, 0x20, 0x00,
  0x00, 0x00, 0x44, 0x00, 0x00, 0x00, 0x04, 0x00, 0x00, 0x00, 0x04, 0x00, 0x00,
  0x00, 0x01, 0x00, 0x00, 0x00, 0xff, 0xff, 0xff, 0xff, 0xff, 0xff, 0xff, 0xff,
  0x0b, 0x00, 0x00, 0x00, 0x0d, 0x00, 0x00, 0x00, 0x64, 0x65, 0x70, 0x74, 0x68,
  0x77, 0x69, 0x73, 0x65, 0x5f, 0x31, 0x32, 0x31, 0x00, 0x00, 0x00, 0x04, 0x00,
  0x00, 0x00, 0x01, 0x00, 0x00, 0x00, 0x01, 0x00, 0x00, 0x00, 0x01, 0x00, 0x00,
  0x00, 0x0b, 0x00, 0x00, 0x00, 0x3c, 0x99, 0xff, 0xff, 0x7e, 0xf4, 0xff, 0xff,
  0x00, 0x00, 0x00, 0x01, 0x02, 0x00, 0x00, 0x00, 0x20, 0x00, 0x00, 0x00, 0x14,
  0x00, 0x00, 0x00, 0x04, 0x00, 0x00, 0x00, 0xde, 0xf5, 0xff, 0xff, 0x01, 0x00,
  0x00, 0x00, 0x01, 0x00, 0x00, 0x00, 0x01, 0x00, 0x00, 0x00, 0x64, 0x00, 0x00,
  0x00, 0x03, 0x00, 0x00, 0x00, 0x63, 0x00, 0x00, 0x00, 0x19, 0x00, 0x00, 0x00,
  0x4b, 0x00, 0x00, 0x00, 0xe8, 0x99, 0xff, 0xff, 0x58, 0x00, 0x00, 0x00, 0x65,
  0x00, 0x00, 0x00, 0x20, 0x00, 0x00, 0x00, 0x60, 0x00, 0x00, 0x00, 0x04, 0x00,
  0x00, 0x00, 0x04, 0x00, 0x00, 0x00, 0x01, 0x00, 0x00, 0x00, 0xff, 0xff, 0xff,
  0xff, 0xff, 0xff, 0xff, 0xff, 0x06, 0x00, 0x00, 0x00, 0x2a, 0x00, 0x00, 0x00,
  0x42, 0x69, 0x61, 0x73, 0x41, 0x64, 0x64, 0x5f, 0x35, 0x3b, 0x64, 0x65, 0x70,
  0x74, 0x68, 0x77, 0x69, 0x73, 0x65, 0x5f, 0x33, 0x31, 0x3b, 0x43, 0x6f, 0x6e,
  0x76, 0x32, 0x44, 0x5f, 0x35, 0x3b, 0x63, 0x6f, 0x6e, 0x76, 0x5f, 0x32, 0x5f,
  0x31, 0x5f, 0x62, 0x00, 0x00, 0x04, 0x00, 0x00, 0x00, 0x01, 0x00, 0x00, 0x00,
  0x01, 0x00, 0x00, 0x00, 0x01, 0x00, 0x00, 0x00, 0x06, 0x00, 0x00, 0x00, 0xec,
  0x99, 0xff, 0xff, 0x2e, 0xf5, 0xff, 0xff, 0x00, 0x00, 0x00, 0x02, 0x01, 0x00,
  0x00, 0x00, 0x24, 0x00, 0x00, 0x00, 0x18, 0x00, 0x00, 0x00, 0x04, 0x00, 0x00,
  0x00, 0x20, 0xf5, 0xff, 0xff, 0x01, 0x00, 0x00, 0x00, 0x01, 0x00, 0x00, 0x00,
  0x01, 0x00, 0x00, 0x00, 0x01, 0x00, 0x00, 0x00, 0x63, 0x00, 0x00, 0x00, 0x03,
  0x00, 0x00, 0x00, 0x62, 0x00, 0x00, 0x00, 0x18, 0x00, 0x00, 0x00, 0x37, 0x00,
  0x00, 0x00, 0x9c, 0x9a, 0xff, 0xff, 0x3c, 0x00, 0x00, 0x00, 0x64, 0x00, 0x00,
  0x00, 0x20, 0x00, 0x00, 0x00, 0x44, 0x00, 0x00, 0x00, 0x04, 0x00, 0x00, 0x00,
  0x04, 0x00, 0x00, 0x00, 0x01, 0x00, 0x00, 0x00, 0xff, 0xff, 0xff, 0xff, 0xff,
  0xff, 0xff, 0xff, 0x06, 0x00, 0x00, 0x00, 0x0d, 0x00, 0x00, 0x00, 0x64, 0x65,
  0x70, 0x74, 0x68, 0x77, 0x69, 0x73, 0x65, 0x5f, 0x31, 0x31, 0x31, 0x00, 0x00,
  0x00, 0x04, 0x00, 0x00, 0x00, 0x01, 0x00, 0x00, 0x00, 0x01, 0x00, 0x00, 0x00,
  0x01, 0x00, 0x00, 0x00, 0x06, 0x00, 0x00, 0x00, 0x84, 0x9a, 0xff, 0xff, 0xc6,
  0xf5, 0xff, 0xff, 0x00, 0x00, 0x00, 0x02, 0x01, 0x00, 0x00, 0x00, 0x24, 0x00,
  0x00, 0x00, 0x18, 0x00, 0x00, 0x00, 0x04, 0x00, 0x00, 0x00, 0xb8, 0xf5, 0xff,
  0xff, 0x01, 0x00, 0x00, 0x00, 0x01, 0x00, 0x00, 0x00, 0x01, 0x00, 0x00, 0x00,
  0x01, 0x00, 0x00, 0x00, 0x62, 0x00, 0x00, 0x00, 0x03, 0x00, 0x00, 0x00, 0x61,
  0x00, 0x00, 0x00, 0x17, 0x00, 0x00, 0x00, 0x37, 0x00, 0x00, 0x00, 0x34, 0x9b,
  0xff, 0xff, 0x3c, 0x00, 0x00, 0x00, 0x63, 0x00, 0x00, 0x00, 0x20, 0x00, 0x00,
  0x00, 0x44, 0x00, 0x00, 0x00, 0x04, 0x00, 0x00, 0x00, 0x04, 0x00, 0x00, 0x00,
  0x01, 0x00, 0x00, 0x00, 0xff, 0xff, 0xff, 0xff, 0xff, 0xff, 0xff, 0xff, 0x06,
  0x00, 0x00, 0x00, 0x0d, 0x00, 0x00, 0x00, 0x64, 0x65, 0x70, 0x74, 0x68, 0x77,
  0x69, 0x73, 0x65, 0x5f, 0x31, 0x30, 0x31, 0x00, 0x00, 0x00, 0x04, 0x00, 0x00,
  0x00, 0x01, 0x00, 0x00, 0x00, 0x01, 0x00, 0x00, 0x00, 0x01, 0x00, 0x00, 0x00,
  0x06, 0x00, 0x00, 0x00, 0x1c, 0x9b, 0xff, 0xff, 0x5e, 0xf6, 0xff, 0xff, 0x00,
  0x00, 0x00, 0x01, 0x02, 0x00, 0x00, 0x00, 0x24, 0x00, 0x00, 0x00, 0x18, 0x00,
  0x00, 0x00, 0x04, 0x00, 0x00, 0x00, 0xc4, 0xf9, 0xff, 0xff, 0x01, 0x00, 0x00,
  0x00, 0x01, 0x00, 0x00, 0x00, 0x00, 0x00, 0x00, 0x01, 0x01, 0x00, 0x00, 0x00,
  0x61, 0x00, 0x00, 0x00, 0x03, 0x00, 0x00, 0x00, 0x60, 0x00, 0x00, 0x00, 0x16,
  0x00, 0x00, 0x00, 0x05, 0x00, 0x00, 0x00, 0xcc, 0x9b, 0xff, 0xff, 0x60, 0x00,
  0x00, 0x00, 0x62, 0x00, 0x00, 0x00, 0x20, 0x00, 0x00, 0x00, 0x68, 0x00, 0x00,
  0x00, 0x04, 0x00, 0x00, 0x00, 0x04, 0x00, 0x00, 0x00, 0x01, 0x00, 0x00, 0x00,
  0xff, 0xff, 0xff, 0xff, 0xff, 0xff, 0xff, 0xff, 0x06, 0x00, 0x00, 0x00, 0x31,
  0x00, 0x00, 0x00, 0x52, 0x65, 0x6c, 0x75, 0x5f, 0x31, 0x3b, 0x42, 0x69, 0x61,
  0x73, 0x41, 0x64, 0x64, 0x5f, 0x34, 0x3b, 0x64, 0x65, 0x70, 0x74, 0x68, 0x77,
  0x69, 0x73, 0x65, 0x5f, 0x33, 0x31, 0x3b, 0x43, 0x6f, 0x6e, 0x76, 0x32, 0x44,
  0x5f, 0x34, 0x3b, 0x63, 0x6f, 0x6e, 0x76, 0x5f, 0x32, 0x5f, 0x30, 0x5f, 0x62,
  0x00, 0x00, 0x00, 0x04, 0x00, 0x00, 0x00, 0x01, 0x00, 0x00, 0x00, 0x01, 0x00,
  0x00, 0x00, 0x01, 0x00, 0x00, 0x00, 0x06, 0x00, 0x00, 0x00, 0xd8, 0x9b, 0xff,
  0xff, 0x1a, 0xf7, 0xff, 0xff, 0x00, 0x00, 0x00, 0x02, 0x01, 0x00, 0x00, 0x00,
  0x24, 0x00, 0x00, 0x00, 0x18, 0x00, 0x00, 0x00, 0x04, 0x00, 0x00, 0x00, 0x0c,
  0xf7, 0xff, 0xff, 0x01, 0x00, 0x00, 0x00, 0x01, 0x00, 0x00, 0x00, 0x01, 0x00,
  0x00, 0x00, 0x01, 0x00, 0x00, 0x00, 0x60, 0x00, 0x00, 0x00, 0x03, 0x00, 0x00,
  0x00, 0x5f, 0x00, 0x00, 0x00, 0x15, 0x00, 0x00, 0x00, 0x41, 0x00, 0x00, 0x00,
  0x88, 0x9c, 0xff, 0xff, 0x3c, 0x00, 0x00, 0x00, 0x61, 0x00, 0x00, 0x00, 0x20,
  0x00, 0x00, 0x00, 0x44, 0x00, 0x00, 0x00, 0x04, 0x00, 0x00, 0x00, 0x04, 0x00,
  0x00, 0x00, 0x01, 0x00, 0x00, 0x00, 0xff, 0xff, 0xff, 0xff, 0xff, 0xff, 0xff,
  0xff, 0x0b, 0x00, 0x00, 0x00, 0x0c, 0x00, 0x00, 0x00, 0x64, 0x65, 0x70, 0x74,
  0x68, 0x77, 0x69, 0x73, 0x65, 0x5f, 0x39, 0x31, 0x00, 0x00, 0x00, 0x00, 0x04,
  0x00, 0x00, 0x00, 0x01, 0x00, 0x00, 0x00, 0x01, 0x00, 0x00, 0x00, 0x01, 0x00,
  0x00, 0x00, 0x0b, 0x00, 0x00, 0x00, 0x70, 0x9c, 0xff, 0xff, 0xb2, 0xf7, 0xff,
  0xff, 0x00, 0x00, 0x00, 0x02, 0x01, 0x00, 0x00, 0x00, 0x24, 0x00, 0x00, 0x00,
  0x18, 0x00, 0x00, 0x00, 0x04, 0x00, 0x00, 0x00, 0xa4, 0xf7, 0xff, 0xff, 0x01,
  0x00, 0x00, 0x00, 0x01, 0x00, 0x00, 0x00, 0x01, 0x00, 0x00, 0x00, 0x01, 0x00,
  0x00, 0x00, 0x5f, 0x00, 0x00, 0x00, 0x03, 0x00, 0x00, 0x00, 0x5e, 0x00, 0x00,
  0x00, 0x14, 0x00, 0x00, 0x00, 0x41, 0x00, 0x00, 0x00, 0x20, 0x9d, 0xff, 0xff,
  0x3c, 0x00, 0x00, 0x00, 0x60, 0x00, 0x00, 0x00, 0x20, 0x00, 0x00, 0x00, 0x44,
  0x00, 0x00, 0x00, 0x04, 0x00, 0x00, 0x00, 0x04, 0x00, 0x00, 0x00, 0x01, 0x00,
  0x00, 0x00, 0xff, 0xff, 0xff, 0xff, 0xff, 0xff, 0xff, 0xff, 0x0b, 0x00, 0x00,
  0x00, 0x0c, 0x00, 0x00, 0x00, 0x64, 0x65, 0x70, 0x74, 0x68, 0x77, 0x69, 0x73,
  0x65, 0x5f, 0x38, 0x31, 0x00, 0x00, 0x00, 0x00, 0x04, 0x00, 0x00, 0x00, 0x01,
  0x00, 0x00, 0x00, 0x01, 0x00, 0x00, 0x00, 0x01, 0x00, 0x00, 0x00, 0x0b, 0x00,
  0x00, 0x00, 0x08, 0x9d, 0xff, 0xff, 0x4a, 0xf8, 0xff, 0xff, 0x00, 0x00, 0x00,
  0x0b, 0x03, 0x00, 0x00, 0x00, 0x18, 0x00, 0x00, 0x00, 0x0c, 0x00, 0x00, 0x00,
  0x04, 0x00, 0x00, 0x00, 0x24, 0x9d, 0xff, 0xff, 0x01, 0x00, 0x00, 0x00, 0x5e,
  0x00, 0x00, 0x00, 0x02, 0x00, 0x00, 0x00, 0x5d, 0x00, 0x00, 0x00, 0x5a, 0x00,
  0x00, 0x00, 0x00, 0x00, 0x0a, 0x00, 0x08, 0x00, 0x00, 0x00, 0x00, 0x00, 0x04,
  0x00, 0x0a, 0x00, 0x00, 0x00, 0x01, 0x00, 0x00, 0x00, 0xbc, 0x9d, 0xff, 0xff,
  0x30, 0x00, 0x00, 0x00, 0x5f, 0x00, 0x00, 0x00, 0x20, 0x00, 0x00, 0x00, 0x38,
  0x00, 0x00, 0x00, 0x04, 0x00, 0x00, 0x00, 0x04, 0x00, 0x00, 0x00, 0x01, 0x00,
  0x00, 0x00, 0xff, 0xff, 0xff, 0xff, 0xff, 0xff, 0xff, 0xff, 0x0b, 0x00, 0x00,
  0x00, 0x03, 0x00, 0x00, 0x00, 0x41, 0x64, 0x64, 0x00, 0x04, 0x00, 0x00, 0x00,
  0x01, 0x00, 0x00, 0x00, 0x01, 0x00, 0x00, 0x00, 0x01, 0x00, 0x00, 0x00, 0x0b,
  0x00, 0x00, 0x00, 0x98, 0x9d, 0xff, 0xff, 0xda, 0xf8, 0xff, 0xff, 0x00, 0x00,
  0x00, 0x01, 0x02, 0x00, 0x00, 0x00, 0x20, 0x00, 0x00, 0x00, 0x14, 0x00, 0x00,
  0x00, 0x04, 0x00, 0x00, 0x00, 0x3a, 0xfa, 0xff, 0xff, 0x01, 0x00, 0x00, 0x00,
  0x01, 0x00, 0x00, 0x00, 0x01, 0x00, 0x00, 0x00, 0x5d, 0x00, 0x00, 0x00, 0x03,
  0x00, 0x00, 0x00, 0x5c, 0x00, 0x00, 0x00, 0x13, 0x00, 0x00, 0x00, 0x4a, 0x00,
  0x00, 0x00, 0x44, 0x9e, 0xff, 0xff, 0x58, 0x00, 0x00, 0x00, 0x5e, 0x00, 0x00,
  0x00, 0x20, 0x00, 0x00, 0x00, 0x60, 0x00, 0x00, 0x00, 0x04, 0x00, 0x00, 0x00,
  0x04, 0x00, 0x00, 0x00, 0x01, 0x00, 0x00, 0x00, 0xff, 0xff, 0xff, 0xff, 0xff,
  0xff, 0xff, 0xff, 0x0b, 0x00, 0x00, 0x00, 0x2b, 0x00, 0x00, 0x00, 0x42, 0x69,
  0x61, 0x73, 0x41, 0x64, 0x64, 0x5f, 0x33, 0x3b, 0x64, 0x65, 0x70, 0x74, 0x68,
  0x77, 0x69, 0x73, 0x65, 0x5f, 0x33, 0x37, 0x3b, 0x43, 0x6f, 0x6e, 0x76, 0x32,
  0x44, 0x5f, 0x33, 0x3b, 0x63, 0x6f, 0x6e, 0x76, 0x5f, 0x31, 0x5f, 0x31, 0x5f,
  0x62, 0x31, 0x00, 0x04, 0x00, 0x00, 0x00, 0x01, 0x00, 0x00, 0x00, 0x01, 0x00,
  0x00, 0x00, 0x01, 0x00, 0x00, 0x00, 0x0b, 0x00, 0x00, 0x00, 0x48, 0x9e, 0xff,
  0xff, 0x8a, 0xf9, 0xff, 0xff, 0x00, 0x00, 0x00, 0x02, 0x01, 0x00, 0x00, 0x00,
  0x24, 0x00, 0x00, 0x00, 0x18, 0x00, 0x00, 0x00, 0x04, 0x00, 0x00, 0x00, 0x7c,
  0xf9, 0xff, 0xff, 0x01, 0x00, 0x00, 0x00, 0x01, 0x00, 0x00, 0x00, 0x01, 0x00,
  0x00, 0x00, 0x01, 0x00, 0x00, 0x00, 0x5c, 0x00, 0x00, 0x00, 0x03, 0x00, 0x00,
  0x00, 0x5b, 0x00, 0x00, 0x00, 0x12, 0x00, 0x00, 0x00, 0x45, 0x00, 0x00, 0x00,
  0xf8, 0x9e, 0xff, 0xff, 0x3c, 0x00, 0x00, 0x00, 0x5d, 0x00, 0x00, 0x00, 0x20,
  0x00, 0x00, 0x00, 0x44, 0x00, 0x00, 0x00, 0x04, 0x00, 0x00, 0x00, 0x04, 0x00,
  0x00, 0x00, 0x01, 0x00, 0x00, 0x00, 0xff, 0xff, 0xff, 0xff, 0xff, 0xff, 0xff,
  0xff, 0x14, 0x00, 0x00, 0x00, 0x0c, 0x00, 0x00, 0x00, 0x64, 0x65, 0x70, 0x74,
  0x68, 0x77, 0x69, 0x73, 0x65, 0x5f, 0x37, 0x31, 0x00, 0x00, 0x00, 0x00, 0x04,
  0x00, 0x00, 0x00, 0x01, 0x00, 0x00, 0x00, 0x01, 0x00, 0x00, 0x00, 0x01, 0x00,
  0x00, 0x00, 0x14, 0x00, 0x00, 0x00, 0xe0, 0x9e, 0xff, 0xff, 0x22, 0xfa, 0xff,
  0xff, 0x00, 0x00, 0x00, 0x02, 0x01, 0x00, 0x00, 0x00, 0x24, 0x00, 0x00, 0x00,
  0x18, 0x00, 0x00, 0x00, 0x04, 0x00, 0x00, 0x00, 0x14, 0xfa, 0xff, 0xff, 0x01,
  0x00, 0x00, 0x00, 0x01, 0x00, 0x00, 0x00, 0x01, 0x00, 0x00, 0x00, 0x01, 0x00,
  0x00, 0x00, 0x5b, 0x00, 0x00, 0x00, 0x03, 0x00, 0x00, 0x00, 0x54, 0x00, 0x00,
  0x00, 0x11, 0x00, 0x00, 0x00, 0x45, 0x00, 0x00, 0x00, 0x90, 0x9f, 0xff, 0xff,
  0x3c, 0x00, 0x00, 0x00, 0x5c, 0x00, 0x00, 0x00, 0x20, 0x00, 0x00, 0x00, 0x44,
  0x00, 0x00, 0x00, 0x04, 0x00, 0x00, 0x00, 0x04, 0x00, 0x00, 0x00, 0x01, 0x00,
  0x00, 0x00, 0xff, 0xff, 0xff, 0xff, 0xff, 0xff, 0xff, 0xff, 0x14, 0x00, 0x00,
  0x00, 0x0c, 0x00, 0x00, 0x00, 0x64, 0x65, 0x70, 0x74, 0x68, 0x77, 0x69, 0x73,
  0x65, 0x5f, 0x36, 0x31, 0x00, 0x00, 0x00, 0x00, 0x04, 0x00, 0x00, 0x00, 0x01,
  0x00, 0x00, 0x00, 0x01, 0x00, 0x00, 0x00, 0x01, 0x00, 0x00, 0x00, 0x14, 0x00,
  0x00, 0x00, 0x78, 0x9f, 0xff, 0xff, 0xba, 0xfa, 0xff, 0xff, 0x00, 0x00, 0x00,
  0x01, 0x02, 0x00, 0x00, 0x00, 0x20, 0x00, 0x00, 0x00, 0x14, 0x00, 0x00, 0x00,
  0x04, 0x00, 0x00, 0x00, 0x1a, 0xfc, 0xff, 0xff, 0x01, 0x00, 0x00, 0x00, 0x01,
  0x00, 0x00, 0x00, 0x01, 0x00, 0x00, 0x00, 0x5a, 0x00, 0x00, 0x00, 0x03, 0x00,
  0x00, 0x00, 0x59, 0x00, 0x00, 0x00, 0x10, 0x00, 0x00, 0x00, 0x4a, 0x00, 0x00,
  0x00, 0x24, 0xa0, 0xff, 0xff, 0x58, 0x00, 0x00, 0x00, 0x5b, 0x00, 0x00, 0x00,
  0x20, 0x00, 0x00, 0x00, 0x60, 0x00, 0x00, 0x00, 0x04, 0x00, 0x00, 0x00, 0x04,
  0x00, 0x00, 0x00, 0x01, 0x00, 0x00, 0x00, 0xff, 0xff, 0xff, 0xff, 0xff, 0xff,
  0xff, 0xff, 0x0b, 0x00, 0x00, 0x00, 0x2a, 0x00, 0x00, 0x00, 0x42, 0x69, 0x61,
  0x73, 0x41, 0x64, 0x64, 0x5f, 0x32, 0x3b, 0x64, 0x65, 0x70, 0x74, 0x68, 0x77,
  0x69, 0x73, 0x65, 0x5f, 0x33, 0x37, 0x3b, 0x43, 0x6f, 0x6e, 0x76, 0x32, 0x44,
  0x5f, 0x32, 0x3b, 0x63, 0x6f, 0x6e, 0x76, 0x5f, 0x31, 0x5f, 0x31, 0x5f, 0x62,
  0x00, 0x00, 0x04, 0x00, 0x00, 0x00, 0x01, 0x00, 0x00, 0x00, 0x01, 0x00, 0x00,
  0x00, 0x01, 0x00, 0x00, 0x00, 0x0b, 0x00, 0x00, 0x00, 0x28, 0xa0, 0xff, 0xff,
  0x6a, 0xfb, 0xff, 0xff, 0x00, 0x00, 0x00, 0x02, 0x01, 0x00, 0x00, 0x00, 0x24,
  0x00, 0x00, 0x00, 0x18, 0x00, 0x00, 0x00, 0x04, 0x00, 0x00, 0x00, 0x5c, 0xfb,
  0xff, 0xff, 0x01, 0x00, 0x00, 0x00, 0x01, 0x00, 0x00, 0x00, 0x01, 0x00, 0x00,
  0x00, 0x01, 0x00, 0x00, 0x00, 0x59, 0x00, 0x00, 0x00, 0x03, 0x00, 0x00, 0x00,
  0x58, 0x00, 0x00, 0x00, 0x0f, 0x00, 0x00, 0x00, 0x41, 0x00, 0x00, 0x00, 0xd8,
  0xa0, 0xff, 0xff, 0x3c, 0x00, 0x00, 0x00, 0x5a, 0x00, 0x00, 0x00, 0x20, 0x00,
  0x00, 0x00, 0x44, 0x00, 0x00, 0x00, 0x04, 0x00, 0x00, 0x00, 0x04, 0x00, 0x00,
  0x00, 0x01, 0x00, 0x00, 0x00, 0xff, 0xff, 0xff, 0xff, 0xff, 0xff, 0xff, 0xff,
  0x0b, 0x00, 0x00, 0x00, 0x0c, 0x00, 0x00, 0x00, 0x64, 0x65, 0x70, 0x74, 0x68,
  0x77, 0x69, 0x73, 0x65, 0x5f, 0x35, 0x31, 0x00, 0x00, 0x00, 0x00, 0x04, 0x00,
  0x00, 0x00, 0x01, 0x00, 0x00, 0x00, 0x01, 0x00, 0x00, 0x00, 0x01, 0x00, 0x00,
  0x00, 0x0b, 0x00, 0x00, 0x00, 0xc0, 0xa0, 0xff, 0xff, 0x02, 0xfc, 0xff, 0xff,
  0x00, 0x00, 0x00, 0x02, 0x01, 0x00, 0x00, 0x00, 0x24, 0x00, 0x00, 0x00, 0x18,
  0x00, 0x00, 0x00, 0x04, 0x00, 0x00, 0x00, 0xf4, 0xfb, 0xff, 0xff, 0x01, 0x00,
  0x00, 0x00, 0x01, 0x00, 0x00, 0x00, 0x01, 0x00, 0x00, 0x00, 0x01, 0x00, 0x00,
  0x00, 0x58, 0x00, 0x00, 0x00, 0x03, 0x00, 0x00, 0x00, 0x57, 0x00, 0x00, 0x00,
  0x0e, 0x00, 0x00, 0x00, 0x41, 0x00, 0x00, 0x00, 0x70, 0xa1, 0xff, 0xff, 0x3c,
  0x00, 0x00, 0x00, 0x59, 0x00, 0x00, 0x00, 0x20, 0x00, 0x00, 0x00, 0x44, 0x00,
  0x00, 0x00, 0x04, 0x00, 0x00, 0x00, 0x04, 0x00, 0x00, 0x00, 0x01, 0x00, 0x00,
  0x00, 0xff, 0xff, 0xff, 0xff, 0xff, 0xff, 0xff, 0xff, 0x0b, 0x00, 0x00, 0x00,
  0x0c, 0x00, 0x00, 0x00, 0x64, 0x65, 0x70, 0x74, 0x68, 0x77, 0x69, 0x73, 0x65,
  0x5f, 0x34, 0x31, 0x00, 0x00, 0x00, 0x00, 0x04, 0x00, 0x00, 0x00, 0x01, 0x00,
  0x00, 0x00, 0x01, 0x00, 0x00, 0x00, 0x01, 0x00, 0x00, 0x00, 0x0b, 0x00, 0x00,
  0x00, 0x58, 0xa1, 0xff, 0xff, 0x9a, 0xfc, 0xff, 0xff, 0x00, 0x00, 0x00, 0x01,
  0x02, 0x00, 0x00, 0x00, 0x30, 0x00, 0x00, 0x00, 0x24, 0x00, 0x00, 0x00, 0x10,
  0x00, 0x00, 0x00, 0x0c, 0x00, 0x10, 0x00, 0x00, 0x00, 0x04, 0x00, 0x08, 0x00,
  0x0f, 0x00, 0x0c, 0x00, 0x00, 0x00, 0x01, 0x00, 0x00, 0x00, 0x01, 0x00, 0x00,
  0x00, 0x00, 0x00, 0x00, 0x01, 0x01, 0x00, 0x00, 0x00, 0x57, 0x00, 0x00, 0x00,
  0x03, 0x00, 0x00, 0x00, 0x56, 0x00, 0x00, 0x00, 0x0d, 0x00, 0x00, 0x00, 0x06,
  0x00, 0x00, 0x00, 0x14, 0xa2, 0xff, 0xff, 0x5c, 0x00, 0x00, 0x00, 0x58, 0x00,
  0x00, 0x00, 0x20, 0x00, 0x00, 0x00, 0x64, 0x00, 0x00, 0x00, 0x04, 0x00, 0x00,
  0x00, 0x04, 0x00, 0x00, 0x00, 0x01, 0x00, 0x00, 0x00, 0xff, 0xff, 0xff, 0xff,
  0xff, 0xff, 0xff, 0xff, 0x0b, 0x00, 0x00, 0x00, 0x2f, 0x00, 0x00, 0x00, 0x52,
  0x65, 0x6c, 0x75, 0x3b, 0x42, 0x69, 0x61, 0x73, 0x41, 0x64, 0x64, 0x5f, 0x31,
  0x3b, 0x64, 0x65, 0x70, 0x74, 0x68, 0x77, 0x69, 0x73, 0x65, 0x5f, 0x33, 0x37,
  0x3b, 0x43, 0x6f, 0x6e, 0x76, 0x32, 0x44, 0x5f, 0x31, 0x3b, 0x63, 0x6f, 0x6e,
  0x76, 0x5f, 0x31, 0x5f, 0x30, 0x5f, 0x62, 0x00, 0x04, 0x00, 0x00, 0x00, 0x01,
  0x00, 0x00, 0x00, 0x01, 0x00, 0x00, 0x00, 0x01, 0x00, 0x00, 0x00, 0x0b, 0x00,
  0x00, 0x00, 0x1c, 0xa2, 0xff, 0xff, 0x5e, 0xfd, 0xff, 0xff, 0x00, 0x00, 0x00,
  0x02, 0x01, 0x00, 0x00, 0x00, 0x24, 0x00, 0x00, 0x00, 0x18, 0x00, 0x00, 0x00,
  0x04, 0x00, 0x00, 0x00, 0x50, 0xfd, 0xff, 0xff, 0x01, 0x00, 0x00, 0x00, 0x01,
  0x00, 0x00, 0x00, 0x01, 0x00, 0x00, 0x00, 0x01, 0x00, 0x00, 0x00, 0x56, 0x00,
  0x00, 0x00, 0x03, 0x00, 0x00, 0x00, 0x55, 0x00, 0x00, 0x00, 0x0c, 0x00, 0x00,
  0x00, 0x45, 0x00, 0x00, 0x00, 0xcc, 0xa2, 0xff, 0xff, 0x3c, 0x00, 0x00, 0x00,
  0x57, 0x00, 0x00, 0x00, 0x20, 0x00, 0x00, 0x00, 0x44, 0x00, 0x00, 0x00, 0x04,
  0x00, 0x00, 0x00, 0x04, 0x00, 0x00, 0x00, 0x01, 0x00, 0x00, 0x00, 0xff, 0xff,
  0xff, 0xff, 0xff, 0xff, 0xff, 0xff, 0x14, 0x00, 0x00, 0x00, 0x0d, 0x00, 0x00,
  0x00, 0x64, 0x65, 0x70, 0x74, 0x68, 0x77, 0x69, 0x73, 0x65, 0x5f, 0x33, 0x31,
  0x30, 0x00, 0x00, 0x00, 0x04, 0x00, 0x00, 0x00, 0x01, 0x00, 0x00, 0x00, 0x01,
  0x00, 0x00, 0x00, 0x01, 0x00, 0x00, 0x00, 0x14, 0x00, 0x00, 0x00, 0xb4, 0xa2,
  0xff, 0xff, 0xf6, 0xfd, 0xff, 0xff, 0x00, 0x00, 0x00, 0x02, 0x01, 0x00, 0x00,
  0x00, 0x24, 0x00, 0x00, 0x00, 0x18, 0x00, 0x00, 0x00, 0x04, 0x00, 0x00, 0x00,
  0xe8, 0xfd, 0xff, 0xff, 0x01, 0x00, 0x00, 0x00, 0x01, 0x00, 0x00, 0x00, 0x01,
  0x00, 0x00, 0x00, 0x01, 0x00, 0x00, 0x00, 0x55, 0x00, 0x00, 0x00, 0x03, 0x00,
  0x00, 0x00, 0x54, 0x00, 0x00, 0x00, 0x0b, 0x00, 0x00, 0x00, 0x45, 0x00, 0x00,
  0x00, 0x64, 0xa3, 0xff, 0xff, 0x3c, 0x00, 0x00, 0x00, 0x56, 0x00, 0x00, 0x00,
  0x20, 0x00, 0x00, 0x00, 0x44, 0x00, 0x00, 0x00, 0x04, 0x00, 0x00, 0x00, 0x04,
  0x00, 0x00, 0x00, 0x01, 0x00, 0x00, 0x00, 0xff, 0xff, 0xff, 0xff, 0xff, 0xff,
  0xff, 0xff, 0x14, 0x00, 0x00, 0x00, 0x0d, 0x00, 0x00, 0x00, 0x64, 0x65, 0x70,
  0x74, 0x68, 0x77, 0x69, 0x73, 0x65, 0x5f, 0x32, 0x31, 0x30, 0x00, 0x00, 0x00,
  0x04, 0x00, 0x00, 0x00, 0x01, 0x00, 0x00, 0x00, 0x01, 0x00, 0x00, 0x00, 0x01,
  0x00, 0x00, 0x00, 0x14, 0x00, 0x00, 0x00, 0x64, 0xa4, 0xff, 0xff, 0x00, 0x00,
  0x0e, 0x00, 0x1a, 0x00, 0x08, 0x00, 0x0c, 0x00, 0x10, 0x00, 0x07, 0x00, 0x14,
  0x00, 0x0e, 0x00, 0x00, 0x00, 0x00, 0x00, 0x00, 0x01, 0x02, 0x00, 0x00, 0x00,
  0x2c, 0x00, 0x00, 0x00, 0x20, 0x00, 0x00, 0x00, 0x10, 0x00, 0x00, 0x00, 0x00,
  0x00, 0x0a, 0x00, 0x0c, 0x00, 0x00, 0x00, 0x04, 0x00, 0x08, 0x00, 0x0a, 0x00,
  0x00, 0x00, 0x01, 0x00, 0x00, 0x00, 0x01, 0x00, 0x00, 0x00, 0x01, 0x00, 0x00,
  0x00, 0x54, 0x00, 0x00, 0x00, 0x03, 0x00, 0x00, 0x00, 0x53, 0x00, 0x00, 0x00,
  0x0a, 0x00, 0x00, 0x00, 0x49, 0x00, 0x00, 0x00, 0xe0, 0xfd, 0xff, 0xff, 0x03,
  0x00, 0x00, 0x00, 0x00, 0x00, 0x00, 0x03, 0x01, 0x00, 0x00, 0x00, 0x24, 0xa4,
  0xff, 0xff, 0x54, 0x00, 0x00, 0x00, 0x55, 0x00, 0x00, 0x00, 0x20, 0x00, 0x00,
  0x00, 0x5c, 0x00, 0x00, 0x00, 0x04, 0x00, 0x00, 0x00, 0x04, 0x00, 0x00, 0x00,
  0x01, 0x00, 0x00, 0x00, 0xff, 0xff, 0xff, 0xff, 0xff, 0xff, 0xff, 0xff, 0x14,
  0x00, 0x00, 0x00, 0x25, 0x00, 0x00, 0x00, 0x42, 0x69, 0x61, 0x73, 0x41, 0x64,
  0x64, 0x3b, 0x64, 0x65, 0x70, 0x74, 0x68, 0x77, 0x69, 0x73, 0x65, 0x5f, 0x33,
  0x39, 0x3b, 0x43, 0x6f, 0x6e, 0x76, 0x32, 0x44, 0x3b, 0x63, 0x6f, 0x6e, 0x76,
  0x5f, 0x30, 0x5f, 0x62, 0x31, 0x00, 0x00, 0x00, 0x04, 0x00, 0x00, 0x00, 0x01,
  0x00, 0x00, 0x00, 0x01, 0x00, 0x00, 0x00, 0x01, 0x00, 0x00, 0x00, 0x14, 0x00,
  0x00, 0x00, 0x24, 0xa4, 0xff, 0xff, 0x66, 0xff, 0xff, 0xff, 0x00, 0x00, 0x00,
  0x02, 0x01, 0x00, 0x00, 0x00, 0x24, 0x00, 0x00, 0x00, 0x18, 0x00, 0x00, 0x00,
  0x04, 0x00, 0x00, 0x00, 0x58, 0xff, 0xff, 0xff, 0x01, 0x00, 0x00, 0x00, 0x01,
  0x00, 0x00, 0x00, 0x01, 0x00, 0x00, 0x00, 0x01, 0x00, 0x00, 0x00, 0x53, 0x00,
  0x00, 0x00, 0x03, 0x00, 0x00, 0x00, 0x52, 0x00, 0x00, 0x00, 0x09, 0x00, 0x00,
  0x00, 0x47, 0x00, 0x00, 0x00, 0xd4, 0xa4, 0xff, 0xff, 0x3c, 0x00, 0x00, 0x00,
  0x54, 0x00, 0x00, 0x00, 0x20, 0x00, 0x00, 0x00, 0x44, 0x00, 0x00, 0x00, 0x04,
  0x00, 0x00, 0x00, 0x04, 0x00, 0x00, 0x00, 0x01, 0x00, 0x00, 0x00, 0xff, 0xff,
  0xff, 0xff, 0xff, 0xff, 0xff, 0xff, 0x01, 0x00, 0x00, 0x00, 0x0d, 0x00, 0x00,
  0x00, 0x64, 0x65, 0x70, 0x74, 0x68, 0x77, 0x69, 0x73, 0x65, 0x5f, 0x31, 0x31,
  0x30, 0x00, 0x00, 0x00, 0x04, 0x00, 0x00, 0x00, 0x01, 0x00, 0x00, 0x00, 0x01,
  0x00, 0x00, 0x00, 0x01, 0x00, 0x00, 0x00, 0x01, 0x00, 0x00, 0x00, 0xd4, 0xa5,
  0xff, 0xff, 0x00, 0x00, 0x0e, 0x00, 0x18, 0x00, 0x08, 0x00, 0x0c, 0x00, 0x10,
  0x00, 0x07, 0x00, 0x14, 0x00, 0x0e, 0x00, 0x00, 0x00, 0x00, 0x00, 0x00, 0x02,
  0x01, 0x00, 0x00, 0x00, 0x30, 0x00, 0x00, 0x00, 0x24, 0x00, 0x00, 0x00, 0x10,
  0x00, 0x00, 0x00, 0x0c, 0x00, 0x10, 0x00, 0x00, 0x00, 0x08, 0x00, 0x0c, 0x00,
  0x04, 0x00, 0x0c, 0x00, 0x00, 0x00, 0x01, 0x00, 0x00, 0x00, 0x01, 0x00, 0x00,
  0x00, 0x01, 0x00, 0x00, 0x00, 0x01, 0x00, 0x00, 0x00, 0x52, 0x00, 0x00, 0x00,
  0x03, 0x00, 0x00, 0x00, 0x51, 0x00, 0x00, 0x00, 0x08, 0x00, 0x00, 0x00, 0x47,
  0x00, 0x00, 0x00, 0x54, 0xff, 0xff, 0xff, 0x04, 0x00, 0x00, 0x00, 0x00, 0x00,
  0x00, 0x04, 0x01, 0x00, 0x00, 0x00, 0x98, 0xa5, 0xff, 0xff, 0x38, 0x00, 0x00,
  0x00, 0x53, 0x00, 0x00, 0x00, 0x20, 0x00, 0x00, 0x00, 0x40, 0x00, 0x00, 0x00,
  0x04, 0x00, 0x00, 0x00, 0x04, 0x00, 0x00, 0x00, 0x01, 0x00, 0x00, 0x00, 0xff,
  0xff, 0xff, 0xff, 0xff, 0xff, 0xff, 0xff, 0x01, 0x00, 0x00, 0x00, 0x0a, 0x00,
  0x00, 0x00, 0x64, 0x65, 0x70, 0x74, 0x68, 0x77, 0x69, 0x73, 0x65, 0x31, 0x00,
  0x00, 0x04, 0x00, 0x00, 0x00, 0x01, 0x00, 0x00, 0x00, 0x01, 0x00, 0x00, 0x00,
  0x01, 0x00, 0x00, 0x00, 0x01, 0x00, 0x00, 0x00, 0x94, 0xa6, 0xff, 0xff, 0x00,
  0x00, 0x0e, 0x00, 0x16, 0x00, 0x00, 0x00, 0x08, 0x00, 0x0c, 0x00, 0x07, 0x00,
  0x10, 0x00, 0x0e, 0x00, 0x00, 0x00, 0x00, 0x00, 0x00, 0x4d, 0x24, 0x00, 0x00,
  0x00, 0x18, 0x00, 0x00, 0x00, 0x0c, 0x00, 0x00, 0x00, 0x00, 0x00, 0x06, 0x00,
  0x08, 0x00, 0x07, 0x00, 0x06, 0x00, 0x00, 0x00, 0x00, 0x00, 0x00, 0x01, 0x01,
  0x00, 0x00, 0x00, 0x51, 0x00, 0x00, 0x00, 0x02, 0x00, 0x00, 0x00, 0x00, 0x00,
  0x00, 0x00, 0x07, 0x00, 0x00, 0x00, 0x0c, 0x00, 0x10, 0x00, 0x0b, 0x00, 0x00,
  0x00, 0x0c, 0x00, 0x04, 0x00, 0x0c, 0x00, 0x00, 0x00, 0x64, 0x00, 0x00, 0x00,
  0x00, 0x00, 0x00, 0x64, 0x01, 0x00, 0x00, 0x00, 0x50, 0xa6, 0xff, 0xff, 0x38,
  0x00, 0x00, 0x00, 0x52, 0x00, 0x00, 0x00, 0x20, 0x00, 0x00, 0x00, 0x40, 0x00,
  0x00, 0x00, 0x04, 0x00, 0x00, 0x00, 0x04, 0x00, 0x00, 0x00, 0x01, 0x00, 0x00,
  0x00, 0xff, 0xff, 0xff, 0xff, 0xff, 0xff, 0xff, 0xff, 0x01, 0x00, 0x00, 0x00,
  0x09, 0x00, 0x00, 0x00, 0x4d, 0x69, 0x72, 0x72, 0x6f, 0x72, 0x50, 0x61, 0x64,
  0x00, 0x00, 0x00, 0x04, 0x00, 0x00, 0x00, 0x01, 0x00, 0x00, 0x00, 0x01, 0x00,
  0x00, 0x00, 0x01, 0x00, 0x00, 0x00, 0x01, 0x00, 0x00, 0x00, 0x34, 0xa6, 0xff,
  0xff, 0x46, 0xa7, 0xff, 0xff, 0x04, 0x00, 0x00, 0x00, 0x04, 0x00, 0x00, 0x00,
  0xe2, 0x5e, 0x32, 0xb9, 0xf2, 0xa6, 0xff, 0xff, 0x34, 0x00, 0x00, 0x00, 0x51,
  0x00, 0x00, 0x00, 0x08, 0x00, 0x00, 0x00, 0x30, 0x00, 0x00, 0x00, 0x1d, 0x00,
  0x00, 0x00, 0x42, 0x69, 0x61, 0x73, 0x41, 0x64, 0x64, 0x5f, 0x31, 0x39, 0x3b,
  0x43, 0x6f, 0x6e, 0x76, 0x32, 0x44, 0x5f, 0x31, 0x39, 0x3b, 0x63, 0x6f, 0x6e,
  0x76, 0x5f, 0x37, 0x5f, 0x62, 0x00, 0x00, 0x00, 0x01, 0x00, 0x00, 0x00, 0x01,
  0x00, 0x00, 0x00, 0x88, 0xa6, 0xff, 0xff, 0x9a, 0xa7, 0xff, 0xff, 0x04, 0x00,
  0x00, 0x00, 0x50, 0x00, 0x00, 0x00, 0x06, 0x79, 0x43, 0xbe, 0xdc, 0xa5, 0xec,
  0xbd, 0x86, 0xe2, 0x52, 0xbc, 0x37, 0xa2, 0x37, 0xbd, 0x18, 0x5a, 0xa0, 0x3c,
  0xcf, 0x19, 0x07, 0x3e, 0xf6, 0xd0, 0x01, 0xbd, 0xfc, 0xcd, 0x5c, 0xbc, 0xe2,
  0xf6, 0x40, 0xbb, 0x63, 0xc9, 0x30, 0x3d, 0x27, 0xa5, 0x1a, 0xbd, 0xdb, 0x43,
  0x95, 0xbd, 0xb8, 0x27, 0x5b, 0xbd, 0x4b, 0x4c, 0x3f, 0x3c, 0x51, 0x6d, 0x18,
  0x3d, 0x8a, 0x71, 0x9e, 0xbd, 0x5c, 0x22, 0x59, 0xbd, 0x62, 0xec, 0x10, 0xbd,
  0x77, 0xc5, 0x98, 0x3c, 0xf6, 0x05, 0x1d, 0xbd, 0x92, 0xa7, 0xff, 0xff, 0x44,
  0x00, 0x00, 0x00, 0x50, 0x00, 0x00, 0x00, 0x08, 0x00, 0x00, 0x00, 0x40, 0x00,
  0x00, 0x00, 0x2c, 0x00, 0x00, 0x00, 0x42, 0x69, 0x61, 0x73, 0x41, 0x64, 0x64,
  0x5f, 0x31, 0x38, 0x3b, 0x64, 0x65, 0x70, 0x74, 0x68, 0x77, 0x69, 0x73, 0x65,
  0x5f, 0x33, 0x39, 0x3b, 0x43, 0x6f, 0x6e, 0x76, 0x32, 0x44, 0x5f, 0x31, 0x38,
  0x3b, 0x63, 0x6f, 0x6e, 0x76, 0x5f, 0x36, 0x5f, 0x31, 0x5f, 0x62, 0x00, 0x00,
  0x00, 0x00, 0x01, 0x00, 0x00, 0x00, 0x14, 0x00, 0x00, 0x00, 0x38, 0xa7, 0xff,
  0xff, 0x4a, 0xa8, 0xff, 0xff, 0x04, 0x00, 0x00, 0x00, 0x2c, 0x00, 0x00, 0x00,
  0x70, 0xfe, 0x85, 0x3d, 0x43, 0xf6, 0x3f, 0x3d, 0x15, 0x00, 0x02, 0x3d, 0x57,
  0xdd, 0x31, 0x3c, 0x82, 0x36, 0x05, 0x3e, 0x14, 0xf9, 0xac, 0x3e, 0x8d, 0xeb,
  0x8e, 0xbd, 0x93, 0xea, 0x67, 0xbd, 0x32, 0xe9, 0xab, 0x3e, 0x15, 0x29, 0xda,
  0x3c, 0x52, 0x69, 0x1e, 0x3d, 0x1e, 0xa8, 0xff, 0xff, 0x44, 0x00, 0x00, 0x00,
  0x4f, 0x00, 0x00, 0x00, 0x08, 0x00, 0x00, 0x00, 0x40, 0x00, 0x00, 0x00, 0x2c,
  0x00, 0x00, 0x00, 0x42, 0x69, 0x61, 0x73, 0x41, 0x64, 0x64, 0x5f, 0x31, 0x35,
  0x3b, 0x64, 0x65, 0x70, 0x74, 0x68, 0x77, 0x69, 0x73, 0x65, 0x5f, 0x33, 0x37,
  0x3b, 0x43, 0x6f, 0x6e, 0x76, 0x32, 0x44, 0x5f, 0x31, 0x35, 0x3b, 0x63, 0x6f,
  0x6e, 0x76, 0x5f, 0x35, 0x5f, 0x31, 0x5f, 0x62, 0x00, 0x00, 0x00, 0x00, 0x01,
  0x00, 0x00, 0x00, 0x0b, 0x00, 0x00, 0x00, 0xc4, 0xa7, 0xff, 0xff, 0xd6, 0xa8,
  0xff, 0xff, 0x04, 0x00, 0x00, 0x00, 0x18, 0x00, 0x00, 0x00, 0x15, 0x20, 0x97,
  0x3d, 0x47, 0xc4, 0xa0, 0xbd, 0xd9, 0x23, 0x1e, 0x3d, 0x34, 0x21, 0xff, 0x3d,
  0x61, 0x28, 0xee, 0xbb, 0xcc, 0x7c, 0xc0, 0x3c, 0x96, 0xa8, 0xff, 0xff, 0x44,
  0x00, 0x00, 0x00, 0x4e, 0x00, 0x00, 0x00, 0x08, 0x00, 0x00, 0x00, 0x40, 0x00,
  0x00, 0x00, 0x2c, 0x00, 0x00, 0x00, 0x42, 0x69, 0x61, 0x73, 0x41, 0x64, 0x64,
  0x5f, 0x31, 0x32, 0x3b, 0x64, 0x65, 0x70, 0x74, 0x68, 0x77, 0x69, 0x73, 0x65,
  0x5f, 0x33, 0x31, 0x3b, 0x43, 0x6f, 0x6e, 0x76, 0x32, 0x44, 0x5f, 0x31, 0x32,
  0x3b, 0x63, 0x6f, 0x6e, 0x76, 0x5f, 0x34, 0x5f, 0x31, 0x5f, 0x62, 0x00, 0x00,
  0x00, 0x00, 0x01, 0x00, 0x00, 0x00, 0x06, 0x00, 0x00, 0x00, 0x3c, 0xa8, 0xff,
  0xff, 0x4e, 0xa9, 0xff, 0xff, 0x04, 0x00, 0x00, 0x00, 0x10, 0x00, 0x00, 0x00,
  0x0e, 0x41, 0xbc, 0x3d, 0x9e, 0x82, 0x80, 0xbd, 0xc9, 0x6d, 0xc5, 0x3d, 0xe0,
  0x15, 0xb6, 0x3d, 0x06, 0xa9, 0xff, 0xff, 0x40, 0x00, 0x00, 0x00, 0x4d, 0x00,
  0x00, 0x00, 0x08, 0x00, 0x00, 0x00, 0x3c, 0x00, 0x00, 0x00, 0x2a, 0x00, 0x00,
  0x00, 0x42, 0x69, 0x61, 0x73, 0x41, 0x64, 0x64, 0x5f, 0x39, 0x3b, 0x64, 0x65,
  0x70, 0x74, 0x68, 0x77, 0x69, 0x73, 0x65, 0x5f, 0x32, 0x35, 0x3b, 0x43, 0x6f,
  0x6e, 0x76, 0x32, 0x44, 0x5f, 0x39, 0x3b, 0x63, 0x6f, 0x6e, 0x76, 0x5f, 0x33,
  0x5f, 0x31, 0x5f, 0x62, 0x00, 0x00, 0x01, 0x00, 0x00, 0x00, 0x04, 0x00, 0x00,
  0x00, 0xa8, 0xa8, 0xff, 0xff, 0xba, 0xa9, 0xff, 0xff, 0x04, 0x00, 0x00, 0x00,
  0x18, 0x00, 0x00, 0x00, 0xb0, 0xdb, 0x56, 0xbd, 0x12, 0xb2, 0x30, 0x3d, 0x85,
  0x7d, 0x40, 0xbe, 0x80, 0x8d, 0xf8, 0xbd, 0xc4, 0x33, 0x6f, 0xbd, 0xb4, 0x0e,
  0xfc, 0x3c, 0x7a, 0xa9, 0xff, 0xff, 0x40, 0x00, 0x00, 0x00, 0x4c, 0x00, 0x00,
  0x00, 0x08, 0x00, 0x00, 0x00, 0x3c, 0x00, 0x00, 0x00, 0x2a, 0x00, 0x00, 0x00,
  0x42, 0x69, 0x61, 0x73, 0x41, 0x64, 0x64, 0x5f, 0x36, 0x3b, 0x64, 0x65, 0x70,
  0x74, 0x68, 0x77, 0x69, 0x73, 0x65, 0x5f, 0x33, 0x31, 0x3b, 0x43, 0x6f, 0x6e,
  0x76, 0x32, 0x44, 0x5f, 0x36, 0x3b, 0x63, 0x6f, 0x6e, 0x76, 0x5f, 0x32, 0x5f,
  0x31, 0x5f, 0x62, 0x00, 0x00, 0x01, 0x00, 0x00, 0x00, 0x06, 0x00, 0x00, 0x00,
  0x1c, 0xa9, 0xff, 0xff, 0x2e, 0xaa, 0xff, 0xff, 0x04, 0x00, 0x00, 0x00, 0x2c,
  0x00, 0x00, 0x00, 0x38, 0x20, 0x06, 0x3d, 0xb0, 0x9b, 0x56, 0x3e, 0x16, 0x81,
  0x55, 0xbc, 0x82, 0xea, 0xe5, 0x3d, 0x1b, 0x78, 0xc5, 0x3d, 0x7a, 0x5c, 0xe5,
  0xbb, 0x8e, 0x06, 0x1c, 0xbb, 0x1d, 0x03, 0x36, 0x3e, 0xc8, 0x3d, 0xab, 0xbd,
  0x57, 0x6a, 0xfc, 0xbd, 0x3d, 0x59, 0x8f, 0xbd, 0x02, 0xaa, 0xff, 0xff, 0x40,
  0x00, 0x00, 0x00, 0x4b, 0x00, 0x00, 0x00, 0x08, 0x00, 0x00, 0x00, 0x3c, 0x00,
  0x00, 0x00, 0x2a, 0x00, 0x00, 0x00, 0x42, 0x69, 0x61, 0x73, 0x41, 0x64, 0x64,
  0x5f, 0x33, 0x3b, 0x64, 0x65, 0x70, 0x74, 0x68, 0x77, 0x69, 0x73, 0x65, 0x5f,
  0x33, 0x37, 0x3b, 0x43, 0x6f, 0x6e, 0x76, 0x32, 0x44, 0x5f, 0x33, 0x3b, 0x63,
  0x6f, 0x6e, 0x76, 0x5f, 0x31, 0x5f, 0x31, 0x5f, 0x62, 0x00, 0x00, 0x01, 0x00,
  0x00, 0x00, 0x0b, 0x00, 0x00, 0x00, 0xa4, 0xa9, 0xff, 0xff, 0xb6, 0xaa, 0xff,
  0xff, 0x04, 0x00, 0x00, 0x00, 0x50, 0x00, 0x00, 0x00, 0xe7, 0x05, 0xe1, 0xbd,
  0xc4, 0xf6, 0xee, 0xbe, 0xb3, 0xd2, 0x48, 0xbf, 0x60, 0xca, 0x9f, 0xbe, 0x7a,
  0xd7, 0xb2, 0xbe, 0x6a, 0x4d, 0x38, 0x3e, 0x6f, 0x6b, 0x1f, 0x3f, 0x8e, 0xa9,
  0xc3, 0xbd, 0x02, 0xca, 0x05, 0xbf, 0x12, 0xff, 0xfc, 0x3e, 0xa6, 0x2b, 0x0c,
  0xbf, 0xf0, 0xeb, 0xdc, 0x3e, 0x3b, 0x1d, 0x56, 0x3e, 0x54, 0x9b, 0x32, 0x3f,
  0x50, 0x51, 0x48, 0xbe, 0xdf, 0x58, 0xee, 0x3e, 0x32, 0x6a, 0x83, 0x3d, 0x90,
  0xb8, 0x48, 0x3f, 0xde, 0x81, 0xd5, 0x3e, 0xe6, 0xe1, 0x3e, 0xbf, 0xae, 0xaa,
  0xff, 0xff, 0x3c, 0x00, 0x00, 0x00, 0x4a, 0x00, 0x00, 0x00, 0x08, 0x00, 0x00,
  0x00, 0x38, 0x00, 0x00, 0x00, 0x24, 0x00, 0x00, 0x00, 0x42, 0x69, 0x61, 0x73,
  0x41, 0x64, 0x64, 0x3b, 0x64, 0x65, 0x70, 0x74, 0x68, 0x77, 0x69, 0x73, 0x65,
  0x5f, 0x33, 0x39, 0x3b, 0x43, 0x6f, 0x6e, 0x76, 0x32, 0x44, 0x3b, 0x63, 0x6f,
  0x6e, 0x76, 0x5f, 0x30, 0x5f, 0x62, 0x00, 0x00, 0x00, 0x00, 0x01, 0x00, 0x00,
  0x00, 0x14, 0x00, 0x00, 0x00, 0x4c, 0xaa, 0xff, 0xff, 0x5e, 0xab, 0xff, 0xff,
  0x04, 0x00, 0x00, 0x00, 0x50, 0x00, 0x00, 0x00, 0xd1, 0xe8, 0x0d, 0xbd, 0x3d,
  0xc5, 0x1a, 0x3e, 0x49, 0xc2, 0x37, 0xbd, 0xa6, 0x44, 0x63, 0x3d, 0x35, 0xaf,
  0xb2, 0xbd, 0x9a, 0xc7, 0xc0, 0xbd, 0x92, 0x85, 0x2a, 0xbd, 0xc5, 0xeb, 0xae,
  0xbd, 0x0b, 0x47, 0x8e, 0x3d, 0x38, 0xe3, 0x81, 0x3d, 0x57, 0x3b, 0xce, 0xbd,
  0xb5, 0xc3, 0x6c, 0x3d, 0x21, 0xbc, 0xac, 0xbd, 0x29, 0x90, 0xc2, 0xbd, 0x46,
  0x33, 0x52, 0xbd, 0x74, 0xfe, 0x92, 0x3d, 0x37, 0xc6, 0x97, 0xbd, 0x8f, 0xe4,
  0x49, 0x3d, 0xb9, 0x93, 0x9d, 0x3d, 0xb3, 0xbf, 0x89, 0x3d, 0x56, 0xab, 0xff,
  0xff, 0x20, 0x00, 0x00, 0x00, 0x49, 0x00, 0x00, 0x00, 0x08, 0x00, 0x00, 0x00,
  0x28, 0x00, 0x00, 0x00, 0x0a, 0x00, 0x00, 0x00, 0x43, 0x6f, 0x6e, 0x76, 0x32,
  0x44, 0x5f, 0x31, 0x39, 0x31, 0x00, 0x00, 0x04, 0x00, 0x00, 0x00, 0x01, 0x00,
  0x00, 0x00, 0x01, 0x00, 0x00, 0x00, 0x01, 0x00, 0x00, 0x00, 0x14, 0x00, 0x00,
  0x00, 0xe4, 0xaa, 0xff, 0xff, 0xf6, 0xab, 0xff, 0xff, 0x04, 0x00, 0x00, 0x00,
  0x04, 0x00, 0x00, 0x00, 0x00, 0x00, 0x00, 0x00, 0xa2, 0xab, 0xff, 0xff, 0x20,
  0x00, 0x00, 0x00, 0x48, 0x00, 0x00, 0x00, 0x08, 0x00, 0x00, 0x00, 0x1c, 0x00,
  0x00, 0x00, 0x09, 0x00, 0x00, 0x00, 0x43, 0x6f, 0x6e, 0x76, 0x32, 0x44, 0x5f,
  0x31, 0x39, 0x00, 0x00, 0x00, 0x01, 0x00, 0x00, 0x00, 0x01, 0x00, 0x00, 0x00,
  0x24, 0xab, 0xff, 0xff, 0x36, 0xac, 0xff, 0xff, 0x04, 0x00, 0x00, 0x00, 0x30,
  0x02, 0x00, 0x00, 0x5d, 0x4b, 0x63, 0x3e, 0x66, 0xf7, 0x7b, 0x3d, 0x22, 0xce,
  0x8c, 0xbd, 0xdb, 0x91, 0x2e, 0x3e, 0xe8, 0xe3, 0x4d, 0xbc, 0x8e, 0xf7, 0x98,
  0xbd, 0xab, 0x53, 0xe0, 0x3e, 0xf5, 0x68, 0x1b, 0x3e, 0xf6, 0xb8, 0xcb, 0xbe,
  0x50, 0x19, 0xe8, 0x3c, 0x25, 0x28, 0x31, 0xbe, 0x30, 0x3b, 0xc1, 0x3e, 0xcf,
  0x29, 0xa5, 0xbc, 0xe1, 0xc6, 0x2b, 0x3e, 0x6e, 0xd7, 0x69, 0xbe, 0x08, 0x38,
  0x0f, 0x3d, 0x73, 0xaa, 0x9a, 0x3d, 0x5d, 0x28, 0x95, 0x3d, 0xae, 0x53, 0xa1,
  0x3e, 0x2a, 0x6e, 0x78, 0xbe, 0xbc, 0x3d, 0x61, 0xbe, 0x4e, 0x89, 0xa1, 0x3b,
  0xf9, 0x0f, 0x8a, 0xbd, 0x2f, 0x2e, 0x4d, 0x3e, 0x00, 0xeb, 0x99, 0x3c, 0xbf,
  0x48, 0x38, 0xbe, 0xa2, 0xef, 0x3c, 0xbe, 0xb8, 0xf8, 0x23, 0x3e, 0xd0, 0xfb,
  0x90, 0x3d, 0x6d, 0xb8, 0x02, 0xbe, 0xf4, 0xcc, 0xb1, 0xbd, 0xac, 0xcb, 0xf7,
  0xbe, 0xb6, 0xd9, 0x6c, 0x3d, 0x79, 0x62, 0x35, 0xbe, 0xc1, 0x71, 0x6e, 0xbe,
  0x3f, 0x1f, 0x3b, 0xbe, 0xee, 0x5f, 0x92, 0xbe, 0x3a, 0x63, 0x32, 0xbe, 0x7a,
  0x5c, 0xc1, 0x3d, 0x39, 0x79, 0x79, 0xbd, 0xa2, 0xa2, 0x11, 0x3e, 0xea, 0xc0,
  0x8d, 0x3e, 0xb0, 0x0b, 0x1b, 0x3e, 0xee, 0x55, 0x70, 0x3d, 0xcc, 0x51, 0x21,
  0xbe, 0xfe, 0x5c, 0xbd, 0xbd, 0xd9, 0xc5, 0xca, 0xbe, 0x00, 0x56, 0xd0, 0xbe,
  0x44, 0x51, 0x87, 0x3d, 0x78, 0x78, 0xa4, 0xbe, 0x62, 0xfa, 0xcf, 0x3d, 0x9b,
  0x14, 0xfa, 0x3c, 0x3b, 0xcb, 0xf9, 0x3d, 0x6d, 0x30, 0xfa, 0xbd, 0xdd, 0x8f,
  0xa2, 0xbd, 0x97, 0xff, 0xdf, 0x3e, 0x14, 0xfa, 0x58, 0x3e, 0xd1, 0xc8, 0xde,
  0xbd, 0xcb, 0xd8, 0x00, 0xbe, 0x02, 0x4f, 0xd6, 0x3d, 0x90, 0x71, 0x95, 0x3e,
  0xac, 0xf0, 0x86, 0x3e, 0x2c, 0x8b, 0x8a, 0x3e, 0xce, 0x84, 0xb1, 0xbd, 0xa9,
  0xf6, 0x92, 0xbe, 0x1d, 0x66, 0xd8, 0xbd, 0x4b, 0xed, 0x41, 0x3e, 0xc1, 0x47,
  0x0f, 0xbe, 0x2c, 0xdd, 0x1f, 0xbd, 0x12, 0xe6, 0x0d, 0x3e, 0x7d, 0x7a, 0xb2,
  0xbd, 0x0c, 0x60, 0x94, 0x3c, 0x02, 0x77, 0x53, 0x3c, 0x94, 0xc0, 0x8a, 0x3d,
  0xd1, 0x77, 0x0e, 0x3e, 0xc8, 0x87, 0xaf, 0x3d, 0x6a, 0xaf, 0xcf, 0x3e, 0xa4,
  0xe6, 0xc8, 0xbd, 0x11, 0x1c, 0xbf, 0xbb, 0xad, 0x0c, 0x04, 0x3f, 0x51, 0x37,
  0xd4, 0x3c, 0xee, 0xe9, 0x50, 0x3d, 0x65, 0x6c, 0x50, 0x3e, 0xcb, 0x6e, 0xb4,
  0x3d, 0x00, 0xa3, 0x6e, 0xbd, 0x3e, 0xae, 0xb3, 0x3e, 0xf7, 0x4a, 0x59, 0xbd,
  0xc4, 0x90, 0x84, 0x3e, 0x91, 0xe7, 0xc7, 0xbd, 0xed, 0xcc, 0x3f, 0xbc, 0x69,
  0x61, 0x7d, 0xbe, 0xe1, 0x1f, 0x32, 0x3c, 0xa0, 0x1d, 0xa5, 0xbe, 0x20, 0x90,
  0xa4, 0xbe, 0xea, 0x0a, 0x31, 0x3e, 0x27, 0xe2, 0xf9, 0xbd, 0x07, 0x70, 0x70,
  0xbd, 0xcb, 0x08, 0x82, 0x3e, 0xde, 0xab, 0x3c, 0xbe, 0xe8, 0xff, 0x67, 0xbe,
  0xc6, 0xc4, 0x8d, 0xbe, 0x73, 0xd0, 0xd6, 0xbd, 0x12, 0x94, 0x9e, 0x3c, 0xe9,
  0x8e, 0x7f, 0xbd, 0x34, 0xfe, 0x48, 0xbd, 0x50, 0x6a, 0x6f, 0x3e, 0x05, 0x4c,
  0xe9, 0xbd, 0xe2, 0x51, 0x1f, 0x3d, 0x6f, 0xea, 0xd4, 0x3c, 0xac, 0xac, 0x05,
  0xbe, 0xfb, 0x56, 0x04, 0xbe, 0xba, 0x3b, 0x56, 0x3e, 0xa2, 0x7d, 0xfb, 0xbd,
  0xac, 0x81, 0xfd, 0xbd, 0xc6, 0xd7, 0x33, 0x3e, 0x30, 0x74, 0xfa, 0xbc, 0x68,
  0xe9, 0x3c, 0xbe, 0x70, 0x7f, 0x13, 0x3d, 0x27, 0x3e, 0x25, 0xbe, 0xc1, 0x42,
  0xa9, 0xbd, 0x69, 0x10, 0xc0, 0xbe, 0xc8, 0x8c, 0xd5, 0x3d, 0x0b, 0xd1, 0x74,
  0xbe, 0x04, 0xe2, 0xb0, 0xbe, 0xe3, 0x1e, 0x55, 0xbe, 0xde, 0x38, 0x8a, 0xbd,
  0x0c, 0xd5, 0x8f, 0x3e, 0x94, 0xc4, 0x76, 0xbd, 0x10, 0x46, 0x74, 0xbe, 0x7f,
  0x08, 0xb6, 0x3d, 0x3a, 0xc5, 0xa7, 0xbc, 0xe5, 0x2f, 0x2f, 0xbe, 0x22, 0xe2,
  0xa0, 0x3e, 0x9b, 0x25, 0xee, 0x3d, 0xb8, 0xe3, 0xd3, 0x3c, 0xe2, 0x2a, 0x0c,
  0x3e, 0x40, 0x4d, 0xba, 0xbd, 0x8e, 0x9f, 0x4a, 0x3e, 0xa4, 0xc6, 0xde, 0xbc,
  0x6e, 0x86, 0x11, 0xbe, 0x0e, 0xae, 0xff, 0xff, 0x24, 0x00, 0x00, 0x00, 0x47,
  0x00, 0x00, 0x00, 0x08, 0x00, 0x00, 0x00, 0x2c, 0x00, 0x00, 0x00, 0x0d, 0x00,
  0x00, 0x00, 0x64, 0x65, 0x70, 0x74, 0x68, 0x77, 0x69, 0x73, 0x65, 0x5f, 0x33,
  0x39, 0x31, 0x00, 0x00, 0x00, 0x04, 0x00, 0x00, 0x00, 0x01, 0x00, 0x00, 0x00,
  0x01, 0x00, 0x00, 0x00, 0x07, 0x00, 0x00, 0x00, 0x14, 0x00, 0x00, 0x00, 0xa0,
  0xad, 0xff, 0xff, 0xb2, 0xae, 0xff, 0xff, 0x04, 0x00, 0x00, 0x00, 0x50, 0x00,
  0x00, 0x00, 0x00, 0x00, 0x00, 0x00, 0x00, 0x00, 0x00, 0x00, 0x00, 0x00, 0x00,
  0x00, 0x00, 0x00, 0x00, 0x00, 0x00, 0x00, 0x00, 0x00, 0x00, 0x00, 0x00, 0x00,
  0x00, 0x00, 0x00, 0x00, 0x00, 0x00, 0x00, 0x00, 0x00, 0x00, 0x00, 0x00, 0x00,
  0x00, 0x00, 0x00, 0x00, 0x00, 0x00, 0x00, 0x00, 0x00, 0x00, 0x00, 0x00, 0x00,
  0x00, 0x00, 0x00, 0x00, 0x00, 0x00, 0x00, 0x00, 0x00, 0x00, 0x00, 0x00, 0x00,
  0x00, 0x00, 0x00, 0x00, 0x00, 0x00, 0x00, 0x00, 0x00, 0x00, 0x00, 0x00, 0x00,
  0x00, 0x00, 0x00, 0x00, 0xaa, 0xae, 0xff, 0xff, 0x24, 0x00, 0x00, 0x00, 0x46,
  0x00, 0x00, 0x00, 0x08, 0x00, 0x00, 0x00, 0x20, 0x00, 0x00, 0x00, 0x0c, 0x00,
  0x00, 0x00, 0x64, 0x65, 0x70, 0x74, 0x68, 0x77, 0x69, 0x73, 0x65, 0x5f, 0x33,
  0x39, 0x00, 0x00, 0x00, 0x00, 0x01, 0x00, 0x00, 0x00, 0x14, 0x00, 0x00, 0x00,
  0x30, 0xae, 0xff, 0xff, 0x42, 0xaf, 0xff, 0xff, 0x04, 0x00, 0x00, 0x00, 0x30,
  0x02, 0x00, 0x00, 0xd6, 0xfe, 0x85, 0xbe, 0x55, 0x14, 0x4c, 0x3e, 0xc5, 0xd0,
  0x8f, 0xbe, 0x77, 0xd4, 0xab, 0xbe, 0x88, 0xf1, 0x74, 0xbe, 0x18, 0xb1, 0x8e,
  0xbe, 0x9d, 0xf6, 0xc8, 0xbc, 0x18, 0x47, 0x18, 0x3e, 0xe7, 0x15, 0x7a, 0xbd,
  0xd7, 0x75, 0xce, 0xbc, 0xa5, 0x9f, 0x00, 0xbe, 0x7e, 0x45, 0x18, 0x3e, 0xa1,
  0x29, 0xa3, 0xbd, 0x82, 0xf5, 0x43, 0x3e, 0xa6, 0xbe, 0x86, 0xbe, 0xc9, 0x80,
  0x70, 0x3c, 0xa3, 0xf7, 0x33, 0x3d, 0xf0, 0xa4, 0x99, 0x3d, 0x11, 0x62, 0x82,
  0x3e, 0x24, 0x8b, 0x7f, 0xbe, 0x21, 0x51, 0x03, 0x3e, 0x18, 0xcc, 0xdf, 0x3d,
  0x41, 0x6b, 0x9c, 0xbd, 0x1b, 0x2a, 0x20, 0xbe, 0xd3, 0xef, 0x05, 0xbe, 0xcc,
  0x79, 0x9c, 0x3e, 0x8d, 0x11, 0x87, 0xbe, 0xe2, 0x0a, 0xc4, 0x3e, 0xf2, 0xaf,
  0x25, 0x3d, 0x4e, 0xd7, 0xdd, 0xbd, 0xf0, 0x76, 0x78, 0xbe, 0x0f, 0x69, 0x6f,
  0x3b, 0x11, 0x7b, 0x61, 0xbd, 0x1e, 0xb4, 0x1e, 0x3e, 0xc7, 0xd0, 0x5e, 0xbe,
  0x7c, 0xad, 0x67, 0x3e, 0x57, 0x5c, 0x6a, 0x3e, 0xa9, 0x19, 0xff, 0x3d, 0x55,
  0x7c, 0x14, 0xbc, 0xa7, 0x9a, 0xc1, 0xbd, 0xb8, 0x3f, 0xea, 0x3e, 0x82, 0x9a,
  0xa4, 0xbe, 0x10, 0x6b, 0x1f, 0xbe, 0x3a, 0x2e, 0xdd, 0xbd, 0xfa, 0x52, 0xaf,
  0x3b, 0x9c, 0x2b, 0xc5, 0x3e, 0xfa, 0x8e, 0x59, 0x3e, 0xb8, 0x54, 0x60, 0x3e,
  0xca, 0xdb, 0x53, 0xbd, 0x24, 0xbd, 0x98, 0xbe, 0x1c, 0xb1, 0xa3, 0xbd, 0xce,
  0xf9, 0x17, 0xbd, 0xf2, 0x81, 0xa7, 0xbe, 0x4e, 0x6a, 0x5e, 0xbe, 0x1f, 0x06,
  0x92, 0x3d, 0x75, 0x06, 0x10, 0x3d, 0xd9, 0x43, 0xb8, 0xbd, 0xf1, 0x43, 0x42,
  0x3e, 0x3f, 0x1e, 0x95, 0x3d, 0xbd, 0x59, 0x92, 0x3e, 0xb6, 0xcd, 0x53, 0xbe,
  0x7a, 0xdc, 0x3c, 0xbe, 0xd4, 0xf5, 0x40, 0xbd, 0xe0, 0x0d, 0x32, 0x3e, 0x40,
  0x75, 0xb5, 0xbd, 0xd4, 0x0c, 0xf6, 0xbd, 0xbe, 0x54, 0xa4, 0xbd, 0x4e, 0xab,
  0x99, 0xbe, 0xc1, 0xd7, 0x8e, 0x3e, 0x3a, 0x6d, 0xb1, 0xbd, 0xf0, 0x2e, 0x9c,
  0x3e, 0xc2, 0x15, 0x86, 0x3e, 0x86, 0x50, 0xd3, 0xbd, 0x43, 0x45, 0xa2, 0xbd,
  0x5d, 0x40, 0xd1, 0x3e, 0x46, 0x36, 0xd1, 0xbe, 0x34, 0xbc, 0x80, 0x3e, 0xb5,
  0xed, 0xa6, 0x3e, 0xde, 0xfb, 0x1a, 0x3e, 0xd3, 0xf0, 0x6a, 0x3e, 0x44, 0xe7,
  0x15, 0xbe, 0x0f, 0x30, 0x8a, 0x3e, 0xfc, 0xed, 0x41, 0x3e, 0x52, 0x76, 0xc3,
  0x3c, 0xdd, 0x08, 0xad, 0x3e, 0xc3, 0x6b, 0x8d, 0x3a, 0x19, 0x95, 0x92, 0xbe,
  0x15, 0x29, 0xd2, 0x3d, 0x7e, 0x45, 0x4a, 0xbd, 0x86, 0x46, 0xa2, 0x3c, 0xc9,
  0x27, 0x1e, 0xbe, 0x6e, 0x59, 0x7f, 0xbe, 0x92, 0x60, 0x0d, 0x3e, 0xad, 0xdb,
  0xf1, 0x3d, 0x49, 0x2a, 0x02, 0x3d, 0x42, 0x92, 0x65, 0xbe, 0x97, 0xf7, 0x04,
  0x3e, 0x73, 0xdc, 0x6b, 0xbe, 0xe3, 0xd1, 0xd8, 0x3d, 0x23, 0xbd, 0x5a, 0xbb,
  0x7d, 0xc7, 0xa1, 0xbe, 0xb5, 0xef, 0x95, 0x3c, 0x0b, 0x46, 0x6c, 0x3e, 0xaf,
  0x81, 0x68, 0xbd, 0x3c, 0xa2, 0x1f, 0xbd, 0x1a, 0x5b, 0x01, 0xbd, 0x02, 0xb1,
  0xfa, 0xbd, 0xcb, 0x90, 0xe6, 0xbd, 0xfe, 0x24, 0xe5, 0xbe, 0xce, 0x19, 0x97,
  0xbd, 0xb2, 0x5f, 0xaf, 0x3d, 0x9c, 0x00, 0xc2, 0xbd, 0xb9, 0xaf, 0xb1, 0xbd,
  0x3d, 0xfc, 0xe9, 0x3c, 0x36, 0xca, 0x33, 0xbd, 0x58, 0xbc, 0x69, 0xb8, 0x0b,
  0x8f, 0xb7, 0x3d, 0x94, 0x70, 0xfb, 0xbd, 0x01, 0x9f, 0xec, 0x3b, 0xa0, 0x96,
  0xcd, 0xbd, 0xe4, 0x79, 0xbb, 0x3e, 0x0a, 0x24, 0xb7, 0xbd, 0x63, 0x9d, 0x04,
  0xbe, 0x35, 0xa3, 0xb5, 0xbe, 0x8a, 0xb3, 0x01, 0x3e, 0xd1, 0xfb, 0xdd, 0xbd,
  0x10, 0xcf, 0xfe, 0x3a, 0xee, 0x64, 0xcc, 0x3c, 0xda, 0x60, 0x89, 0x3e, 0x0c,
  0xe8, 0x9d, 0x3e, 0xac, 0xa0, 0x70, 0x3e, 0x0b, 0x37, 0xab, 0x3e, 0x3d, 0xdc,
  0xf7, 0xbd, 0xf1, 0x73, 0x65, 0x3e, 0x1e, 0x2a, 0xd6, 0x3d, 0x6f, 0x9c, 0x3c,
  0x3e, 0xa8, 0x1b, 0x99, 0x3d, 0x26, 0x20, 0xa5, 0xbd, 0x3b, 0x1f, 0xa5, 0xbd,
  0x93, 0x8b, 0xf5, 0xbc, 0x1a, 0xb1, 0xff, 0xff, 0x24, 0x00, 0x00, 0x00, 0x45,
  0x00, 0x00, 0x00, 0x08, 0x00, 0x00, 0x00, 0x2c, 0x00, 0x00, 0x00, 0x0c, 0x00,
  0x00, 0x00, 0x64, 0x65, 0x70, 0x74, 0x68, 0x77, 0x69, 0x73, 0x65, 0x5f, 0x33,
  0x38, 0x00, 0x00, 0x00, 0x00, 0x04, 0x00, 0x00, 0x00, 0x01, 0x00, 0x00, 0x00,
  0x07, 0x00, 0x00, 0x00, 0x01, 0x00, 0x00, 0x00, 0x14, 0x00, 0x00, 0x00, 0xac,
  0xb0, 0xff, 0xff, 0xbe, 0xb1, 0xff, 0xff, 0x04, 0x00, 0x00, 0x00, 0x70, 0x03,
  0x00, 0x00, 0xc1, 0x43, 0x81, 0x3d, 0xe7, 0x54, 0x63, 0x3e, 0xf2, 0x95, 0x41,
  0xbe, 0x68, 0xd1, 0xdd, 0xbd, 0x5c, 0x29, 0x6c, 0xbe, 0x09, 0xa0, 0x10, 0x3e,
  0x04, 0x0c, 0x9c, 0x3e, 0xd2, 0x50, 0xc9, 0x3b, 0xb3, 0x7b, 0x8f, 0x3e, 0x7d,
  0xc8, 0xea, 0x3c, 0x8f, 0xf0, 0x96, 0x3e, 0xf4, 0xcc, 0xcf, 0xbd, 0x3b, 0x28,
  0xbd, 0x3d, 0x53, 0xab, 0xb8, 0x3c, 0xee, 0xa9, 0xb8, 0xbe, 0x50, 0x26, 0x66,
  0x3d, 0x95, 0x00, 0xb9, 0xbd, 0x35, 0x62, 0x70, 0x3e, 0x2c, 0x8e, 0x85, 0xbc,
  0x8c, 0xeb, 0x3e, 0x3e, 0xe1, 0x2a, 0x47, 0xbd, 0x9a, 0xd2, 0x42, 0xbd, 0xaa,
  0x35, 0xbb, 0xbe, 0xfb, 0xd1, 0xca, 0x3e, 0x06, 0xde, 0xac, 0xbd, 0x6c, 0x74,
  0x4e, 0xbc, 0xbe, 0x02, 0xcf, 0xbe, 0x42, 0x90, 0x85, 0x3e, 0x7f, 0xc4, 0xe2,
  0x3c, 0xc3, 0xdb, 0x39, 0xbf, 0x98, 0x5b, 0x1e, 0x3e, 0x48, 0x3d, 0x36, 0x3f,
  0x71, 0xc5, 0xfe, 0x3e, 0xca, 0x8c, 0x2d, 0x3e, 0x77, 0x15, 0x8b, 0xbd, 0x57,
  0x45, 0xab, 0x3b, 0x65, 0x3c, 0x92, 0x3e, 0x3b, 0xba, 0xdf, 0x3e, 0xab, 0xa0,
  0x0c, 0xbf, 0x1d, 0x4b, 0x2c, 0xbe, 0x9c, 0xe6, 0x5b, 0x3d, 0x0f, 0x5c, 0x0e,
  0x3e, 0x85, 0xc7, 0xf7, 0x3d, 0x6b, 0x76, 0xd2, 0xbe, 0xaa, 0x02, 0x26, 0x3f,
  0xa6, 0x18, 0x66, 0x3e, 0x4a, 0x3a, 0xda, 0xbe, 0x3a, 0xc1, 0xca, 0x3e, 0xc1,
  0x73, 0xb4, 0x3e, 0x97, 0xbd, 0x04, 0xbf, 0xcf, 0x6b, 0x82, 0x3e, 0x27, 0xd9,
  0x31, 0x3e, 0x33, 0x27, 0xcf, 0x3d, 0xf5, 0x02, 0x85, 0x3d, 0x34, 0x61, 0x44,
  0xbe, 0xbe, 0x67, 0x00, 0xbe, 0x8a, 0x8f, 0x24, 0x3e, 0x69, 0xd1, 0x9d, 0x3e,
  0xf1, 0xe3, 0x32, 0xbf, 0x32, 0x98, 0xe9, 0xbe, 0xa8, 0x39, 0xe6, 0x3d, 0xa5,
  0x78, 0x33, 0x3b, 0x37, 0xc8, 0xcc, 0x3e, 0x6d, 0x0c, 0xe5, 0xbe, 0x87, 0xaf,
  0xfa, 0xbe, 0x0b, 0x63, 0x4f, 0x3f, 0x34, 0xa2, 0x39, 0xbe, 0x5a, 0xdf, 0x78,
  0xbc, 0xfd, 0xa1, 0xbf, 0x3e, 0x97, 0x36, 0xb3, 0x3e, 0x03, 0x9c, 0xfa, 0xbe,
  0xe2, 0xda, 0xde, 0x3e, 0x8d, 0x36, 0xcb, 0xbe, 0xb8, 0x7a, 0x06, 0xbf, 0x8e,
  0xc2, 0x44, 0xbe, 0xa8, 0x75, 0x60, 0xbf, 0xd7, 0x2d, 0x42, 0xbe, 0x3c, 0xff,
  0x30, 0x3f, 0x68, 0x2b, 0x60, 0x3c, 0xe0, 0x20, 0xb8, 0x3d, 0x89, 0xcf, 0xcd,
  0x3e, 0x7b, 0x5d, 0xd4, 0xbc, 0xb3, 0xda, 0x02, 0x3d, 0xf0, 0x2e, 0x24, 0xbe,
  0x9c, 0x7a, 0xc1, 0xbd, 0xa2, 0x62, 0x9b, 0x3c, 0xce, 0xde, 0x6f, 0x3e, 0x5e,
  0x0c, 0x57, 0x3e, 0x8f, 0x62, 0x7e, 0x3d, 0x33, 0xc2, 0x00, 0xbe, 0x8a, 0xeb,
  0x89, 0xbe, 0xe0, 0xcc, 0x8d, 0xbc, 0x20, 0x84, 0x26, 0x3e, 0x23, 0x8b, 0x9c,
  0xbe, 0x87, 0xc0, 0x5f, 0x3e, 0xbf, 0xce, 0x7a, 0x3e, 0x55, 0x6b, 0x59, 0xbe,
  0xff, 0x84, 0x3a, 0x3f, 0x8a, 0x05, 0x35, 0xbe, 0x1c, 0x2c, 0xe6, 0xbe, 0xa5,
  0x48, 0xaa, 0xbe, 0xae, 0x9c, 0x33, 0xbf, 0xb3, 0xfd, 0x0f, 0xbe, 0xf2, 0xf3,
  0x73, 0xbe, 0x0c, 0x49, 0x0b, 0xbf, 0xb9, 0x71, 0x87, 0x3d, 0xf2, 0x52, 0x4d,
  0xbf, 0x94, 0x61, 0x15, 0x3f, 0xad, 0xd4, 0x05, 0x3f, 0x39, 0xe5, 0xa6, 0xbe,
  0xd7, 0x50, 0x9e, 0xbd, 0x89, 0xb0, 0xc0, 0x3e, 0xa5, 0x1b, 0xc6, 0xbd, 0xa7,
  0x7d, 0x9f, 0x3e, 0x99, 0x4e, 0xd8, 0x3d, 0x02, 0x91, 0x49, 0xbe, 0xd1, 0xeb,
  0x16, 0x3e, 0xa2, 0x6b, 0xb9, 0x3e, 0x4b, 0xea, 0x0a, 0xbf, 0xa5, 0x8f, 0x8b,
  0xbe, 0xd7, 0x8c, 0xa9, 0xbe, 0xbb, 0x92, 0xe0, 0x3e, 0x49, 0xaf, 0x8b, 0x3e,
  0x51, 0x10, 0x29, 0xbe, 0xce, 0xa9, 0x4c, 0x3e, 0x04, 0xc0, 0x34, 0x3e, 0x14,
  0xc2, 0x0e, 0xbf, 0x18, 0x6d, 0x0c, 0x3d, 0x18, 0x96, 0xd9, 0xbc, 0xd0, 0x54,
  0xb7, 0x3e, 0x00, 0x81, 0x07, 0xbe, 0xed, 0x36, 0xf0, 0x3e, 0x01, 0xe4, 0xb9,
  0xbe, 0xc2, 0xe5, 0x53, 0x3f, 0x0e, 0xdb, 0xed, 0xbd, 0x27, 0x50, 0x97, 0x3e,
  0x61, 0xb3, 0xa9, 0x3e, 0x2b, 0xc9, 0x0d, 0x3e, 0x99, 0x5f, 0xd9, 0xbe, 0x4a,
  0x0e, 0x0d, 0xbf, 0x34, 0x0c, 0xe1, 0x3e, 0xbb, 0x9d, 0x29, 0x3f, 0xdf, 0xa0,
  0xf4, 0x3e, 0xcc, 0x61, 0xc5, 0xbe, 0xdd, 0xc2, 0xac, 0x3e, 0x29, 0x02, 0x60,
  0xbf, 0xc2, 0x15, 0xfa, 0xbb, 0xa9, 0x46, 0x11, 0x3e, 0x1c, 0x0e, 0x23, 0xbe,
  0x8a, 0xfa, 0x2d, 0x3f, 0xbe, 0xe6, 0xf1, 0xbe, 0x4a, 0xf9, 0x61, 0x3e, 0x93,
  0x89, 0x6e, 0x3e, 0xc1, 0xde, 0xd3, 0xbe, 0xbf, 0xeb, 0x91, 0xbe, 0xd3, 0x3d,
  0xbb, 0xbe, 0x7c, 0x4b, 0x32, 0xbf, 0x7d, 0xfd, 0x7d, 0xbf, 0x8a, 0x8d, 0x4e,
  0x3f, 0x95, 0x06, 0xf6, 0x3e, 0x7d, 0xe3, 0x40, 0x3e, 0xa4, 0x79, 0x27, 0x3d,
  0xc1, 0x54, 0xd1, 0xbe, 0x1f, 0xdb, 0xe4, 0xbe, 0xe5, 0x23, 0x89, 0x3e, 0x35,
  0x04, 0x36, 0x3e, 0xb6, 0x39, 0x33, 0x3e, 0x6a, 0xab, 0xc9, 0xbd, 0xf5, 0x61,
  0xda, 0xbe, 0xa1, 0x99, 0x34, 0xbf, 0x22, 0xc7, 0x49, 0x3f, 0x3c, 0xa8, 0x65,
  0x3e, 0x74, 0xc2, 0xc0, 0xbe, 0x66, 0xc4, 0x0c, 0x3e, 0x83, 0x9b, 0xcf, 0xbe,
  0xf3, 0xbc, 0x01, 0x3f, 0x70, 0x62, 0x9a, 0x3d, 0x10, 0xe8, 0x54, 0x3e, 0x80,
  0x2a, 0xa0, 0x3e, 0x54, 0x5d, 0x8e, 0xbe, 0x68, 0xb5, 0x5f, 0x3d, 0x23, 0x12,
  0x23, 0x3e, 0x1f, 0x7b, 0xe5, 0x3d, 0x01, 0x85, 0x92, 0x3e, 0x54, 0x0e, 0x31,
  0xbc, 0x33, 0x71, 0x2e, 0x3e, 0x0e, 0xb0, 0x41, 0x38, 0x45, 0x12, 0xae, 0x3d,
  0x0f, 0xa8, 0xd2, 0xbe, 0x2e, 0xd2, 0x3c, 0x3f, 0x8d, 0x35, 0x29, 0xbe, 0x3d,
  0xdb, 0xb5, 0x3d, 0x22, 0xa6, 0xe1, 0x3e, 0x26, 0xca, 0xbb, 0xbd, 0x95, 0x89,
  0xd8, 0xbe, 0x65, 0x93, 0xd8, 0x3e, 0xca, 0x38, 0xcc, 0xbd, 0x93, 0xc6, 0x92,
  0xbe, 0x72, 0x63, 0xe7, 0xbe, 0xc8, 0x5e, 0xad, 0x3e, 0x5c, 0x11, 0x09, 0xbf,
  0x99, 0xf0, 0x70, 0x3e, 0xe7, 0xf6, 0xea, 0xbe, 0x3b, 0x6f, 0x09, 0x3e, 0x95,
  0x40, 0xa7, 0x3e, 0x8b, 0xdb, 0xb6, 0x3e, 0xfb, 0xcc, 0xcd, 0xbd, 0x58, 0xb5,
  0x12, 0xbe, 0xb0, 0x44, 0x7b, 0x3e, 0x4e, 0x93, 0x1d, 0x3e, 0x3f, 0x30, 0x01,
  0x3f, 0x68, 0xf0, 0x3c, 0xbe, 0xab, 0xa6, 0xbe, 0x3e, 0x79, 0xb2, 0xb7, 0xbe,
  0x25, 0x89, 0x36, 0x3e, 0x0f, 0xd2, 0xbf, 0xbe, 0xda, 0x34, 0x77, 0x3d, 0x34,
  0x86, 0x0d, 0xbf, 0xdc, 0x44, 0x58, 0x3e, 0xca, 0x14, 0xb2, 0x3e, 0xd6, 0xb4,
  0xff, 0xff, 0x20, 0x00, 0x00, 0x00, 0x44, 0x00, 0x00, 0x00, 0x08, 0x00, 0x00,
  0x00, 0x28, 0x00, 0x00, 0x00, 0x09, 0x00, 0x00, 0x00, 0x43, 0x6f, 0x6e, 0x76,
  0x32, 0x44, 0x5f, 0x31, 0x38, 0x00, 0x00, 0x00, 0x04, 0x00, 0x00, 0x00, 0x14,
