const unsigned char sr3by2_1_tflite[] = {
  0x1c, 0x00, 0x00, 0x00, 0x54, 0x46, 0x4c, 0x33, 0x14, 0x00, 0x20, 0x00, 0x1c,
  0x00, 0x18, 0x00, 0x14, 0x00, 0x10, 0x00, 0x0c, 0x00, 0x00, 0x00, 0x08, 0x00,
  0x04, 0x00, 0x14, 0x00, 0x00, 0x00, 0x1c, 0x00, 0x00, 0x00, 0x88, 0x00, 0x00,
  0x00, 0xb8, 0x00, 0x00, 0x00, 0xec, 0x47, 0x00, 0x00, 0xfc, 0x47, 0x00, 0x00,
  0xd8, 0x86, 0x00, 0x00, 0x03, 0x00, 0x00, 0x00, 0x01, 0x00, 0x00, 0x00, 0x10,
  0x00, 0x00, 0x00, 0x00, 0x00, 0x0a, 0x00, 0x10, 0x00, 0x0c, 0x00, 0x08, 0x00,
  0x04, 0x00, 0x0a, 0x00, 0x00, 0x00, 0x0c, 0x00, 0x00, 0x00, 0x1c, 0x00, 0x00,
  0x00, 0x38, 0x00, 0x00, 0x00, 0x0f, 0x00, 0x00, 0x00, 0x73, 0x65, 0x72, 0x76,
  0x69, 0x6e, 0x67, 0x5f, 0x64, 0x65, 0x66, 0x61, 0x75, 0x6c, 0x74, 0x00, 0x01,
  0x00, 0x00, 0x00, 0x04, 0x00, 0x00, 0x00, 0xc8, 0xff, 0xff, 0xff, 0x8f, 0x00,
  0x00, 0x00, 0x04, 0x00, 0x00, 0x00, 0x06, 0x00, 0x00, 0x00, 0x6f, 0x75, 0x74,
  0x70, 0x75, 0x74, 0x00, 0x00, 0x01, 0x00, 0x00, 0x00, 0x04, 0x00, 0x00, 0x00,
  0xb2, 0xb8, 0xff, 0xff, 0x04, 0x00, 0x00, 0x00, 0x03, 0x00, 0x00, 0x00, 0x69,
  0x6d, 0x67, 0x00, 0x01, 0x00, 0x00, 0x00, 0x0c, 0x00, 0x00, 0x00, 0x08, 0x00,
  0x0c, 0x00, 0x08, 0x00, 0x04, 0x00, 0x08, 0x00, 0x00, 0x00, 0x91, 0x00, 0x00,
  0x00, 0x04, 0x00, 0x00, 0x00, 0x13, 0x00, 0x00, 0x00, 0x6d, 0x69, 0x6e, 0x5f,
  0x72, 0x75, 0x6e, 0x74, 0x69, 0x6d, 0x65, 0x5f, 0x76, 0x65, 0x72, 0x73, 0x69,
  0x6f, 0x6e, 0x00, 0x92, 0x00, 0x00, 0x00, 0x30, 0x47, 0x00, 0x00, 0x28, 0x47,
  0x00, 0x00, 0x04, 0x47, 0x00, 0x00, 0xd8, 0x46, 0x00, 0x00, 0xac, 0x46, 0x00,
  0x00, 0x78, 0x46, 0x00, 0x00, 0x38, 0x46, 0x00, 0x00, 0xec, 0x45, 0x00, 0x00,
  0xbc, 0x45, 0x00, 0x00, 0x90, 0x45, 0x00, 0x00, 0x64, 0x45, 0x00, 0x00, 0x04,
  0x45, 0x00, 0x00, 0x64, 0x43, 0x00, 0x00, 0xc4, 0x41, 0x00, 0x00, 0x04, 0x3d,
  0x00, 0x00, 0xc8, 0x3b, 0x00, 0x00, 0x8c, 0x3a, 0x00, 0x00, 0xf8, 0x36, 0x00,
  0x00, 0x58, 0x35, 0x00, 0x00, 0xf8, 0x34, 0x00, 0x00, 0x58, 0x33, 0x00, 0x00,
  0x98, 0x2e, 0x00, 0x00, 0x5c, 0x2d, 0x00, 0x00, 0x20, 0x2c, 0x00, 0x00, 0x40,
  0x29, 0x00, 0x00, 0x40, 0x28, 0x00, 0x00, 0x40, 0x27, 0x00, 0x00, 0xf0, 0x24,
  0x00, 0x00, 0xb4, 0x23, 0x00, 0x00, 0x68, 0x23, 0x00, 0x00, 0x2c, 0x22, 0x00,
  0x00, 0x4c, 0x1f, 0x00, 0x00, 0x4c, 0x1e, 0x00, 0x00, 0x4c, 0x1d, 0x00, 0x00,
  0x8c, 0x1b, 0x00, 0x00, 0xc8, 0x1a, 0x00, 0x00, 0x04, 0x1a, 0x00, 0x00, 0xb0,
  0x18, 0x00, 0x00, 0xb0, 0x17, 0x00, 0x00, 0x70, 0x17, 0x00, 0x00, 0x70, 0x16,
  0x00, 0x00, 0xb0, 0x14, 0x00, 0x00, 0xec, 0x13, 0x00, 0x00, 0x28, 0x13, 0x00,
  0x00, 0x1c, 0x12, 0x00, 0x00, 0x80, 0x11, 0x00, 0x00, 0xe4, 0x10, 0x00, 0x00,
  0x10, 0x10, 0x00, 0x00, 0x4c, 0x0f, 0x00, 0x00, 0x18, 0x0f, 0x00, 0x00, 0x54,
  0x0e, 0x00, 0x00, 0x48, 0x0d, 0x00, 0x00, 0xac, 0x0c, 0x00, 0x00, 0x10, 0x0c,
  0x00, 0x00, 0x74, 0x0b, 0x00, 0x00, 0x00, 0x0b, 0x00, 0x00, 0x8c, 0x0a, 0x00,
  0x00, 0x18, 0x0a, 0x00, 0x00, 0x7c, 0x09, 0x00, 0x00, 0x50, 0x09, 0x00, 0x00,
  0xb4, 0x08, 0x00, 0x00, 0x18, 0x08, 0x00, 0x00, 0xa4, 0x07, 0x00, 0x00, 0x30,
  0x07, 0x00, 0x00, 0xbc, 0x06, 0x00, 0x00, 0x48, 0x06, 0x00, 0x00, 0xd4, 0x05,
  0x00, 0x00, 0x60, 0x05, 0x00, 0x00, 0xc4, 0x04, 0x00, 0x00, 0xa0, 0x04, 0x00,
  0x00, 0x04, 0x04, 0x00, 0x00, 0xf0, 0x03, 0x00, 0x00, 0xcc, 0x03, 0x00, 0x00,
  0x6c, 0x03, 0x00, 0x00, 0x20, 0x03, 0x00, 0x00, 0xe0, 0x02, 0x00, 0x00, 0xac,
  0x02, 0x00, 0x00, 0x80, 0x02, 0x00, 0x00, 0x5c, 0x02, 0x00, 0x00, 0x38, 0x02,
  0x00, 0x00, 0x24, 0x02, 0x00, 0x00, 0x1c, 0x02, 0x00, 0x00, 0x14, 0x02, 0x00,
  0x00, 0x0c, 0x02, 0x00, 0x00, 0x04, 0x02, 0x00, 0x00, 0xfc, 0x01, 0x00, 0x00,
  0xf4, 0x01, 0x00, 0x00, 0xec, 0x01, 0x00, 0x00, 0xe4, 0x01, 0x00, 0x00, 0xdc,
  0x01, 0x00, 0x00, 0xd4, 0x01, 0x00, 0x00, 0xcc, 0x01, 0x00, 0x00, 0xc4, 0x01,
  0x00, 0x00, 0xbc, 0x01, 0x00, 0x00, 0xb4, 0x01, 0x00, 0x00, 0xac, 0x01, 0x00,
  0x00, 0xa4, 0x01, 0x00, 0x00, 0x9c, 0x01, 0x00, 0x00, 0x94, 0x01, 0x00, 0x00,
  0x8c, 0x01, 0x00, 0x00, 0x84, 0x01, 0x00, 0x00, 0x7c, 0x01, 0x00, 0x00, 0x74,
  0x01, 0x00, 0x00, 0x6c, 0x01, 0x00, 0x00, 0x64, 0x01, 0x00, 0x00, 0x5c, 0x01,
  0x00, 0x00, 0x54, 0x01, 0x00, 0x00, 0x4c, 0x01, 0x00, 0x00, 0x44, 0x01, 0x00,
  0x00, 0x3c, 0x01, 0x00, 0x00, 0x34, 0x01, 0x00, 0x00, 0x2c, 0x01, 0x00, 0x00,
  0x24, 0x01, 0x00, 0x00, 0x1c, 0x01, 0x00, 0x00, 0x14, 0x01, 0x00, 0x00, 0x0c,
  0x01, 0x00, 0x00, 0x04, 0x01, 0x00, 0x00, 0xfc, 0x00, 0x00, 0x00, 0xf4, 0x00,
  0x00, 0x00, 0xec, 0x00, 0x00, 0x00, 0xe4, 0x00, 0x00, 0x00, 0xdc, 0x00, 0x00,
  0x00, 0xd4, 0x00, 0x00, 0x00, 0xcc, 0x00, 0x00, 0x00, 0xc4, 0x00, 0x00, 0x00,
  0xbc, 0x00, 0x00, 0x00, 0xb4, 0x00, 0x00, 0x00, 0xac, 0x00, 0x00, 0x00, 0xa4,
  0x00, 0x00, 0x00, 0x9c, 0x00, 0x00, 0x00, 0x94, 0x00, 0x00, 0x00, 0x8c, 0x00,
  0x00, 0x00, 0x84, 0x00, 0x00, 0x00, 0x7c, 0x00, 0x00, 0x00, 0x74, 0x00, 0x00,
  0x00, 0x6c, 0x00, 0x00, 0x00, 0x64, 0x00, 0x00, 0x00, 0x5c, 0x00, 0x00, 0x00,
  0x54, 0x00, 0x00, 0x00, 0x4c, 0x00, 0x00, 0x00, 0x44, 0x00, 0x00, 0x00, 0x3c,
  0x00, 0x00, 0x00, 0x34, 0x00, 0x00, 0x00, 0x2c, 0x00, 0x00, 0x00, 0x24, 0x00,
  0x00, 0x00, 0x04, 0x00, 0x00, 0x00, 0x42, 0xbb, 0xff, 0xff, 0x04, 0x00, 0x00,
  0x00, 0x10, 0x00, 0x00, 0x00, 0x31, 0x2e, 0x31, 0x33, 0x2e, 0x31, 0x00, 0x00,
  0x00, 0x00, 0x00, 0x00, 0x00, 0x00, 0x00, 0x00, 0x28, 0x7c, 0xff, 0xff, 0x2c,
  0x7c, 0xff, 0xff, 0x30, 0x7c, 0xff, 0xff, 0x34, 0x7c, 0xff, 0xff, 0x38, 0x7c,
  0xff, 0xff, 0x3c, 0x7c, 0xff, 0xff, 0x40, 0x7c, 0xff, 0xff, 0x44, 0x7c, 0xff,
  0xff, 0x48, 0x7c, 0xff, 0xff, 0x4c, 0x7c, 0xff, 0xff, 0x50, 0x7c, 0xff, 0xff,
  0x54, 0x7c, 0xff, 0xff, 0x58, 0x7c, 0xff, 0xff, 0x5c, 0x7c, 0xff, 0xff, 0x60,
  0x7c, 0xff, 0xff, 0x64, 0x7c, 0xff, 0xff, 0x68, 0x7c, 0xff, 0xff, 0x6c, 0x7c,
  0xff, 0xff, 0x70, 0x7c, 0xff, 0xff, 0x74, 0x7c, 0xff, 0xff, 0x78, 0x7c, 0xff,
  0xff, 0x7c, 0x7c, 0xff, 0xff, 0x80, 0x7c, 0xff, 0xff, 0x84, 0x7c, 0xff, 0xff,
  0x88, 0x7c, 0xff, 0xff, 0x8c, 0x7c, 0xff, 0xff, 0x90, 0x7c, 0xff, 0xff, 0x94,
  0x7c, 0xff, 0xff, 0x98, 0x7c, 0xff, 0xff, 0x9c, 0x7c, 0xff, 0xff, 0xa0, 0x7c,
  0xff, 0xff, 0xa4, 0x7c, 0xff, 0xff, 0xa8, 0x7c, 0xff, 0xff, 0xac, 0x7c, 0xff,
  0xff, 0xb0, 0x7c, 0xff, 0xff, 0xb4, 0x7c, 0xff, 0xff, 0xb8, 0x7c, 0xff, 0xff,
  0xbc, 0x7c, 0xff, 0xff, 0xc0, 0x7c, 0xff, 0xff, 0xc4, 0x7c, 0xff, 0xff, 0xc8,
  0x7c, 0xff, 0xff, 0xcc, 0x7c, 0xff, 0xff, 0xd0, 0x7c, 0xff, 0xff, 0xd4, 0x7c,
  0xff, 0xff, 0xd8, 0x7c, 0xff, 0xff, 0xdc, 0x7c, 0xff, 0xff, 0xe0, 0x7c, 0xff,
  0xff, 0xe4, 0x7c, 0xff, 0xff, 0xe8, 0x7c, 0xff, 0xff, 0xec, 0x7c, 0xff, 0xff,
  0xf0, 0x7c, 0xff, 0xff, 0xf4, 0x7c, 0xff, 0xff, 0xf8, 0x7c, 0xff, 0xff, 0xfc,
  0x7c, 0xff, 0xff, 0x00, 0x7d, 0xff, 0xff, 0x04, 0x7d, 0xff, 0xff, 0x08, 0x7d,
  0xff, 0xff, 0x0c, 0x7d, 0xff, 0xff, 0x10, 0x7d, 0xff, 0xff, 0x14, 0x7d, 0xff,
  0xff, 0x18, 0x7d, 0xff, 0xff, 0x1c, 0x7d, 0xff, 0xff, 0x20, 0x7d, 0xff, 0xff,
  0x24, 0x7d, 0xff, 0xff, 0x5e, 0xbc, 0xff, 0xff, 0x04, 0x00, 0x00, 0x00, 0x04,
  0x00, 0x00, 0x00, 0x55, 0x02, 0x3d, 0xb9, 0x6e, 0xbc, 0xff, 0xff, 0x04, 0x00,
  0x00, 0x00, 0x14, 0x00, 0x00, 0x00, 0xdc, 0x3f, 0xa5, 0x3d, 0xaa, 0x96, 0x63,
  0xbf, 0xb8, 0xa6, 0xd1, 0xbe, 0xbd, 0x9a, 0x61, 0x3e, 0x2c, 0x80, 0x58, 0x3e,
  0x8e, 0xbc, 0xff, 0xff, 0x04, 0x00, 0x00, 0x00, 0x14, 0x00, 0x00, 0x00, 0x8e,
  0x2f, 0xe4, 0x3d, 0xfb, 0x4f, 0x9c, 0x3d, 0x6d, 0xc7, 0x87, 0xbd, 0x81, 0x11,
  0x2e, 0x3d, 0xcc, 0x6c, 0x00, 0x3f, 0xae, 0xbc, 0xff, 0xff, 0x04, 0x00, 0x00,
  0x00, 0x1c, 0x00, 0x00, 0x00, 0x03, 0xc6, 0x11, 0x3f, 0x69, 0xe6, 0xa0, 0x3e,
  0x8f, 0x1d, 0x61, 0x3f, 0x12, 0xa0, 0x00, 0xbb, 0x98, 0x1a, 0x3b, 0x3f, 0x89,
  0xc1, 0x9e, 0x3f, 0x00, 0xf4, 0xbe, 0x3e, 0xd6, 0xbc, 0xff, 0xff, 0x04, 0x00,
  0x00, 0x00, 0x24, 0x00, 0x00, 0x00, 0xb5, 0xa5, 0x03, 0xbe, 0x55, 0xd5, 0xee,
  0x3f, 0xe7, 0xb7, 0x80, 0x3f, 0xf3, 0xcb, 0x7f, 0xbe, 0xf6, 0x42, 0x93, 0xbf,
  0xa2, 0x00, 0x4e, 0x3f, 0x2f, 0x98, 0x02, 0x3f, 0x87, 0xaa, 0x4b, 0x3f, 0xb6,
  0x46, 0x30, 0x40, 0x06, 0xbd, 0xff, 0xff, 0x04, 0x00, 0x00, 0x00, 0x30, 0x00,
  0x00, 0x00, 0x43, 0x29, 0xcb, 0x3e, 0xbb, 0x4b, 0x91, 0x3f, 0xc1, 0xae, 0x66,
  0xc0, 0x0d, 0x89, 0x68, 0x3f, 0x3a, 0x0a, 0x4e, 0x3f, 0x69, 0x28, 0x50, 0xbf,
  0xda, 0x6f, 0x14, 0xc0, 0xbb, 0xea, 0xf8, 0xbf, 0x15, 0x5c, 0x1a, 0x3f, 0x62,
  0x56, 0xc5, 0x40, 0x69, 0x63, 0x36, 0xbe, 0x07, 0xa1, 0x31, 0x3e, 0x42, 0xbd,
  0xff, 0xff, 0x04, 0x00, 0x00, 0x00, 0x3c, 0x00, 0x00, 0x00, 0x2e, 0xe3, 0xa8,
  0xbe, 0xa1, 0x63, 0xf6, 0x3e, 0xf1, 0x8e, 0xec, 0xbe, 0x4c, 0x00, 0x5a, 0x40,
  0x05, 0x80, 0xa8, 0xbe, 0x76, 0x96, 0x19, 0x3b, 0x23, 0x2e, 0x2c, 0xc0, 0x8a,
  0xd8, 0xef, 0x3f, 0xd0, 0x86, 0x33, 0xc0, 0x2e, 0x3e, 0x81, 0xbf, 0x24, 0x2e,
  0x4c, 0x3f, 0x11, 0x44, 0xf7, 0x3e, 0x75, 0x77, 0xad, 0x3f, 0xe7, 0xaa, 0x73,
  0x3f, 0x19, 0x7a, 0x66, 0x3f, 0x8a, 0xbd, 0xff, 0xff, 0x04, 0x00, 0x00, 0x00,
  0x50, 0x00, 0x00, 0x00, 0x84, 0x81, 0xe2, 0xc0, 0x5e, 0x00, 0xa1, 0x40, 0xdb,
  0x41, 0xc9, 0xbf, 0xd6, 0x02, 0x37, 0xc0, 0x4b, 0xff, 0xed, 0xbf, 0x84, 0x6d,
  0x25, 0x40, 0x51, 0x11, 0xc5, 0x3e, 0x09, 0x36, 0x49, 0xc0, 0x4e, 0x12, 0x2f,
  0x40, 0xcc, 0xaf, 0x94, 0x40, 0x4d, 0xdf, 0x67, 0x40, 0x80, 0xfe, 0xb6, 0x40,
  0xe0, 0x7d, 0x55, 0x40, 0xbf, 0x7b, 0x27, 0xbf, 0xca, 0x5c, 0xa6, 0x40, 0x0e,
  0xfd, 0x32, 0xbf, 0x48, 0x32, 0x39, 0xc0, 0x18, 0x9a, 0x11, 0xc0, 0x8d, 0x6b,
  0x40, 0xc0, 0x2e, 0x41, 0x13, 0xc0, 0xe6, 0xbd, 0xff, 0xff, 0x04, 0x00, 0x00,
  0x00, 0x14, 0x00, 0x00, 0x00, 0xb8, 0x78, 0x46, 0xbd, 0x92, 0x28, 0xda, 0xbc,
  0x57, 0xae, 0x20, 0xbd, 0x9f, 0x09, 0x11, 0x3d, 0x0c, 0x4b, 0xfb, 0x3c, 0x06,
  0xbe, 0xff, 0xff, 0x04, 0x00, 0x00, 0x00, 0x04, 0x00, 0x00, 0x00, 0x00, 0x00,
  0x00, 0x00, 0x16, 0xbe, 0xff, 0xff, 0x04, 0x00, 0x00, 0x00, 0x8c, 0x00, 0x00,
  0x00, 0xb6, 0xf0, 0xc8, 0xbb, 0x1b, 0x45, 0x46, 0xbd, 0xac, 0xf8, 0x83, 0xbc,
  0x2e, 0x12, 0xd1, 0x3c, 0x08, 0xc8, 0x25, 0x3c, 0xb9, 0x88, 0x50, 0xbc, 0xe7,
  0xc5, 0x67, 0x3c, 0xd8, 0xf5, 0x82, 0xbd, 0x42, 0xd1, 0x34, 0xbd, 0xc8, 0xa2,
  0x4b, 0xbd, 0xf1, 0x14, 0x60, 0x3b, 0x39, 0x0e, 0x01, 0x3d, 0xf4, 0x50, 0x48,
  0x3e, 0xa8, 0x87, 0x76, 0x3d, 0x39, 0x65, 0x9d, 0x3d, 0xbb, 0xbd, 0x28, 0xbe,
  0xb4, 0x45, 0x17, 0x3e, 0xc1, 0xfc, 0xba, 0xbb, 0x6f, 0x0d, 0xc5, 0x3d, 0xad,
  0x66, 0x5b, 0x3e, 0xe7, 0x46, 0x83, 0xbe, 0x7b, 0x16, 0x4b, 0x3e, 0xc4, 0x7b,
  0x85, 0xbe, 0xd4, 0x68, 0x03, 0x3e, 0x2e, 0xb7, 0xab, 0x3d, 0x25, 0x13, 0x36,
  0x3e, 0x86, 0xf0, 0x38, 0xbe, 0x88, 0x95, 0x8c, 0x3e, 0x39, 0x37, 0x6c, 0xbe,
  0x10, 0x36, 0xb4, 0xbd, 0xe7, 0xcd, 0x8d, 0xbd, 0x0d, 0x05, 0x89, 0x3c, 0x8a,
  0x8f, 0x96, 0xbd, 0xcb, 0x71, 0x66, 0x3d, 0xc5, 0x0a, 0xce, 0x3b, 0xae, 0xbe,
  0xff, 0xff, 0x04, 0x00, 0x00, 0x00, 0x14, 0x00, 0x00, 0x00, 0x00, 0x00, 0x00,
  0x00, 0x00, 0x00, 0x00, 0x00, 0x00, 0x00, 0x00, 0x00, 0x00, 0x00, 0x00, 0x00,
  0x00, 0x00, 0x00, 0x00, 0xce, 0xbe, 0xff, 0xff, 0x04, 0x00, 0x00, 0x00, 0x8c,
  0x00, 0x00, 0x00, 0x08, 0x96, 0x4d, 0xbc, 0x5c, 0x5a, 0x1f, 0x3d, 0xeb, 0x07,
  0xc9, 0xbb, 0x66, 0xf5, 0xaf, 0x3c, 0x2b, 0x92, 0x3f, 0xbd, 0x23, 0x1f, 0x4a,
  0x3d, 0x3f, 0x03, 0xb1, 0x3d, 0x5c, 0x3b, 0x09, 0xbb, 0x8f, 0xdd, 0xec, 0xbc,
  0x11, 0x13, 0x56, 0xbe, 0x73, 0x51, 0x42, 0x3d, 0xec, 0xfb, 0xfe, 0xbd, 0x1a,
  0x39, 0xf1, 0x3d, 0xd2, 0xc3, 0x31, 0xbe, 0xf2, 0x15, 0xbb, 0xbb, 0xee, 0x30,
  0x58, 0xbe, 0x64, 0x97, 0x4c, 0xbe, 0xab, 0x1c, 0x57, 0x3e, 0x7a, 0xbd, 0x48,
  0xbe, 0x61, 0xb9, 0xa9, 0x3d, 0x12, 0xb9, 0x54, 0x3e, 0x96, 0xbd, 0xf6, 0x3c,
  0x2b, 0xdd, 0xaf, 0xbd, 0xf0, 0xcd, 0x03, 0x3d, 0x9c, 0x87, 0x7d, 0xbe, 0x0a,
  0xed, 0xad, 0xbd, 0x7e, 0x63, 0x25, 0x3d, 0x3f, 0x8d, 0xdc, 0x3b, 0xc6, 0x59,
  0xc8, 0x3c, 0x2a, 0x46, 0x6c, 0xbd, 0x6e, 0x3d, 0x3c, 0x3c, 0x19, 0xd2, 0x1f,
  0x3d, 0xa4, 0x66, 0xa4, 0x3b, 0x58, 0x4a, 0x64, 0xbc, 0xbd, 0x55, 0x86, 0x3d,
  0x66, 0xbf, 0xff, 0xff, 0x04, 0x00, 0x00, 0x00, 0x64, 0x00, 0x00, 0x00, 0x59,
  0x53, 0xf2, 0xbe, 0x25, 0x6c, 0xb1, 0xbd, 0xfb, 0x62, 0xf0, 0xbd, 0x5a, 0x9a,
  0x24, 0x40, 0xc8, 0x49, 0x74, 0x3d, 0xe6, 0x5e, 0xad, 0x3f, 0x43, 0x5d, 0xd7,
  0xbe, 0x8b, 0xbe, 0xba, 0x3e, 0x46, 0x5b, 0x0a, 0x3e, 0x9f, 0x7b, 0x95, 0x3a,
  0xa0, 0xbd, 0x6f, 0x3d, 0xe2, 0x9e, 0x9b, 0x3e, 0x09, 0x89, 0x35, 0xbf, 0x28,
  0x12, 0x70, 0xbe, 0x37, 0x68, 0x5e, 0x3e, 0x4a, 0xa7, 0x47, 0xbe, 0xd1, 0xf4,
  0x51, 0xbf, 0xaf, 0xed, 0x20, 0x3f, 0xdc, 0xd7, 0x4d, 0xbe, 0xda, 0x17, 0xc0,
  0xbc, 0xb4, 0x2f, 0x9e, 0x3e, 0xda, 0x58, 0x95, 0x3f, 0x87, 0xea, 0x2f, 0xbe,
  0xb9, 0x21, 0xdf, 0x3d, 0x92, 0xae, 0x4d, 0xbf, 0xd6, 0xbf, 0xff, 0xff, 0x04,
  0x00, 0x00, 0x00, 0x64, 0x00, 0x00, 0x00, 0x45, 0x56, 0xe4, 0xbe, 0xeb, 0x39,
  0xf4, 0x3e, 0xe4, 0x3c, 0xd1, 0xbd, 0x8d, 0x69, 0x32, 0xbf, 0x39, 0xbe, 0xb9,
  0xbe, 0xd9, 0x2e, 0xfd, 0xbe, 0xfb, 0xea, 0xdb, 0x3e, 0xc3, 0xa1, 0xe6, 0xbd,
  0x3f, 0x73, 0xf1, 0xbe, 0xb6, 0x92, 0xbd, 0xbe, 0x74, 0x1d, 0x96, 0xbd, 0xf0,
  0xf5, 0x79, 0x3e, 0xb1, 0x3b, 0x50, 0x3f, 0x99, 0xd4, 0x31, 0xbe, 0xea, 0x19,
  0x39, 0xbf, 0xa5, 0x5a, 0xcf, 0xbd, 0xc8, 0xc3, 0x09, 0x3e, 0x6a, 0xb2, 0x81,
  0xbe, 0x1b, 0x4c, 0x98, 0xbd, 0x4b, 0x94, 0xdf, 0x3e, 0xfc, 0xed, 0x63, 0x3c,
  0x76, 0x41, 0x83, 0x3d, 0x79, 0xbd, 0x65, 0x3f, 0x9d, 0xc0, 0x82, 0x3b, 0xfa,
  0x99, 0x95, 0xbe, 0x46, 0xc0, 0xff, 0xff, 0x04, 0x00, 0x00, 0x00, 0x64, 0x00,
  0x00, 0x00, 0x7f, 0xed, 0xfa, 0xbd, 0x7b, 0x57, 0x3c, 0xbe, 0xe1, 0x46, 0x81,
  0x3e, 0x21, 0xfa, 0xc7, 0xbd, 0x27, 0x8f, 0x3a, 0xbf, 0x5b, 0x8e, 0x14, 0x3e,
  0x3a, 0x5a, 0xeb, 0x3e, 0x5b, 0x33, 0x04, 0xbf, 0x79, 0x06, 0x0a, 0x3f, 0x4e,
  0x21, 0x86, 0x3e, 0xcc, 0xb4, 0x63, 0x3d, 0xbe, 0x85, 0x10, 0xbf, 0x14, 0x5f,
  0x5d, 0x3f, 0xfa, 0xad, 0xdb, 0xbd, 0xd4, 0xc4, 0x0e, 0xbf, 0x19, 0x32, 0x9a,
  0xbe, 0x49, 0xf7, 0x0c, 0x3f, 0x72, 0x70, 0x29, 0x3e, 0x46, 0x51, 0xff, 0x3e,
  0x88, 0x28, 0x0d, 0xbe, 0x38, 0xb3, 0x3a, 0xbf, 0x4b, 0xfa, 0x94, 0xbe, 0x55,
  0xea, 0x0d, 0x3e, 0xb8, 0x54, 0x6a, 0x3d, 0xea, 0xa0, 0xad, 0xbe, 0xb6, 0xc0,
  0xff, 0xff, 0x04, 0x00, 0x00, 0x00, 0x64, 0x00, 0x00, 0x00, 0x3e, 0x37, 0x00,
  0xbd, 0x76, 0xfd, 0x32, 0xbf, 0x5f, 0x73, 0xf4, 0x3e, 0xa9, 0xd7, 0x20, 0x3f,
  0x3b, 0x1e, 0xb8, 0xbe, 0x68, 0x3a, 0xf7, 0x3a, 0xed, 0x27, 0x96, 0xbf, 0x2b,
  0x42, 0x9d, 0x3f, 0x5d, 0xf2, 0x57, 0x3f, 0x35, 0x06, 0x64, 0xbe, 0x7c, 0xea,
  0x84, 0xbf, 0x33, 0x59, 0x66, 0xbd, 0xe1, 0x3f, 0xbf, 0xbd, 0x8a, 0xb5, 0x6a,
  0x3e, 0x14, 0xe8, 0xb6, 0x3c, 0xcc, 0x34, 0x5e, 0xbc, 0x63, 0xa5, 0x98, 0xbe,
  0x5b, 0xd6, 0x83, 0x3e, 0xcb, 0x25, 0x0d, 0x3f, 0x73, 0xaf, 0x3d, 0x3d, 0x1d,
  0x3f, 0x80, 0x3d, 0xd6, 0xe3, 0x85, 0xbd, 0x31, 0x97, 0x0c, 0xbf, 0x32, 0x8e,
  0xd6, 0x3e, 0x31, 0x4a, 0x84, 0xbf, 0x26, 0xc1, 0xff, 0xff, 0x04, 0x00, 0x00,
  0x00, 0x64, 0x00, 0x00, 0x00, 0xef, 0x82, 0xe9, 0xbe, 0xe8, 0xf2, 0x19, 0xbb,
  0x75, 0x03, 0x15, 0x3e, 0x1c, 0xe9, 0x59, 0x3d, 0x60, 0xe4, 0x30, 0x3e, 0x7c,
  0x6e, 0x8a, 0x3f, 0xe3, 0xda, 0xa8, 0xbc, 0x20, 0x30, 0x94, 0xbd, 0xe5, 0x5a,
  0x17, 0x3e, 0xb5, 0xce, 0x4f, 0xbe, 0x13, 0x0c, 0x89, 0xbd, 0x08, 0xdf, 0x00,
  0xbe, 0x54, 0x58, 0x96, 0x3d, 0xec, 0x28, 0xf4, 0x3e, 0xe2, 0x12, 0x32, 0x3c,
  0x15, 0xfd, 0x24, 0xbe, 0x87, 0x71, 0x18, 0xbf, 0x8d, 0x16, 0x5f, 0x3f, 0x86,
  0x5b, 0xe4, 0x3e, 0x3b, 0xd3, 0x6e, 0x3f, 0x75, 0xac, 0x8e, 0x3e, 0x00, 0x9c,
  0xbb, 0xbe, 0xdd, 0x98, 0x08, 0x3d, 0xf3, 0x36, 0x03, 0x3f, 0xa1, 0xd5, 0x9e,
  0xbc, 0x96, 0xc1, 0xff, 0xff, 0x04, 0x00, 0x00, 0x00, 0x64, 0x00, 0x00, 0x00,
  0x0f, 0x74, 0x49, 0x3e, 0x4f, 0x17, 0x7a, 0xbf, 0xe8, 0xd3, 0x86, 0x3e, 0xd8,
  0x22, 0x32, 0x3e, 0xac, 0x91, 0xbf, 0x3e, 0x9c, 0xb6, 0xa3, 0x3e, 0x91, 0xc6,
  0x4f, 0xbd, 0x0a, 0x7e, 0x7a, 0xbf, 0xce, 0x48, 0xb4, 0xbe, 0xbc, 0xe2, 0xb4,
  0xbe, 0x80, 0xc6, 0x17, 0x3f, 0x37, 0x81, 0xbd, 0xbe, 0x9f, 0xde, 0x80, 0x3f,
  0x0b, 0xc9, 0x44, 0x3f, 0x0f, 0x95, 0xf6, 0xbe, 0x59, 0x5d, 0x26, 0xbd, 0x3e,
  0xa5, 0x8e, 0x3e, 0x13, 0x09, 0x4e, 0xbf, 0xb4, 0xb8, 0x0d, 0xbf, 0x90, 0x3f,
  0xa8, 0xbe, 0x88, 0xce, 0x0f, 0x3e, 0x40, 0x18, 0xae, 0xbd, 0xc6, 0xdb, 0x90,
  0x3e, 0x8a, 0x8d, 0xa1, 0x3e, 0x9e, 0x4d, 0xc4, 0x3d, 0x06, 0xc2, 0xff, 0xff,
  0x04, 0x00, 0x00, 0x00, 0x8c, 0x00, 0x00, 0x00, 0xc4, 0x89, 0xf2, 0xbc, 0x22,
  0xf4, 0xbe, 0x3e, 0xed, 0xf8, 0x25, 0xbc, 0x01, 0xa7, 0x36, 0x3d, 0x29, 0x0c,
  0xbc, 0xbc, 0x9c, 0x1b, 0x08, 0x3f, 0xc0, 0xcc, 0x03, 0xbf, 0x64, 0x6c, 0xd3,
  0x3e, 0x32, 0xe3, 0x06, 0xbe, 0xb2, 0xb1, 0xbb, 0xbe, 0x9c, 0xe3, 0x49, 0x3e,
  0xc6, 0x77, 0xf8, 0xbc, 0xf5, 0x01, 0xd4, 0xbe, 0xc0, 0x2b, 0x0b, 0x3e, 0xc0,
  0xa4, 0xa2, 0xbd, 0x66, 0xa0, 0xcc, 0xbc, 0x2e, 0xd1, 0x8a, 0x3e, 0x9e, 0xbc,
  0xa5, 0x3c, 0x67, 0x80, 0x13, 0x3d, 0xb1, 0x73, 0xa7, 0xbc, 0xa9, 0x92, 0x79,
  0xbd, 0x1a, 0x29, 0xde, 0xbd, 0x99, 0xa1, 0x8e, 0xbe, 0x6d, 0x40, 0xc7, 0x3d,
  0xd2, 0x03, 0x20, 0xbe, 0x18, 0xc1, 0x04, 0xbf, 0x7f, 0x1e, 0x63, 0x3d, 0x85,
  0x22, 0xf1, 0xbd, 0xf4, 0xc5, 0xb9, 0x3d, 0xc0, 0x92, 0x8a, 0x3e, 0xd6, 0x5a,
  0x64, 0xbe, 0x83, 0x38, 0xd2, 0x3c, 0xff, 0x26, 0x23, 0xbe, 0x1a, 0x2d, 0x42,
  0xbd, 0xf5, 0x24, 0x94, 0xbe, 0x9e, 0xc2, 0xff, 0xff, 0x04, 0x00, 0x00, 0x00,
  0x8c, 0x00, 0x00, 0x00, 0x71, 0x50, 0xb8, 0x3d, 0xd4, 0xe2, 0xa1, 0xbe, 0x08,
  0xef, 0xab, 0xbd, 0x35, 0x5a, 0xb6, 0xbd, 0xb6, 0xe3, 0x97, 0x3e, 0x75, 0x69,
  0x6f, 0xbd, 0xe0, 0x57, 0xc7, 0x3d, 0xff, 0xc4, 0x19, 0x3e, 0x02, 0x9f, 0x85,
  0x3d, 0xf3, 0x51, 0x23, 0xbe, 0xae, 0xaa, 0x94, 0xbe, 0xc2, 0x56, 0xd4, 0x3d,
  0x2e, 0x68, 0xaf, 0x3e, 0x93, 0x85, 0xb2, 0xbe, 0xe4, 0xce, 0x84, 0x3e, 0x77,
  0x62, 0x84, 0x3e, 0x1e, 0xa0, 0x05, 0xbe, 0x58, 0x23, 0x8f, 0xbe, 0xbb, 0xa0,
  0x19, 0xbf, 0x6d, 0x3c, 0x99, 0x3e, 0x29, 0xa9, 0xa4, 0xbe, 0x2c, 0x75, 0xed,
  0x3d, 0x2e, 0xbf, 0x76, 0x3d, 0xbd, 0x32, 0xef, 0xbd, 0xe0, 0x99, 0x66, 0xbe,
  0x89, 0x85, 0x41, 0x3e, 0x4f, 0x54, 0xbe, 0x3d, 0xef, 0x4a, 0xc5, 0xbd, 0xd2,
  0x95, 0xaf, 0x3d, 0x63, 0x6d, 0x17, 0xbd, 0xb2, 0xac, 0xa2, 0xbd, 0xc6, 0xea,
  0xad, 0xbd, 0x66, 0x76, 0x50, 0x3e, 0x7c, 0x2a, 0x6d, 0x3c, 0x73, 0x37, 0x2e,
  0x3c, 0x36, 0xc3, 0xff, 0xff, 0x04, 0x00, 0x00, 0x00, 0x1c, 0x00, 0x00, 0x00,
  0x00, 0x00, 0x00, 0x00, 0x00, 0x00, 0x00, 0x00, 0x00, 0x00, 0x00, 0x00, 0x00,
  0x00, 0x00, 0x00, 0x00, 0x00, 0x00, 0x00, 0x00, 0x00, 0x00, 0x00, 0x00, 0x00,
  0x00, 0x00, 0x5e, 0xc3, 0xff, 0xff, 0x04, 0x00, 0x00, 0x00, 0x8c, 0x00, 0x00,
  0x00, 0x8d, 0xa1, 0x80, 0xbd, 0x63, 0x90, 0x96, 0xbd, 0x4c, 0xb3, 0x00, 0x3e,
  0x52, 0xea, 0xfd, 0xbe, 0x4d, 0xe9, 0x2c, 0x3d, 0xc0, 0x1a, 0x9a, 0xbe, 0x9d,
  0x9c, 0x72, 0x3e, 0xfd, 0x1a, 0x12, 0xbf, 0xc3, 0x4d, 0xb0, 0x3e, 0x64, 0x66,
  0x3a, 0x3e, 0x66, 0x1b, 0xdb, 0xbe, 0x6f, 0xed, 0x4a, 0xbe, 0x2b, 0x82, 0x06,
  0x3f, 0xdb, 0x97, 0x14, 0xbf, 0x06, 0x28, 0xda, 0x3d, 0x2a, 0x9f, 0xaa, 0x3e,
  0xa7, 0x3d, 0xa8, 0xbd, 0xc7, 0x07, 0x02, 0xbe, 0xc1, 0x6c, 0xf9, 0xbe, 0xd5,
  0x93, 0x81, 0x3e, 0xa7, 0x25, 0x3a, 0xbe, 0xa3, 0x13, 0x3a, 0x3e, 0x9a, 0x0c,
  0xbf, 0x3d, 0x1e, 0x82, 0x0a, 0xbf, 0x62, 0x6c, 0x2a, 0xbe, 0x7d, 0x31, 0xcb,
  0x3d, 0x2f, 0x93, 0xbb, 0x3a, 0x87, 0x0d, 0x24, 0xbc, 0x63, 0x7e, 0x78, 0x3e,
  0x49, 0x2a, 0x8f, 0xbd, 0xc2, 0x3c, 0x0f, 0xbf, 0xf8, 0xbb, 0xa5, 0xbd, 0xea,
  0x39, 0xe9, 0xbd, 0xe8, 0xa9, 0x8d, 0xbd, 0x2f, 0xa3, 0x02, 0x3d, 0xf6, 0xc3,
  0xff, 0xff, 0x04, 0x00, 0x00, 0x00, 0x64, 0x00, 0x00, 0x00, 0xad, 0x8f, 0x1f,
  0xbe, 0xc1, 0x9a, 0x46, 0x3e, 0xc4, 0xf3, 0x4a, 0xbe, 0x5f, 0x18, 0x73, 0x3e,
  0xce, 0x4f, 0xe9, 0x3e, 0xfe, 0x80, 0x48, 0xbd, 0x40, 0xb8, 0xa6, 0x3d, 0xca,
  0xc6, 0xda, 0x3e, 0xec, 0x27, 0x59, 0x3d, 0x40, 0xd1, 0x31, 0xbf, 0x18, 0x7b,
  0x46, 0xbe, 0xbc, 0xec, 0x30, 0xbe, 0x70, 0x25, 0xa9, 0xbe, 0xf1, 0xe1, 0x9e,
  0xbe, 0x77, 0xbe, 0x70, 0x3e, 0x36, 0x40, 0xee, 0xbe, 0x59, 0x86, 0x79, 0x3e,
  0x77, 0x2f, 0xfe, 0xbd, 0x19, 0x4f, 0x10, 0x3d, 0x89, 0xcb, 0xa2, 0x3d, 0xb7,
  0x01, 0x28, 0xbe, 0xc4, 0x5f, 0x32, 0xbe, 0x76, 0xfa, 0x62, 0xbf, 0x8d, 0x4f,
  0x0e, 0xbd, 0x45, 0xc8, 0x18, 0x3e, 0x66, 0xc4, 0xff, 0xff, 0x04, 0x00, 0x00,
  0x00, 0x64, 0x00, 0x00, 0x00, 0xd2, 0xe7, 0x24, 0x3e, 0xa8, 0x4c, 0xcd, 0xbd,
  0xcf, 0xd4, 0x26, 0x3e, 0x2d, 0x19, 0xf9, 0xbe, 0x5d, 0x9c, 0xae, 0x3d, 0xef,
  0xbf, 0x7a, 0x3e, 0x33, 0xd7, 0xe2, 0x3d, 0x12, 0xe7, 0xc7, 0xbb, 0xaa, 0x2c,
  0xb7, 0x3d, 0x46, 0x09, 0x83, 0xbe, 0xab, 0x47, 0x0b, 0xbf, 0x0b, 0x1b, 0x56,
  0x3e, 0xf9, 0xb7, 0x25, 0xbd, 0x8f, 0xf4, 0x21, 0xbd, 0xee, 0x18, 0x88, 0xbe,
  0x37, 0x55, 0xc9, 0xbd, 0xb3, 0xcc, 0x97, 0x3e, 0x62, 0x0c, 0x0e, 0x3f, 0x1f,
  0xd6, 0x15, 0xbd, 0x98, 0x52, 0xde, 0xbd, 0xbf, 0x30, 0x9a, 0x3e, 0x4b, 0x9e,
  0x9c, 0x3e, 0xe5, 0x45, 0x47, 0x3e, 0xbd, 0x8a, 0xb8, 0x3e, 0xaf, 0xf8, 0xa6,
  0xbc, 0xd6, 0xc4, 0xff, 0xff, 0x04, 0x00, 0x00, 0x00, 0x64, 0x00, 0x00, 0x00,
  0x82, 0x6a, 0xf1, 0x3d, 0xf6, 0xcd, 0x1b, 0x3d, 0x21, 0x2d, 0xf2, 0xbe, 0x58,
  0xac, 0xa7, 0xbc, 0x79, 0x8a, 0x81, 0xbe, 0x15, 0xa1, 0xaf, 0xbe, 0x99, 0x96,
  0x30, 0xbe, 0x0f, 0x88, 0x31, 0x3f, 0xb3, 0xb8, 0x44, 0xbd, 0x5a, 0x21, 0xcd,
  0x3e, 0xfc, 0xe2, 0xe4, 0x3e, 0x52, 0x16, 0x93, 0xbe, 0x57, 0x40, 0x1d, 0x3e,
  0x12, 0x60, 0xd1, 0x3e, 0x92, 0x79, 0x33, 0x3e, 0xd8, 0x7f, 0xe7, 0x3e, 0x92,
  0xc0, 0xee, 0xbe, 0x45, 0x6d, 0x2d, 0x3e, 0x09, 0x7b, 0xed, 0x3e, 0x6d, 0x0e,
  0xbd, 0xbe, 0x78, 0x33, 0xec, 0xbc, 0x67, 0x04, 0x79, 0xbe, 0xc8, 0x1e, 0x0c,
  0x3f, 0xdf, 0x75, 0x19, 0x3e, 0xea, 0x3e, 0x50, 0xbe, 0x46, 0xc5, 0xff, 0xff,
  0x04, 0x00, 0x00, 0x00, 0x8c, 0x00, 0x00, 0x00, 0xc7, 0x4b, 0x1e, 0xbf, 0x89,
  0x9d, 0x27, 0x3f, 0xa3, 0x47, 0x28, 0x3f, 0x4f, 0x9a, 0x87, 0x3e, 0xd5, 0x3e,
  0x8c, 0x3c, 0xf8, 0x69, 0x4f, 0xbe, 0xbf, 0xd5, 0x10, 0x3d, 0xe9, 0xe9, 0xec,
  0xbe, 0xfd, 0xdb, 0x11, 0x3e, 0x9b, 0x5c, 0xad, 0xbd, 0xa3, 0xfc, 0x87, 0x3d,
  0x2b, 0x1c, 0xc2, 0x3d, 0x3b, 0x31, 0xc0, 0x3e, 0x81, 0x00, 0x76, 0x3f, 0x44,
  0xff, 0xbf, 0x3b, 0xdd, 0x94, 0xb4, 0x3e, 0x03, 0xa6, 0x11, 0xbf, 0xa6, 0x31,
  0x46, 0xbf, 0xe5, 0x1b, 0x99, 0x3f, 0xd4, 0xc5, 0x3a, 0xbf, 0xb1, 0x20, 0xdf,
  0x3e, 0x3b, 0x70, 0x17, 0xbe, 0x1c, 0x0c, 0x2c, 0x3f, 0xf9, 0xb7, 0x4a, 0x3f,
  0x52, 0xb2, 0x1c, 0x3e, 0x2e, 0x10, 0xf8, 0x3d, 0xcc, 0x02, 0x35, 0xbe, 0xa3,
  0x37, 0xa1, 0xbe, 0xa0, 0xd3, 0xac, 0x3c, 0xa4, 0x46, 0x18, 0x3e, 0x68, 0x1f,
  0x3e, 0x3f, 0x90, 0x8d, 0xdc, 0xbe, 0x61, 0xd4, 0x01, 0x3e, 0x4b, 0x95, 0x34,
  0x3f, 0x3e, 0xb5, 0xcd, 0x3c, 0xde, 0xc5, 0xff, 0xff, 0x04, 0x00, 0x00, 0x00,
  0x8c, 0x00, 0x00, 0x00, 0x72, 0x0f, 0x01, 0x3f, 0xdf, 0x3d, 0x0b, 0x3f, 0xbf,
  0xd7, 0x1a, 0x3d, 0xcd, 0x6a, 0x9e, 0xbe, 0xb4, 0x8b, 0x6d, 0x3e, 0xc4, 0xe0,
  0x3d, 0xbe, 0x4f, 0xab, 0x3f, 0x3f, 0x50, 0x30, 0x7f, 0x3d, 0xef, 0xd7, 0xcd,
  0x3e, 0x0d, 0x5d, 0x7a, 0xbe, 0xab, 0x30, 0xd2, 0xbe, 0x29, 0x48, 0xf6, 0x3e,
  0x40, 0x3f, 0x6a, 0xbe, 0xa4, 0xf4, 0x0a, 0x3f, 0x0d, 0x79, 0xfa, 0xbe, 0xf4,
  0x38, 0xc7, 0x3e, 0x27, 0x6e, 0x38, 0xbf, 0xd4, 0xce, 0x8a, 0xbe, 0x3b, 0xd7,
  0xb1, 0x3e, 0x6b, 0xa6, 0x26, 0xbf, 0x43, 0x2f, 0x3a, 0x3d, 0x01, 0x70, 0xc8,
  0xbd, 0x3f, 0xae, 0x1c, 0x3f, 0x90, 0xfe, 0xfc, 0xbd, 0x09, 0xde, 0x1a, 0xbf,
  0xc3, 0x16, 0x33, 0x3e, 0x9e, 0x63, 0x1b, 0xbe, 0x8f, 0xe8, 0xda, 0x3d, 0x50,
  0xc5, 0xdd, 0x3e, 0x07, 0xae, 0x32, 0x3e, 0x9f, 0x0c, 0x0a, 0x3e, 0xca, 0xd8,
  0x67, 0xbe, 0x15, 0x20, 0x44, 0x3e, 0x2f, 0xf8, 0xbc, 0xbc, 0x6d, 0xda, 0xa3,
  0x3e, 0x76, 0xc6, 0xff, 0xff, 0x04, 0x00, 0x00, 0x00, 0x8c, 0x00, 0x00, 0x00,
  0xc9, 0xfc, 0xe6, 0xbc, 0xff, 0x20, 0xbe, 0x3e, 0xef, 0x55, 0xb6, 0x3e, 0xbd,
  0x2f, 0x9f, 0xbe, 0xe8, 0x20, 0xc0, 0xbd, 0x62, 0x64, 0x92, 0xbd, 0x15, 0x5e,
  0x76, 0xbe, 0xfd, 0x46, 0x77, 0xbf, 0xbb, 0xf8, 0x36, 0x3f, 0xae, 0xd3, 0x25,
  0x3f, 0x62, 0x9e, 0xec, 0xbe, 0x78, 0x35, 0x12, 0xbf, 0xa8, 0x9b, 0x0f, 0xbf,
  0x15, 0x35, 0x45, 0xbf, 0xbe, 0xca, 0xf5, 0x3d, 0x99, 0xcd, 0xa8, 0x3e, 0xc0,
  0x48, 0x85, 0x3c, 0xfa, 0xff, 0x03, 0xbf, 0xc2, 0x6d, 0x3e, 0xbf, 0xfb, 0x5b,
  0x4f, 0xbf, 0x4f, 0x93, 0xba, 0xbd, 0x3e, 0x21, 0x18, 0xbe, 0xc9, 0xee, 0x8d,
  0xbd, 0x8a, 0xf2, 0x2e, 0xbe, 0x4f, 0x28, 0x77, 0xbe, 0x72, 0xc4, 0x27, 0xbd,
  0xd9, 0xc9, 0x2e, 0x3d, 0x57, 0x8e, 0x4d, 0x3e, 0xbd, 0x69, 0x9f, 0xbb, 0x29,
  0x42, 0xd3, 0x3d, 0x09, 0x54, 0x6a, 0x3e, 0x9c, 0xf6, 0x93, 0x3e, 0x89, 0x9e,
  0x94, 0xbe, 0x49, 0x69, 0xa3, 0xbc, 0xd1, 0xd0, 0xf3, 0xbd, 0x0e, 0xc7, 0xff,
  0xff, 0x04, 0x00, 0x00, 0x00, 0xfc, 0x00, 0x00, 0x00, 0x88, 0x56, 0x3b, 0xbf,
  0x62, 0x51, 0x01, 0xbf, 0xfd, 0xd4, 0xfe, 0x3d, 0xad, 0xb7, 0xe4, 0x3e, 0x01,
  0x96, 0xdd, 0xbd, 0x0c, 0x1d, 0x1a, 0x3e, 0xf4, 0xa9, 0x36, 0xbe, 0x18, 0x72,
  0x12, 0xbf, 0x63, 0x68, 0xd5, 0xbe, 0xbe, 0x0e, 0x01, 0x3e, 0x80, 0x9a, 0xf6,
  0xbd, 0x5d, 0x29, 0x4b, 0x3e, 0x98, 0xc2, 0x2e, 0xbf, 0xd2, 0xce, 0x7e, 0x3e,
  0x16, 0xfd, 0xcb, 0x3e, 0x64, 0x80, 0x36, 0xbf, 0x59, 0xcb, 0x15, 0xbe, 0xa7,
  0x13, 0x71, 0x3d, 0x69, 0x7b, 0xc4, 0xbe, 0x2d, 0xc0, 0x20, 0xbf, 0xb3, 0xc1,
  0xb2, 0x3e, 0xe6, 0x83, 0x57, 0x3e, 0x79, 0x23, 0xab, 0x3e, 0x78, 0xb4, 0x33,
  0xbe, 0x9a, 0xab, 0x4f, 0xbd, 0x07, 0x1b, 0x89, 0xbe, 0x08, 0xb0, 0xb3, 0xbe,
  0x38, 0x60, 0x5e, 0x39, 0x41, 0xa9, 0xa5, 0xbe, 0xde, 0x0f, 0x1b, 0x3f, 0x38,
  0xfd, 0x43, 0x3d, 0x50, 0xd7, 0xf1, 0x3e, 0xb3, 0x64, 0x51, 0xbf, 0xc8, 0xf0,
  0x4d, 0x3e, 0x75, 0x21, 0x2c, 0xbe, 0x25, 0x74, 0x7b, 0xbe, 0x40, 0x3c, 0x37,
  0x3f, 0xe6, 0xa9, 0x1f, 0x3f, 0x3d, 0x78, 0xd1, 0xbe, 0x32, 0xe3, 0x1a, 0xbe,
  0x54, 0x03, 0x8d, 0x3d, 0x3d, 0xb0, 0x05, 0xbe, 0x15, 0x83, 0xaf, 0xbe, 0x88,
  0x36, 0x26, 0x3d, 0xc7, 0x41, 0xbf, 0x3e, 0x65, 0xf9, 0x40, 0xbf, 0xe9, 0xc0,
  0x24, 0xbf, 0x25, 0x13, 0x1d, 0x3d, 0x52, 0xb8, 0xe8, 0xbd, 0x81, 0xd6, 0x19,
  0x3d, 0xb1, 0x95, 0xec, 0x3d, 0xee, 0x57, 0x7b, 0xbe, 0xdc, 0x18, 0xda, 0x3d,
  0x1f, 0x5b, 0xda, 0xbd, 0x2b, 0x09, 0x8f, 0xbe, 0xb2, 0x95, 0x02, 0xbf, 0xc8,
  0xaa, 0xa9, 0x3d, 0x98, 0xae, 0x58, 0xbe, 0xd4, 0x63, 0xe2, 0x3e, 0xe2, 0x7d,
  0x66, 0x3e, 0x1d, 0x7c, 0x03, 0x3e, 0x30, 0x9e, 0x3f, 0xbf, 0x51, 0x05, 0xc1,
  0xbe, 0x16, 0xc8, 0xff, 0xff, 0x04, 0x00, 0x00, 0x00, 0xb4, 0x00, 0x00, 0x00,
  0x08, 0x8e, 0xd8, 0xbc, 0xf1, 0x94, 0xf6, 0x3d, 0xf2, 0xf5, 0x6e, 0xbd, 0xc3,
  0xfd, 0xaa, 0xbe, 0xe4, 0xd5, 0x37, 0xbe, 0xe8, 0x28, 0x3a, 0xbd, 0x6f, 0x83,
  0x27, 0xbe, 0x4a, 0xb7, 0x4f, 0xbe, 0x5c, 0x2e, 0x24, 0x3d, 0xb4, 0x60, 0xb4,
  0x3d, 0xff, 0x9e, 0x22, 0x3e, 0x2d, 0xd2, 0x04, 0xbe, 0xf7, 0xbf, 0x0b, 0x3d,
  0xfd, 0x7f, 0x45, 0x3e, 0x85, 0xcb, 0xcf, 0xbe, 0xaa, 0x14, 0x56, 0xbe, 0x66,
  0x96, 0xc6, 0xbe, 0x2f, 0x67, 0x2d, 0xbe, 0x4c, 0x91, 0x07, 0x3f, 0x1e, 0x77,
  0x8d, 0x3e, 0xd3, 0x5d, 0xdd, 0xbe, 0xb4, 0x9a, 0x00, 0x3f, 0x6f, 0x99, 0x8b,
  0xbc, 0x10, 0x12, 0x99, 0x3e, 0xc2, 0xc1, 0xbf, 0xbe, 0xbb, 0xce, 0xb9, 0x3d,
  0x23, 0xef, 0x30, 0x3f, 0x1f, 0x60, 0x1b, 0x3d, 0x3b, 0x7a, 0x26, 0x3e, 0x0d,
  0x49, 0xa4, 0xbd, 0x9d, 0xab, 0xde, 0xbc, 0x37, 0xfc, 0xef, 0x3e, 0x52, 0x50,
  0xe2, 0x3d, 0x51, 0x32, 0x53, 0xbe, 0x2b, 0xa8, 0xe6, 0xbd, 0x98, 0xe6, 0x8b,
  0xbd, 0xed, 0xa8, 0x95, 0xbc, 0x4a, 0xfd, 0x05, 0x3c, 0x76, 0xad, 0xf6, 0x3d,
  0xd7, 0x8e, 0x46, 0xbe, 0x2f, 0x89, 0xc0, 0xbe, 0xf4, 0x61, 0xaf, 0xbe, 0x48,
  0xff, 0x01, 0xbe, 0xab, 0xff, 0xf6, 0x3c, 0x8a, 0x02, 0x17, 0xbd, 0xd6, 0xc8,
  0xff, 0xff, 0x04, 0x00, 0x00, 0x00, 0x24, 0x00, 0x00, 0x00, 0x00, 0x00, 0x00,
  0x00, 0x00, 0x00, 0x00, 0x00, 0x00, 0x00, 0x00, 0x00, 0x00, 0x00, 0x00, 0x00,
  0x00, 0x00, 0x00, 0x00, 0x00, 0x00, 0x00, 0x00, 0x00, 0x00, 0x00, 0x00, 0x00,
  0x00, 0x00, 0x00, 0x00, 0x00, 0x00, 0x00, 0x06, 0xc9, 0xff, 0xff, 0x04, 0x00,
  0x00, 0x00, 0xb4, 0x00, 0x00, 0x00, 0xab, 0x79, 0x23, 0xbd, 0xc8, 0x37, 0x79,
  0x3e, 0x62, 0x5f, 0x34, 0x3e, 0x26, 0x6a, 0xa5, 0xbd, 0x2c, 0x8e, 0x48, 0xbc,
  0xba, 0xf2, 0x7b, 0xbe, 0xbe, 0x77, 0x9c, 0xbc, 0x59, 0xa5, 0x46, 0xbc, 0xd9,
  0xb2, 0x50, 0x3e, 0x62, 0x78, 0x5a, 0x3e, 0x38, 0xdf, 0xb2, 0x3e, 0x55, 0xd3,
  0xad, 0xbe, 0x53, 0x35, 0x3f, 0x3e, 0xe8, 0x10, 0x4b, 0x3e, 0x4e, 0xe5, 0x0f,
  0xbd, 0xf4, 0x5a, 0x3a, 0xbe, 0x48, 0x9b, 0x22, 0x3d, 0x5a, 0x63, 0xde, 0xbd,
  0xb3, 0xff, 0xfc, 0x3e, 0xfe, 0xcb, 0x2e, 0x3e, 0xca, 0xce, 0x8e, 0xbe, 0xa2,
  0xe3, 0xcf, 0x3e, 0xed, 0x6d, 0x23, 0xbf, 0xc6, 0x54, 0x42, 0xbd, 0xce, 0x1b,
  0xa2, 0xbe, 0x53, 0xc7, 0x91, 0x3e, 0x61, 0x24, 0x01, 0xbf, 0x9b, 0x91, 0xf9,
  0x3d, 0x4a, 0x5c, 0xfe, 0xbd, 0x0d, 0x44, 0x05, 0xbe, 0x79, 0xeb, 0x00, 0x3e,
  0x62, 0xec, 0xf7, 0x3d, 0x60, 0xce, 0x45, 0xbe, 0x87, 0xcf, 0x5f, 0xbe, 0xbc,
  0xa6, 0xd4, 0x3e, 0xe2, 0x1f, 0xf2, 0x3c, 0x77, 0xd5, 0x05, 0xbd, 0x0d, 0xb1,
  0x85, 0x3e, 0x5b, 0x47, 0x85, 0x3d, 0x8a, 0x58, 0x96, 0xbd, 0xb0, 0x08, 0xb5,
  0x3c, 0xa7, 0xf0, 0x94, 0x3b, 0x3e, 0xa0, 0x4a, 0xbb, 0x81, 0x6f, 0x8b, 0xbe,
  0xea, 0x68, 0xb0, 0x3d, 0xc6, 0xc9, 0xff, 0xff, 0x04, 0x00, 0x00, 0x00, 0xc4,
  0x00, 0x00, 0x00, 0x0c, 0x26, 0x25, 0xbd, 0xa3, 0x0b, 0x81, 0x3e, 0xe2, 0x7d,
  0xe3, 0xbf, 0x64, 0xbb, 0x69, 0x3e, 0x87, 0xe2, 0x10, 0x3f, 0x09, 0x20, 0x80,
  0x3e, 0x81, 0xd8, 0xab, 0xbe, 0x25, 0xad, 0x25, 0x3f, 0x16, 0x09, 0x60, 0xbf,
  0x42, 0x4d, 0xd6, 0x3d, 0x0e, 0x7b, 0x1b, 0xbf, 0xe5, 0x3b, 0xac, 0xbd, 0x41,
  0x56, 0xbd, 0xbe, 0xee, 0x3a, 0x28, 0xbf, 0x04, 0xe1, 0x5f, 0x3f, 0xab, 0x12,
  0xc3, 0xbe, 0xa4, 0xbc, 0x8d, 0xbf, 0x84, 0x7b, 0x12, 0xbf, 0x69, 0x27, 0x1f,
  0x3f, 0x5b, 0x8c, 0xfc, 0xbe, 0xdb, 0x2c, 0x33, 0xbf, 0xa7, 0x8d, 0x2b, 0x3e,
  0x51, 0x9f, 0x9c, 0x3c, 0xf7, 0x6c, 0x36, 0xbc, 0x01, 0x14, 0x93, 0xbe, 0x65,
  0xf0, 0xeb, 0x3f, 0x8d, 0xd5, 0x78, 0x3f, 0x0a, 0x34, 0x5c, 0x3f, 0x0d, 0x1b,
  0x9d, 0xbe, 0xa6, 0x40, 0x7d, 0x3d, 0x23, 0x3b, 0x5e, 0xbf, 0x58, 0x04, 0xd8,
  0x3d, 0x0a, 0x81, 0xb3, 0xbf, 0x92, 0x6f, 0x22, 0xbe, 0x12, 0x6a, 0x21, 0xbe,
  0xfb, 0x51, 0x09, 0x3f, 0x3b, 0x7d, 0x38, 0xbf, 0x67, 0x7d, 0x32, 0xbe, 0x69,
  0x95, 0x47, 0xbf, 0xe4, 0xd3, 0x6c, 0xbe, 0xe3, 0xbe, 0x48, 0xbf, 0xd2, 0x0e,
  0x2f, 0xbf, 0x77, 0x30, 0xf0, 0x3e, 0x0c, 0x3c, 0x71, 0xbf, 0x15, 0x15, 0x85,
  0xbd, 0x8d, 0x6d, 0x9a, 0xbf, 0x72, 0x78, 0xdb, 0xbe, 0x60, 0x24, 0xc8, 0x3e,
  0x5b, 0xd8, 0x45, 0xbf, 0x96, 0xca, 0xff, 0xff, 0x04, 0x00, 0x00, 0x00, 0x8c,
  0x00, 0x00, 0x00, 0xc4, 0xe4, 0xe6, 0xbd, 0x26, 0x50, 0x4c, 0xbc, 0xbb, 0xac,
  0xc2, 0x3e, 0x82, 0x61, 0x6b, 0xbe, 0xc3, 0x20, 0x38, 0xbf, 0x42, 0x59, 0x52,
  0xbd, 0xfc, 0x56, 0x81, 0xbe, 0xdd, 0xb9, 0x00, 0xbe, 0xf7, 0x7e, 0x12, 0x3f,
  0x19, 0x54, 0x27, 0xbe, 0xfd, 0x84, 0x1f, 0x3f, 0x50, 0x33, 0xa9, 0x3f, 0x89,
  0x7a, 0xbb, 0xbd, 0x41, 0xd0, 0x12, 0xbe, 0x7a, 0x62, 0x3a, 0xbf, 0x8f, 0x52,
  0xc7, 0x3e, 0x9a, 0x51, 0x48, 0x3f, 0x7f, 0x6a, 0x2b, 0x3d, 0x4c, 0xd1, 0xac,
  0xbf, 0xfc, 0x5c, 0x94, 0xbe, 0x3f, 0x51, 0x20, 0xbf, 0xae, 0xa9, 0xd0, 0xbe,
  0x5c, 0x08, 0x1f, 0x3f, 0x07, 0xdb, 0x39, 0xbe, 0xfc, 0xb8, 0xa9, 0x3e, 0x32,
  0x9c, 0x55, 0x3f, 0xf4, 0x36, 0x56, 0xbe, 0x80, 0x75, 0xab, 0x3a, 0x49, 0x36,
  0x68, 0x3e, 0xf9, 0x42, 0xe9, 0xbe, 0x93, 0xff, 0xda, 0x3e, 0xbf, 0x14, 0xf0,
  0xbb, 0xe4, 0x14, 0x0a, 0xbf, 0x9f, 0x5d, 0xd2, 0x3d, 0x5e, 0x74, 0x6f, 0xbe,
  0x2e, 0xcb, 0xff, 0xff, 0x04, 0x00, 0x00, 0x00, 0x8c, 0x00, 0x00, 0x00, 0xc0,
  0xf6, 0xd4, 0x3e, 0x1e, 0x56, 0xc7, 0xbd, 0x71, 0x15, 0x71, 0xbd, 0xea, 0x58,
  0x73, 0x3e, 0x02, 0x7a, 0xcd, 0x3e, 0x60, 0xcd, 0xce, 0xbd, 0x29, 0x64, 0x20,
  0xbe, 0x32, 0x86, 0xeb, 0xbe, 0xa5, 0x18, 0x04, 0xbf, 0x12, 0x39, 0xdf, 0xbd,
  0xc3, 0xbd, 0x40, 0xbe, 0x10, 0xd5, 0x5e, 0xbf, 0xee, 0xd3, 0x79, 0xbe, 0x0b,
  0xa5, 0x60, 0xbe, 0xf8, 0xa1, 0x50, 0x3e, 0xea, 0x74, 0xdb, 0xbc, 0xb3, 0x11,
  0x4f, 0xbe, 0x24, 0x17, 0x4b, 0x3e, 0x19, 0x16, 0x83, 0x3f, 0x78, 0x67, 0xc5,
  0x3e, 0xf2, 0xeb, 0xec, 0x3e, 0xd6, 0x37, 0x23, 0x3f, 0x87, 0x1b, 0x0d, 0xbf,
  0xe6, 0xa7, 0x5a, 0xbf, 0x1c, 0x2a, 0x2f, 0x3f, 0xf7, 0xe4, 0x75, 0x3f, 0x20,
  0x3b, 0x09, 0xbf, 0x26, 0xfb, 0xf1, 0x3d, 0x3a, 0xe7, 0xf7, 0xbe, 0x7e, 0x88,
  0x2c, 0xbf, 0xc6, 0x38, 0x06, 0xbf, 0x99, 0xcc, 0xb7, 0x3e, 0x84, 0xbc, 0x99,
  0x3e, 0x11, 0x32, 0xa4, 0xbe, 0x8e, 0xcf, 0x2a, 0x3f, 0xc6, 0xcb, 0xff, 0xff,
  0x04, 0x00, 0x00, 0x00, 0xfc, 0x00, 0x00, 0x00, 0x77, 0xa5, 0xad, 0x3c, 0xbd,
  0xe7, 0x9d, 0xbe, 0x5b, 0xda, 0x37, 0x3e, 0xbc, 0xed, 0xda, 0x3e, 0x5b, 0x25,
  0xb2, 0xbd, 0xc9, 0x89, 0xdb, 0xbd, 0xeb, 0x14, 0xb5, 0xbd, 0xc2, 0x42, 0xbd,
  0xbe, 0x9b, 0x05, 0x9e, 0x3e, 0x26, 0x31, 0x0c, 0xbe, 0xb7, 0xb9, 0xb0, 0xbe,
  0x0d, 0x17, 0x22, 0xbe, 0xf8, 0xf2, 0x1b, 0x3f, 0xbf, 0xa6, 0x21, 0xbf, 0x01,
  0x7b, 0xef, 0xbe, 0x13, 0x06, 0x0b, 0x3d, 0x13, 0xbd, 0xec, 0x3e, 0xe1, 0xa0,
  0x68, 0xbe, 0x24, 0x55, 0xae, 0xbd, 0x9b, 0x74, 0x21, 0xbf, 0x9a, 0x32, 0x2f,
  0xbe, 0xbc, 0xbf, 0x9c, 0x3e, 0xa8, 0x73, 0x81, 0x3e, 0x4a, 0x4f, 0xec, 0x3e,
  0xb3, 0x17, 0x2a, 0xbe, 0x83, 0x61, 0x98, 0xbd, 0x6d, 0x84, 0x4d, 0x3e, 0x02,
  0x13, 0x49, 0xbf, 0x5f, 0x81, 0x8f, 0xbf, 0xe6, 0x38, 0x97, 0xbe, 0x03, 0xc7,
  0x93, 0x3f, 0xa9, 0x76, 0x74, 0xbe, 0x4e, 0xd5, 0xa0, 0x3e, 0xa2, 0x9f, 0xb9,
  0x3e, 0x7f, 0xdd, 0xce, 0x3c, 0x17, 0x08, 0x37, 0xbe, 0x3e, 0x6b, 0xab, 0x3d,
  0xbb, 0x1f, 0x8e, 0xbd, 0x0f, 0xd2, 0xbe, 0x3c, 0xdf, 0x36, 0x88, 0x3d, 0x5e,
  0x54, 0x1c, 0x3e, 0x45, 0xbf, 0x0d, 0xbb, 0x5b, 0x7b, 0x89, 0xbe, 0x05, 0x96,
  0x9d, 0x3e, 0xab, 0x94, 0xf6, 0xbc, 0x8a, 0x22, 0x57, 0x3f, 0xad, 0x10, 0x5f,
  0x3e, 0x35, 0x3b, 0x74, 0xbe, 0x78, 0x43, 0x00, 0xbf, 0xfa, 0x77, 0x84, 0x3b,
  0x18, 0x5f, 0x2d, 0xbe, 0x45, 0x2d, 0xb8, 0xbe, 0xfb, 0xd5, 0x59, 0x3d, 0x24,
  0x05, 0xfa, 0xbe, 0xdd, 0x88, 0x33, 0x3e, 0x9d, 0x46, 0xa3, 0x3e, 0xda, 0xd6,
  0x63, 0x3f, 0x0f, 0x3f, 0xa9, 0xbd, 0x34, 0x63, 0xbf, 0xbe, 0xe2, 0x86, 0x2c,
  0x3f, 0xec, 0x31, 0xf6, 0xbd, 0x43, 0x4f, 0x0a, 0x3e, 0x58, 0x7c, 0x08, 0x3f,
  0xce, 0xcc, 0xff, 0xff, 0x04, 0x00, 0x00, 0x00, 0xb4, 0x00, 0x00, 0x00, 0xae,
  0xdf, 0x2e, 0xbd, 0x89, 0x91, 0xe9, 0x3d, 0x6b, 0xf0, 0x9e, 0xbd, 0x92, 0xb1,
  0x19, 0x3e, 0x5d, 0xec, 0x78, 0xbd, 0x7d, 0xd8, 0xb9, 0xbd, 0x57, 0xc2, 0x6f,
  0x3e, 0x0b, 0x83, 0x97, 0xbe, 0xbe, 0xae, 0xfe, 0x3d, 0x7c, 0x2a, 0x8a, 0xbe,
  0x1f, 0x73, 0xc6, 0xbe, 0xdd, 0xd4, 0x8a, 0xbd, 0x76, 0xbf, 0xb7, 0x3d, 0x31,
  0x10, 0x70, 0xbe, 0xc9, 0xaa, 0x7e, 0x3d, 0x2f, 0x25, 0xc1, 0x3e, 0xee, 0xea,
  0xc4, 0x3e, 0x11, 0xfd, 0x1f, 0xbe, 0xb0, 0x42, 0xa4, 0xbe, 0x13, 0x8b, 0x66,
  0xbe, 0x46, 0x2b, 0x83, 0xbe, 0x7d, 0x13, 0x64, 0x3e, 0x0e, 0x37, 0x46, 0xba,
  0xc7, 0xde, 0xc6, 0x3e, 0xd4, 0x22, 0x99, 0x3e, 0xad, 0xf4, 0x82, 0xbe, 0x6b,
  0x64, 0xef, 0xbe, 0x46, 0x58, 0x62, 0xbc, 0x9f, 0x54, 0xd4, 0x3d, 0xad, 0x33,
  0x17, 0xbe, 0x1e, 0xaa, 0xa9, 0x3e, 0x57, 0x17, 0x9b, 0xbe, 0x1b, 0x3d, 0x15,
  0x3e, 0x63, 0xbc, 0x21, 0xbe, 0xa4, 0xaf, 0xe4, 0x3d, 0xc5, 0xbc, 0xd4, 0xbc,
  0x44, 0xc3, 0x0f, 0xbe, 0x92, 0x03, 0xe2, 0xbd, 0x36, 0x26, 0xa2, 0x3d, 0x6b,
  0xef, 0x79, 0x3c, 0x41, 0x89, 0x66, 0xbe, 0xda, 0x01, 0xf0, 0xbd, 0x88, 0x35,
  0x57, 0xbd, 0x46, 0x00, 0xf0, 0xbd, 0x8c, 0x2f, 0x88, 0xbc, 0x8e, 0xcd, 0xff,
  0xff, 0x04, 0x00, 0x00, 0x00, 0xb4, 0x00, 0x00, 0x00, 0x28, 0x7e, 0x94, 0x3e,
  0xb1, 0x88, 0xab, 0xbe, 0xc9, 0x2f, 0x24, 0xbe, 0x03, 0x39, 0xdb, 0x3e, 0xf2,
  0xe5, 0xae, 0xbd, 0xe8, 0x91, 0xa4, 0x3e, 0x17, 0x99, 0xd5, 0x3d, 0x85, 0xea,
  0x1a, 0xbd, 0xa7, 0x70, 0xe5, 0xbd, 0x25, 0x56, 0xbc, 0xbb, 0x57, 0x9a, 0xc1,
  0xbe, 0x00, 0xfd, 0x82, 0xbe, 0x9e, 0xe1, 0x63, 0x3e, 0x66, 0x1f, 0x6d, 0xbe,
  0x51, 0xd7, 0xa3, 0x3e, 0xb6, 0x64, 0x8c, 0x3e, 0x61, 0x36, 0x88, 0xbe, 0x7c,
  0x61, 0x21, 0x3f, 0xd4, 0xa9, 0xda, 0x3e, 0x17, 0xbd, 0xd8, 0x3c, 0xd6, 0x99,
  0xf9, 0xbd, 0xda, 0x7e, 0x0c, 0x3d, 0x9b, 0x10, 0x6e, 0xbe, 0xe3, 0x43, 0x61,
  0xbe, 0x9d, 0x98, 0x08, 0x3e, 0xb1, 0x19, 0xf1, 0xbe, 0xaf, 0xd1, 0x46, 0xbf,
  0x1a, 0xe4, 0x5a, 0xbe, 0x2b, 0x12, 0x04, 0xbd, 0x3c, 0xf2, 0xfe, 0x3d, 0xc2,
  0xc1, 0x01, 0x3e, 0xb2, 0x56, 0x6d, 0x3e, 0xd8, 0xba, 0x67, 0x3e, 0xb9, 0x32,
  0xad, 0x3c, 0xfc, 0xb4, 0xa9, 0x3e, 0xb2, 0x0a, 0xa3, 0x3e, 0x90, 0x5e, 0x01,
  0x3e, 0x86, 0x7c, 0x30, 0xbe, 0xb0, 0x3d, 0xc0, 0xbe, 0x3b, 0x5d, 0x5c, 0xbd,
  0x8d, 0xb8, 0x10, 0xbe, 0xec, 0x31, 0x28, 0x3e, 0x47, 0x6b, 0x0b, 0x3c, 0x84,
  0x3d, 0x36, 0xbd, 0xe8, 0x36, 0x71, 0x3b, 0x4e, 0xce, 0xff, 0xff, 0x04, 0x00,
  0x00, 0x00, 0xb0, 0x01, 0x00, 0x00, 0xc7, 0xca, 0x1f, 0x3f, 0x27, 0x8b, 0x4e,
  0xbf, 0x03, 0x0b, 0x80, 0xbc, 0x9b, 0x9f, 0x1c, 0x3f, 0xbc, 0xfe, 0x83, 0x3e,
  0x9f, 0x99, 0x17, 0xbf, 0xfe, 0xd1, 0x0a, 0xbf, 0x61, 0x87, 0x48, 0x3e, 0x8c,
  0xad, 0x76, 0xbf, 0x10, 0x94, 0x03, 0xbf, 0xe8, 0x42, 0x98, 0xbb, 0x02, 0x53,
  0xb0, 0xbe, 0x2f, 0x94, 0xac, 0xbd, 0x49, 0xd9, 0x81, 0x3e, 0x08, 0x54, 0x3a,
  0x3e, 0x96, 0x2b, 0x05, 0x3d, 0x57, 0xb6, 0xa0, 0x3e, 0x95, 0x73, 0xc7, 0xbe,
  0x6c, 0xd2, 0x65, 0x3e, 0xe0, 0x67, 0x14, 0xbf, 0xfd, 0xf1, 0x98, 0xbd, 0x27,
  0xb1, 0x1e, 0x3f, 0x91, 0x42, 0x26, 0xbf, 0xf5, 0xbc, 0xf9, 0xbd, 0x6d, 0x8e,
  0xb6, 0x3e, 0x54, 0x0b, 0xb4, 0xbe, 0x2a, 0x3a, 0x0d, 0xbf, 0x7b, 0xb6, 0xf8,
  0x3d, 0x59, 0x3e, 0x11, 0x3e, 0x49, 0xd9, 0xe3, 0x3e, 0x1d, 0xf9, 0x75, 0xbf,
  0x7b, 0x37, 0x17, 0x3e, 0xba, 0x82, 0x4d, 0x3f, 0xcf, 0x76, 0x49, 0x3f, 0x26,
  0x98, 0x40, 0xbc, 0x9e, 0x11, 0xcf, 0xbe, 0xbe, 0x16, 0x0f, 0x3e, 0xbe, 0xb8,
  0x03, 0xbb, 0xb1, 0x49, 0xb7, 0xbe, 0x44, 0x57, 0x41, 0x3e, 0x58, 0xd6, 0x44,
  0xbf, 0x36, 0xa1, 0x8a, 0x3e, 0xb6, 0x1c, 0x1d, 0xbf, 0x23, 0x79, 0x93, 0x3e,
  0x97, 0x2d, 0x00, 0x3f, 0xb8, 0x65, 0x3f, 0x3f, 0x2b, 0xb1, 0x87, 0xbf, 0x4a,
  0xe1, 0x26, 0xbf, 0xf5, 0xef, 0xa6, 0x3e, 0xb7, 0xa8, 0xc7, 0xbe, 0xaa, 0x6c,
  0xf7, 0x3c, 0x7f, 0xac, 0xcd, 0x3d, 0x44, 0xb5, 0x37, 0x3e, 0x7a, 0x4f, 0x49,
  0xbe, 0x02, 0xcd, 0x13, 0x3e, 0xce, 0xec, 0x0f, 0x3d, 0xcd, 0xbd, 0x56, 0x3c,
  0xc1, 0xe2, 0xad, 0x3e, 0x0c, 0x61, 0xbd, 0x3e, 0x9f, 0x54, 0xbb, 0x3e, 0xf7,
  0xd2, 0x9d, 0xbe, 0x0a, 0xad, 0xdf, 0x3e, 0xd8, 0xf9, 0x94, 0xbc, 0x3e, 0x71,
  0xed, 0xbe, 0x48, 0x7c, 0x4b, 0x3e, 0xa2, 0x06, 0x73, 0xbd, 0x7e, 0x13, 0xa8,
  0x3e, 0x22, 0x56, 0x41, 0xbe, 0x64, 0x63, 0x80, 0xbe, 0xd9, 0x28, 0xa4, 0xbb,
  0x72, 0x47, 0x8a, 0xbe, 0xb8, 0x1b, 0xb5, 0x3e, 0x3c, 0xc9, 0x9a, 0x3e, 0x27,
  0x88, 0x0f, 0x3f, 0x1e, 0xcc, 0x2f, 0x3f, 0x79, 0x55, 0x8d, 0xbe, 0x04, 0x8c,
  0x8e, 0xbd, 0xfa, 0xaf, 0x1e, 0x3f, 0xff, 0xf2, 0x0f, 0xbf, 0x69, 0x16, 0x85,
  0x3c, 0x51, 0x40, 0xc9, 0x3e, 0x6d, 0xaa, 0x41, 0x3d, 0x6d, 0x45, 0xfa, 0x3b,
  0xcd, 0xba, 0x2f, 0x3e, 0xee, 0x3e, 0xdd, 0xbc, 0x1d, 0xbc, 0xd0, 0x3d, 0x21,
  0xbb, 0x5e, 0xbf, 0x99, 0x8f, 0x77, 0x3c, 0x72, 0xde, 0x89, 0xbd, 0x79, 0x71,
  0xc9, 0x3d, 0x32, 0x51, 0xb3, 0x3e, 0x71, 0xff, 0x6a, 0x3f, 0x0e, 0x5b, 0xfc,
  0xbd, 0xac, 0x7a, 0x04, 0xbe, 0x8e, 0xa1, 0xc6, 0x3e, 0x6c, 0x2d, 0x85, 0xbe,
  0x18, 0xf6, 0x1b, 0x3d, 0xec, 0xf9, 0xc5, 0xbb, 0xad, 0xb0, 0x31, 0x3e, 0x1b,
  0xf9, 0x51, 0x3f, 0x15, 0xa4, 0x45, 0x3f, 0xbc, 0xf6, 0xf0, 0xbe, 0xd9, 0x70,
  0x87, 0x3e, 0x37, 0x0b, 0x14, 0xbd, 0x9f, 0x06, 0xeb, 0xbe, 0xbd, 0xaa, 0x0e,
  0xbf, 0xa7, 0xf5, 0x94, 0x3d, 0x12, 0x08, 0xf0, 0x3e, 0x0a, 0xd0, 0xff, 0xff,
  0x04, 0x00, 0x00, 0x00, 0xf0, 0x00, 0x00, 0x00, 0x04, 0x2e, 0x1a, 0x3d, 0x10,
  0x71, 0xda, 0xbc, 0xc5, 0x13, 0x7b, 0x3e, 0x95, 0xce, 0xe9, 0x3d, 0xca, 0x9f,
  0x83, 0x3c, 0x6d, 0xda, 0xd3, 0xbe, 0xf9, 0x91, 0x88, 0x3c, 0x44, 0xcf, 0x1b,
  0xbc, 0x65, 0x02, 0x50, 0x3e, 0x98, 0xed, 0x40, 0x3d, 0x44, 0x92, 0xc0, 0x3e,
  0x3a, 0x10, 0x9d, 0x3e, 0xca, 0x6b, 0x0c, 0x3f, 0x1d, 0x32, 0xc2, 0x3e, 0x51,
  0xc6, 0xde, 0xbe, 0xfd, 0xde, 0x8e, 0xbe, 0x2e, 0xd5, 0xf6, 0xbe, 0xbf, 0xa5,
  0xc5, 0xbd, 0x6c, 0x82, 0x77, 0xbd, 0x70, 0x6a, 0x21, 0xbe, 0x91, 0x29, 0x95,
  0xbe, 0x21, 0x05, 0xda, 0x3e, 0xb3, 0x60, 0x7c, 0x3e, 0x86, 0x2e, 0xdd, 0xbe,
  0xac, 0xc2, 0xec, 0xbd, 0x4b, 0x8a, 0x9b, 0x3e, 0x75, 0x81, 0xd7, 0xbe, 0x62,
  0x34, 0x03, 0xbf, 0x7b, 0x58, 0x5f, 0xbe, 0x88, 0x5d, 0x6d, 0xbe, 0x81, 0xa7,
  0x38, 0xbf, 0x82, 0x43, 0xe2, 0xbe, 0xfb, 0x52, 0x0d, 0xbf, 0xce, 0x45, 0x60,
  0x3e, 0x53, 0x9c, 0x5b, 0x3e, 0x23, 0x88, 0x31, 0x3f, 0xef, 0xb8, 0xbc, 0x3c,
  0x5d, 0xa8, 0xb6, 0x3d, 0x9e, 0x48, 0x65, 0xbd, 0xc8, 0x73, 0xd7, 0xbc, 0x22,
  0x5a, 0x1b, 0xbd, 0xd8, 0x9d, 0x6c, 0x3e, 0xb5, 0x9c, 0x2e, 0x3e, 0x55, 0xef,
  0x05, 0xbe, 0xa5, 0xe6, 0x2f, 0xbe, 0xb9, 0x54, 0x96, 0x3c, 0x9e, 0x0c, 0x1a,
  0x3e, 0xce, 0xb2, 0x86, 0xbd, 0xa1, 0x2e, 0x96, 0x3c, 0xd8, 0x50, 0xa0, 0x3d,
  0xb6, 0x2f, 0x31, 0xbd, 0x5f, 0x96, 0xae, 0xbd, 0x7c, 0xe8, 0x7d, 0xbc, 0x55,
  0x93, 0x30, 0x3d, 0x4f, 0x9f, 0x3d, 0x3c, 0xe3, 0x1d, 0x2c, 0x3e, 0x0b, 0x57,
  0xcb, 0x3d, 0xcf, 0xd5, 0xe7, 0x3c, 0xf5, 0x3a, 0x0b, 0xbd, 0x85, 0x2f, 0xb3,
  0x3c, 0x06, 0xd1, 0xff, 0xff, 0x04, 0x00, 0x00, 0x00, 0x30, 0x00, 0x00, 0x00,
  0x00, 0x00, 0x00, 0x00, 0x00, 0x00, 0x00, 0x00, 0x00, 0x00, 0x00, 0x00, 0x00,
  0x00, 0x00, 0x00, 0x00, 0x00, 0x00, 0x00, 0x00, 0x00, 0x00, 0x00, 0x00, 0x00,
  0x00, 0x00, 0x00, 0x00, 0x00, 0x00, 0x00, 0x00, 0x00, 0x00, 0x00, 0x00, 0x00,
  0x00, 0x00, 0x00, 0x00, 0x00, 0x00, 0x00, 0x00, 0x00, 0x42, 0xd1, 0xff, 0xff,
  0x04, 0x00, 0x00, 0x00, 0xf0, 0x00, 0x00, 0x00, 0x9e, 0xf9, 0x9a, 0x3d, 0x2c,
  0xc1, 0x60, 0x38, 0x91, 0x46, 0xa5, 0x3d, 0x56, 0x19, 0xb5, 0x3d, 0x20, 0x08,
  0xde, 0xbb, 0xed, 0x63, 0x2e, 0x3c, 0x26, 0xeb, 0x34, 0xba, 0x5e, 0xee, 0x7d,
  0x3e, 0xad, 0xe2, 0xe2, 0x3c, 0xa4, 0xb3, 0xe5, 0xbd, 0x0b, 0x72, 0x2a, 0x3e,
  0x05, 0xcb, 0x2d, 0x3d, 0x6e, 0x58, 0x01, 0xbe, 0xfa, 0xe7, 0x57, 0x3b, 0xf4,
  0x78, 0x02, 0xbf, 0x2e, 0x51, 0xab, 0xbe, 0x39, 0x2e, 0xa9, 0xbd, 0x3f, 0xe9,
  0x08, 0x3e, 0xc3, 0x8b, 0x42, 0x3d, 0x46, 0x9b, 0xf2, 0xbe, 0xd9, 0x53, 0x01,
  0xbd, 0x89, 0x3e, 0x2b, 0xbe, 0xf9, 0x53, 0x01, 0xbe, 0x70, 0x42, 0x7e, 0xbd,
  0x74, 0x16, 0xb6, 0x3c, 0x54, 0xdb, 0x0d, 0x3d, 0x0d, 0x3d, 0x2f, 0x3f, 0x10,
  0x13, 0x07, 0x3f, 0xbf, 0x43, 0x8f, 0x3e, 0x4c, 0x9e, 0x9d, 0xbe, 0x72, 0x2d,
  0x05, 0x3e, 0x3a, 0x32, 0x1d, 0x3f, 0xeb, 0xed, 0x0a, 0x3e, 0xd8, 0xef, 0x2c,
  0x3f, 0xce, 0x17, 0xd7, 0x3e, 0x37, 0x44, 0x87, 0x3e, 0x23, 0x4f, 0x27, 0x3f,
  0x4e, 0x96, 0xe2, 0x3e, 0x29, 0x12, 0xb3, 0xbe, 0x6f, 0x3d, 0x0c, 0xbf, 0x72,
  0xe5, 0x3e, 0xbf, 0x17, 0x3d, 0x1e, 0x3f, 0xeb, 0xc2, 0x41, 0x3f, 0x98, 0xa8,
  0x9e, 0xbe, 0xeb, 0x71, 0xea, 0x3e, 0x30, 0x26, 0x43, 0x3e, 0x47, 0x01, 0xab,
  0x3e, 0x77, 0xf3, 0xdf, 0x3e, 0x7d, 0xb7, 0x28, 0xbf, 0x23, 0x7c, 0xfc, 0xbd,
  0x24, 0xc9, 0x87, 0xbd, 0x95, 0x0f, 0x1b, 0x3e, 0x6a, 0xd0, 0x89, 0x3e, 0x76,
  0xc4, 0x97, 0x3d, 0x16, 0xa4, 0x6d, 0xbe, 0x1c, 0x13, 0x26, 0x3d, 0xb1, 0x84,
  0x83, 0x3c, 0xd8, 0xe2, 0x9b, 0xbd, 0x5f, 0x38, 0x0d, 0x3e, 0x1e, 0x30, 0x6c,
  0x3e, 0x3e, 0xd2, 0xff, 0xff, 0x04, 0x00, 0x00, 0x00, 0x44, 0x01, 0x00, 0x00,
  0x28, 0x31, 0xbc, 0xbe, 0x39, 0x9c, 0x80, 0xbd, 0x35, 0x2b, 0x92, 0x3d, 0x2c,
  0xb8, 0xd2, 0xbc, 0xea, 0x8b, 0x58, 0xbf, 0xb1, 0x36, 0x22, 0xbf, 0x8d, 0xb6,
  0x4a, 0x3e, 0xbb, 0x66, 0x49, 0xbe, 0xd5, 0x4f, 0xb0, 0xbe, 0xad, 0x0a, 0x0a,
  0xbf, 0xf6, 0xa6, 0x99, 0xbe, 0x6b, 0x37, 0xe0, 0x3e, 0x9a, 0x0d, 0xe6, 0xbd,
  0xc9, 0x7d, 0x15, 0x3e, 0xa0, 0x82, 0x03, 0xbf, 0x6b, 0xe0, 0x4d, 0xbe, 0x00,
  0xe2, 0x8c, 0x3d, 0xe4, 0x26, 0xca, 0x3e, 0x3d, 0x57, 0x82, 0xbe, 0xac, 0x31,
  0x5f, 0xbe, 0x56, 0x2e, 0xe7, 0x3e, 0xe7, 0x9a, 0x30, 0x3f, 0xb6, 0x4a, 0x8e,
  0xbd, 0x96, 0xf4, 0xf9, 0xbb, 0x3c, 0xc3, 0x84, 0x3e, 0x0f, 0xc2, 0xb4, 0x3f,
  0xbf, 0x23, 0x1c, 0x3e, 0x6d, 0x11, 0xd3, 0xbe, 0xba, 0x1b, 0x07, 0x3f, 0x28,
  0x36, 0x9c, 0x3e, 0x29, 0x1f, 0x38, 0xbf, 0x6a, 0x1b, 0xa2, 0x3e, 0xd2, 0x76,
  0x6e, 0xbf, 0x15, 0x5b, 0xe9, 0x3e, 0x2b, 0xd9, 0x3b, 0xbe, 0x97, 0xef, 0x29,
  0xbf, 0x6e, 0xc4, 0xc8, 0xbe, 0x6e, 0x34, 0x4a, 0x3f, 0x0e, 0x28, 0x57, 0xbf,
  0x87, 0xc6, 0x2e, 0x3f, 0x7b, 0x1d, 0x73, 0x3e, 0xda, 0x62, 0x59, 0x3b, 0x43,
  0x9d, 0x57, 0xbe, 0x58, 0x7e, 0x5e, 0x3e, 0x53, 0x80, 0xc9, 0xbf, 0xb3, 0xe2,
  0xd7, 0x3d, 0xa8, 0x70, 0x37, 0x3f, 0x93, 0xdf, 0x58, 0xbf, 0x04, 0x8b, 0x4f,
  0xbe, 0x93, 0x89, 0x9d, 0x3e, 0x03, 0x67, 0x0d, 0xbf, 0x60, 0x2d, 0x53, 0xbf,
  0x53, 0x04, 0xd9, 0x3f, 0x26, 0x3d, 0x93, 0xbc, 0x7d, 0x3a, 0x89, 0xbe, 0x82,
  0xda, 0xd0, 0xbc, 0x9f, 0x1e, 0x5b, 0xbf, 0xf3, 0xf0, 0x20, 0x3d, 0x3c, 0x1e,
  0x5e, 0x3f, 0x30, 0x35, 0x69, 0xbe, 0xd5, 0x5c, 0xcb, 0x3e, 0xb4, 0xa3, 0x4c,
  0x3e, 0x6b, 0x2a, 0xb2, 0xbd, 0x94, 0x8f, 0x00, 0xbf, 0x57, 0xee, 0x03, 0xbf,
  0xf0, 0xe3, 0x4d, 0x3f, 0x9a, 0x10, 0xb3, 0xbe, 0x43, 0xa7, 0x40, 0xbe, 0x6a,
  0x97, 0xee, 0x3d, 0x9e, 0x06, 0x71, 0x3f, 0x07, 0x3d, 0x0d, 0xbe, 0x09, 0x59,
  0x09, 0xbc, 0x93, 0x71, 0x7d, 0x3f, 0x9c, 0x26, 0x2f, 0x3d, 0x94, 0x4e, 0xda,
  0xbd, 0x77, 0x80, 0xca, 0xbd, 0xbc, 0xd6, 0x04, 0xbf, 0x2c, 0x53, 0x84, 0xbf,
  0x16, 0x83, 0x8f, 0xbe, 0x51, 0xcc, 0x39, 0xbf, 0x7c, 0x75, 0xb9, 0xbb, 0x8e,
  0xd3, 0xff, 0xff, 0x04, 0x00, 0x00, 0x00, 0xb4, 0x00, 0x00, 0x00, 0xeb, 0x05,
  0xde, 0xbd, 0xa5, 0x2d, 0xec, 0x3e, 0x14, 0x71, 0x00, 0x3f, 0xcd, 0x38, 0xe9,
  0xbd, 0xec, 0xee, 0x71, 0x3d, 0xd3, 0x81, 0xf9, 0x3c, 0x5c, 0x3f, 0xdc, 0xbb,
  0x10, 0x3d, 0x07, 0xbe, 0xc5, 0xc3, 0xc9, 0x3d, 0x01, 0xdb, 0x3b, 0xbd, 0x09,
  0x35, 0xe0, 0xbe, 0x80, 0xdb, 0x0e, 0xbf, 0x10, 0x7d, 0xc0, 0x3e, 0xf5, 0x78,
  0xc9, 0x3e, 0xc7, 0x6a, 0x9d, 0xbe, 0x8e, 0x61, 0x49, 0xbe, 0xa7, 0xfb, 0x43,
  0x3f, 0x8a, 0x9a, 0x30, 0xbf, 0xb3, 0x31, 0x8a, 0xbe, 0xc5, 0xe5, 0x1a, 0x3f,
  0x35, 0x7e, 0xf3, 0x3e, 0xdf, 0xd3, 0x25, 0xbf, 0x4a, 0x96, 0xf4, 0x3e, 0x74,
  0x92, 0xb9, 0xbe, 0x38, 0xae, 0xb4, 0xbd, 0xe7, 0xfb, 0xd2, 0x3e, 0xe7, 0xe3,
  0x16, 0x3f, 0x7a, 0x40, 0x36, 0xbe, 0x8f, 0x28, 0x23, 0xbe, 0xa1, 0x3c, 0xed,
  0xbc, 0x88, 0x51, 0xa9, 0xbd, 0x2c, 0xdf, 0x4c, 0x3e, 0xfc, 0x13, 0x8e, 0xbd,
  0x9f, 0x12, 0x4a, 0xbe, 0x00, 0x5c, 0xf8, 0x3d, 0xa7, 0xac, 0x70, 0x3e, 0x58,
  0x4a, 0xa7, 0xbd, 0xd0, 0xb4, 0x82, 0x3e, 0xdc, 0xa9, 0xc9, 0xbe, 0xfd, 0x92,
  0xdb, 0xbd, 0xf5, 0x95, 0x10, 0x3d, 0xdc, 0xa9, 0x13, 0xbd, 0x30, 0xae, 0xa0,
  0xbe, 0xf0, 0xa7, 0x87, 0xbb, 0xfe, 0x0c, 0x25, 0xbf, 0x4e, 0xd4, 0xff, 0xff,
  0x04, 0x00, 0x00, 0x00, 0xb4, 0x00, 0x00, 0x00, 0xc5, 0x3b, 0xb7, 0x3b, 0x32,
  0x13, 0x0f, 0x3b, 0x9b, 0x51, 0xa8, 0x3b, 0x6f, 0x62, 0xb5, 0x3d, 0x28, 0x33,
  0x16, 0xbe, 0xfb, 0x36, 0xbc, 0x3d, 0x47, 0xd9, 0x6d, 0x3e, 0x6e, 0xc6, 0x10,
  0xbc, 0xcb, 0x41, 0x37, 0x3d, 0xa1, 0xc0, 0x01, 0x3e, 0x7e, 0x8a, 0x7b, 0x3e,
  0xdd, 0x88, 0x44, 0xbe, 0x54, 0x83, 0x3d, 0xbe, 0x70, 0x26, 0x3d, 0xbe, 0xe4,
  0xc6, 0xbb, 0xbe, 0x1d, 0x68, 0xe9, 0xbe, 0x69, 0xe1, 0x8d, 0xbd, 0x74, 0x0e,
  0xc6, 0x3e, 0xa3, 0xba, 0xb3, 0x3e, 0xd8, 0xd9, 0xdf, 0x3e, 0x9a, 0x20, 0xe5,
  0xbe, 0x7d, 0xe4, 0x07, 0xbf, 0xe7, 0xb9, 0xf1, 0xbe, 0x40, 0x31, 0xdf, 0x3e,
  0x41, 0xe4, 0xe5, 0xbe, 0xbe, 0x3c, 0xbb, 0xbe, 0x49, 0x26, 0x09, 0x3f, 0x5d,
  0xed, 0x3c, 0x3f, 0x7b, 0x32, 0x5d, 0x3e, 0xbe, 0xf7, 0x5a, 0xbe, 0xfa, 0xb6,
  0xf0, 0x3c, 0x3f, 0x67, 0x94, 0xbe, 0x21, 0x99, 0x10, 0xbf, 0x0f, 0x54, 0x3d,
  0xbe, 0x37, 0x5c, 0xe1, 0xbe, 0x37, 0x70, 0x8d, 0x3e, 0x9f, 0xbb, 0x88, 0x3d,
  0x55, 0xd7, 0x93, 0x3d, 0x12, 0x60, 0xe0, 0xbc, 0xa3, 0x88, 0x92, 0x3d, 0xe8,
  0x83, 0x75, 0xbd, 0x29, 0xd2, 0xf8, 0xbe, 0x8c, 0xc8, 0xe6, 0xbd, 0x6b, 0xda,
  0x10, 0x3f, 0xb7, 0x48, 0xdf, 0x3b, 0x0e, 0xd5, 0xff, 0xff, 0x04, 0x00, 0x00,
  0x00, 0xb0, 0x01, 0x00, 0x00, 0x5b, 0x43, 0x29, 0x3f, 0x38, 0x54, 0xe6, 0xbe,
  0xbe, 0x48, 0xc2, 0xbe, 0xbe, 0xf4, 0x03, 0xbf, 0x6e, 0x80, 0x93, 0x3e, 0x03,
  0xef, 0x49, 0xbe, 0x0b, 0x28, 0x3a, 0xbe, 0x2c, 0xf0, 0x85, 0x3f, 0xdc, 0x1e,
  0x18, 0x3e, 0x39, 0x28, 0x72, 0x3f, 0x1f, 0xfd, 0x15, 0x3f, 0x8d, 0x3e, 0xb2,
  0xbe, 0x32, 0x88, 0x49, 0x3d, 0x08, 0x3d, 0x9a, 0x3e, 0x63, 0xef, 0x1b, 0x3c,
  0xb2, 0x38, 0x0d, 0xbd, 0x16, 0xa9, 0xd1, 0xbe, 0x5e, 0x36, 0x87, 0xbf, 0x8c,
  0x36, 0xd9, 0x3e, 0x76, 0x87, 0x1c, 0x3f, 0x12, 0x3f, 0xa1, 0x3c, 0x83, 0x51,
  0x96, 0x3e, 0x59, 0x9f, 0x97, 0x3d, 0xf7, 0x7a, 0x1c, 0x3f, 0xd8, 0x49, 0xc4,
  0xbc, 0x46, 0x06, 0x35, 0x3e, 0x67, 0xda, 0x17, 0xbf, 0x43, 0x9b, 0x65, 0x3f,
  0xcd, 0x7b, 0x68, 0xbf, 0x27, 0x14, 0x0d, 0x3f, 0x3c, 0x02, 0xfb, 0xbe, 0xb4,
  0x09, 0x6c, 0x3e, 0x82, 0x59, 0x7e, 0xbf, 0x14, 0x4a, 0xda, 0x3c, 0x45, 0xf7,
  0x2f, 0x3d, 0x8d, 0xca, 0xf0, 0xbd, 0xa1, 0xda, 0x4d, 0xbe, 0xdb, 0x34, 0x90,
  0xbf, 0x82, 0x33, 0x94, 0x3e, 0x4b, 0x37, 0xc4, 0x3e, 0x63, 0xad, 0xaf, 0xbe,
  0x6f, 0x41, 0x16, 0x3f, 0xff, 0x92, 0x4c, 0xbe, 0x16, 0xa0, 0xd8, 0xbd, 0x4a,
  0x88, 0x2d, 0x3c, 0x14, 0xa6, 0xcc, 0x3d, 0x37, 0x28, 0x02, 0xbe, 0xe4, 0xc5,
  0x2b, 0xbf, 0xa2, 0x6e, 0xa2, 0x3e, 0x74, 0x9c, 0x06, 0x3e, 0xc7, 0x7a, 0x46,
  0xbd, 0x8d, 0x03, 0x13, 0x3f, 0xf2, 0x68, 0x4a, 0xbe, 0x00, 0xb3, 0x85, 0x3e,
  0x19, 0xbe, 0x9a, 0x3c, 0x0e, 0x9a, 0xed, 0xbd, 0x68, 0xd4, 0xc9, 0xbf, 0x23,
  0xf4, 0xb0, 0xbc, 0x4e, 0xd8, 0x04, 0xbc, 0x69, 0xd5, 0x21, 0x3d, 0xf4, 0x13,
  0x51, 0xbe, 0xa6, 0xaa, 0xe6, 0xbb, 0xe6, 0x72, 0x35, 0x3f, 0x0d, 0x45, 0x0d,
  0x3e, 0xce, 0x1f, 0x95, 0xbe, 0x46, 0x4f, 0x4e, 0xbb, 0x02, 0x6f, 0xe8, 0x3e,
  0xc0, 0xf3, 0xf5, 0x3e, 0xd6, 0x4a, 0xd5, 0x3c, 0x97, 0xcb, 0xe1, 0x3e, 0xe9,
  0x96, 0xac, 0x3f, 0xe8, 0xc0, 0x9c, 0x38, 0x2a, 0x95, 0x03, 0xbe, 0x2f, 0xd5,
  0x5a, 0x3e, 0x3a, 0x6a, 0x19, 0x3f, 0x00, 0x5d, 0x37, 0x3e, 0x4a, 0x2e, 0xf6,
  0xbc, 0x3a, 0x0a, 0x1c, 0x3f, 0x70, 0x9f, 0x8b, 0xbf, 0xed, 0xf6, 0x87, 0x3e,
  0x9e, 0x1f, 0x02, 0xbf, 0x8c, 0x2c, 0x12, 0xbe, 0x6a, 0xa7, 0xcd, 0xbe, 0x34,
  0x14, 0xb3, 0x3e, 0xf3, 0xad, 0xb5, 0xbd, 0xba, 0x0a, 0xba, 0x3d, 0xa0, 0x35,
  0x52, 0xbe, 0xb0, 0x69, 0x14, 0xbe, 0x8c, 0xe5, 0xa9, 0x3d, 0xb2, 0x97, 0x99,
  0x3d, 0xab, 0xcd, 0x7d, 0xbe, 0x90, 0x2a, 0x02, 0xbf, 0x19, 0xc7, 0xe8, 0x3d,
  0xf1, 0x2f, 0xb9, 0x3f, 0xe2, 0xb0, 0x29, 0xbe, 0x22, 0x87, 0x20, 0xbf, 0xfc,
  0x1e, 0x80, 0x3f, 0x5b, 0xe8, 0x26, 0x3d, 0x94, 0x00, 0x41, 0xbe, 0x8a, 0x1f,
  0x90, 0xbc, 0xc3, 0x06, 0x2a, 0xbe, 0x63, 0xaf, 0xf4, 0xbd, 0x88, 0xc1, 0xcf,
  0x3e, 0xdf, 0xc5, 0x18, 0xbf, 0x6f, 0x67, 0x24, 0x3d, 0x46, 0x40, 0xb5, 0xbe,
  0x7e, 0x17, 0xa0, 0x3d, 0x86, 0x05, 0x75, 0x3e, 0xca, 0xd6, 0xff, 0xff, 0x04,
  0x00, 0x00, 0x00, 0xf0, 0x00, 0x00, 0x00, 0x38, 0xa6, 0x2e, 0x3f, 0x98, 0x2b,
  0x50, 0xbf, 0x73, 0x42, 0x4f, 0x3e, 0x40, 0x08, 0x83, 0xbe, 0x94, 0xc1, 0xe5,
  0xbe, 0x51, 0x91, 0x7a, 0x3d, 0x0d, 0x29, 0x73, 0xbe, 0xc0, 0xb3, 0x85, 0x3e,
  0xf5, 0x01, 0xdb, 0xbe, 0xde, 0xee, 0x0b, 0x3e, 0x25, 0xc8, 0x34, 0x3e, 0xa8,
  0xb3, 0x84, 0xbd, 0xa4, 0x97, 0x2b, 0xbe, 0x96, 0xf7, 0x30, 0x3e, 0xd2, 0x74,
  0x9c, 0x3e, 0x7e, 0x66, 0x54, 0x3f, 0xab, 0xb3, 0x28, 0x3f, 0x52, 0x35, 0xd9,
  0x3e, 0xfe, 0x57, 0xa9, 0xbe, 0x77, 0xf4, 0xc3, 0x3e, 0x59, 0x8d, 0x9f, 0xbe,
  0xe9, 0x6e, 0x1b, 0x3e, 0x66, 0xa4, 0xbe, 0x3e, 0xc4, 0xd6, 0x4d, 0xbe, 0xd5,
  0x72, 0x93, 0x3e, 0x03, 0x8c, 0x1d, 0x3d, 0x11, 0xc5, 0x59, 0x3e, 0x9e, 0x09,
  0xe0, 0x3c, 0x25, 0xf9, 0x5e, 0xbe, 0xa2, 0x8d, 0x39, 0xbf, 0x6a, 0x3f, 0x2b,
  0xbe, 0x8b, 0x28, 0xb9, 0x3d, 0x15, 0x96, 0xda, 0x3e, 0x67, 0xb2, 0x63, 0x3e,
  0x1c, 0x44, 0x36, 0x3e, 0x3a, 0x22, 0xbe, 0xbe, 0x51, 0x96, 0x76, 0x3d, 0xe4,
  0x31, 0x25, 0xbd, 0xd0, 0xba, 0x16, 0x3e, 0x9c, 0x04, 0x56, 0x3e, 0x4e, 0x1e,
  0x83, 0x3c, 0x63, 0x71, 0x1d, 0x3e, 0x09, 0xc8, 0x05, 0x3d, 0x2e, 0xb7, 0x4f,
  0x3e, 0x26, 0x86, 0x29, 0x3f, 0x02, 0xa4, 0x54, 0x3d, 0xb9, 0x6d, 0xa6, 0x3d,
  0xdb, 0xc8, 0x16, 0x3c, 0xdb, 0xe9, 0xd7, 0xbd, 0x8d, 0x03, 0x3d, 0xbc, 0x8b,
  0x98, 0x53, 0xbe, 0xf4, 0xac, 0x23, 0x3e, 0x29, 0xbb, 0x9f, 0x3e, 0x95, 0xf6,
  0x57, 0xbd, 0x15, 0x98, 0x51, 0xbe, 0x99, 0x2f, 0x03, 0xbe, 0xb2, 0x1c, 0xc2,
  0xbe, 0x69, 0xb2, 0x94, 0x3d, 0x74, 0x92, 0xef, 0x3c, 0xe0, 0x1e, 0x16, 0xbe,
  0xc6, 0xd7, 0xff, 0xff, 0x04, 0x00, 0x00, 0x00, 0xf0, 0x00, 0x00, 0x00, 0x1f,
  0x37, 0x0a, 0xbd, 0xc9, 0x52, 0x25, 0x3d, 0x5e, 0x4b, 0x55, 0xbe, 0x00, 0xb2,
  0x49, 0x3d, 0xd1, 0x23, 0xdc, 0xbd, 0x65, 0x7a, 0xea, 0x3c, 0x28, 0x05, 0x53,
  0xbe, 0x49, 0xdf, 0x92, 0xbd, 0x40, 0xc0, 0xc7, 0xbb, 0x8e, 0xbd, 0x75, 0xbe,
  0x90, 0xd2, 0xf8, 0xbe, 0x94, 0x94, 0xd0, 0xbb, 0xfe, 0x3a, 0x6e, 0xbd, 0x4e,
  0xf7, 0x08, 0xbe, 0x1c, 0xc2, 0x82, 0xbe, 0x9a, 0x77, 0x3c, 0xbb, 0x3a, 0xf7,
  0xa2, 0xbd, 0x4f, 0xc1, 0x71, 0xbd, 0xa1, 0xf9, 0x30, 0x3e, 0x53, 0xe5, 0x6b,
  0x3d, 0x41, 0xca, 0x2c, 0xbd, 0x56, 0x94, 0xbd, 0xbe, 0xba, 0x3b, 0x57, 0xbf,
  0x01, 0x95, 0x78, 0x3e, 0x3d, 0x39, 0x7f, 0x3e, 0x14, 0x34, 0x4a, 0x3c, 0xaa,
  0x43, 0x73, 0xbe, 0xb0, 0xe9, 0xff, 0x3d, 0x8a, 0xac, 0xfc, 0xbe, 0xd9, 0x8e,
  0x58, 0x3e, 0xf5, 0xae, 0x17, 0xbf, 0x52, 0x68, 0x2d, 0xbc, 0x0b, 0x48, 0xcf,
  0x3e, 0x36, 0x6d, 0x41, 0xbe, 0xcc, 0x08, 0xc7, 0xbd, 0x7c, 0x80, 0x87, 0x3c,
  0xef, 0xbb, 0xca, 0x3e, 0xb9, 0xc1, 0x2a, 0xbf, 0x7f, 0x17, 0x01, 0x3e, 0x5d,
  0xa4, 0x0e, 0x3f, 0x44, 0xe6, 0x70, 0xbe, 0x7b, 0x66, 0x11, 0x3f, 0xc4, 0xdc,
  0x20, 0xbe, 0x50, 0xf5, 0x49, 0xbf, 0x01, 0x59, 0xcc, 0x3e, 0x16, 0xc5, 0x81,
  0x3e, 0x58, 0x9b, 0xb8, 0x3e, 0x06, 0x86, 0x45, 0xbf, 0x42, 0x01, 0x5c, 0x3d,
  0xee, 0x52, 0x6a, 0xbe, 0x14, 0x47, 0x55, 0xbe, 0x3d, 0x7c, 0x61, 0xbc, 0xd8,
  0x75, 0x5d, 0xbd, 0xe2, 0x56, 0xe0, 0x3d, 0xf4, 0xb4, 0x52, 0xbe, 0x6f, 0xcd,
  0xe2, 0x3e, 0xcd, 0xc1, 0xe3, 0x3d, 0x01, 0xa0, 0x8d, 0x3f, 0x71, 0x5f, 0x0b,
  0xbe, 0xe2, 0xc4, 0x8c, 0xbd, 0xc2, 0xd8, 0xff, 0xff, 0x04, 0x00, 0x00, 0x00,
  0xd0, 0x02, 0x00, 0x00, 0x61, 0x0f, 0x9c, 0xbe, 0xb3, 0x85, 0xa6, 0xbd, 0x30,
  0x55, 0x1c, 0xbf, 0xbf, 0x13, 0x3e, 0x3f, 0x49, 0x8f, 0xe8, 0x3e, 0x3b, 0x5b,
  0x06, 0xbf, 0x33, 0xea, 0x63, 0x3f, 0x7f, 0x21, 0xcb, 0x3e, 0xe3, 0x2d, 0x44,
  0xbf, 0xba, 0xb1, 0x45, 0xbf, 0x8b, 0xe9, 0xc0, 0xbf, 0xa1, 0xdd, 0x03, 0xbf,
  0x3d, 0x1f, 0x44, 0x3e, 0x84, 0xf7, 0x2d, 0xbf, 0x48, 0x02, 0x4d, 0xbf, 0xe0,
  0x8c, 0x52, 0x3f, 0x5d, 0x3b, 0x66, 0x3e, 0xbe, 0xaf, 0x0c, 0xbe, 0xeb, 0x1f,
  0x0e, 0xbe, 0xff, 0xb6, 0x80, 0xbf, 0xee, 0x10, 0x87, 0x3f, 0xd6, 0x8c, 0x86,
  0x3e, 0x95, 0x2e, 0xa1, 0xbd, 0x19, 0x87, 0x85, 0xbf, 0xa7, 0x45, 0x9c, 0xbf,
  0x06, 0x4e, 0x17, 0xbf, 0x3f, 0xb8, 0x73, 0xbe, 0x88, 0x8a, 0x8d, 0xbf, 0x0c,
  0x8a, 0xf5, 0xbe, 0xe7, 0x20, 0x79, 0x3d, 0x47, 0xd3, 0x56, 0xbe, 0x04, 0x7f,
  0x8c, 0xbf, 0x5d, 0x83, 0x80, 0x3f, 0x85, 0x7a, 0x31, 0xbe, 0x65, 0x9d, 0x7d,
  0xbe, 0xe2, 0xdb, 0xe6, 0x3e, 0x9e, 0x7b, 0xe9, 0x3c, 0xa7, 0x9e, 0xe5, 0x3e,
  0xe8, 0x43, 0x29, 0x39, 0x0f, 0x7f, 0xeb, 0xbd, 0xac, 0x32, 0x2c, 0xbf, 0xd9,
  0xb5, 0x64, 0x3e, 0x53, 0x6f, 0xa9, 0xbe, 0x35, 0x67, 0xfc, 0x3d, 0xdd, 0x0b,
  0xef, 0xbe, 0xf1, 0x45, 0xa8, 0x3d, 0x8e, 0xd2, 0x88, 0x3f, 0xab, 0xc8, 0xaa,
  0x3f, 0xd3, 0xca, 0x0c, 0xbe, 0xcb, 0x14, 0xc1, 0xbf, 0xf1, 0xb2, 0xc3, 0x3d,
  0xfa, 0x8a, 0x53, 0xbe, 0x4a, 0x74, 0x66, 0xbd, 0x1a, 0x6d, 0x11, 0xbe, 0xa4,
  0xd6, 0xa4, 0x3f, 0x1f, 0x8e, 0x0a, 0xbf, 0x0a, 0x1e, 0xf9, 0x3e, 0x25, 0x68,
  0x84, 0xbf, 0xd1, 0x9d, 0x62, 0x3c, 0x21, 0x1a, 0x8f, 0xbe, 0x13, 0x06, 0xa3,
  0xbe, 0x8a, 0xe3, 0x23, 0x3f, 0x96, 0xaa, 0xa5, 0xbf, 0x76, 0x57, 0x1f, 0x3f,
  0xe2, 0xd5, 0x65, 0xbf, 0x5e, 0xc8, 0xcb, 0xbe, 0x8e, 0xb5, 0x82, 0xbf, 0x1c,
  0x89, 0x6c, 0xbe, 0xc0, 0xcb, 0xfb, 0x3d, 0x8e, 0x61, 0x34, 0x3d, 0x6b, 0x22,
  0x0c, 0xbe, 0x68, 0xe1, 0xa9, 0xbf, 0x83, 0x22, 0xb3, 0x3f, 0xf7, 0xe2, 0x87,
  0xbf, 0x87, 0x24, 0x03, 0x3e, 0xcd, 0xa8, 0x48, 0x3f, 0xbe, 0x87, 0xad, 0x3e,
  0x9e, 0xa4, 0xb7, 0xbd, 0x40, 0x76, 0xa8, 0xbe, 0xa6, 0x69, 0xd1, 0x3b, 0x11,
  0xa0, 0x48, 0x3d, 0x5a, 0x3f, 0xda, 0x3c, 0x3d, 0x43, 0x8e, 0x3f, 0xc7, 0xb1,
  0x81, 0x3f, 0x6f, 0x50, 0x2b, 0x3e, 0x61, 0xb6, 0x98, 0x3d, 0xc9, 0x07, 0x46,
  0x3f, 0xef, 0xbb, 0x30, 0x3f, 0x73, 0xff, 0x50, 0xbf, 0x92, 0x57, 0xe0, 0x3d,
  0xe6, 0xa0, 0x72, 0x3e, 0x8a, 0x7e, 0x24, 0x3f, 0x97, 0xe2, 0xea, 0xbe, 0xdc,
  0x3d, 0x89, 0xbe, 0x44, 0x2e, 0x9c, 0x3e, 0xb2, 0xe5, 0x37, 0x3f, 0x35, 0x5b,
  0xab, 0xbf, 0x9a, 0x79, 0x52, 0xbf, 0x21, 0xe5, 0x16, 0xbf, 0x32, 0x5e, 0x8e,
  0xbe, 0x06, 0xf6, 0xc5, 0xbe, 0x54, 0x3a, 0x19, 0xbe, 0xea, 0xe9, 0xba, 0xbe,
  0xc0, 0x46, 0xc6, 0xbd, 0x37, 0x76, 0x79, 0x3f, 0xcd, 0x7c, 0x9b, 0xbf, 0x3c,
  0xcd, 0xc0, 0x3e, 0x62, 0x18, 0x9d, 0x3f, 0x90, 0x14, 0x0b, 0x3f, 0x59, 0x79,
  0x97, 0x3e, 0xa4, 0xf6, 0x2d, 0xbe, 0xf8, 0x71, 0x09, 0x3e, 0xba, 0xfe, 0xed,
  0xbc, 0x8a, 0x31, 0x9c, 0x3e, 0x01, 0x7b, 0x19, 0xbf, 0xfe, 0x22, 0x71, 0x3f,
  0x71, 0xf2, 0xb7, 0x3d, 0x71, 0xb2, 0x79, 0xbf, 0x6d, 0xe1, 0x39, 0x3f, 0x55,
  0x65, 0x9f, 0xbf, 0x4d, 0x8e, 0x77, 0x3e, 0x20, 0xc6, 0x15, 0xbf, 0xd7, 0xda,
  0xd2, 0x3e, 0x2e, 0x99, 0x44, 0x3f, 0x1c, 0x3d, 0xae, 0xbc, 0x60, 0xd8, 0x0b,
  0xbf, 0xa7, 0x84, 0x64, 0xbf, 0x83, 0xa5, 0x8a, 0xbf, 0x27, 0xd6, 0x1e, 0xbf,
  0x2e, 0x0d, 0x8c, 0x3d, 0x62, 0xfe, 0x43, 0x3e, 0x2c, 0x29, 0x91, 0xbd, 0x3d,
  0x31, 0xd3, 0xbd, 0xe9, 0xfc, 0xb9, 0xbd, 0xf8, 0x33, 0x38, 0x3f, 0xe7, 0x19,
  0x4c, 0x3f, 0x92, 0xd9, 0x07, 0x3d, 0xcf, 0xaf, 0x2d, 0x3f, 0x38, 0x8e, 0xe3,
  0xbe, 0x23, 0x2e, 0x27, 0xbe, 0x65, 0x26, 0x31, 0xbf, 0x66, 0x73, 0x70, 0x3f,
  0x95, 0x81, 0x6f, 0xbe, 0x60, 0xde, 0x0b, 0xbf, 0x21, 0x55, 0x47, 0x3d, 0xb8,
  0x0c, 0xb5, 0x3e, 0xdc, 0xb3, 0x1b, 0xbe, 0x16, 0x10, 0xd8, 0x3e, 0xe3, 0xe1,
  0x8d, 0x3b, 0xc3, 0x97, 0x7f, 0x3e, 0xff, 0x28, 0x81, 0x3f, 0x8c, 0xd3, 0x15,
  0x3e, 0x93, 0x9d, 0xea, 0xbd, 0xfd, 0xa5, 0xb5, 0xbe, 0x8a, 0x9a, 0xea, 0x3e,
  0x37, 0xfe, 0x5d, 0x3f, 0x1e, 0x02, 0x38, 0x3f, 0xb6, 0x45, 0x86, 0xbe, 0xb3,
  0xd4, 0x33, 0xbe, 0x86, 0x4d, 0x35, 0xbe, 0x16, 0xda, 0x44, 0xbf, 0x14, 0x42,
  0x86, 0x3f, 0xe2, 0xd9, 0xa9, 0x3e, 0xfd, 0x3c, 0xd4, 0x3e, 0x7b, 0xea, 0xb3,
  0x3e, 0xe2, 0xe4, 0x2b, 0xbf, 0x23, 0x58, 0x8f, 0xbf, 0xdb, 0x84, 0x50, 0xbd,
  0xc4, 0x90, 0x84, 0x3f, 0x09, 0xe7, 0x00, 0x3f, 0xf4, 0x0b, 0x6d, 0xbf, 0x74,
  0xf9, 0xc7, 0xbe, 0xf9, 0x71, 0x9d, 0x3e, 0xad, 0xf4, 0x01, 0x3f, 0xa3, 0x6a,
  0x55, 0x3f, 0xdc, 0xb0, 0x9d, 0xbc, 0xb4, 0x61, 0xe3, 0x3d, 0x4d, 0xb1, 0x15,
  0x3f, 0x8c, 0x99, 0x85, 0xbf, 0x74, 0x02, 0x54, 0xbe, 0x9e, 0xdb, 0xff, 0xff,
  0x04, 0x00, 0x00, 0x00, 0x2c, 0x01, 0x00, 0x00, 0x98, 0xcb, 0x1b, 0xbe, 0xef,
  0xdd, 0x50, 0x3d, 0xbc, 0xcd, 0xa2, 0x3d, 0xb7, 0xb4, 0x8c, 0xbe, 0xbd, 0xcb,
  0x97, 0xbd, 0xcf, 0x31, 0xf1, 0xbc, 0xaf, 0x8d, 0xac, 0xbd, 0xcc, 0x74, 0x02,
  0x3f, 0x61, 0x2a, 0x71, 0xbe, 0x88, 0x62, 0x44, 0xbe, 0xca, 0xec, 0x6d, 0x3d,
  0xd9, 0x5b, 0xa7, 0xbd, 0x4a, 0x32, 0xbf, 0xbd, 0x68, 0x8a, 0x2d, 0xbd, 0x70,
  0xf7, 0x9d, 0x3d, 0x6b, 0xf4, 0xfa, 0x3e, 0xb0, 0xa2, 0xe1, 0x3e, 0x99, 0xe1,
  0xe9, 0x3e, 0xe5, 0xf1, 0x72, 0x3e, 0xa3, 0x91, 0x31, 0x3e, 0x19, 0x65, 0xf3,
  0x3c, 0x38, 0xb1, 0x16, 0xbe, 0x46, 0x07, 0x47, 0xbf, 0xfe, 0x5d, 0x7e, 0x3e,
  0xd5, 0x17, 0xcb, 0x3e, 0xbb, 0x13, 0xc5, 0xbe, 0x2d, 0xc2, 0x34, 0x3e, 0xa7,
  0x53, 0x9e, 0xbe, 0xc0, 0x62, 0x23, 0x3f, 0x94, 0xc7, 0x01, 0xbe, 0x48, 0x9d,
  0x2e, 0xbf, 0xeb, 0x39, 0xba, 0xbd, 0xb2, 0x82, 0x49, 0xbf, 0xc5, 0x98, 0x20,
  0xbf, 0xdd, 0x3e, 0xaa, 0xbe, 0x9b, 0x0a, 0xbf, 0xbd, 0xde, 0x42, 0x27, 0xbf,
  0xa5, 0xc3, 0x8f, 0xbe, 0xa0, 0x6f, 0x93, 0xbe, 0xc0, 0x87, 0x1d, 0x3f, 0x53,
  0x34, 0x90, 0x3f, 0xa5, 0x95, 0x23, 0xbf, 0x97, 0xd7, 0xad, 0x3d, 0xb1, 0x41,
  0xb8, 0xbe, 0xf6, 0x61, 0x43, 0xbf, 0xd8, 0xd1, 0xec, 0xbe, 0x6a, 0x5e, 0x9f,
  0x3e, 0xbb, 0x03, 0x7a, 0x3f, 0x74, 0x09, 0x0e, 0x3f, 0x0d, 0xa9, 0x4d, 0xbf,
  0x49, 0x90, 0x6c, 0xbe, 0xde, 0x60, 0xbf, 0xbe, 0xa1, 0x9d, 0x0c, 0x3e, 0x6c,
  0xf6, 0x3c, 0x3e, 0xe1, 0x7e, 0xc7, 0x3d, 0xe6, 0xe6, 0x5a, 0xbf, 0x54, 0x6a,
  0x8c, 0x3e, 0xcf, 0xac, 0x37, 0xbc, 0x3a, 0xc6, 0x34, 0xbf, 0xe0, 0x20, 0x3d,
  0xbe, 0x53, 0xa4, 0x58, 0xbe, 0xc7, 0xb6, 0x98, 0x3e, 0xf5, 0xe7, 0xd6, 0xbd,
  0x41, 0xd3, 0xf0, 0x3e, 0x1a, 0x08, 0x88, 0x3e, 0xfd, 0xb6, 0x81, 0xbe, 0x73,
  0x92, 0x17, 0xbe, 0xbd, 0x3e, 0xe2, 0x3c, 0xbd, 0x0c, 0x32, 0x3f, 0xcc, 0xb2,
  0x49, 0xbe, 0xf6, 0x27, 0xec, 0xbd, 0x76, 0xf6, 0xd5, 0xbe, 0x8c, 0xc1, 0xd6,
  0xbe, 0x5b, 0xa9, 0xa9, 0xbe, 0x4f, 0x44, 0xea, 0x3b, 0xd6, 0xdc, 0xff, 0xff,
  0x04, 0x00, 0x00, 0x00, 0x3c, 0x00, 0x00, 0x00, 0x00, 0x00, 0x00, 0x00, 0x00,
  0x00, 0x00, 0x00, 0x00, 0x00, 0x00, 0x00, 0x00, 0x00, 0x00, 0x00, 0x00, 0x00,
  0x00, 0x00, 0x00, 0x00, 0x00, 0x00, 0x00, 0x00, 0x00, 0x00, 0x00, 0x00, 0x00,
  0x00, 0x00, 0x00, 0x00, 0x00, 0x00, 0x00, 0x00, 0x00, 0x00, 0x00, 0x00, 0x00,
  0x00, 0x00, 0x00, 0x00, 0x00, 0x00, 0x00, 0x00, 0x00, 0x00, 0x00, 0x00, 0x00,
  0x00, 0x00, 0x00, 0x1e, 0xdd, 0xff, 0xff, 0x04, 0x00, 0x00, 0x00, 0x2c, 0x01,
  0x00, 0x00, 0xfd, 0x58, 0x57, 0xbe, 0x4a, 0x5e, 0x61, 0x3e, 0xa9, 0x73, 0x55,
  0x3e, 0xd1, 0x76, 0x4c, 0x3e, 0xff, 0x6d, 0x67, 0x3c, 0xf6, 0x39, 0xa9, 0xbc,
  0x91, 0x2d, 0x10, 0xbe, 0xf8, 0x00, 0x66, 0x3e, 0x75, 0xb6, 0xab, 0x3d, 0x44,
  0xd8, 0xde, 0x3d, 0x09, 0x1e, 0x8c, 0xbe, 0x99, 0x52, 0x2c, 0xbe, 0x36, 0x67,
  0xcb, 0xbc, 0xbd, 0x54, 0xae, 0x3c, 0x2b, 0x1b, 0xca, 0x3c, 0x09, 0x9e, 0x1a,
  0x3f, 0x8b, 0x17, 0xbf, 0xbd, 0xaf, 0xd4, 0x09, 0x3f, 0x2e, 0x9b, 0x0c, 0x3d,
  0xec, 0x22, 0x6c, 0xbc, 0xf0, 0xe5, 0x65, 0x3e, 0xc1, 0x60, 0x24, 0xbf, 0xfc,
  0xa7, 0x24, 0xbd, 0x56, 0xef, 0x60, 0xbe, 0xe3, 0xe9, 0xa6, 0x3d, 0xfd, 0xed,
  0x9c, 0x3e, 0x53, 0x84, 0x8a, 0xbe, 0x65, 0x7a, 0xf4, 0xbd, 0xc8, 0x73, 0xb9,
  0x3c, 0xcf, 0xac, 0x98, 0xbe, 0x3f, 0x52, 0x02, 0xbe, 0xff, 0x4d, 0x0f, 0x3e,
  0xfa, 0xd5, 0xcb, 0x3e, 0x91, 0x24, 0x3c, 0x3f, 0x04, 0xce, 0xdf, 0x3e, 0x09,
  0x22, 0x0c, 0xbf, 0x69, 0xdb, 0x0c, 0x3f, 0x97, 0xb6, 0x32, 0x3f, 0x15, 0x49,
  0x6e, 0x3e, 0x01, 0xb8, 0x6a, 0xbf, 0xd6, 0x7a, 0x95, 0x3e, 0xa1, 0x8d, 0x84,
  0xbe, 0x19, 0xdd, 0xc8, 0xbe, 0x8a, 0x35, 0x9d, 0x3e, 0x8b, 0x85, 0xef, 0xbe,
  0xd4, 0x7a, 0x1e, 0x3f, 0x4b, 0xd6, 0x14, 0x3f, 0x1d, 0x5d, 0xef, 0x3e, 0xff,
  0x3c, 0x1a, 0x3f, 0xf3, 0xdc, 0x26, 0x3f, 0x76, 0x6c, 0x04, 0x3f, 0x23, 0xff,
  0x0c, 0x3f, 0xe2, 0x5c, 0x44, 0x3f, 0xec, 0x5c, 0x3c, 0x3f, 0xc7, 0xc6, 0xb4,
  0xbd, 0x07, 0x7f, 0x02, 0x3f, 0xae, 0x21, 0x67, 0x3e, 0xf3, 0x5a, 0xd3, 0xbe,
  0xe0, 0x34, 0x42, 0x3f, 0x7c, 0xfc, 0xc0, 0xbe, 0xc7, 0x68, 0x26, 0xbe, 0x29,
  0x49, 0x5a, 0xbc, 0x36, 0x70, 0xf7, 0x3d, 0xa6, 0xdd, 0x27, 0xbc, 0x31, 0x8b,
  0xa7, 0x3b, 0x74, 0x18, 0x7b, 0xbf, 0x28, 0xcd, 0xa1, 0xbd, 0xb3, 0x94, 0x47,
  0x3e, 0xc6, 0x15, 0x25, 0x3d, 0x52, 0x71, 0xa3, 0xbd, 0x11, 0x2c, 0x7b, 0x3d,
  0x5c, 0x2e, 0x1d, 0x3f, 0xa1, 0x10, 0x43, 0xbe, 0x76, 0xfd, 0xc2, 0xbe, 0xd2,
  0x78, 0xb5, 0xbe, 0x56, 0xde, 0xff, 0xff, 0x04, 0x00, 0x00, 0x00, 0x40, 0x02,
  0x00, 0x00, 0xe1, 0x3a, 0xfa, 0xbd, 0x26, 0x95, 0x49, 0xbf, 0xea, 0x8b, 0x56,
  0xbe, 0xbd, 0x47, 0x35, 0x3e, 0x09, 0xfa, 0x7f, 0xbf, 0x6c, 0x0b, 0x22, 0x3e,
  0xb6, 0x38, 0x0b, 0x3f, 0x95, 0x20, 0xa4, 0xbe, 0x87, 0xec, 0x38, 0x3c, 0x67,
  0x59, 0x6f, 0x3e, 0xd7, 0x91, 0xad, 0x3e, 0x69, 0x80, 0x22, 0x3f, 0x03, 0xf3,
  0xcb, 0xbe, 0xca, 0x22, 0x2c, 0x3f, 0x5a, 0xf7, 0x40, 0xbf, 0x16, 0xd6, 0x9d,
  0xbe, 0xd3, 0x7b, 0x0f, 0xbf, 0xf2, 0xb2, 0xa0, 0x3f, 0x0d, 0x37, 0x8b, 0x3e,
  0x46, 0x12, 0xa7, 0xbf, 0x79, 0x15, 0x05, 0xbf, 0xa0, 0x68, 0x34, 0x3f, 0xb9,
  0x13, 0xc5, 0x3d, 0x56, 0x45, 0xe5, 0x3e, 0xdc, 0x84, 0xa1, 0xbf, 0x7f, 0x14,
  0x00, 0x3f, 0xeb, 0x7c, 0xb4, 0xbd, 0xd5, 0xbc, 0xa2, 0x3f, 0xb5, 0x58, 0x29,
  0x3f, 0xb7, 0x1e, 0x12, 0xbd, 0xf1, 0x53, 0x69, 0xbd, 0x46, 0x1e, 0x9b, 0xbc,
  0x43, 0xcf, 0xa1, 0x3e, 0x7c, 0x45, 0xb6, 0xbe, 0xed, 0xb7, 0xe8, 0xbe, 0x79,
  0xb9, 0x57, 0xbe, 0x4f, 0x89, 0x13, 0x3e, 0x63, 0x61, 0xf4, 0x3e, 0x41, 0x74,
  0xc0, 0x3e, 0xe1, 0x0c, 0x9d, 0xbe, 0x79, 0xbd, 0xb3, 0xbe, 0xcf, 0x71, 0xb5,
  0x3e, 0x2a, 0x71, 0x81, 0xbd, 0x44, 0x34, 0xe9, 0x3e, 0xfc, 0xc7, 0xe4, 0xbe,
  0x6c, 0x7f, 0x02, 0x3f, 0xb6, 0x09, 0xd6, 0xbf, 0x06, 0x0c, 0xd0, 0x3d, 0xab,
  0xc9, 0x53, 0x3d, 0xa9, 0xcf, 0x73, 0x3e, 0x24, 0x62, 0x92, 0xbf, 0xf8, 0xba,
  0xc3, 0xbe, 0xc7, 0x9f, 0x7c, 0xbd, 0x00, 0xe5, 0x6e, 0xbf, 0x2e, 0xbe, 0x4a,
  0x3f, 0x9c, 0x5d, 0x87, 0xbf, 0x39, 0x49, 0x63, 0xbf, 0x78, 0x29, 0x61, 0x3e,
  0x8d, 0xe6, 0x28, 0x3f, 0x7f, 0xae, 0xd9, 0x3e, 0xfe, 0x57, 0x3e, 0x3e, 0xbd,
  0xc1, 0x36, 0x3e, 0x0c, 0x67, 0x84, 0xbf, 0x19, 0x8f, 0x00, 0x3f, 0xaf, 0x62,
  0x39, 0x3f, 0xb4, 0xe1, 0x58, 0x3f, 0xc9, 0xdd, 0x7b, 0xbb, 0xff, 0xaf, 0x52,
  0xbf, 0x3b, 0xcd, 0xae, 0x3e, 0xd1, 0xed, 0x8c, 0xbf, 0xd2, 0x83, 0x8d, 0xbc,
  0x9d, 0x1e, 0x1e, 0xbf, 0xdd, 0xcc, 0x39, 0xbd, 0x1c, 0x36, 0x58, 0x3f, 0x0b,
  0x84, 0x87, 0x3d, 0x95, 0xe6, 0x33, 0xbd, 0xef, 0xf1, 0xcf, 0xbd, 0xea, 0xf3,
  0xcb, 0xbe, 0x74, 0x08, 0x47, 0x3f, 0xfa, 0x6a, 0x3b, 0xbe, 0x9b, 0xaf, 0x85,
  0x3d, 0x36, 0x0e, 0xf6, 0x3e, 0xf7, 0x22, 0x1a, 0x3f, 0xb8, 0xd9, 0x11, 0x3f,
  0xfe, 0x5c, 0xb8, 0x3d, 0xd2, 0x52, 0xc0, 0x3e, 0x5d, 0x66, 0x63, 0xbe, 0x7e,
  0xd7, 0x75, 0x3e, 0xd7, 0x5b, 0x6e, 0x3f, 0x40, 0x1b, 0xc5, 0xbe, 0xed, 0x5b,
  0x81, 0xbf, 0x5e, 0xab, 0x6a, 0xbe, 0x82, 0xde, 0x54, 0x3f, 0xfa, 0x4c, 0x65,
  0x3d, 0x7b, 0x5d, 0x97, 0x3d, 0xaa, 0xb5, 0x97, 0xbf, 0x8b, 0x39, 0xd7, 0xbd,
  0x15, 0x47, 0x30, 0x3e, 0x2d, 0x0f, 0x3b, 0x3e, 0x5c, 0xc9, 0xe7, 0xbd, 0xb4,
  0x2f, 0x98, 0xbe, 0x59, 0x5c, 0xbf, 0xbd, 0x99, 0x49, 0x9f, 0xbe, 0x62, 0x91,
  0x84, 0x3e, 0x93, 0xbc, 0x18, 0xbb, 0x86, 0xe5, 0x74, 0x3f, 0x86, 0x75, 0x40,
  0x3f, 0x54, 0x32, 0xa3, 0xbe, 0x60, 0x4f, 0xb8, 0x3f, 0x3c, 0x7f, 0x41, 0xbf,
  0x78, 0xc2, 0x2c, 0x3f, 0x99, 0x46, 0x8c, 0xbe, 0x0c, 0x4d, 0xab, 0x3d, 0xfa,
  0xaf, 0x90, 0xbd, 0x57, 0xdb, 0xb5, 0xbd, 0x18, 0xb9, 0x16, 0x3f, 0x93, 0xd8,
  0x4e, 0x3f, 0x21, 0x90, 0x6f, 0x3e, 0x21, 0xbc, 0x59, 0xbd, 0x4d, 0x30, 0x75,
  0xbe, 0x90, 0x4b, 0x1e, 0xbd, 0x9e, 0x10, 0x77, 0xbf, 0x2f, 0xd3, 0xa8, 0x3e,
  0x56, 0xf9, 0x45, 0x3f, 0xf7, 0x15, 0x92, 0x3f, 0xcb, 0xd4, 0x02, 0xbf, 0xf6,
  0x75, 0xb8, 0xbf, 0x07, 0x71, 0x49, 0xbe, 0x1c, 0x75, 0x0e, 0x3f, 0x15, 0x98,
  0x8c, 0x3c, 0xda, 0xa6, 0x99, 0x3d, 0x28, 0x21, 0x18, 0xbf, 0x4e, 0x57, 0x4d,
  0xbf, 0x5a, 0x70, 0xbb, 0x3c, 0xc7, 0x57, 0xb6, 0x3e, 0x18, 0xa3, 0x80, 0x3d,
  0x57, 0x7e, 0x20, 0xbf, 0x07, 0xd5, 0x06, 0xbf, 0x17, 0x8f, 0x42, 0x3d, 0xdd,
  0xa7, 0x74, 0x3f, 0xd0, 0x79, 0x62, 0xbe, 0x0f, 0x6e, 0x13, 0x3f, 0x4f, 0xd6,
  0x4b, 0x3f, 0x0e, 0xbb, 0x0d, 0xbd, 0xa2, 0xe0, 0xff, 0xff, 0x04, 0x00, 0x00,
  0x00, 0xf0, 0x00, 0x00, 0x00, 0x33, 0xd8, 0x82, 0xbd, 0xbb, 0xb9, 0x7f, 0x3e,
  0x68, 0xee, 0xee, 0xbc, 0xd0, 0xab, 0xc9, 0x3c, 0x38, 0xc4, 0xfa, 0x3d, 0x12,
  0x61, 0x8f, 0x3b, 0x57, 0x9b, 0x2d, 0x3e, 0xb4, 0x32, 0xb6, 0xbd, 0xe5, 0x01,
  0x3b, 0x3d, 0x96, 0x65, 0x0f, 0xbe, 0x66, 0x67, 0x27, 0x3f, 0x6d, 0xe3, 0x37,
  0x3d, 0xca, 0x27, 0xf3, 0xbd, 0xfa, 0xd3, 0xd0, 0xbb, 0xf2, 0xd5, 0x43, 0xbd,
  0xde, 0x4a, 0xa7, 0xbe, 0xa0, 0xc7, 0x1f, 0xbe, 0xe5, 0xad, 0x98, 0xbe, 0xbc,
  0xb4, 0x06, 0xbf, 0x4e, 0x8c, 0x71, 0x3c, 0x3e, 0xc0, 0xcf, 0x3d, 0x0c, 0x8e,
  0x36, 0xbe, 0xa3, 0x96, 0x82, 0x3f, 0xa3, 0x8c, 0x00, 0xbe, 0xa6, 0x89, 0xbf,
  0xbc, 0x93, 0x86, 0xb2, 0x3e, 0x59, 0x08, 0x51, 0xbf, 0x47, 0xcb, 0xa6, 0x3e,
  0xe3, 0x78, 0x43, 0xbf, 0x9f, 0x2e, 0x65, 0x3f, 0x95, 0xef, 0x46, 0x3f, 0x0a,
  0xe2, 0x63, 0x3f, 0xb9, 0xab, 0x89, 0xbf, 0xe0, 0x06, 0x8f, 0x3f, 0xa7, 0xed,
  0xbe, 0xbe, 0xd9, 0x6a, 0x3b, 0x3f, 0x29, 0x0f, 0x4d, 0xbf, 0xc5, 0xb1, 0xa6,
  0x3d, 0x11, 0xe3, 0x6a, 0xbe, 0x04, 0x1b, 0x49, 0xbf, 0xa7, 0x77, 0x6a, 0x3c,
  0x88, 0x10, 0x15, 0x3e, 0xc3, 0xce, 0x04, 0x3e, 0x2d, 0xab, 0xd1, 0x3e, 0xd0,
  0x67, 0xcb, 0x3e, 0xe7, 0x19, 0xd3, 0x3e, 0xd6, 0x23, 0xe2, 0xbe, 0x48, 0x3c,
  0x44, 0xbd, 0x57, 0xa6, 0x2a, 0x3e, 0x9a, 0xd1, 0x7d, 0x3e, 0x51, 0xe7, 0xd7,
  0x3d, 0x4b, 0xc2, 0x42, 0x3e, 0x7e, 0xf3, 0xd3, 0x3d, 0x78, 0x64, 0xb8, 0xbd,
  0x16, 0x07, 0x22, 0x3c, 0x0a, 0x48, 0xce, 0xbd, 0xad, 0xe3, 0x1c, 0xbe, 0x30,
  0x96, 0xdd, 0xbd, 0x1c, 0x20, 0x62, 0x3d, 0x98, 0x9b, 0x2c, 0x3d, 0x9e, 0xe1,
  0xff, 0xff, 0x04, 0x00, 0x00, 0x00, 0xf0, 0x00, 0x00, 0x00, 0x9c, 0x63, 0xa3,
  0xbe, 0x3b, 0xd7, 0xb9, 0x3e, 0x2e, 0xab, 0x17, 0xbe, 0x98, 0x6d, 0x18, 0xbc,
  0xfe, 0xba, 0x0f, 0xbf, 0xe5, 0x56, 0xcc, 0x3d, 0xb0, 0xc0, 0x4b, 0xbe, 0xbe,
  0x63, 0xa9, 0xbd, 0x52, 0x32, 0xce, 0xbd, 0xe0, 0x13, 0x2e, 0xbd, 0x04, 0x33,
  0x60, 0xbd, 0xb1, 0x54, 0xac, 0x3c, 0x96, 0xe6, 0xa0, 0x3e, 0x1e, 0xd3, 0x25,
  0x3f, 0xe1, 0xff, 0xe1, 0x3d, 0x6b, 0xb2, 0xab, 0xbd, 0x32, 0xbc, 0x70, 0xbe,
  0x15, 0xb4, 0x07, 0xbf, 0x54, 0x2e, 0x15, 0x3f, 0x07, 0x5e, 0x78, 0x3d, 0x08,
  0x50, 0x27, 0xbe, 0x75, 0x46, 0x9e, 0x3c, 0x62, 0xf7, 0x76, 0xbe, 0x94, 0x4e,
  0xde, 0xbe, 0xf4, 0xcd, 0x66, 0xbf, 0x73, 0xaf, 0x08, 0x3f, 0xbb, 0xe9, 0x2f,
  0x3f, 0x4d, 0x25, 0x73, 0x3f, 0x68, 0x16, 0x2e, 0x3f, 0x4b, 0x02, 0x5a, 0xbe,
  0x63, 0x4b, 0xaa, 0xbe, 0x73, 0x1f, 0x22, 0x3f, 0x22, 0x31, 0x26, 0x3f, 0x0a,
  0xb7, 0x2d, 0xbf, 0x4a, 0x66, 0x87, 0xbe, 0xff, 0x89, 0x55, 0x3f, 0xaa, 0xf7,
  0x9b, 0xbe, 0xac, 0xc5, 0x6b, 0x3e, 0x64, 0x41, 0xad, 0x3d, 0x7d, 0x7a, 0xf8,
  0x3d, 0x90, 0x19, 0xca, 0xbe, 0x5a, 0xeb, 0x53, 0x3e, 0x7d, 0x34, 0x0c, 0xbf,
  0xdc, 0x90, 0xff, 0x3a, 0x6f, 0xb1, 0x9b, 0x3e, 0x01, 0x73, 0xbb, 0x3c, 0xc3,
  0x3d, 0xdb, 0xbe, 0x0a, 0xd5, 0x34, 0x3e, 0x97, 0x7e, 0x64, 0x3d, 0xea, 0x3f,
  0x0c, 0x3d, 0x0a, 0x3b, 0xb4, 0x3d, 0x0a, 0xa0, 0x06, 0xbe, 0x79, 0xaa, 0x0b,
  0x3e, 0xa6, 0x3d, 0xb8, 0xbd, 0x5d, 0x64, 0x62, 0xbd, 0x5a, 0x32, 0xe3, 0x3c,
  0xbf, 0x05, 0xe7, 0xbd, 0xe0, 0xc8, 0x83, 0xbd, 0xfb, 0x37, 0x0b, 0x3d, 0xf9,
  0xc2, 0x8f, 0xbd, 0x9a, 0xe2, 0xff, 0xff, 0x04, 0x00, 0x00, 0x00, 0xd0, 0x02,
  0x00, 0x00, 0x49, 0x21, 0xb5, 0x3f, 0x77, 0x94, 0x70, 0x3f, 0xd0, 0xec, 0x5c,
  0xbf, 0xe4, 0x3b, 0x43, 0xbe, 0x94, 0xba, 0xe9, 0x3e, 0x8b, 0xd1, 0x85, 0x3e,
  0xb8, 0x2f, 0xbf, 0xbe, 0x8c, 0xc7, 0x0d, 0xbb, 0x33, 0x16, 0x6f, 0xbe, 0x43,
  0x4d, 0xf6, 0x3e, 0x98, 0x3a, 0x0e, 0xbe, 0x8b, 0x68, 0xbb, 0xbd, 0xc3, 0x7e,
  0xf5, 0xbe, 0x0d, 0x33, 0xbd, 0x3d, 0xad, 0xdb, 0xc9, 0x3e, 0x9b, 0x29, 0x0a,
  0x3e, 0x99, 0xc3, 0x5b, 0x3f, 0x41, 0xb2, 0x8e, 0x3e, 0xa7, 0xb5, 0x53, 0x3e,
  0xa2, 0xab, 0x99, 0x3e, 0xd5, 0x57, 0x15, 0x3e, 0x86, 0x84, 0xf4, 0xbf, 0xd9,
  0xa0, 0xa2, 0xbd, 0x2d, 0x86, 0x19, 0x3e, 0x0b, 0xde, 0x42, 0xbd, 0xcc, 0x3b,
  0x16, 0x3e, 0x73, 0x86, 0x69, 0x3e, 0xdb, 0xe4, 0x55, 0x3e, 0xd3, 0xaf, 0x33,
  0xbd, 0xd2, 0x63, 0x0d, 0x40, 0x38, 0x8a, 0x6b, 0x3d, 0x63, 0x26, 0xa3, 0xbe,
  0xc3, 0x31, 0xa3, 0x3e, 0xab, 0xab, 0xd6, 0x3f, 0xf8, 0x42, 0x35, 0xbe, 0x18,
  0x85, 0xb6, 0x3d, 0xd7, 0xa3, 0x85, 0x3e, 0x49, 0x6d, 0x29, 0xbf, 0x55, 0x98,
  0x21, 0x3e, 0xc2, 0x54, 0x86, 0x3e, 0xdf, 0x5f, 0x81, 0x3e, 0x7a, 0x1e, 0xc0,
  0x3f, 0xa0, 0x24, 0x9c, 0xbe, 0x8f, 0xc4, 0x1a, 0x3f, 0x85, 0x24, 0xf3, 0x3d,
  0x27, 0x00, 0x9c, 0x3d, 0x79, 0x87, 0xfb, 0x3d, 0xf8, 0x74, 0x1f, 0xbf, 0x2e,
  0x58, 0xb5, 0x3d, 0xe9, 0x86, 0xb6, 0x3d, 0x26, 0x85, 0x83, 0xbe, 0xf3, 0xc3,
  0xb0, 0xbe, 0xf3, 0x5b, 0x00, 0x3e, 0xa2, 0x72, 0x4a, 0xbe, 0xea, 0x65, 0xca,
  0x3f, 0x93, 0x52, 0xec, 0x3e, 0x72, 0xce, 0x33, 0x3e, 0xe9, 0x3a, 0xcc, 0xbf,
  0x92, 0x09, 0xec, 0xbe, 0x16, 0xee, 0x96, 0x3f, 0x4e, 0x08, 0x01, 0xbf, 0xa5,
  0xf4, 0x82, 0xbe, 0xa3, 0x43, 0xb2, 0x3e, 0xfe, 0x43, 0x3a, 0xbe, 0x15, 0x51,
  0xec, 0xbd, 0x21, 0x54, 0x9c, 0xbe, 0x30, 0x19, 0x02, 0xbf, 0xf0, 0x65, 0x44,
  0x3d, 0xce, 0x05, 0x5b, 0xbd, 0xdd, 0xc7, 0x13, 0x3f, 0x23, 0x3b, 0x00, 0xbe,
  0x2e, 0x36, 0xc5, 0x3d, 0x67, 0x5d, 0x8a, 0xbe, 0xa5, 0xf4, 0xcd, 0xbe, 0xde,
  0x4a, 0x5d, 0xbf, 0xa8, 0x79, 0x36, 0xbf, 0x57, 0x8f, 0x95, 0xbe, 0xe5, 0xc8,
  0x39, 0x3f, 0xbd, 0x91, 0x99, 0xbf, 0xc6, 0x41, 0x21, 0x3f, 0xde, 0xd7, 0x32,
  0x40, 0x0b, 0xf3, 0x46, 0x3e, 0x5f, 0xe2, 0x1e, 0xbe, 0xcc, 0x49, 0x3e, 0x3f,
  0x4e, 0x05, 0x63, 0x3e, 0x12, 0x42, 0xc4, 0x3f, 0x92, 0x9d, 0x7a, 0x3f, 0x39,
  0xfa, 0xbb, 0xbe, 0x2b, 0x75, 0xb0, 0x3d, 0xba, 0xc6, 0x23, 0xbe, 0x9b, 0x7e,
  0x87, 0x3f, 0x7d, 0x60, 0x84, 0x3f, 0xb2, 0x19, 0x3e, 0xbf, 0x28, 0x63, 0xed,
  0xbc, 0x41, 0x57, 0x32, 0x3e, 0xba, 0x52, 0x03, 0x3f, 0x9b, 0x6d, 0x01, 0x3f,
  0x39, 0x3b, 0x50, 0x3e, 0x11, 0xa1, 0x98, 0xbd, 0x93, 0xb8, 0x7b, 0x3f, 0x58,
  0xb1, 0x52, 0x3f, 0x38, 0x52, 0x08, 0x3f, 0x8c, 0xec, 0x2c, 0x3f, 0xc0, 0xda,
  0x44, 0xbe, 0xd3, 0xdc, 0x86, 0xbf, 0xe8, 0x0d, 0x17, 0x3f, 0x52, 0x43, 0xfe,
  0xbc, 0x45, 0xee, 0x6b, 0x3e, 0xe5, 0xba, 0xe6, 0x3f, 0x06, 0x9b, 0x25, 0xbc,
  0x69, 0xfd, 0xa5, 0xbf, 0x1d, 0x26, 0x57, 0x3c, 0xf9, 0x1e, 0x2b, 0xbf, 0x41,
  0xf9, 0x01, 0xbf, 0x57, 0x74, 0x68, 0x3e, 0x74, 0x2f, 0x41, 0xbf, 0x2b, 0xe3,
  0xca, 0x3f, 0xbc, 0x93, 0x12, 0xbf, 0x4d, 0x6c, 0x42, 0x3d, 0xd4, 0xcb, 0xbe,
  0x3e, 0x9b, 0x96, 0x88, 0xbe, 0x8b, 0x0e, 0xf5, 0x3e, 0xb8, 0xaf, 0xcd, 0xbe,
  0xef, 0xf4, 0x04, 0xbe, 0x23, 0xdf, 0xd3, 0xbe, 0x15, 0xad, 0xee, 0x3e, 0xa4,
  0x70, 0x6a, 0x3e, 0x39, 0xcd, 0xaf, 0x3d, 0x8f, 0xe4, 0xa6, 0xbf, 0x9a, 0x53,
  0x7e, 0xbf, 0x79, 0x8e, 0xbb, 0xbf, 0x4c, 0x58, 0xae, 0xbd, 0x7e, 0x4c, 0xbd,
  0xbc, 0x8a, 0xd7, 0xd9, 0x3d, 0xf2, 0x46, 0x11, 0xbf, 0xac, 0xb4, 0x41, 0xbe,
  0x75, 0xab, 0x73, 0x3c, 0x39, 0x44, 0xf7, 0x3e, 0x79, 0x15, 0x9f, 0x3e, 0x7b,
  0x6d, 0xc4, 0x3f, 0x54, 0x9e, 0x91, 0xbe, 0xe7, 0x8e, 0x18, 0x3e, 0x38, 0x87,
  0x97, 0x3f, 0x71, 0xd0, 0x2c, 0xbd, 0x55, 0x5a, 0xa4, 0x3c, 0x40, 0x6a, 0x2a,
  0xbf, 0x41, 0x4c, 0x2a, 0xbf, 0x52, 0x2d, 0xc6, 0xbe, 0x3f, 0x8d, 0x46, 0x3f,
  0x74, 0xa5, 0xbc, 0x3e, 0xba, 0x3f, 0x18, 0x3f, 0x3d, 0x93, 0x34, 0xbe, 0x93,
  0x5d, 0xc4, 0xbe, 0x63, 0x45, 0x92, 0xbe, 0x6f, 0xb3, 0x0e, 0x3e, 0xbb, 0x19,
  0xf0, 0x3e, 0xc5, 0xf8, 0x30, 0xbe, 0xdc, 0xad, 0xa0, 0xbf, 0xcb, 0x27, 0x6c,
  0xbe, 0xc0, 0x35, 0xd9, 0xbd, 0x31, 0xd3, 0x20, 0xbc, 0x55, 0xae, 0xec, 0x3d,
  0x38, 0x0b, 0xc5, 0xbe, 0x48, 0x23, 0x9b, 0xbf, 0xc4, 0x46, 0x06, 0xbe, 0xae,
  0xba, 0x0c, 0x3e, 0x03, 0x5f, 0x06, 0xbe, 0xff, 0x14, 0x26, 0x3f, 0xd0, 0x78,
  0x53, 0xbe, 0xba, 0x57, 0x10, 0xbf, 0x2a, 0xe5, 0x6c, 0x3e, 0x6b, 0x3e, 0x5c,
  0x3f, 0x86, 0x66, 0x9e, 0xbe, 0xf4, 0x9c, 0xa0, 0x3f, 0x6c, 0x10, 0xe2, 0x3f,
  0x27, 0x79, 0xd0, 0x3e, 0x8f, 0x26, 0x6f, 0x3e, 0x7f, 0x46, 0xc7, 0x3e, 0x70,
  0x86, 0x5c, 0x3f, 0xc2, 0xa1, 0x0c, 0x3f, 0x76, 0xe5, 0xff, 0xff, 0x04, 0x00,
  0x00, 0x00, 0x2c, 0x01, 0x00, 0x00, 0x34, 0x35, 0xbc, 0xbd, 0x90, 0xbd, 0x86,
  0xbd, 0x1b, 0xa6, 0x0e, 0xbd, 0x61, 0xbd, 0xc8, 0x3d, 0x0f, 0xc3, 0xcf, 0xbc,
  0x6c, 0x2b, 0x5b, 0xbe, 0xfc, 0x24, 0xbc, 0x3d, 0x04, 0x0e, 0x61, 0xbc, 0xac,
  0x7e, 0xd8, 0x3d, 0xc3, 0xe8, 0x24, 0x3c, 0x25, 0x59, 0x89, 0xbe, 0x62, 0xac,
  0x4a, 0x3e, 0xff, 0x2d, 0xcf, 0x3c, 0x38, 0x81, 0xdb, 0xbc, 0x46, 0xb5, 0x78,
  0xbb, 0xe3, 0x8b, 0xd7, 0x3c, 0xa2, 0xfe, 0x69, 0xbd, 0xda, 0x47, 0x31, 0x3d,
  0xa7, 0x93, 0x34, 0x3d, 0x01, 0x42, 0xa6, 0xbd, 0x15, 0x4c, 0x30, 0xbd, 0xeb,
  0x69, 0x51, 0xbe, 0xef, 0xce, 0x0b, 0xbf, 0x43, 0x34, 0x49, 0x3d, 0xc7, 0x8a,
  0x5b, 0x3d, 0x38, 0xd4, 0xd0, 0x3c, 0x9d, 0x41, 0xbc, 0x3e, 0x37, 0xfe, 0xa1,
  0x3c, 0xe4, 0x0f, 0xbd, 0x3e, 0x79, 0x3e, 0x92, 0x3d, 0x4b, 0xcf, 0x8f, 0xbe,
  0xb3, 0x0f, 0x92, 0xbe, 0xec, 0x07, 0xa6, 0xbe, 0x2c, 0x49, 0x1c, 0x3f, 0xa4,
  0xd8, 0x2a, 0xbb, 0x06, 0xea, 0x0f, 0xbe, 0x34, 0x59, 0x03, 0xbf, 0xbb, 0x56,
  0x73, 0xbe, 0xa3, 0xdf, 0x94, 0x3e, 0xdd, 0x82, 0x8e, 0x3e, 0x3c, 0xaa, 0x2a,
  0xbe, 0x9f, 0xfd, 0xca, 0x3e, 0x4e, 0x4b, 0xae, 0x3e, 0xa6, 0x8f, 0xa3, 0xbe,
  0x2b, 0x31, 0x91, 0x3e, 0x7d, 0x29, 0x41, 0xbe, 0xbc, 0x14, 0x08, 0xbf, 0x1f,
  0xd7, 0x25, 0xbf, 0xbf, 0x8c, 0x0c, 0xbe, 0x15, 0x4d, 0x8e, 0xbd, 0x80, 0xba,
  0xf3, 0xbe, 0xe2, 0xf3, 0xd3, 0xbe, 0x44, 0xfc, 0x77, 0x3f, 0xbd, 0x8e, 0xd6,
  0x3e, 0xb8, 0xf4, 0xf1, 0x3e, 0xaf, 0x7f, 0xc4, 0xbe, 0x2b, 0x6d, 0x0c, 0xbf,
  0x8e, 0x11, 0x5d, 0x3f, 0x54, 0x24, 0x7a, 0x3f, 0x8c, 0x7f, 0x04, 0x3f, 0x59,
  0x40, 0x55, 0xbe, 0xda, 0x9a, 0x12, 0xbe, 0xb6, 0x50, 0x46, 0xbe, 0xe7, 0xab,
  0xfd, 0xbe, 0x11, 0x8c, 0x20, 0xbf, 0x1d, 0x58, 0xf0, 0xbd, 0x1e, 0xd4, 0x3e,
  0xbe, 0xa4, 0x95, 0x9b, 0x3e, 0x28, 0x86, 0x33, 0xbd, 0x3d, 0x7c, 0x54, 0x3e,
  0xff, 0xe3, 0x53, 0xbe, 0xc1, 0xda, 0xe1, 0xbe, 0x41, 0xf5, 0x6f, 0xbd, 0x7f,
  0x36, 0x00, 0x3f, 0x11, 0x2d, 0x79, 0x3e, 0xae, 0xe6, 0xff, 0xff, 0x04, 0x00,
  0x00, 0x00, 0x2c, 0x01, 0x00, 0x00, 0xe1, 0xd7, 0x6b, 0x3e, 0xbc, 0xb3, 0x4e,
  0x3e, 0x3c, 0x02, 0xf8, 0x3e, 0x18, 0x1f, 0x54, 0x3e, 0x1d, 0x6e, 0x23, 0xbe,
  0x0b, 0x1e, 0x86, 0x3d, 0xaf, 0xf1, 0x94, 0xbe, 0x35, 0x61, 0xa4, 0xbd, 0xdd,
  0x85, 0x08, 0xbd, 0xe3, 0xc2, 0xa4, 0x3d, 0x28, 0xb6, 0x85, 0x3e, 0x5d, 0x50,
  0x7f, 0xbe, 0x7c, 0x23, 0x0e, 0x3c, 0x8b, 0x9f, 0x00, 0xbd, 0xb8, 0x61, 0x14,
  0xbe, 0x7e, 0xe9, 0x31, 0xbf, 0x6d, 0x52, 0x2f, 0xbf, 0x47, 0xfe, 0x80, 0xbe,
  0x54, 0x0f, 0x51, 0xbe, 0x98, 0x9a, 0x8c, 0xbb, 0xdb, 0x1c, 0xcb, 0xbc, 0xe1,
  0xa4, 0x49, 0x3f, 0x65, 0x2b, 0x46, 0x3c, 0x9d, 0xf8, 0xe7, 0xbb, 0x1f, 0x7a,
  0x28, 0x3e, 0x82, 0x63, 0x88, 0x3e, 0x19, 0x13, 0x8e, 0xbc, 0x44, 0xcf, 0x3f,
  0xbe, 0xa1, 0x2c, 0x41, 0xbe, 0xa3, 0x0e, 0xfb, 0x3e, 0xd4, 0x6a, 0x2e, 0xbf,
  0x33, 0x3f, 0x0f, 0xbc, 0x75, 0xa8, 0x45, 0xbf, 0x6e, 0xe7, 0x2b, 0x3f, 0xe7,
  0xd2, 0x0f, 0xbf, 0xee, 0x46, 0x11, 0x3c, 0x04, 0x2b, 0xb0, 0x3d, 0xc9, 0xfe,
  0x1a, 0xbf, 0x3d, 0xfd, 0x74, 0x3f, 0xb2, 0x67, 0x79, 0x3e, 0x61, 0xc3, 0xf8,
  0xbb, 0x50, 0xa9, 0xf9, 0xbe, 0xef, 0x81, 0x02, 0x3f, 0x8b, 0x04, 0x54, 0xbe,
  0x92, 0x71, 0x62, 0xbf, 0xfb, 0x69, 0xc7, 0x3e, 0xa3, 0xc0, 0x81, 0x3f, 0xe7,
  0x93, 0x23, 0x3e, 0x13, 0xcd, 0x2f, 0xbf, 0x99, 0x19, 0x02, 0xbe, 0x0c, 0x8f,
  0xf3, 0x3e, 0x15, 0x86, 0x8f, 0x3b, 0x12, 0x11, 0xec, 0xbe, 0x92, 0xff, 0x26,
  0x3e, 0x3d, 0x00, 0x73, 0x3f, 0xce, 0xde, 0x00, 0x3f, 0x23, 0x09, 0x9f, 0xbe,
  0x95, 0x85, 0x89, 0x3f, 0xcb, 0x24, 0xa5, 0xbe, 0x3c, 0xc7, 0x59, 0x3f, 0x29,
  0xc2, 0x43, 0xbc, 0x47, 0x71, 0xa9, 0xbe, 0x02, 0xe7, 0x84, 0xbe, 0xc3, 0xb2,
  0x4f, 0xbe, 0xe6, 0xd8, 0xce, 0xbd, 0x3c, 0x2e, 0xcc, 0x3e, 0xa7, 0xfa, 0x3a,
  0xbf, 0xab, 0x89, 0x50, 0x3d, 0x70, 0xb5, 0x4e, 0xbf, 0x6f, 0x6c, 0x5c, 0xbe,
  0xac, 0x4a, 0x89, 0x3e, 0xd5, 0x53, 0x1e, 0x3d, 0x27, 0x9c, 0xb1, 0xbe, 0x96,
  0x63, 0x19, 0xbe, 0xcf, 0xc4, 0xe0, 0xbe, 0xe6, 0xe7, 0xff, 0xff, 0x04, 0x00,
  0x00, 0x00, 0xb0, 0x04, 0x00, 0x00, 0xc7, 0x1b, 0x12, 0xbf, 0x2c, 0xfd, 0x60,
  0xbb, 0xbf, 0x6e, 0x7c, 0xbf, 0x37, 0xb5, 0x18, 0x3f, 0x7a, 0xb5, 0x11, 0xc0,
  0x36, 0x86, 0x00, 0xc0, 0x81, 0x26, 0x8e, 0xbe, 0xd2, 0x81, 0xd4, 0xbf, 0xb0,
  0xfa, 0x95, 0xbf, 0xd0, 0x64, 0xc3, 0xbe, 0x35, 0x39, 0xdf, 0xbf, 0x1a, 0x21,
  0x9e, 0xbf, 0xd3, 0xe5, 0x4f, 0xbf, 0x9c, 0x0a, 0xf2, 0x3e, 0x91, 0x82, 0x14,
  0xbf, 0x91, 0xca, 0x46, 0x3f, 0x43, 0xad, 0x52, 0x3d, 0x94, 0x3e, 0xdf, 0x3e,
  0x22, 0x23, 0xd4, 0x3f, 0x2d, 0xb8, 0xc7, 0xbf, 0xef, 0x5a, 0x87, 0xbc, 0x90,
  0xc9, 0x71, 0x3f, 0x18, 0x8c, 0x2d, 0xbf, 0xeb, 0x90, 0xff, 0xbe, 0xcf, 0x56,
  0xd9, 0x3f, 0x6e, 0x8c, 0x84, 0xbb, 0xf8, 0xaf, 0xdf, 0xbf, 0x87, 0x7e, 0x3a,
  0xbf, 0x2a, 0xee, 0x67, 0xbf, 0xf0, 0x3e, 0x86, 0x3e, 0x1d, 0x90, 0x9d, 0x3d,
  0xdf, 0x69, 0x17, 0x3e, 0xe8, 0x4c, 0xea, 0xbe, 0x35, 0x02, 0xa2, 0x3f, 0xf4,
  0x60, 0x60, 0xbf, 0x7c, 0x8a, 0x0b, 0xbe, 0x9b, 0x99, 0x7e, 0xbf, 0x6a, 0x24,
  0x36, 0xbe, 0x51, 0x3d, 0x99, 0x3d, 0xa9, 0x60, 0x0f, 0x3f, 0xbb, 0x8b, 0xa0,
  0x3d, 0x16, 0xe1, 0x85, 0x3e, 0xa9, 0xc2, 0xc8, 0xbf, 0x78, 0xc3, 0x9c, 0x3f,
  0x25, 0x10, 0x36, 0x3f, 0x42, 0xda, 0xc0, 0xbe, 0xc3, 0xe7, 0x1b, 0xbf, 0x44,
  0x75, 0x74, 0x3c, 0x4a, 0x1e, 0xca, 0xbf, 0xfa, 0xbb, 0xb3, 0x3f, 0x67, 0xea,
  0x13, 0xbf, 0x77, 0xb0, 0x05, 0xc0, 0xc2, 0x5e, 0xbe, 0x3e, 0xe4, 0x8f, 0x81,
  0x3f, 0x99, 0x94, 0x2b, 0x3f, 0x5c, 0x25, 0x41, 0xbe, 0xce, 0xd4, 0xe3, 0xb9,
  0x65, 0x89, 0x2c, 0xbe, 0x00, 0x98, 0x0c, 0x3e, 0x4e, 0x23, 0x8a, 0x3f, 0xb3,
  0xc8, 0x84, 0xbb, 0xb8, 0xc1, 0x67, 0xbf, 0xe2, 0xaa, 0xe6, 0x3e, 0x1f, 0xa3,
  0x9e, 0xbf, 0xe0, 0xe8, 0x30, 0xbe, 0xc0, 0x7f, 0xc4, 0x3f, 0x14, 0x6c, 0xdd,
  0xbd, 0xf4, 0x06, 0x09, 0xbf, 0x12, 0xcf, 0x1b, 0x3e, 0x40, 0x0b, 0x60, 0x3f,
  0x9d, 0x6e, 0x93, 0xbf, 0x6f, 0x20, 0x19, 0xbe, 0x38, 0x47, 0x20, 0xc0, 0x08,
  0x9f, 0x82, 0xbd, 0xf4, 0xad, 0xf1, 0xbd, 0x1f, 0x96, 0xb1, 0xbf, 0xc4, 0x71,
  0x13, 0x3e, 0xa7, 0x76, 0x12, 0xc0, 0x83, 0x59, 0xd3, 0xbd, 0x59, 0x2f, 0x73,
  0xbf, 0x47, 0xcb, 0x8b, 0xbf, 0xb8, 0xb4, 0xad, 0xbf, 0xbe, 0x5d, 0xb2, 0xbf,
  0xc4, 0x72, 0x23, 0xbe, 0xee, 0xb8, 0xd2, 0xbf, 0x93, 0x45, 0x05, 0x3f, 0xc1,
  0xdb, 0x0e, 0xbe, 0xff, 0x92, 0x01, 0x3e, 0x22, 0x76, 0x91, 0xbe, 0x30, 0x5d,
  0x50, 0x3e, 0x6e, 0xe8, 0x1e, 0x40, 0x60, 0x6b, 0x05, 0x40, 0x21, 0xa1, 0xa2,
  0xbf, 0xce, 0x3b, 0x4f, 0x3e, 0x8b, 0x83, 0x97, 0x3e, 0x0e, 0x00, 0x3e, 0x3f,
  0x79, 0x47, 0xf6, 0x3e, 0xd5, 0x7f, 0x7d, 0xbf, 0x62, 0x58, 0x09, 0xbf, 0xe9,
  0xd0, 0x59, 0x3e, 0x8f, 0x59, 0xca, 0xbe, 0x7f, 0xbc, 0xda, 0x3e, 0x31, 0xf6,
  0x94, 0xbf, 0x8c, 0x69, 0x1a, 0x3e, 0xe0, 0x2e, 0x19, 0x40, 0x37, 0x06, 0x0d,
  0x3f, 0x7c, 0x34, 0xcb, 0xbe, 0xaf, 0xa8, 0x90, 0xbe, 0x9b, 0x67, 0xab, 0x3e,
  0xa0, 0x8a, 0xcc, 0xbe, 0xdf, 0x89, 0x2e, 0x3f, 0xc1, 0xa1, 0xc1, 0x3f, 0x74,
  0x29, 0x92, 0x3f, 0x8e, 0x1a, 0x73, 0x3e, 0xa9, 0xd6, 0x8b, 0x3f, 0x64, 0xc0,
  0x88, 0x3f, 0x29, 0xf6, 0xc4, 0x3d, 0xa2, 0x32, 0x1d, 0xbe, 0x2d, 0x56, 0x15,
  0x3f, 0xee, 0xd1, 0x6d, 0xbf, 0x25, 0xcb, 0xbc, 0xbc, 0x62, 0xa3, 0xa1, 0xbe,
  0x81, 0xe2, 0x81, 0x3e, 0xd4, 0x57, 0x29, 0xbe, 0x68, 0x1f, 0xe0, 0x3f, 0x72,
  0x4d, 0xe8, 0x3e, 0x80, 0x0d, 0x3b, 0x3e, 0xe7, 0xcb, 0x3b, 0xbe, 0x73, 0xb0,
  0x20, 0x3f, 0x08, 0xed, 0xe0, 0xbe, 0xe8, 0x1c, 0xa7, 0x3f, 0x1e, 0x84, 0x85,
  0xbe, 0xeb, 0xac, 0x7a, 0xbf, 0x86, 0x25, 0xf9, 0xbd, 0xdb, 0xc2, 0xe3, 0x3e,
  0x1e, 0xc3, 0xa7, 0xbd, 0x47, 0xf4, 0xad, 0xbe, 0x65, 0x02, 0x75, 0xbe, 0x39,
  0xef, 0x42, 0xbf, 0xf6, 0xfa, 0x6e, 0x3f, 0x3d, 0x9d, 0xb0, 0x3e, 0x43, 0xf3,
  0x53, 0xbe, 0xa1, 0x87, 0xab, 0x3f, 0x70, 0x73, 0xe6, 0x3f, 0x68, 0x92, 0x30,
  0x3f, 0xfb, 0xf6, 0xd3, 0x3f, 0x94, 0xfe, 0x38, 0x3f, 0x1b, 0xdd, 0xa1, 0xbf,
  0x41, 0x8f, 0xd8, 0xbf, 0x92, 0xd2, 0x1f, 0xbf, 0xc9, 0x5a, 0x41, 0x3f, 0xd6,
  0xc4, 0xd3, 0x3e, 0x97, 0x13, 0x2d, 0x3e, 0xff, 0xe5, 0x48, 0x3f, 0x8c, 0x3d,
  0x86, 0x3f, 0xff, 0xb3, 0xd0, 0x3e, 0x41, 0x5a, 0xc4, 0x3e, 0xbf, 0x69, 0xd8,
  0x3e, 0xbc, 0x70, 0xd0, 0xbe, 0x5f, 0xe2, 0x08, 0x3f, 0xfb, 0x8d, 0x64, 0x3e,
  0x5e, 0x3f, 0x9e, 0x3f, 0xb1, 0x34, 0xc5, 0x3f, 0x8c, 0xd6, 0x20, 0xbf, 0xf4,
  0x58, 0x19, 0x3e, 0xdc, 0x45, 0x0b, 0xc0, 0x4d, 0x94, 0x0e, 0x3f, 0x5e, 0x29,
  0x58, 0xbf, 0x50, 0x13, 0x0e, 0xbf, 0xa6, 0xb0, 0xb6, 0xbf, 0x98, 0x09, 0xc8,
  0x3d, 0x6d, 0x85, 0xc6, 0x3f, 0x45, 0xb1, 0x2a, 0x3f, 0x30, 0x81, 0xf0, 0x3e,
  0xdd, 0x1d, 0xa8, 0xbf, 0xee, 0x88, 0x1c, 0x3f, 0xe2, 0x8f, 0x53, 0xbe, 0x22,
  0x8a, 0x79, 0xbe, 0x72, 0x7b, 0xb4, 0x3f, 0x33, 0x26, 0x9a, 0x3e, 0xd9, 0xa5,
  0x5d, 0xbf, 0x26, 0xdb, 0xa0, 0xbe, 0xc5, 0x6c, 0x13, 0xbf, 0xfb, 0x71, 0x8a,
  0xbf, 0x27, 0x58, 0x12, 0x40, 0xa3, 0x69, 0x45, 0xbd, 0xb7, 0xfc, 0xca, 0xbe,
  0xc6, 0x57, 0xca, 0xbf, 0xe8, 0x04, 0x99, 0xbe, 0x1a, 0x62, 0xca, 0x3f, 0xbb,
  0x2e, 0x84, 0xbf, 0x50, 0x32, 0x25, 0xbf, 0xd1, 0x1c, 0xc1, 0x3e, 0xcb, 0x36,
  0xe2, 0x3e, 0x07, 0xf6, 0x83, 0x3f, 0x12, 0x43, 0x96, 0x3f, 0x35, 0x0c, 0x5f,
  0xbe, 0xff, 0x17, 0x89, 0xbe, 0x8f, 0xfd, 0xb0, 0xbe, 0xde, 0x84, 0x93, 0x3f,
  0xcf, 0x68, 0x21, 0x3f, 0x8e, 0xd0, 0xdb, 0xbe, 0xaa, 0xaa, 0xae, 0x3e, 0xaa,
  0x42, 0x8d, 0x3f, 0xd0, 0x7f, 0x15, 0x3f, 0xd8, 0xf9, 0x7b, 0xbf, 0x0b, 0x5c,
  0xc0, 0xbf, 0x11, 0x9a, 0x49, 0x3d, 0xd9, 0xdb, 0x2a, 0xbe, 0xe0, 0xdb, 0x90,
  0x3d, 0x6d, 0x05, 0x87, 0x3f, 0x8c, 0x17, 0x71, 0xbf, 0xfe, 0x29, 0xaa, 0x3e,
  0x35, 0xc7, 0x25, 0xbf, 0x28, 0x8b, 0x9e, 0xbe, 0xb1, 0xbf, 0xe0, 0xbe, 0xed,
  0x2f, 0x9a, 0xbe, 0xaa, 0x9e, 0xa5, 0xbf, 0xaa, 0x30, 0x0f, 0xc0, 0x88, 0x66,
  0xb2, 0x3f, 0xfa, 0x34, 0x83, 0xbf, 0xdf, 0xb1, 0xb7, 0xbc, 0x4e, 0x52, 0xe0,
  0xbe, 0x33, 0x5d, 0x7f, 0x3f, 0x67, 0x80, 0x73, 0xbe, 0xc3, 0x19, 0x6a, 0x3f,
  0x98, 0xd9, 0x9b, 0xbf, 0x6b, 0x89, 0x71, 0x3d, 0xf2, 0x0d, 0x8e, 0x3d, 0xe2,
  0x7d, 0xb4, 0x3e, 0xf6, 0x07, 0x26, 0xc0, 0x9f, 0x1e, 0xb1, 0xbf, 0x06, 0x8f,
  0xf7, 0xbe, 0x0a, 0x84, 0x75, 0x3e, 0xb8, 0x02, 0x45, 0x3e, 0xe7, 0xeb, 0x2f,
  0xbf, 0xa2, 0xad, 0x88, 0x3c, 0x51, 0x09, 0xd7, 0x3f, 0xea, 0x26, 0x35, 0xc0,
  0xb0, 0x7e, 0x94, 0xbf, 0x76, 0x3d, 0x07, 0xbf, 0xae, 0xe1, 0x32, 0xbe, 0xd4,
  0xa2, 0xef, 0xbf, 0x23, 0xc7, 0x15, 0x3f, 0x56, 0xe0, 0x1b, 0x40, 0x41, 0x52,
  0x43, 0xbf, 0x6f, 0x74, 0x4c, 0xbf, 0x1e, 0x53, 0x7e, 0xbf, 0x6a, 0x7c, 0xd2,
  0xbe, 0xcb, 0x9c, 0x22, 0x3f, 0x68, 0xdf, 0xbd, 0xbe, 0x47, 0xde, 0x7c, 0xbf,
  0x1f, 0xce, 0xb7, 0x3f, 0xf5, 0x19, 0x11, 0xbc, 0x0e, 0x35, 0xa3, 0x3d, 0xd6,
  0x5d, 0x83, 0xbe, 0x06, 0xeb, 0x9d, 0xbd, 0x79, 0x59, 0x5a, 0xbe, 0x3d, 0x07,
  0xa8, 0x3f, 0x2d, 0x82, 0x25, 0xbe, 0x39, 0x6f, 0x14, 0xbe, 0x50, 0x6f, 0x60,
  0x3f, 0x6d, 0xe8, 0xcf, 0xbf, 0x77, 0x79, 0x67, 0xbc, 0xbe, 0x36, 0x87, 0xc0,
  0x6a, 0xfa, 0xa7, 0xbf, 0xa8, 0x09, 0xa4, 0xbf, 0x7d, 0xd9, 0x10, 0x3f, 0xb3,
  0xd0, 0x3b, 0xbe, 0x83, 0x7e, 0xb8, 0x3f, 0x84, 0x06, 0x19, 0xc0, 0x23, 0x8d,
  0x63, 0xbf, 0xc5, 0x97, 0xdf, 0xbe, 0xd3, 0x7f, 0x51, 0x3f, 0xd6, 0xe4, 0x08,
  0xbf, 0xda, 0xe1, 0x78, 0xbf, 0xb2, 0xc2, 0x3e, 0xbf, 0x1e, 0x84, 0x92, 0xbd,
  0xdb, 0x2c, 0xc5, 0xbd, 0xa1, 0x48, 0x92, 0xbe, 0xff, 0xf7, 0x09, 0x3f, 0x61,
  0x4f, 0x97, 0xbe, 0x23, 0x0e, 0xbb, 0xbd, 0x9f, 0x3c, 0xb5, 0x3f, 0xb1, 0xde,
  0xda, 0xbf, 0x03, 0xc4, 0xda, 0x3e, 0x7a, 0xed, 0x85, 0xbe, 0x20, 0x77, 0xa0,
  0xbf, 0x73, 0x0f, 0x8d, 0x3e, 0x80, 0xcc, 0xd4, 0xbe, 0x3f, 0x5c, 0x69, 0xbf,
  0x70, 0x57, 0x89, 0x3f, 0xff, 0x9c, 0xf1, 0x3f, 0x8c, 0x63, 0xa4, 0xbf, 0xcd,
  0x8e, 0x87, 0x3f, 0x26, 0x42, 0xb0, 0xbe, 0x64, 0x11, 0x77, 0x3f, 0xb1, 0xed,
  0xd8, 0xbe, 0xd4, 0xbe, 0x82, 0x3e, 0xef, 0x94, 0xf8, 0xbf, 0xa2, 0xec, 0xff,
  0xff, 0x04, 0x00, 0x00, 0x00, 0x90, 0x01, 0x00, 0x00, 0xec, 0xeb, 0x77, 0x3f,
  0xea, 0xfe, 0x5a, 0xbf, 0xc1, 0x45, 0xb6, 0xbd, 0x23, 0x23, 0xb1, 0x3e, 0xc1,
  0x92, 0x30, 0x3f, 0x02, 0x87, 0x5c, 0x3f, 0xa9, 0xca, 0x09, 0xbe, 0xd2, 0x48,
  0xea, 0xbe, 0x89, 0x2e, 0x1c, 0xbd, 0x07, 0x30, 0x87, 0xbe, 0xf3, 0x5d, 0x69,
  0x3f, 0xc8, 0xbf, 0x0c, 0x3f, 0x42, 0x07, 0xe4, 0x3f, 0x59, 0xd6, 0xe8, 0xbe,
  0x5c, 0xdd, 0x1a, 0x3d, 0xa6, 0xad, 0xd7, 0x3d, 0xf6, 0xd6, 0xf7, 0xbe, 0x90,
  0xa3, 0x4a, 0xbe, 0xb9, 0xd7, 0x65, 0xbf, 0x6d, 0x38, 0x19, 0x3f, 0x16, 0x03,
  0x5f, 0xbf, 0xaa, 0x6f, 0x42, 0x3f, 0x0f, 0x50, 0x61, 0x3f, 0xf1, 0xed, 0x05,
  0x3f, 0xbf, 0x81, 0x17, 0x3f, 0xa9, 0x35, 0xed, 0x3e, 0x40, 0x05, 0x71, 0xbf,
  0x6c, 0xd5, 0xa0, 0xbe, 0x8a, 0xbf, 0x54, 0x3f, 0xda, 0x3a, 0x28, 0x3f, 0x48,
  0x77, 0x03, 0xc0, 0x16, 0xca, 0xb0, 0x3f, 0xcc, 0xab, 0x9c, 0xbf, 0xd7, 0x8c,
  0x8d, 0x3f, 0x06, 0x5e, 0x6c, 0x3e, 0x6a, 0xbc, 0x28, 0x3e, 0xe7, 0x45, 0x42,
  0x3f, 0xd4, 0x1f, 0xf7, 0x3e, 0x00, 0x9c, 0x1b, 0xbf, 0xc5, 0xbe, 0x06, 0x3f,
  0x17, 0xd6, 0x7f, 0xbe, 0xd2, 0xe2, 0x14, 0xbe, 0xec, 0x6d, 0x52, 0x3f, 0x07,
  0x88, 0x98, 0xbf, 0xd7, 0xc0, 0xaa, 0xbd, 0x69, 0x21, 0xa1, 0xbf, 0x2b, 0xbb,
  0x67, 0xbd, 0x7a, 0xda, 0x1b, 0xbf, 0x16, 0x0e, 0x4e, 0x3f, 0xd2, 0x82, 0x78,
  0x3f, 0xa1, 0xd1, 0xd7, 0x3e, 0x81, 0x3e, 0x50, 0xbf, 0x07, 0xc9, 0x0c, 0xbf,
  0x48, 0xd0, 0x05, 0xbf, 0xa5, 0x63, 0x9f, 0xbf, 0xcb, 0xf4, 0x4a, 0xbf, 0x8d,
  0xd2, 0xed, 0xbe, 0xe7, 0x9e, 0x77, 0x3f, 0xb8, 0x89, 0x25, 0x3e, 0x7b, 0xbc,
  0x4f, 0xbf, 0x28, 0xae, 0x09, 0x3f, 0xd1, 0xb5, 0xcc, 0x3e, 0xb8, 0xbe, 0x95,
  0x3f, 0x93, 0xf8, 0x07, 0xbf, 0xdb, 0x03, 0xd9, 0xbf, 0x50, 0x14, 0x18, 0x3e,
  0x0e, 0xa2, 0x8a, 0x3e, 0xa5, 0x81, 0x90, 0x3e, 0xc9, 0xb3, 0x1f, 0x3f, 0x94,
  0x49, 0xb8, 0x3f, 0x6f, 0x76, 0xb3, 0x3e, 0x82, 0x39, 0xd5, 0xbc, 0x9a, 0x9d,
  0xf9, 0xbe, 0xfd, 0x5e, 0x51, 0xbd, 0x1d, 0x9d, 0x06, 0x3f, 0xb3, 0x79, 0x31,
  0xbe, 0xe6, 0x3b, 0x8d, 0xbe, 0x35, 0x53, 0x5c, 0x3e, 0x3a, 0xb1, 0x03, 0x3f,
  0x76, 0xc5, 0x58, 0xbf, 0x5c, 0xa6, 0xde, 0xbd, 0x4d, 0x87, 0x90, 0xbe, 0xb1,
  0x49, 0xbd, 0x3e, 0x4b, 0x97, 0xee, 0xbe, 0xf0, 0xdd, 0x83, 0x3f, 0x88, 0xb7,
  0x9a, 0x3f, 0x51, 0x0b, 0x24, 0x3e, 0x41, 0xc4, 0xf6, 0xbe, 0x25, 0x59, 0x2e,
  0xbf, 0x5d, 0xd1, 0x41, 0x3f, 0x9d, 0x9d, 0x34, 0xbf, 0x0c, 0x3f, 0x52, 0xbf,
  0xdb, 0xb4, 0xd2, 0x3e, 0xb0, 0x6a, 0x3a, 0x3d, 0x81, 0x8b, 0x80, 0x3e, 0x6d,
  0x4c, 0x2c, 0xbf, 0xbf, 0x2b, 0xd6, 0x3e, 0x93, 0xa3, 0x9d, 0x3e, 0x35, 0xee,
  0x0f, 0x3f, 0xa8, 0xa6, 0xea, 0x3e, 0x3e, 0xee, 0xff, 0xff, 0x04, 0x00, 0x00,
  0x00, 0x50, 0x00, 0x00, 0x00, 0x00, 0x00, 0x00, 0x00, 0x00, 0x00, 0x00, 0x00,
  0x00, 0x00, 0x00, 0x00, 0x00, 0x00, 0x00, 0x00, 0x00, 0x00, 0x00, 0x00, 0x00,
  0x00, 0x00, 0x00, 0x00, 0x00, 0x00, 0x00, 0x00, 0x00, 0x00, 0x00, 0x00, 0x00,
  0x00, 0x00, 0x00, 0x00, 0x00, 0x00, 0x00, 0x00, 0x00, 0x00, 0x00, 0x00, 0x00,
  0x00, 0x00, 0x00, 0x00, 0x00, 0x00, 0x00, 0x00, 0x00, 0x00, 0x00, 0x00, 0x00,
  0x00, 0x00, 0x00, 0x00, 0x00, 0x00, 0x00, 0x00, 0x00, 0x00, 0x00, 0x00, 0x00,
  0x00, 0x00, 0x00, 0x00, 0x00, 0x00, 0x00, 0x9a, 0xee, 0xff, 0xff, 0x04, 0x00,
  0x00, 0x00, 0x90, 0x01, 0x00, 0x00, 0x63, 0xb2, 0xaf, 0x3c, 0x7c, 0xfa, 0xb0,
  0xbc, 0x46, 0x6a, 0xa2, 0x3f, 0x2c, 0xd7, 0xff, 0xbb, 0xff, 0x74, 0xa7, 0xbe,
  0xe0, 0xc2, 0x97, 0x3f, 0xf0, 0xe6, 0x69, 0x3f, 0xd8, 0xf4, 0x66, 0x3e, 0x63,
  0xff, 0x8f, 0x3e, 0xdd, 0x11, 0x5d, 0x3f, 0x79, 0x8d, 0x4a, 0x3d, 0x18, 0x26,
  0xe1, 0x3d, 0x4b, 0x43, 0xc1, 0x3e, 0x88, 0x3c, 0x72, 0xbe, 0x0d, 0x15, 0xf1,
  0xbd, 0x34, 0xe0, 0xb2, 0x3e, 0x4c, 0xb7, 0xa0, 0x3e, 0xe7, 0x47, 0xc0, 0x3d,
  0xc6, 0xff, 0xae, 0xbe, 0xc2, 0x6a, 0x0b, 0xbf, 0x59, 0x02, 0xe1, 0x3e, 0x8b,
  0x7d, 0x6d, 0x3e, 0x85, 0x80, 0xe7, 0x3e, 0xc3, 0x3b, 0xe4, 0xbe, 0x89, 0xb6,
  0x1d, 0xc0, 0xe1, 0x21, 0x72, 0x3f, 0xfb, 0xb8, 0x1d, 0xbe, 0x63, 0x4d, 0xb2,
  0xbe, 0xbb, 0x01, 0x1f, 0x3d, 0x92, 0xe7, 0x0b, 0xbe, 0xd8, 0x94, 0x48, 0xbe,
  0x93, 0x90, 0xa0, 0xbe, 0x64, 0x14, 0x54, 0xbd, 0x7c, 0xca, 0xd4, 0x3e, 0x47,
  0xcb, 0x96, 0xbf, 0xd3, 0x11, 0x84, 0xbf, 0x3b, 0xed, 0x21, 0xbf, 0x18, 0x7e,
  0xe7, 0xbd, 0xc8, 0xe9, 0xe5, 0x3f, 0x3b, 0x96, 0x57, 0xbf, 0x05, 0x04, 0x61,
  0xbf, 0x24, 0x6d, 0x50, 0x3e, 0xd6, 0xe8, 0x3b, 0xbf, 0xfb, 0x23, 0x82, 0x3f,
  0x4f, 0xc8, 0x80, 0x3f, 0xf3, 0x3a, 0x2b, 0x3f, 0x79, 0x10, 0xcd, 0xbe, 0x2f,
  0xd9, 0x4c, 0xbf, 0x21, 0x43, 0x05, 0xbe, 0xb0, 0xfa, 0x83, 0xbf, 0xcc, 0x91,
  0x5f, 0xbf, 0x31, 0xa7, 0x96, 0x3f, 0x0c, 0xaf, 0xc3, 0xbf, 0x40, 0x1f, 0x09,
  0xbd, 0xb0, 0x18, 0xe7, 0xbe, 0x30, 0x25, 0x07, 0xbf, 0x5f, 0xe9, 0x32, 0x3f,
  0x1e, 0x57, 0x6d, 0x3e, 0x96, 0xca, 0x84, 0xbe, 0xe5, 0x9b, 0x31, 0xbf, 0xe7,
  0xad, 0xcd, 0x3b, 0x43, 0x4a, 0xdd, 0x3f, 0xc6, 0x09, 0xd3, 0x3e, 0x89, 0x92,
  0xb3, 0x3e, 0x50, 0xfe, 0x0c, 0xbe, 0x82, 0xa5, 0xab, 0xbf, 0xc1, 0x0e, 0xc0,
  0x3e, 0x23, 0x88, 0xa6, 0x3e, 0xf6, 0x16, 0x23, 0xbf, 0x7a, 0x05, 0x00, 0x3e,
  0x64, 0x25, 0x0b, 0x40, 0x7f, 0x29, 0xaf, 0xbf, 0x24, 0xf3, 0xab, 0x3f, 0x9c,
  0x0e, 0x40, 0x3f, 0x16, 0x6d, 0x1f, 0x3e, 0x0e, 0xd5, 0x36, 0x3e, 0xbc, 0x0a,
  0x25, 0x3f, 0xb8, 0xf1, 0xa8, 0xbf, 0xbb, 0xf8, 0x2f, 0xbf, 0x82, 0x5b, 0xec,
  0xbf, 0x96, 0xe4, 0x18, 0x3f, 0xd0, 0xe6, 0x38, 0xbf, 0x9e, 0xc7, 0xa7, 0xbf,
  0x25, 0xe7, 0xc4, 0xbf, 0xba, 0x56, 0x27, 0xbf, 0xb8, 0xbe, 0x93, 0xbf, 0xbb,
  0x90, 0x1a, 0xbf, 0xff, 0x8a, 0x29, 0x3f, 0x0c, 0xc0, 0xae, 0x3f, 0xf8, 0x49,
  0xd5, 0x3e, 0xde, 0xc3, 0x89, 0xbf, 0x80, 0x07, 0x06, 0x3f, 0xc7, 0xb1, 0xbf,
  0xbf, 0x2d, 0x4e, 0x43, 0xbf, 0x9f, 0x5f, 0x3c, 0x3f, 0x4c, 0xf9, 0x02, 0x3f,
  0x67, 0xff, 0x1f, 0x3e, 0x3f, 0x6d, 0x39, 0x3f, 0x96, 0x9e, 0xe8, 0x3c, 0xbf,
  0xbb, 0x26, 0xbe, 0x36, 0xf0, 0xff, 0xff, 0x04, 0x00, 0x00, 0x00, 0x84, 0x03,
  0x00, 0x00, 0xe5, 0xec, 0xa7, 0xbd, 0x74, 0xc9, 0xa5, 0x3d, 0xb8, 0xa9, 0xe7,
  0x3e, 0xd7, 0x91, 0xa2, 0x3f, 0x1f, 0x21, 0x8d, 0xbe, 0xe2, 0x42, 0x80, 0x3e,
  0xa6, 0xe6, 0x04, 0xbf, 0xaa, 0x2e, 0xd1, 0xbf, 0x7c, 0x6d, 0x14, 0xbf, 0x6a,
  0x9e, 0x16, 0x3e, 0xc3, 0xff, 0x2d, 0xbd, 0x5a, 0xd2, 0xc4, 0x3f, 0xd7, 0x67,
  0x3d, 0x3f, 0x6c, 0x04, 0x24, 0x3f, 0xf0, 0xcb, 0x62, 0xbf, 0x6c, 0x70, 0xa6,
  0x3e, 0x65, 0x9c, 0xb1, 0x3e, 0x10, 0x22, 0x0d, 0x3f, 0x8d, 0x32, 0xb7, 0xbe,
  0x38, 0x6c, 0x8b, 0x3c, 0x27, 0x3c, 0xe6, 0x3e, 0x0e, 0x60, 0xca, 0xbd, 0xdf,
  0x7e, 0x93, 0xbe, 0xf6, 0x1d, 0xdd, 0xbd, 0x45, 0xa5, 0xc5, 0xbf, 0x1a, 0x77,
  0x26, 0x3f, 0x7e, 0xcf, 0x05, 0x3f, 0xf9, 0xab, 0xb0, 0xbe, 0xa6, 0x2b, 0x70,
  0x3f, 0xca, 0x7c, 0xfe, 0xbd, 0x4f, 0xa8, 0xb1, 0xbe, 0xbb, 0x8c, 0xb1, 0xbe,
  0x73, 0x17, 0x35, 0xbe, 0x1c, 0x1b, 0x9a, 0x3d, 0xb2, 0x1e, 0x40, 0xbf, 0xe4,
  0x5a, 0x4c, 0x3f, 0xba, 0xe8, 0x10, 0xbf, 0x9f, 0xad, 0x2c, 0xbe, 0x62, 0xbf,
  0x60, 0xbe, 0xcd, 0x97, 0xab, 0xbf, 0x1e, 0x8b, 0x4f, 0x3e, 0x21, 0x92, 0x1c,
  0x3f, 0xa2, 0xb2, 0x1b, 0x3e, 0x51, 0x0a, 0x7f, 0x3e, 0x6a, 0x51, 0x55, 0xbd,
  0xa9, 0x8c, 0xa6, 0x3e, 0x4c, 0xe0, 0x6b, 0xbf, 0xd8, 0x83, 0xe4, 0x3e, 0x28,
  0x27, 0x28, 0x3d, 0x67, 0x8d, 0xbc, 0xbf, 0xe1, 0x83, 0xea, 0xbe, 0x4f, 0x84,
  0x25, 0x3f, 0x0a, 0x51, 0x29, 0x3f, 0xd8, 0x85, 0xf8, 0xbc, 0xdb, 0x17, 0x77,
  0x3e, 0x29, 0x5b, 0x8b, 0xbd, 0xc9, 0xba, 0xd8, 0xbe, 0xce, 0x88, 0x7e, 0xbe,
  0xa0, 0xb5, 0xfb, 0xbe, 0x13, 0xd3, 0x52, 0xbf, 0xec, 0x20, 0x11, 0x3e, 0x43,
  0x37, 0x67, 0xbf, 0xc2, 0x8f, 0x34, 0x3f, 0xd8, 0x2b, 0x1b, 0xbf, 0x0b, 0x78,
  0x62, 0xbf, 0x7d, 0x28, 0x87, 0x3f, 0xd3, 0x43, 0x86, 0xbe, 0xed, 0xc9, 0xd0,
  0x3e, 0x49, 0x39, 0xed, 0x3e, 0x1e, 0x3a, 0x3e, 0xbf, 0xda, 0xf9, 0x1e, 0x3f,
  0xbb, 0xf5, 0x66, 0xbe, 0x34, 0x00, 0xb3, 0x3e, 0x7d, 0x9c, 0x04, 0xbf, 0x1e,
  0x4a, 0x28, 0xbf, 0x98, 0x9f, 0x05, 0x40, 0x81, 0xa0, 0x8f, 0xbe, 0xe6, 0xa6,
  0x9f, 0x3f, 0x55, 0xf3, 0x06, 0xbf, 0xe1, 0xe0, 0x9f, 0xbd, 0x06, 0xcd, 0xa7,
  0x3e, 0x7f, 0x3e, 0xc1, 0x3d, 0xf9, 0x07, 0x3f, 0x3f, 0x2b, 0xae, 0x42, 0x3e,
  0x93, 0x77, 0x26, 0xbe, 0x92, 0xcf, 0x5a, 0xbf, 0x4f, 0x09, 0x8a, 0xbe, 0x23,
  0x4d, 0xdf, 0xbf, 0xbe, 0x46, 0xcc, 0x3e, 0xe5, 0x35, 0x23, 0xbf, 0x8e, 0xb0,
  0xf7, 0xbe, 0x0a, 0x69, 0x17, 0x3e, 0xeb, 0x02, 0x6b, 0xbe, 0xa6, 0xd7, 0x99,
  0xbf, 0xbe, 0x78, 0xb2, 0x3e, 0x54, 0xe0, 0x97, 0x3f, 0x8f, 0xda, 0xef, 0x3c,
  0x3d, 0xd4, 0xba, 0x3e, 0x08, 0xd4, 0x69, 0xbe, 0x04, 0x61, 0x03, 0xbe, 0xf1,
  0x7c, 0x46, 0xbf, 0x8f, 0xcc, 0x74, 0xbd, 0xdb, 0x90, 0xd2, 0xbd, 0x6c, 0x45,
  0xc6, 0x3e, 0xc2, 0x16, 0xfb, 0x3e, 0x1b, 0x04, 0x3a, 0x3e, 0xc2, 0x00, 0xa3,
  0x3f, 0x6b, 0x88, 0x04, 0x3e, 0x54, 0x12, 0x01, 0x3e, 0x85, 0xcf, 0xa3, 0x3f,
  0x82, 0xda, 0x29, 0xbd, 0xd0, 0x2a, 0xf0, 0xbe, 0x0e, 0x0e, 0x3f, 0xbf, 0xfb,
  0x5d, 0x8f, 0xbf, 0xa6, 0xf8, 0x49, 0xbe, 0xab, 0x51, 0x0b, 0x3f, 0x56, 0xb3,
  0xf9, 0x3e, 0x90, 0x46, 0xb6, 0xbe, 0xe3, 0x04, 0x65, 0x3f, 0x54, 0xb7, 0x33,
  0x3f, 0xaf, 0xe5, 0x61, 0xbf, 0x52, 0xc9, 0x06, 0x3f, 0xac, 0x01, 0xb0, 0x3d,
  0xae, 0x25, 0xfb, 0x3d, 0xfa, 0xa3, 0x34, 0x3f, 0x7d, 0x33, 0x7d, 0x3e, 0x14,
  0x15, 0xf3, 0xbd, 0x45, 0x1b, 0x78, 0xbe, 0x35, 0xe4, 0x0a, 0xbf, 0x98, 0x06,
  0x20, 0x3f, 0xc7, 0x9b, 0xee, 0xbe, 0x7e, 0x91, 0xad, 0x3e, 0x73, 0x11, 0xa6,
  0xbf, 0x95, 0xc6, 0x56, 0x3f, 0x9c, 0x25, 0xbf, 0xbf, 0xb6, 0x4a, 0xce, 0xbe,
  0x94, 0x66, 0xb2, 0x3e, 0xf9, 0x95, 0x4c, 0x3f, 0xe0, 0xa4, 0x69, 0xbe, 0x35,
  0x93, 0x04, 0x3f, 0xd8, 0x7a, 0x99, 0x3f, 0xc2, 0xa7, 0x7c, 0xbf, 0x1f, 0xc4,
  0x81, 0xbe, 0xcc, 0x0e, 0xa3, 0x3e, 0x22, 0x2d, 0x32, 0xbf, 0x93, 0xab, 0x81,
  0xbd, 0x04, 0x21, 0x61, 0x3f, 0x75, 0x40, 0x93, 0x3e, 0xb1, 0x2b, 0x2e, 0x3f,
  0x18, 0x15, 0xa2, 0x3f, 0xed, 0xd2, 0x91, 0xbe, 0x7c, 0x68, 0xe0, 0x3e, 0xe0,
  0xbb, 0x78, 0x3f, 0xaa, 0x68, 0xcd, 0x3e, 0x40, 0x7f, 0xd0, 0x3b, 0x1b, 0x66,
  0x33, 0xbd, 0xec, 0x02, 0x50, 0xbe, 0x46, 0x92, 0x68, 0xbe, 0x4d, 0x5b, 0x94,
  0xbe, 0x98, 0x74, 0xb3, 0x3e, 0x8e, 0x06, 0x4f, 0x3f, 0x06, 0xa0, 0xae, 0x3c,
  0x32, 0xb0, 0x11, 0xbf, 0x3c, 0x4d, 0x9f, 0xbe, 0x68, 0xe7, 0x05, 0x3c, 0x88,
  0xc2, 0x7f, 0xbf, 0x3e, 0xb3, 0x6d, 0xbe, 0x71, 0xd3, 0x23, 0xba, 0xe3, 0x50,
  0x6c, 0xbf, 0xbb, 0xae, 0x13, 0x3f, 0x80, 0x3b, 0x23, 0x3f, 0xe0, 0x42, 0x97,
  0xbd, 0x21, 0xe0, 0x42, 0x3e, 0x2a, 0x52, 0x9c, 0x3e, 0x68, 0x1c, 0x93, 0xbe,
  0x78, 0x22, 0x89, 0x3e, 0x1b, 0xed, 0xba, 0x3e, 0xb5, 0x59, 0x3a, 0x3e, 0xab,
  0x62, 0x9b, 0xbe, 0x9f, 0xed, 0xa3, 0xbe, 0x9f, 0xcb, 0x5d, 0x40, 0x84, 0x06,
  0x3e, 0xbd, 0xab, 0x3a, 0x53, 0x3f, 0x3f, 0x50, 0x1d, 0xbe, 0x62, 0x27, 0xf4,
  0xbe, 0x89, 0x72, 0xbf, 0x3e, 0x55, 0x92, 0x57, 0xbf, 0xaf, 0xce, 0x49, 0xbe,
  0x67, 0xdc, 0x56, 0x3e, 0xf9, 0x9e, 0x77, 0xbf, 0x61, 0xf7, 0x8a, 0xbd, 0xf1,
  0xba, 0x50, 0x3f, 0x70, 0x0c, 0x0e, 0xbe, 0x79, 0x24, 0x62, 0x3f, 0x82, 0x9c,
  0x1a, 0x3f, 0x3d, 0x4f, 0x93, 0xbf, 0x0a, 0xfe, 0xb4, 0x3e, 0xa5, 0xb5, 0xc6,
  0x3e, 0x8e, 0xcf, 0x47, 0xbd, 0x0d, 0x95, 0xb2, 0xbe, 0x47, 0x07, 0x79, 0xbe,
  0x2c, 0x21, 0x54, 0x3e, 0x1e, 0x6b, 0x1d, 0xbe, 0x33, 0x01, 0x1d, 0xbf, 0xf4,
  0xa1, 0x8f, 0xbe, 0x6d, 0xf0, 0x16, 0xbe, 0x6c, 0x26, 0x62, 0xbd, 0x3b, 0x74,
  0x0d, 0xbf, 0x43, 0xf2, 0x54, 0xbe, 0x91, 0x65, 0x50, 0xbf, 0x63, 0x9d, 0x48,
  0xbe, 0x91, 0x33, 0x1e, 0xbf, 0xc1, 0x55, 0x87, 0x3e, 0x48, 0x90, 0x8d, 0xbe,
  0x9e, 0x60, 0x84, 0xbf, 0x09, 0x3e, 0xa9, 0x3d, 0xb3, 0x3e, 0xdf, 0xbe, 0xe1,
  0x86, 0x39, 0xbf, 0xad, 0xf3, 0x36, 0xbf, 0x16, 0xfc, 0x84, 0xbf, 0x59, 0xc5,
  0x61, 0xbf, 0x1a, 0xcf, 0x4a, 0x3f, 0xf9, 0x91, 0x06, 0x3f, 0x7c, 0x25, 0x97,
  0x3e, 0x55, 0x83, 0x28, 0xc0, 0xc6, 0xf3, 0xff, 0xff, 0x04, 0x00, 0x00, 0x00,
  0x2c, 0x01, 0x00, 0x00, 0x0b, 0x9a, 0xd4, 0x3e, 0x03, 0x27, 0x3b, 0xbe, 0x06,
  0xe8, 0x95, 0xbe, 0x76, 0x02, 0x90, 0x3d, 0xe7, 0x9d, 0xce, 0xbe, 0xf8, 0xee,
  0xd8, 0x3e, 0xe4, 0x6f, 0xc6, 0x3d, 0x85, 0xd8, 0x81, 0x3f, 0xea, 0x14, 0x5b,
  0xbe, 0x16, 0x93, 0xbf, 0xbd, 0x70, 0x14, 0x23, 0xbf, 0x87, 0x69, 0xfc, 0x3d,
  0x76, 0x3b, 0xd4, 0xbe, 0xc7, 0xf1, 0x0a, 0x3f, 0x29, 0x57, 0xe7, 0x3e, 0xde,
  0xcd, 0x1f, 0xbf, 0x75, 0x48, 0x57, 0x3f, 0x42, 0xa6, 0x8a, 0xbe, 0x14, 0x90,
  0xb1, 0xbb, 0x9e, 0xd8, 0x66, 0x3f, 0x98, 0xa0, 0x86, 0xbf, 0xd9, 0x6c, 0x62,
  0xbe, 0xdc, 0x57, 0xbf, 0x3e, 0xe3, 0xce, 0x3d, 0xbf, 0xd6, 0x74, 0x15, 0x3f,
  0x22, 0x27, 0x37, 0x3e, 0x28, 0x31, 0x91, 0x3f, 0xd4, 0x4a, 0x87, 0xbc, 0x5a,
  0x8b, 0x89, 0xbf, 0x59, 0x75, 0xd8, 0xbf, 0x3d, 0xe8, 0xbf, 0xbf, 0xff, 0xc5,
  0x78, 0x3e, 0x87, 0x16, 0xa7, 0xbe, 0x2c, 0x7f, 0x68, 0x3f, 0x2e, 0xfa, 0x51,
  0x3e, 0x3a, 0xb8, 0x00, 0xbe, 0xfd, 0x12, 0x2f, 0xbf, 0x36, 0x3f, 0xa3, 0xbe,
  0x02, 0x12, 0x8e, 0x3e, 0xff, 0xb7, 0xb1, 0x3e, 0xb5, 0x2d, 0x0a, 0xbf, 0x26,
  0x3b, 0xb3, 0xbe, 0xa7, 0x8f, 0x0e, 0xbf, 0x29, 0x7b, 0xd7, 0x3d, 0xf5, 0xd3,
  0xc9, 0x3e, 0x9b, 0x5e, 0xb2, 0xbc, 0x4c, 0x39, 0xa8, 0x3d, 0x34, 0x55, 0x38,
  0xbe, 0xcb, 0x22, 0xcc, 0xbe, 0xb0, 0xb2, 0x28, 0xbd, 0xab, 0xd8, 0x05, 0x3e,
  0xdb, 0xa9, 0x22, 0xbe, 0xe6, 0x5f, 0x9a, 0xbc, 0x9f, 0x1a, 0x3d, 0xbe, 0x44,
  0x87, 0x33, 0x3d, 0xa8, 0x1f, 0x96, 0x3c, 0x69, 0x06, 0x6c, 0x3e, 0xdf, 0xd2,
  0x4d, 0xbd, 0xff, 0xe4, 0x1f, 0xbd, 0x7f, 0xbe, 0xa5, 0xbe, 0xd7, 0x27, 0x18,
  0x3e, 0x3a, 0x39, 0x14, 0xbe, 0x25, 0x23, 0xd2, 0xbd, 0x9d, 0x37, 0x10, 0x3e,
  0xd4, 0x0f, 0x5d, 0x3e, 0x40, 0x70, 0x58, 0xbd, 0x9b, 0x39, 0x65, 0xbd, 0x0b,
  0x9d, 0x38, 0x3d, 0xd1, 0x36, 0x1b, 0x3c, 0x05, 0xee, 0x95, 0xba, 0xcc, 0x29,
  0x77, 0xbd, 0xf2, 0xfb, 0x5d, 0x3d, 0xf4, 0x9f, 0xba, 0xbd, 0xdd, 0x06, 0x76,
  0x3d, 0x66, 0xc0, 0x24, 0xbe, 0xfe, 0xf4, 0xff, 0xff, 0x04, 0x00, 0x00, 0x00,
  0x2c, 0x01, 0x00, 0x00, 0x72, 0x99, 0x72, 0x3d, 0x20, 0xe3, 0x98, 0x3e, 0x47,
  0x9c, 0x69, 0x3e, 0x14, 0x74, 0xa6, 0x3c, 0x25, 0xfc, 0x8c, 0x3e, 0xa1, 0x91,
  0x84, 0xbc, 0x4a, 0x5a, 0xc0, 0xbd, 0xc6, 0x7d, 0xe6, 0x3c, 0x53, 0xe4, 0xed,
  0xbc, 0x9e, 0xec, 0xad, 0xbc, 0x1f, 0x32, 0xac, 0xbd, 0x4a, 0x59, 0xa0, 0xbd,
  0xa1, 0x41, 0x11, 0x3e, 0xef, 0x37, 0x7f, 0xbc, 0x64, 0xf8, 0xb1, 0x3e, 0x02,
  0x15, 0x89, 0xbc, 0xa8, 0x85, 0x03, 0xbf, 0x99, 0x7e, 0x04, 0x3f, 0x2a, 0xc6,
  0x68, 0x3d, 0x35, 0x9e, 0x1a, 0xbf, 0x5a, 0xf4, 0x72, 0xbd, 0xc1, 0x05, 0xbd,
  0xbe, 0xe8, 0xcc, 0x21, 0x3d, 0xb1, 0xee, 0x11, 0xbf, 0xa7, 0xfb, 0x42, 0x3e,
  0x2e, 0x91, 0x77, 0x3d, 0x00, 0x21, 0xe6, 0x3d, 0x97, 0x30, 0xc5, 0x3e, 0x0e,
  0xe1, 0x4c, 0x3e, 0xe0, 0x36, 0x92, 0x3e, 0xe8, 0x6d, 0x65, 0x3d, 0x6d, 0x81,
  0xc9, 0xbe, 0x89, 0x95, 0x55, 0x3f, 0x67, 0x00, 0x91, 0x3e, 0x97, 0xf0, 0xab,
  0x3d, 0x5d, 0x72, 0x57, 0xbf, 0x60, 0x9f, 0xb8, 0x3d, 0x22, 0x14, 0x9c, 0xbd,
  0x04, 0xee, 0x18, 0xbe, 0x04, 0x36, 0x27, 0x3f, 0x7f, 0xba, 0x09, 0x3e, 0x59,
  0xf7, 0xea, 0xbd, 0xc8, 0x17, 0x2d, 0x3f, 0x1e, 0xbf, 0x91, 0x3e, 0x6e, 0x04,
  0x76, 0x3e, 0xe0, 0x08, 0xf1, 0xbf, 0x04, 0x7f, 0xaa, 0xbe, 0xf0, 0xae, 0x27,
  0x3f, 0x78, 0x99, 0x70, 0xbf, 0xbb, 0xdd, 0x8e, 0x3f, 0x3f, 0x22, 0x87, 0x3e,
  0x65, 0xb8, 0x6d, 0x3f, 0xbe, 0x37, 0xab, 0xbe, 0xb6, 0x15, 0x98, 0x3d, 0xd1,
  0xbf, 0x5e, 0x3f, 0x69, 0xee, 0x1e, 0xbc, 0x6f, 0x76, 0x7a, 0x3e, 0xc7, 0x13,
  0x17, 0x3f, 0x17, 0xbd, 0x83, 0xbf, 0xa5, 0x9e, 0x62, 0x3f, 0x80, 0x78, 0x33,
  0xbf, 0xa0, 0x01, 0xbd, 0xbd, 0xae, 0x80, 0x32, 0x3e, 0x37, 0x30, 0x80, 0xbe,
  0xe9, 0xe6, 0xb7, 0xbd, 0xdb, 0x5b, 0xfd, 0x3e, 0x9d, 0xe4, 0xfd, 0x3e, 0x9c,
  0x01, 0x21, 0xbf, 0xf9, 0x30, 0x68, 0xbe, 0xa7, 0x1c, 0x10, 0x3e, 0xed, 0xcf,
  0x2c, 0x3f, 0xc1, 0x2f, 0x50, 0x3f, 0x53, 0xde, 0x8a, 0x3d, 0xd4, 0xc9, 0x4c,
  0xbd, 0x33, 0x13, 0x91, 0x3e, 0x36, 0xf6, 0xff, 0xff, 0x04, 0x00, 0x00, 0x00,
  0xb0, 0x04, 0x00, 0x00, 0x5f, 0x46, 0xe1, 0xbd, 0x08, 0x25, 0x34, 0x3d, 0xa0,
  0x6c, 0xa6, 0x3f, 0x77, 0xee, 0xd7, 0xbe, 0x46, 0xb8, 0xbf, 0xc0, 0xe4, 0x48,
  0x36, 0xbe, 0xa7, 0x26, 0xb8, 0x3d, 0xd3, 0xc4, 0x88, 0x3e, 0xd0, 0xc4, 0x07,
  0x3f, 0x1d, 0x5f, 0xa7, 0xbe, 0xc9, 0xa5, 0xc9, 0x3d, 0x69, 0x73, 0x9e, 0x3e,
  0x5e, 0x53, 0x2b, 0x3e, 0xaa, 0x03, 0xe5, 0x3c, 0x28, 0xd9, 0xcc, 0xbd, 0xa4,
  0xcf, 0x2d, 0xbc, 0x0b, 0xed, 0x22, 0x3e, 0x10, 0x72, 0x1b, 0xbe, 0x45, 0xf3,
  0x88, 0x3e, 0x64, 0x95, 0x6e, 0xbc, 0x31, 0x21, 0x4b, 0x3d, 0x7c, 0x38, 0xa2,
  0x3e, 0x76, 0x34, 0xaa, 0x3f, 0x64, 0xf5, 0x25, 0xbf, 0x23, 0xe4, 0x29, 0x3f,
  0x19, 0x85, 0xcb, 0xbe, 0x00, 0x00, 0x0e, 0x3f, 0xc0, 0x94, 0xda, 0xbf, 0xe4,
  0xde, 0x48, 0xbe, 0x93, 0x0c, 0x5d, 0x3f, 0x55, 0xfd, 0xbb, 0xbf, 0xc9, 0x17,
  0xac, 0x3f, 0x7f, 0x9d, 0xdf, 0x3e, 0x46, 0xd0, 0x0c, 0x3f, 0x04, 0x1a, 0x8e,
  0x3f, 0xad, 0x76, 0x66, 0x3f, 0x52, 0xeb, 0x61, 0xbe, 0xf2, 0x09, 0x38, 0xbe,
  0xf5, 0xc4, 0xf6, 0xbf, 0x47, 0xcf, 0x16, 0xc0, 0x89, 0xe6, 0x08, 0x3f, 0xc1,
  0xa5, 0x0f, 0x3f, 0x79, 0x42, 0x80, 0xbe, 0x6d, 0x9f, 0x1c, 0xbf, 0x11, 0x7a,
  0x97, 0x3e, 0x00, 0xef, 0x5b, 0x3f, 0x2c, 0x32, 0xcb, 0x3f, 0x48, 0x66, 0x82,
  0x3f, 0xee, 0x6c, 0x93, 0xbf, 0xfe, 0x91, 0x0e, 0xbf, 0xdf, 0x71, 0xe1, 0x3f,
  0xf6, 0x76, 0x55, 0x3f, 0x11, 0xfc, 0x3f, 0xbf, 0x82, 0x5f, 0x75, 0xbf, 0xff,
  0x94, 0x06, 0xbf, 0x13, 0xa2, 0xd1, 0xbf, 0x01, 0x19, 0x30, 0xbe, 0x79, 0xa1,
  0x7e, 0xbf, 0xd1, 0xc3, 0x7f, 0x3f, 0x19, 0xac, 0xd0, 0xbe, 0x5d, 0xc9, 0x0a,
  0xbd, 0x65, 0x02, 0xc4, 0xbd, 0xc3, 0x05, 0x2d, 0x3f, 0xf9, 0x17, 0x84, 0x3f,
  0xac, 0xe2, 0x01, 0xbd, 0x16, 0xc9, 0x53, 0x3f, 0xeb, 0xf4, 0x1b, 0xbe, 0x1f,
  0x9b, 0x30, 0xbf, 0x2a, 0x7b, 0x62, 0xbf, 0x08, 0x8e, 0x81, 0xbe, 0x2c, 0x0d,
  0x0a, 0x3e, 0xab, 0x2c, 0x89, 0xbe, 0x00, 0x4f, 0x03, 0xbf, 0x62, 0xd9, 0x30,
  0x3e, 0x06, 0x7e, 0xb3, 0xbe, 0x8b, 0xb4, 0x7c, 0x3e, 0x36, 0x5a, 0xec, 0xbe,
  0x8e, 0x47, 0xfa, 0xbf, 0x59, 0x5a, 0x30, 0xbe, 0xb8, 0xa6, 0x5a, 0x3f, 0xb2,
