const unsigned char sr3by2_1_tflite[] = {
  0x1c, 0x00, 0x00, 0x00, 0x54, 0x46, 0x4c, 0x33, 0x14, 0x00, 0x20, 0x00, 0x04,
  0x00, 0x08, 0x00, 0x0c, 0x00, 0x10, 0x00, 0x14, 0x00, 0x00, 0x00, 0x18, 0x00,
  0x1c, 0x00, 0x14, 0x00, 0x00, 0x00, 0x03, 0x00, 0x00, 0x00, 0x7c, 0x02, 0x00,
  0x00, 0x70, 0x02, 0x00, 0x00, 0x60, 0x03, 0x00, 0x00, 0x0c, 0x00, 0x00, 0x00,
  0x08, 0x03, 0x00, 0x00, 0x7c, 0x02, 0x00, 0x00, 0x96, 0x00, 0x00, 0x00, 0xdc,
  0x8a, 0x00, 0x00, 0xd8, 0x8a, 0x00, 0x00, 0xc8, 0x89, 0x00, 0x00, 0x50, 0x89,
  0x00, 0x00, 0xf8, 0x88, 0x00, 0x00, 0xa8, 0x88, 0x00, 0x00, 0x50, 0x88, 0x00,
  0x00, 0xe4, 0x87, 0x00, 0x00, 0x70, 0x87, 0x00, 0x00, 0x08, 0x87, 0x00, 0x00,
  0xa0, 0x86, 0x00, 0x00, 0x08, 0x86, 0x00, 0x00, 0x2c, 0x84, 0x00, 0x00, 0x50,
  0x82, 0x00, 0x00, 0x94, 0x7e, 0x00, 0x00, 0x6c, 0x7d, 0x00, 0x00, 0x44, 0x7c,
  0x00, 0x00, 0x14, 0x7a, 0x00, 0x00, 0x38, 0x78, 0x00, 0x00, 0x5c, 0x76, 0x00,
  0x00, 0xa0, 0x72, 0x00, 0x00, 0x78, 0x71, 0x00, 0x00, 0x50, 0x70, 0x00, 0x00,
  0xfc, 0x6e, 0x00, 0x00, 0x34, 0x6e, 0x00, 0x00, 0x6c, 0x6d, 0x00, 0x00, 0x90,
  0x6c, 0x00, 0x00, 0x64, 0x6b, 0x00, 0x00, 0x38, 0x6a, 0x00, 0x00, 0xe4, 0x68,
  0x00, 0x00, 0x1c, 0x68, 0x00, 0x00, 0x54, 0x67, 0x00, 0x00, 0xa8, 0x66, 0x00,
  0x00, 0x08, 0x66, 0x00, 0x00, 0x68, 0x65, 0x00, 0x00, 0xdc, 0x64, 0x00, 0x00,
  0x14, 0x64, 0x00, 0x00, 0x4c, 0x63, 0x00, 0x00, 0xa0, 0x62, 0x00, 0x00, 0x00,
  0x62, 0x00, 0x00, 0x60, 0x61, 0x00, 0x00, 0xb4, 0x60, 0x00, 0x00, 0xec, 0x5f,
  0x00, 0x00, 0x24, 0x5f, 0x00, 0x00, 0x48, 0x5e, 0x00, 0x00, 0xa8, 0x5d, 0x00,
  0x00, 0x54, 0x5d, 0x00, 0x00, 0xb4, 0x5c, 0x00, 0x00, 0x08, 0x5c, 0x00, 0x00,
  0x40, 0x5b, 0x00, 0x00, 0x78, 0x5a, 0x00, 0x00, 0x24, 0x59, 0x00, 0x00, 0xf8,
  0x57, 0x00, 0x00, 0xcc, 0x56, 0x00, 0x00, 0x9c, 0x54, 0x00, 0x00, 0xd4, 0x53,
  0x00, 0x00, 0x78, 0x53, 0x00, 0x00, 0xb0, 0x52, 0x00, 0x00, 0x5c, 0x51, 0x00,
  0x00, 0x30, 0x50, 0x00, 0x00, 0x04, 0x4f, 0x00, 0x00, 0x48, 0x4b, 0x00, 0x00,
  0x68, 0x49, 0x00, 0x00, 0x88, 0x47, 0x00, 0x00, 0xfc, 0x40, 0x00, 0x00, 0xd0,
  0x3f, 0x00, 0x00, 0x60, 0x3f, 0x00, 0x00, 0x34, 0x3e, 0x00, 0x00, 0x78, 0x3a,
  0x00, 0x00, 0xf8, 0x37, 0x00, 0x00, 0x64, 0x37, 0x00, 0x00, 0xe4, 0x34, 0x00,
  0x00, 0xa0, 0x34, 0x00, 0x00, 0x04, 0x34, 0x00, 0x00, 0x58, 0x33, 0x00, 0x00,
  0xcc, 0x32, 0x00, 0x00, 0x54, 0x32, 0x00, 0x00, 0xe4, 0x31, 0x00, 0x00, 0x68,
  0x31, 0x00, 0x00, 0xd8, 0x30, 0x00, 0x00, 0x24, 0x30, 0x00, 0x00, 0xcc, 0x2f,
  0x00, 0x00, 0x94, 0x89, 0x00, 0x00, 0x90, 0x89, 0x00, 0x00, 0x8c, 0x89, 0x00,
  0x00, 0x88, 0x89, 0x00, 0x00, 0x84, 0x89, 0x00, 0x00, 0x80, 0x89, 0x00, 0x00,
  0x7c, 0x89, 0x00, 0x00, 0x78, 0x89, 0x00, 0x00, 0x74, 0x89, 0x00, 0x00, 0x70,
  0x89, 0x00, 0x00, 0x6c, 0x89, 0x00, 0x00, 0x68, 0x89, 0x00, 0x00, 0x64, 0x89,
  0x00, 0x00, 0x60, 0x89, 0x00, 0x00, 0x5c, 0x89, 0x00, 0x00, 0x58, 0x89, 0x00,
  0x00, 0x54, 0x89, 0x00, 0x00, 0x50, 0x89, 0x00, 0x00, 0x4c, 0x89, 0x00, 0x00,
  0x48, 0x89, 0x00, 0x00, 0x44, 0x89, 0x00, 0x00, 0x40, 0x89, 0x00, 0x00, 0x3c,
  0x89, 0x00, 0x00, 0x38, 0x89, 0x00, 0x00, 0x34, 0x89, 0x00, 0x00, 0x30, 0x89,
  0x00, 0x00, 0x2c, 0x89, 0x00, 0x00, 0x28, 0x89, 0x00, 0x00, 0x24, 0x89, 0x00,
  0x00, 0x20, 0x89, 0x00, 0x00, 0x1c, 0x89, 0x00, 0x00, 0x18, 0x89, 0x00, 0x00,
  0x14, 0x89, 0x00, 0x00, 0x10, 0x89, 0x00, 0x00, 0x0c, 0x89, 0x00, 0x00, 0x08,
  0x89, 0x00, 0x00, 0x04, 0x89, 0x00, 0x00, 0x00, 0x89, 0x00, 0x00, 0xfc, 0x88,
  0x00, 0x00, 0xf8, 0x88, 0x00, 0x00, 0xf4, 0x88, 0x00, 0x00, 0xf0, 0x88, 0x00,
  0x00, 0xec, 0x88, 0x00, 0x00, 0xe8, 0x88, 0x00, 0x00, 0xe4, 0x88, 0x00, 0x00,
  0xe0, 0x88, 0x00, 0x00, 0xdc, 0x88, 0x00, 0x00, 0xd8, 0x88, 0x00, 0x00, 0xd4,
  0x88, 0x00, 0x00, 0xd0, 0x88, 0x00, 0x00, 0xcc, 0x88, 0x00, 0x00, 0xc8, 0x88,
  0x00, 0x00, 0xc4, 0x88, 0x00, 0x00, 0xc0, 0x88, 0x00, 0x00, 0xbc, 0x88, 0x00,
  0x00, 0xb8, 0x88, 0x00, 0x00, 0xb4, 0x88, 0x00, 0x00, 0xb0, 0x88, 0x00, 0x00,
  0xac, 0x88, 0x00, 0x00, 0xa8, 0x88, 0x00, 0x00, 0xa4, 0x88, 0x00, 0x00, 0xa0,
  0x88, 0x00, 0x00, 0x9c, 0x88, 0x00, 0x00, 0x98, 0x88, 0x00, 0x00, 0x94, 0x88,
  0x00, 0x00, 0x90, 0x88, 0x00, 0x00, 0x8c, 0x88, 0x00, 0x00, 0xdc, 0x00, 0x00,
  0x00, 0x01, 0x00, 0x00, 0x00, 0x14, 0x01, 0x00, 0x00, 0x04, 0x00, 0x00, 0x00,
  0x48, 0x2e, 0x00, 0x00, 0x8c, 0x2d, 0x00, 0x00, 0x14, 0x2c, 0x00, 0x00, 0xb0,
  0x25, 0x00, 0x00, 0x01, 0x00, 0x00, 0x00, 0x10, 0x00, 0x00, 0x00, 0x0c, 0x00,
  0x14, 0x00, 0x10, 0x00, 0x0c, 0x00, 0x08, 0x00, 0x04, 0x00, 0x0c, 0x00, 0x00,
  0x00, 0x10, 0x00, 0x00, 0x00, 0x18, 0x00, 0x00, 0x00, 0x28, 0x00, 0x00, 0x00,
  0x2c, 0x00, 0x00, 0x00, 0x05, 0x00, 0x00, 0x00, 0x73, 0x65, 0x72, 0x76, 0x65,
  0x00, 0x00, 0x00, 0x0f, 0x00, 0x00, 0x00, 0x73, 0x65, 0x72, 0x76, 0x69, 0x6e,
  0x67, 0x5f, 0x64, 0x65, 0x66, 0x61, 0x75, 0x6c, 0x74, 0x00, 0x01, 0x00, 0x00,
  0x00, 0x14, 0x00, 0x00, 0x00, 0x01, 0x00, 0x00, 0x00, 0x24, 0x00, 0x00, 0x00,
  0x08, 0x00, 0x0c, 0x00, 0x08, 0x00, 0x04, 0x00, 0x08, 0x00, 0x00, 0x00, 0x93,
  0x00, 0x00, 0x00, 0x04, 0x00, 0x00, 0x00, 0x06, 0x00, 0x00, 0x00, 0x6f, 0x75,
  0x74, 0x70, 0x75, 0x74, 0x00, 0x00, 0x22, 0x79, 0xff, 0xff, 0x04, 0x00, 0x00,
  0x00, 0x03, 0x00, 0x00, 0x00, 0x69, 0x6d, 0x67, 0x00, 0x01, 0x00, 0x00, 0x00,
  0x0c, 0x00, 0x00, 0x00, 0x08, 0x00, 0x0c, 0x00, 0x04, 0x00, 0x08, 0x00, 0x08,
  0x00, 0x00, 0x00, 0x08, 0x00, 0x00, 0x00, 0x95, 0x00, 0x00, 0x00, 0x13, 0x00,
  0x00, 0x00, 0x6d, 0x69, 0x6e, 0x5f, 0x72, 0x75, 0x6e, 0x74, 0x69, 0x6d, 0x65,
  0x5f, 0x76, 0x65, 0x72, 0x73, 0x69, 0x6f, 0x6e, 0x00, 0x66, 0x79, 0xff, 0xff,
  0x04, 0x00, 0x00, 0x00, 0x10, 0x00, 0x00, 0x00, 0x31, 0x2e, 0x31, 0x33, 0x2e,
  0x31, 0x00, 0x00, 0x00, 0x00, 0x00, 0x00, 0x00, 0x00, 0x00, 0x00, 0x0f, 0x00,
  0x00, 0x00, 0x4d, 0x4c, 0x49, 0x52, 0x20, 0x43, 0x6f, 0x6e, 0x76, 0x65, 0x72,
  0x74, 0x65, 0x64, 0x2e, 0x00, 0x00, 0x00, 0x0e, 0x00, 0x18, 0x00, 0x04, 0x00,
  0x08, 0x00, 0x0c, 0x00, 0x10, 0x00, 0x14, 0x00, 0x0e, 0x00, 0x00, 0x00, 0x40,
  0x01, 0x00, 0x00, 0x34, 0x01, 0x00, 0x00, 0x28, 0x01, 0x00, 0x00, 0x14, 0x00,
  0x00, 0x00, 0x04, 0x00, 0x00, 0x00, 0x04, 0x00, 0x00, 0x00, 0x6d, 0x61, 0x69,
  0x6e, 0x00, 0x00, 0x00, 0x00, 0x43, 0x00, 0x00, 0x00, 0xd0, 0x2c, 0x00, 0x00,
  0x0c, 0x2c, 0x00, 0x00, 0x60, 0x2b, 0x00, 0x00, 0x94, 0x2a, 0x00, 0x00, 0xe8,
  0x29, 0x00, 0x00, 0x4c, 0x29, 0x00, 0x00, 0x84, 0x28, 0x00, 0x00, 0xe8, 0x27,
  0x00, 0x00, 0x4c, 0x27, 0x00, 0x00, 0x98, 0x26, 0x00, 0x00, 0xfc, 0x25, 0x00,
  0x00, 0x60, 0x25, 0x00, 0x00, 0xac, 0x24, 0x00, 0x00, 0x18, 0x24, 0x00, 0x00,
  0x7c, 0x23, 0x00, 0x00, 0xe0, 0x22, 0x00, 0x00, 0x20, 0x22, 0x00, 0x00, 0x84,
  0x21, 0x00, 0x00, 0xe8, 0x20, 0x00, 0x00, 0x34, 0x20, 0x00, 0x00, 0x98, 0x1f,
  0x00, 0x00, 0xfc, 0x1e, 0x00, 0x00, 0x48, 0x1e, 0x00, 0x00, 0xc4, 0x1d, 0x00,
  0x00, 0x28, 0x1d, 0x00, 0x00, 0x8c, 0x1c, 0x00, 0x00, 0xcc, 0x1b, 0x00, 0x00,
  0x30, 0x1b, 0x00, 0x00, 0x94, 0x1a, 0x00, 0x00, 0xe0, 0x19, 0x00, 0x00, 0x44,
  0x19, 0x00, 0x00, 0xa8, 0x18, 0x00, 0x00, 0xf4, 0x17, 0x00, 0x00, 0x70, 0x17,
  0x00, 0x00, 0xd4, 0x16, 0x00, 0x00, 0x38, 0x16, 0x00, 0x00, 0x78, 0x15, 0x00,
  0x00, 0xdc, 0x14, 0x00, 0x00, 0x40, 0x14, 0x00, 0x00, 0x88, 0x13, 0x00, 0x00,
  0xec, 0x12, 0x00, 0x00, 0x50, 0x12, 0x00, 0x00, 0x98, 0x11, 0x00, 0x00, 0x14,
  0x11, 0x00, 0x00, 0x78, 0x10, 0x00, 0x00, 0xdc, 0x0f, 0x00, 0x00, 0x1c, 0x0f,
  0x00, 0x00, 0x80, 0x0e, 0x00, 0x00, 0xe4, 0x0d, 0x00, 0x00, 0x2c, 0x0d, 0x00,
  0x00, 0x90, 0x0c, 0x00, 0x00, 0xf4, 0x0b, 0x00, 0x00, 0x3c, 0x0b, 0x00, 0x00,
  0xb8, 0x0a, 0x00, 0x00, 0x1c, 0x0a, 0x00, 0x00, 0x80, 0x09, 0x00, 0x00, 0xc0,
  0x08, 0x00, 0x00, 0x24, 0x08, 0x00, 0x00, 0x88, 0x07, 0x00, 0x00, 0xd0, 0x06,
  0x00, 0x00, 0x34, 0x06, 0x00, 0x00, 0x98, 0x05, 0x00, 0x00, 0xe0, 0x04, 0x00,
  0x00, 0x5c, 0x04, 0x00, 0x00, 0xb0, 0x03, 0x00, 0x00, 0x10, 0x03, 0x00, 0x00,
  0x68, 0x02, 0x00, 0x00, 0x01, 0x00, 0x00, 0x00, 0x93, 0x00, 0x00, 0x00, 0x01,
  0x00, 0x00, 0x00, 0x00, 0x00, 0x00, 0x00, 0x94, 0x00, 0x00, 0x00, 0xc8, 0x85,
  0x00, 0x00, 0x80, 0x85, 0x00, 0x00, 0xd4, 0x84, 0x00, 0x00, 0x68, 0x84, 0x00,
  0x00, 0x10, 0x84, 0x00, 0x00, 0xc0, 0x83, 0x00, 0x00, 0x68, 0x83, 0x00, 0x00,
  0xf8, 0x82, 0x00, 0x00, 0x7c, 0x82, 0x00, 0x00, 0x14, 0x82, 0x00, 0x00, 0xb0,
  0x81, 0x00, 0x00, 0x14, 0x81, 0x00, 0x00, 0x38, 0x7f, 0x00, 0x00, 0x5c, 0x7d,
  0x00, 0x00, 0xa0, 0x79, 0x00, 0x00, 0x78, 0x78, 0x00, 0x00, 0x50, 0x77, 0x00,
  0x00, 0x20, 0x75, 0x00, 0x00, 0x44, 0x73, 0x00, 0x00, 0x68, 0x71, 0x00, 0x00,
  0xac, 0x6d, 0x00, 0x00, 0x84, 0x6c, 0x00, 0x00, 0x5c, 0x6b, 0x00, 0x00, 0x04,
  0x6a, 0x00, 0x00, 0x3c, 0x69, 0x00, 0x00, 0x78, 0x68, 0x00, 0x00, 0x98, 0x67,
  0x00, 0x00, 0x6c, 0x66, 0x00, 0x00, 0x44, 0x65, 0x00, 0x00, 0xec, 0x63, 0x00,
  0x00, 0x24, 0x63, 0x00, 0x00, 0x60, 0x62, 0x00, 0x00, 0xb0, 0x61, 0x00, 0x00,
  0x10, 0x61, 0x00, 0x00, 0x74, 0x60, 0x00, 0x00, 0xe4, 0x5f, 0x00, 0x00, 0x1c,
  0x5f, 0x00, 0x00, 0x58, 0x5e, 0x00, 0x00, 0xa8, 0x5d, 0x00, 0x00, 0x08, 0x5d,
  0x00, 0x00, 0x6c, 0x5c, 0x00, 0x00, 0xbc, 0x5b, 0x00, 0x00, 0xf4, 0x5a, 0x00,
  0x00, 0x30, 0x5a, 0x00, 0x00, 0x50, 0x59, 0x00, 0x00, 0xbc, 0x58, 0x00, 0x00,
  0x5c, 0x58, 0x00, 0x00, 0xc0, 0x57, 0x00, 0x00, 0x10, 0x57, 0x00, 0x00, 0x48,
  0x56, 0x00, 0x00, 0x84, 0x55, 0x00, 0x00, 0x2c, 0x54, 0x00, 0x00, 0x00, 0x53,
  0x00, 0x00, 0xd8, 0x51, 0x00, 0x00, 0xa4, 0x4f, 0x00, 0x00, 0xe8, 0x4e, 0x00,
  0x00, 0x80, 0x4e, 0x00, 0x00, 0xbc, 0x4d, 0x00, 0x00, 0x64, 0x4c, 0x00, 0x00,
  0x38, 0x4b, 0x00, 0x00, 0x10, 0x4a, 0x00, 0x00, 0x50, 0x46, 0x00, 0x00, 0x70,
  0x44, 0x00, 0x00, 0x94, 0x42, 0x00, 0x00, 0x04, 0x3c, 0x00, 0x00, 0xe4, 0x3a,
  0x00, 0x00, 0x68, 0x3a, 0x00, 0x00, 0x40, 0x39, 0x00, 0x00, 0x80, 0x35, 0x00,
  0x00, 0x0c, 0x33, 0x00, 0x00, 0x6c, 0x32, 0x00, 0x00, 0xfc, 0x2f, 0x00, 0x00,
  0xac, 0x2f, 0x00, 0x00, 0x00, 0x2f, 0x00, 0x00, 0x50, 0x2e, 0x00, 0x00, 0xc4,
  0x2d, 0x00, 0x00, 0x4c, 0x2d, 0x00, 0x00, 0xd8, 0x2c, 0x00, 0x00, 0x5c, 0x2c,
  0x00, 0x00, 0xcc, 0x2b, 0x00, 0x00, 0x28, 0x2b, 0x00, 0x00, 0xc0, 0x2a, 0x00,
  0x00, 0x04, 0x2a, 0x00, 0x00, 0x3c, 0x29, 0x00, 0x00, 0x88, 0x28, 0x00, 0x00,
  0xc4, 0x27, 0x00, 0x00, 0x28, 0x27, 0x00, 0x00, 0x6c, 0x26, 0x00, 0x00, 0xc4,
  0x25, 0x00, 0x00, 0x28, 0x25, 0x00, 0x00, 0x70, 0x24, 0x00, 0x00, 0xd8, 0x23,
  0x00, 0x00, 0x3c, 0x23, 0x00, 0x00, 0x84, 0x22, 0x00, 0x00, 0xf8, 0x21, 0x00,
  0x00, 0x58, 0x21, 0x00, 0x00, 0xbc, 0x20, 0x00, 0x00, 0xfc, 0x1f, 0x00, 0x00,
  0x60, 0x1f, 0x00, 0x00, 0xc4, 0x1e, 0x00, 0x00, 0x0c, 0x1e, 0x00, 0x00, 0x74,
  0x1d, 0x00, 0x00, 0xd8, 0x1c, 0x00, 0x00, 0x20, 0x1c, 0x00, 0x00, 0x90, 0x1b,
  0x00, 0x00, 0x04, 0x1b, 0x00, 0x00, 0x68, 0x1a, 0x00, 0x00, 0xa8, 0x19, 0x00,
  0x00, 0x0c, 0x19, 0x00, 0x00, 0x70, 0x18, 0x00, 0x00, 0xb8, 0x17, 0x00, 0x00,
  0x20, 0x17, 0x00, 0x00, 0x84, 0x16, 0x00, 0x00, 0xcc, 0x15, 0x00, 0x00, 0x3c,
  0x15, 0x00, 0x00, 0xb0, 0x14, 0x00, 0x00, 0x14, 0x14, 0x00, 0x00, 0x54, 0x13,
  0x00, 0x00, 0xb8, 0x12, 0x00, 0x00, 0x1c, 0x12, 0x00, 0x00, 0x60, 0x11, 0x00,
  0x00, 0xc8, 0x10, 0x00, 0x00, 0x2c, 0x10, 0x00, 0x00, 0x70, 0x0f, 0x00, 0x00,
  0xe0, 0x0e, 0x00, 0x00, 0x54, 0x0e, 0x00, 0x00, 0xb8, 0x0d, 0x00, 0x00, 0xf8,
  0x0c, 0x00, 0x00, 0x5c, 0x0c, 0x00, 0x00, 0xc0, 0x0b, 0x00, 0x00, 0x04, 0x0b,
  0x00, 0x00, 0x6c, 0x0a, 0x00, 0x00, 0xd0, 0x09, 0x00, 0x00, 0x14, 0x09, 0x00,
  0x00, 0x84, 0x08, 0x00, 0x00, 0xf8, 0x07, 0x00, 0x00, 0x5c, 0x07, 0x00, 0x00,
  0x9c, 0x06, 0x00, 0x00, 0x00, 0x06, 0x00, 0x00, 0x64, 0x05, 0x00, 0x00, 0xa8,
  0x04, 0x00, 0x00, 0x10, 0x04, 0x00, 0x00, 0x74, 0x03, 0x00, 0x00, 0xb8, 0x02,
  0x00, 0x00, 0x28, 0x02, 0x00, 0x00, 0x9c, 0x01, 0x00, 0x00, 0xf0, 0x00, 0x00,
  0x00, 0x50, 0x00, 0x00, 0x00, 0xde, 0xd8, 0xff, 0xff, 0x00, 0x00, 0x00, 0x01,
  0x02, 0x00, 0x00, 0x00, 0x30, 0x00, 0x00, 0x00, 0x24, 0x00, 0x00, 0x00, 0x10,
  0x00, 0x00, 0x00, 0x00, 0x00, 0x0a, 0x00, 0x10, 0x00, 0x0f, 0x00, 0x04, 0x00,
  0x08, 0x00, 0x0a, 0x00, 0x00, 0x00, 0x01, 0x00, 0x00, 0x00, 0x01, 0x00, 0x00,
  0x00, 0x00, 0x00, 0x00, 0x01, 0x01, 0x00, 0x00, 0x00, 0x93, 0x00, 0x00, 0x00,
  0x03, 0x00, 0x00, 0x00, 0x92, 0x00, 0x00, 0x00, 0x48, 0x00, 0x00, 0x00, 0x50,
  0x00, 0x00, 0x00, 0xe8, 0x7c, 0xff, 0xff, 0x3c, 0x00, 0x00, 0x00, 0x94, 0x00,
  0x00, 0x00, 0x20, 0x00, 0x00, 0x00, 0x44, 0x00, 0x00, 0x00, 0x04, 0x00, 0x00,
  0x00, 0x04, 0x00, 0x00, 0x00, 0x01, 0x00, 0x00, 0x00, 0xff, 0xff, 0xff, 0xff,
  0xff, 0xff, 0xff, 0xff, 0x01, 0x00, 0x00, 0x00, 0x0c, 0x00, 0x00, 0x00, 0x42,
  0x69, 0x61, 0x73, 0x41, 0x64, 0x64, 0x5f, 0x31, 0x39, 0x3a, 0x30, 0x00, 0x00,
  0x00, 0x00, 0x04, 0x00, 0x00, 0x00, 0x01, 0x00, 0x00, 0x00, 0x01, 0x00, 0x00,
  0x00, 0x01, 0x00, 0x00, 0x00, 0x01, 0x00, 0x00, 0x00, 0xd0, 0x7c, 0xff, 0xff,
  0x12, 0xd8, 0xff, 0xff, 0x00, 0x00, 0x00, 0x02, 0x01, 0x00, 0x00, 0x00, 0x28,
  0x00, 0x00, 0x00, 0x1c, 0x00, 0x00, 0x00, 0x04, 0x00, 0x00, 0x00, 0x64, 0xff,
  0xff, 0xff, 0x01, 0x00, 0x00, 0x00, 0x01, 0x00, 0x00, 0x00, 0x01, 0x00, 0x00,
  0x00, 0x00, 0x00, 0x00, 0x01, 0x01, 0x00, 0x00, 0x00, 0x92, 0x00, 0x00, 0x00,
  0x03, 0x00, 0x00, 0x00, 0x91, 0x00, 0x00, 0x00, 0x46, 0x00, 0x00, 0x00, 0x45,
  0x00, 0x00, 0x00, 0x84, 0x7d, 0xff, 0xff, 0x3c, 0x00, 0x00, 0x00, 0x93, 0x00,
  0x00, 0x00, 0x20, 0x00, 0x00, 0x00, 0x44, 0x00, 0x00, 0x00, 0x04, 0x00, 0x00,
  0x00, 0x04, 0x00, 0x00, 0x00, 0x01, 0x00, 0x00, 0x00, 0xff, 0xff, 0xff, 0xff,
  0xff, 0xff, 0xff, 0xff, 0x14, 0x00, 0x00, 0x00, 0x0d, 0x00, 0x00, 0x00, 0x64,
  0x65, 0x70, 0x74, 0x68, 0x77, 0x69, 0x73, 0x65, 0x5f, 0x33, 0x39, 0x32, 0x00,
  0x00, 0x00, 0x04, 0x00, 0x00, 0x00, 0x01, 0x00, 0x00, 0x00, 0x01, 0x00, 0x00,
  0x00, 0x01, 0x00, 0x00, 0x00, 0x14, 0x00, 0x00, 0x00, 0x6c, 0x7d, 0xff, 0xff,
  0xae, 0xd8, 0xff, 0xff, 0x00, 0x00, 0x00, 0x02, 0x01, 0x00, 0x00, 0x00, 0x34,
  0x00, 0x00, 0x00, 0x28, 0x00, 0x00, 0x00, 0x10, 0x00, 0x00, 0x00, 0x0c, 0x00,
  0x14, 0x00, 0x13, 0x00, 0x08, 0x00, 0x0c, 0x00, 0x04, 0x00, 0x0c, 0x00, 0x00,
  0x00, 0x01, 0x00, 0x00, 0x00, 0x01, 0x00, 0x00, 0x00, 0x01, 0x00, 0x00, 0x00,
  0x00, 0x00, 0x00, 0x01, 0x01, 0x00, 0x00, 0x00, 0x91, 0x00, 0x00, 0x00, 0x03,
  0x00, 0x00, 0x00, 0x90, 0x00, 0x00, 0x00, 0x44, 0x00, 0x00, 0x00, 0x45, 0x00,
  0x00, 0x00, 0x2c, 0x7e, 0xff, 0xff, 0x3c, 0x00, 0x00, 0x00, 0x92, 0x00, 0x00,
  0x00, 0x20, 0x00, 0x00, 0x00, 0x44, 0x00, 0x00, 0x00, 0x04, 0x00, 0x00, 0x00,
  0x04, 0x00, 0x00, 0x00, 0x01, 0x00, 0x00, 0x00, 0xff, 0xff, 0xff, 0xff, 0xff,
  0xff, 0xff, 0xff, 0x14, 0x00, 0x00, 0x00, 0x0d, 0x00, 0x00, 0x00, 0x64, 0x65,
  0x70, 0x74, 0x68, 0x77, 0x69, 0x73, 0x65, 0x5f, 0x33, 0x38, 0x31, 0x00, 0x00,
  0x00, 0x04, 0x00, 0x00, 0x00, 0x01, 0x00, 0x00, 0x00, 0x01, 0x00, 0x00, 0x00,
  0x01, 0x00, 0x00, 0x00, 0x14, 0x00, 0x00, 0x00, 0x14, 0x7e, 0xff, 0xff, 0x56,
  0xd9, 0xff, 0xff, 0x00, 0x00, 0x00, 0x0b, 0x03, 0x00, 0x00, 0x00, 0x18, 0x00,
  0x00, 0x00, 0x0c, 0x00, 0x00, 0x00, 0x04, 0x00, 0x00, 0x00, 0x30, 0x7e, 0xff,
  0xff, 0x01, 0x00, 0x00, 0x00, 0x90, 0x00, 0x00, 0x00, 0x02, 0x00, 0x00, 0x00,
  0x8f, 0x00, 0x00, 0x00, 0x8c, 0x00, 0x00, 0x00, 0xb4, 0x7e, 0xff, 0xff, 0x34,
  0x00, 0x00, 0x00, 0x91, 0x00, 0x00, 0x00, 0x20, 0x00, 0x00, 0x00, 0x3c, 0x00,
  0x00, 0x00, 0x04, 0x00, 0x00, 0x00, 0x04, 0x00, 0x00, 0x00, 0x01, 0x00, 0x00,
  0x00, 0xff, 0xff, 0xff, 0xff, 0xff, 0xff, 0xff, 0xff, 0x14, 0x00, 0x00, 0x00,
  0x05, 0x00, 0x00, 0x00, 0x41, 0x64, 0x64, 0x5f, 0x35, 0x00, 0x00, 0x00, 0x04,
  0x00, 0x00, 0x00, 0x01, 0x00, 0x00, 0x00, 0x01, 0x00, 0x00, 0x00, 0x01, 0x00,
  0x00, 0x00, 0x14, 0x00, 0x00, 0x00, 0x94, 0x7e, 0xff, 0xff, 0xd6, 0xd9, 0xff,
  0xff, 0x00, 0x00, 0x00, 0x01, 0x02, 0x00, 0x00, 0x00, 0x20, 0x00, 0x00, 0x00,
  0x14, 0x00, 0x00, 0x00, 0x04, 0x00, 0x00, 0x00, 0x36, 0xdb, 0xff, 0xff, 0x01,
  0x00, 0x00, 0x00, 0x01, 0x00, 0x00, 0x00, 0x01, 0x00, 0x00, 0x00, 0x8f, 0x00,
  0x00, 0x00, 0x03, 0x00, 0x00, 0x00, 0x8e, 0x00, 0x00, 0x00, 0x43, 0x00, 0x00,
  0x00, 0x4f, 0x00, 0x00, 0x00, 0x40, 0x7f, 0xff, 0xff, 0x5c, 0x00, 0x00, 0x00,
  0x90, 0x00, 0x00, 0x00, 0x20, 0x00, 0x00, 0x00, 0x64, 0x00, 0x00, 0x00, 0x04,
  0x00, 0x00, 0x00, 0x04, 0x00, 0x00, 0x00, 0x01, 0x00, 0x00, 0x00, 0xff, 0xff,
  0xff, 0xff, 0xff, 0xff, 0xff, 0xff, 0x14, 0x00, 0x00, 0x00, 0x2d, 0x00, 0x00,
  0x00, 0x42, 0x69, 0x61, 0x73, 0x41, 0x64, 0x64, 0x5f, 0x31, 0x38, 0x3b, 0x64,
  0x65, 0x70, 0x74, 0x68, 0x77, 0x69, 0x73, 0x65, 0x5f, 0x33, 0x39, 0x3b, 0x43,
  0x6f, 0x6e, 0x76, 0x32, 0x44, 0x5f, 0x31, 0x38, 0x3b, 0x63, 0x6f, 0x6e, 0x76,
  0x5f, 0x36, 0x5f, 0x31, 0x5f, 0x62, 0x31, 0x00, 0x00, 0x00, 0x04, 0x00, 0x00,
  0x00, 0x01, 0x00, 0x00, 0x00, 0x01, 0x00, 0x00, 0x00, 0x01, 0x00, 0x00, 0x00,
  0x14, 0x00, 0x00, 0x00, 0x48, 0x7f, 0xff, 0xff, 0x8a, 0xda, 0xff, 0xff, 0x00,
  0x00, 0x00, 0x02, 0x01, 0x00, 0x00, 0x00, 0x24, 0x00, 0x00, 0x00, 0x18, 0x00,
  0x00, 0x00, 0x04, 0x00, 0x00, 0x00, 0x7c, 0xda, 0xff, 0xff, 0x01, 0x00, 0x00,
  0x00, 0x01, 0x00, 0x00, 0x00, 0x01, 0x00, 0x00, 0x00, 0x01, 0x00, 0x00, 0x00,
  0x8e, 0x00, 0x00, 0x00, 0x03, 0x00, 0x00, 0x00, 0x8d, 0x00, 0x00, 0x00, 0x42,
  0x00, 0x00, 0x00, 0x41, 0x00, 0x00, 0x00, 0xf8, 0x7f, 0xff, 0xff, 0x3c, 0x00,
  0x00, 0x00, 0x8f, 0x00, 0x00, 0x00, 0x20, 0x00, 0x00, 0x00, 0x44, 0x00, 0x00,
  0x00, 0x04, 0x00, 0x00, 0x00, 0x04, 0x00, 0x00, 0x00, 0x01, 0x00, 0x00, 0x00,
  0xff, 0xff, 0xff, 0xff, 0xff, 0xff, 0xff, 0xff, 0x0b, 0x00, 0x00, 0x00, 0x0d,
  0x00, 0x00, 0x00, 0x64, 0x65, 0x70, 0x74, 0x68, 0x77, 0x69, 0x73, 0x65, 0x5f,
  0x33, 0x37, 0x32, 0x00, 0x00, 0x00, 0x04, 0x00, 0x00, 0x00, 0x01, 0x00, 0x00,
  0x00, 0x01, 0x00, 0x00, 0x00, 0x01, 0x00, 0x00, 0x00, 0x0b, 0x00, 0x00, 0x00,
  0xe0, 0x7f, 0xff, 0xff, 0x22, 0xdb, 0xff, 0xff, 0x00, 0x00, 0x00, 0x02, 0x01,
  0x00, 0x00, 0x00, 0x24, 0x00, 0x00, 0x00, 0x18, 0x00, 0x00, 0x00, 0x04, 0x00,
  0x00, 0x00, 0x14, 0xdb, 0xff, 0xff, 0x01, 0x00, 0x00, 0x00, 0x01, 0x00, 0x00,
  0x00, 0x01, 0x00, 0x00, 0x00, 0x01, 0x00, 0x00, 0x00, 0x8d, 0x00, 0x00, 0x00,
  0x03, 0x00, 0x00, 0x00, 0x86, 0x00, 0x00, 0x00, 0x40, 0x00, 0x00, 0x00, 0x41,
  0x00, 0x00, 0x00, 0x90, 0x80, 0xff, 0xff, 0x3c, 0x00, 0x00, 0x00, 0x8e, 0x00,
  0x00, 0x00, 0x20, 0x00, 0x00, 0x00, 0x44, 0x00, 0x00, 0x00, 0x04, 0x00, 0x00,
  0x00, 0x04, 0x00, 0x00, 0x00, 0x01, 0x00, 0x00, 0x00, 0xff, 0xff, 0xff, 0xff,
  0xff, 0xff, 0xff, 0xff, 0x0b, 0x00, 0x00, 0x00, 0x0d, 0x00, 0x00, 0x00, 0x64,
  0x65, 0x70, 0x74, 0x68, 0x77, 0x69, 0x73, 0x65, 0x5f, 0x33, 0x36, 0x31, 0x00,
  0x00, 0x00, 0x04, 0x00, 0x00, 0x00, 0x01, 0x00, 0x00, 0x00, 0x01, 0x00, 0x00,
  0x00, 0x01, 0x00, 0x00, 0x00, 0x0b, 0x00, 0x00, 0x00, 0x78, 0x80, 0xff, 0xff,
  0xba, 0xdb, 0xff, 0xff, 0x00, 0x00, 0x00, 0x01, 0x02, 0x00, 0x00, 0x00, 0x20,
  0x00, 0x00, 0x00, 0x14, 0x00, 0x00, 0x00, 0x04, 0x00, 0x00, 0x00, 0x1a, 0xdd,
  0xff, 0xff, 0x01, 0x00, 0x00, 0x00, 0x01, 0x00, 0x00, 0x00, 0x01, 0x00, 0x00,
  0x00, 0x8c, 0x00, 0x00, 0x00, 0x03, 0x00, 0x00, 0x00, 0x8b, 0x00, 0x00, 0x00,
  0x3f, 0x00, 0x00, 0x00, 0x4f, 0x00, 0x00, 0x00, 0x24, 0x81, 0xff, 0xff, 0x5c,
  0x00, 0x00, 0x00, 0x8d, 0x00, 0x00, 0x00, 0x20, 0x00, 0x00, 0x00, 0x64, 0x00,
  0x00, 0x00, 0x04, 0x00, 0x00, 0x00, 0x04, 0x00, 0x00, 0x00, 0x01, 0x00, 0x00,
  0x00, 0xff, 0xff, 0xff, 0xff, 0xff, 0xff, 0xff, 0xff, 0x14, 0x00, 0x00, 0x00,
  0x2c, 0x00, 0x00, 0x00, 0x42, 0x69, 0x61, 0x73, 0x41, 0x64, 0x64, 0x5f, 0x31,
  0x37, 0x3b, 0x64, 0x65, 0x70, 0x74, 0x68, 0x77, 0x69, 0x73, 0x65, 0x5f, 0x33,
  0x39, 0x3b, 0x43, 0x6f, 0x6e, 0x76, 0x32, 0x44, 0x5f, 0x31, 0x37, 0x3b, 0x63,
  0x6f, 0x6e, 0x76, 0x5f, 0x36, 0x5f, 0x31, 0x5f, 0x62, 0x00, 0x00, 0x00, 0x00,
  0x04, 0x00, 0x00, 0x00, 0x01, 0x00, 0x00, 0x00, 0x01, 0x00, 0x00, 0x00, 0x01,
  0x00, 0x00, 0x00, 0x14, 0x00, 0x00, 0x00, 0x2c, 0x81, 0xff, 0xff, 0x6e, 0xdc,
  0xff, 0xff, 0x00, 0x00, 0x00, 0x02, 0x01, 0x00, 0x00, 0x00, 0x24, 0x00, 0x00,
  0x00, 0x18, 0x00, 0x00, 0x00, 0x04, 0x00, 0x00, 0x00, 0x60, 0xdc, 0xff, 0xff,
  0x01, 0x00, 0x00, 0x00, 0x01, 0x00, 0x00, 0x00, 0x01, 0x00, 0x00, 0x00, 0x01,
  0x00, 0x00, 0x00, 0x8b, 0x00, 0x00, 0x00, 0x03, 0x00, 0x00, 0x00, 0x8a, 0x00,
  0x00, 0x00, 0x3e, 0x00, 0x00, 0x00, 0x45, 0x00, 0x00, 0x00, 0xdc, 0x81, 0xff,
  0xff, 0x3c, 0x00, 0x00, 0x00, 0x8c, 0x00, 0x00, 0x00, 0x20, 0x00, 0x00, 0x00,
  0x44, 0x00, 0x00, 0x00, 0x04, 0x00, 0x00, 0x00, 0x04, 0x00, 0x00, 0x00, 0x01,
  0x00, 0x00, 0x00, 0xff, 0xff, 0xff, 0xff, 0xff, 0xff, 0xff, 0xff, 0x14, 0x00,
  0x00, 0x00, 0x0d, 0x00, 0x00, 0x00, 0x64, 0x65, 0x70, 0x74, 0x68, 0x77, 0x69,
  0x73, 0x65, 0x5f, 0x33, 0x35, 0x31, 0x00, 0x00, 0x00, 0x04, 0x00, 0x00, 0x00,
  0x01, 0x00, 0x00, 0x00, 0x01, 0x00, 0x00, 0x00, 0x01, 0x00, 0x00, 0x00, 0x14,
  0x00, 0x00, 0x00, 0xc4, 0x81, 0xff, 0xff, 0x06, 0xdd, 0xff, 0xff, 0x00, 0x00,
  0x00, 0x02, 0x01, 0x00, 0x00, 0x00, 0x24, 0x00, 0x00, 0x00, 0x18, 0x00, 0x00,
  0x00, 0x04, 0x00, 0x00, 0x00, 0xf8, 0xdc, 0xff, 0xff, 0x01, 0x00, 0x00, 0x00,
  0x01, 0x00, 0x00, 0x00, 0x01, 0x00, 0x00, 0x00, 0x01, 0x00, 0x00, 0x00, 0x8a,
  0x00, 0x00, 0x00, 0x03, 0x00, 0x00, 0x00, 0x89, 0x00, 0x00, 0x00, 0x3d, 0x00,
  0x00, 0x00, 0x45, 0x00, 0x00, 0x00, 0x74, 0x82, 0xff, 0xff, 0x3c, 0x00, 0x00,
  0x00, 0x8b, 0x00, 0x00, 0x00, 0x20, 0x00, 0x00, 0x00, 0x44, 0x00, 0x00, 0x00,
  0x04, 0x00, 0x00, 0x00, 0x04, 0x00, 0x00, 0x00, 0x01, 0x00, 0x00, 0x00, 0xff,
  0xff, 0xff, 0xff, 0xff, 0xff, 0xff, 0xff, 0x14, 0x00, 0x00, 0x00, 0x0d, 0x00,
  0x00, 0x00, 0x64, 0x65, 0x70, 0x74, 0x68, 0x77, 0x69, 0x73, 0x65, 0x5f, 0x33,
  0x34, 0x31, 0x00, 0x00, 0x00, 0x04, 0x00, 0x00, 0x00, 0x01, 0x00, 0x00, 0x00,
  0x01, 0x00, 0x00, 0x00, 0x01, 0x00, 0x00, 0x00, 0x14, 0x00, 0x00, 0x00, 0x5c,
  0x82, 0xff, 0xff, 0x9e, 0xdd, 0xff, 0xff, 0x00, 0x00, 0x00, 0x01, 0x02, 0x00,
  0x00, 0x00, 0x24, 0x00, 0x00, 0x00, 0x18, 0x00, 0x00, 0x00, 0x04, 0x00, 0x00,
  0x00, 0x04, 0xe1, 0xff, 0xff, 0x01, 0x00, 0x00, 0x00, 0x01, 0x00, 0x00, 0x00,
  0x00, 0x00, 0x00, 0x01, 0x01, 0x00, 0x00, 0x00, 0x89, 0x00, 0x00, 0x00, 0x03,
  0x00, 0x00, 0x00, 0x88, 0x00, 0x00, 0x00, 0x3c, 0x00, 0x00, 0x00, 0x01, 0x00,
  0x00, 0x00, 0x0c, 0x83, 0xff, 0xff, 0x60, 0x00, 0x00, 0x00, 0x8a, 0x00, 0x00,
  0x00, 0x20, 0x00, 0x00, 0x00, 0x68, 0x00, 0x00, 0x00, 0x04, 0x00, 0x00, 0x00,
  0x04, 0x00, 0x00, 0x00, 0x01, 0x00, 0x00, 0x00, 0xff, 0xff, 0xff, 0xff, 0xff,
  0xff, 0xff, 0xff, 0x14, 0x00, 0x00, 0x00, 0x33, 0x00, 0x00, 0x00, 0x52, 0x65,
  0x6c, 0x75, 0x5f, 0x35, 0x3b, 0x42, 0x69, 0x61, 0x73, 0x41, 0x64, 0x64, 0x5f,
  0x31, 0x36, 0x3b, 0x64, 0x65, 0x70, 0x74, 0x68, 0x77, 0x69, 0x73, 0x65, 0x5f,
  0x33, 0x39, 0x3b, 0x43, 0x6f, 0x6e, 0x76, 0x32, 0x44, 0x5f, 0x31, 0x36, 0x3b,
  0x63, 0x6f, 0x6e, 0x76, 0x5f, 0x36, 0x5f, 0x30, 0x5f, 0x62, 0x00, 0x04, 0x00,
  0x00, 0x00, 0x01, 0x00, 0x00, 0x00, 0x01, 0x00, 0x00, 0x00, 0x01, 0x00, 0x00,
  0x00, 0x14, 0x00, 0x00, 0x00, 0x18, 0x83, 0xff, 0xff, 0x5a, 0xde, 0xff, 0xff,
  0x00, 0x00, 0x00, 0x02, 0x01, 0x00, 0x00, 0x00, 0x24, 0x00, 0x00, 0x00, 0x18,
  0x00, 0x00, 0x00, 0x04, 0x00, 0x00, 0x00, 0x4c, 0xde, 0xff, 0xff, 0x01, 0x00,
  0x00, 0x00, 0x01, 0x00, 0x00, 0x00, 0x01, 0x00, 0x00, 0x00, 0x01, 0x00, 0x00,
  0x00, 0x88, 0x00, 0x00, 0x00, 0x03, 0x00, 0x00, 0x00, 0x87, 0x00, 0x00, 0x00,
  0x3b, 0x00, 0x00, 0x00, 0x41, 0x00, 0x00, 0x00, 0xc8, 0x83, 0xff, 0xff, 0x3c,
  0x00, 0x00, 0x00, 0x89, 0x00, 0x00, 0x00, 0x20, 0x00, 0x00, 0x00, 0x44, 0x00,
  0x00, 0x00, 0x04, 0x00, 0x00, 0x00, 0x04, 0x00, 0x00, 0x00, 0x01, 0x00, 0x00,
  0x00, 0xff, 0xff, 0xff, 0xff, 0xff, 0xff, 0xff, 0xff, 0x0b, 0x00, 0x00, 0x00,
  0x0d, 0x00, 0x00, 0x00, 0x64, 0x65, 0x70, 0x74, 0x68, 0x77, 0x69, 0x73, 0x65,
  0x5f, 0x33, 0x33, 0x31, 0x00, 0x00, 0x00, 0x04, 0x00, 0x00, 0x00, 0x01, 0x00,
  0x00, 0x00, 0x01, 0x00, 0x00, 0x00, 0x01, 0x00, 0x00, 0x00, 0x0b, 0x00, 0x00,
  0x00, 0xb0, 0x83, 0xff, 0xff, 0xf2, 0xde, 0xff, 0xff, 0x00, 0x00, 0x00, 0x02,
  0x01, 0x00, 0x00, 0x00, 0x24, 0x00, 0x00, 0x00, 0x18, 0x00, 0x00, 0x00, 0x04,
  0x00, 0x00, 0x00, 0xe4, 0xde, 0xff, 0xff, 0x01, 0x00, 0x00, 0x00, 0x01, 0x00,
  0x00, 0x00, 0x01, 0x00, 0x00, 0x00, 0x01, 0x00, 0x00, 0x00, 0x87, 0x00, 0x00,
  0x00, 0x03, 0x00, 0x00, 0x00, 0x86, 0x00, 0x00, 0x00, 0x3a, 0x00, 0x00, 0x00,
  0x41, 0x00, 0x00, 0x00, 0x60, 0x84, 0xff, 0xff, 0x3c, 0x00, 0x00, 0x00, 0x88,
  0x00, 0x00, 0x00, 0x20, 0x00, 0x00, 0x00, 0x44, 0x00, 0x00, 0x00, 0x04, 0x00,
  0x00, 0x00, 0x04, 0x00, 0x00, 0x00, 0x01, 0x00, 0x00, 0x00, 0xff, 0xff, 0xff,
  0xff, 0xff, 0xff, 0xff, 0xff, 0x0b, 0x00, 0x00, 0x00, 0x0d, 0x00, 0x00, 0x00,
  0x64, 0x65, 0x70, 0x74, 0x68, 0x77, 0x69, 0x73, 0x65, 0x5f, 0x33, 0x32, 0x31,
  0x00, 0x00, 0x00, 0x04, 0x00, 0x00, 0x00, 0x01, 0x00, 0x00, 0x00, 0x01, 0x00,
  0x00, 0x00, 0x01, 0x00, 0x00, 0x00, 0x0b, 0x00, 0x00, 0x00, 0x48, 0x84, 0xff,
  0xff, 0x8a, 0xdf, 0xff, 0xff, 0x00, 0x00, 0x00, 0x0b, 0x03, 0x00, 0x00, 0x00,
  0x18, 0x00, 0x00, 0x00, 0x0c, 0x00, 0x00, 0x00, 0x04, 0x00, 0x00, 0x00, 0x64,
  0x84, 0xff, 0xff, 0x01, 0x00, 0x00, 0x00, 0x86, 0x00, 0x00, 0x00, 0x02, 0x00,
  0x00, 0x00, 0x85, 0x00, 0x00, 0x00, 0x82, 0x00, 0x00, 0x00, 0xe8, 0x84, 0xff,
  0xff, 0x34, 0x00, 0x00, 0x00, 0x87, 0x00, 0x00, 0x00, 0x20, 0x00, 0x00, 0x00,
  0x3c, 0x00, 0x00, 0x00, 0x04, 0x00, 0x00, 0x00, 0x04, 0x00, 0x00, 0x00, 0x01,
  0x00, 0x00, 0x00, 0xff, 0xff, 0xff, 0xff, 0xff, 0xff, 0xff, 0xff, 0x0b, 0x00,
  0x00, 0x00, 0x05, 0x00, 0x00, 0x00, 0x41, 0x64, 0x64, 0x5f, 0x34, 0x00, 0x00,
  0x00, 0x04, 0x00, 0x00, 0x00, 0x01, 0x00, 0x00, 0x00, 0x01, 0x00, 0x00, 0x00,
  0x01, 0x00, 0x00, 0x00, 0x0b, 0x00, 0x00, 0x00, 0xc8, 0x84, 0xff, 0xff, 0x0a,
  0xe0, 0xff, 0xff, 0x00, 0x00, 0x00, 0x01, 0x02, 0x00, 0x00, 0x00, 0x20, 0x00,
  0x00, 0x00, 0x14, 0x00, 0x00, 0x00, 0x04, 0x00, 0x00, 0x00, 0x6a, 0xe1, 0xff,
  0xff, 0x01, 0x00, 0x00, 0x00, 0x01, 0x00, 0x00, 0x00, 0x01, 0x00, 0x00, 0x00,
  0x85, 0x00, 0x00, 0x00, 0x03, 0x00, 0x00, 0x00, 0x84, 0x00, 0x00, 0x00, 0x39,
  0x00, 0x00, 0x00, 0x4e, 0x00, 0x00, 0x00, 0x74, 0x85, 0xff, 0xff, 0x5c, 0x00,
  0x00, 0x00, 0x86, 0x00, 0x00, 0x00, 0x20, 0x00, 0x00, 0x00, 0x64, 0x00, 0x00,
  0x00, 0x04, 0x00, 0x00, 0x00, 0x04, 0x00, 0x00, 0x00, 0x01, 0x00, 0x00, 0x00,
  0xff, 0xff, 0xff, 0xff, 0xff, 0xff, 0xff, 0xff, 0x0b, 0x00, 0x00, 0x00, 0x2d,
  0x00, 0x00, 0x00, 0x42, 0x69, 0x61, 0x73, 0x41, 0x64, 0x64, 0x5f, 0x31, 0x35,
  0x3b, 0x64, 0x65, 0x70, 0x74, 0x68, 0x77, 0x69, 0x73, 0x65, 0x5f, 0x33, 0x37,
  0x3b, 0x43, 0x6f, 0x6e, 0x76, 0x32, 0x44, 0x5f, 0x31, 0x35, 0x3b, 0x63, 0x6f,
  0x6e, 0x76, 0x5f, 0x35, 0x5f, 0x31, 0x5f, 0x62, 0x31, 0x00, 0x00, 0x00, 0x04,
  0x00, 0x00, 0x00, 0x01, 0x00, 0x00, 0x00, 0x01, 0x00, 0x00, 0x00, 0x01, 0x00,
  0x00, 0x00, 0x0b, 0x00, 0x00, 0x00, 0x7c, 0x85, 0xff, 0xff, 0xbe, 0xe0, 0xff,
  0xff, 0x00, 0x00, 0x00, 0x02, 0x01, 0x00, 0x00, 0x00, 0x24, 0x00, 0x00, 0x00,
  0x18, 0x00, 0x00, 0x00, 0x04, 0x00, 0x00, 0x00, 0xb0, 0xe0, 0xff, 0xff, 0x01,
  0x00, 0x00, 0x00, 0x01, 0x00, 0x00, 0x00, 0x01, 0x00, 0x00, 0x00, 0x01, 0x00,
  0x00, 0x00, 0x84, 0x00, 0x00, 0x00, 0x03, 0x00, 0x00, 0x00, 0x83, 0x00, 0x00,
  0x00, 0x38, 0x00, 0x00, 0x00, 0x37, 0x00, 0x00, 0x00, 0x2c, 0x86, 0xff, 0xff,
  0x3c, 0x00, 0x00, 0x00, 0x85, 0x00, 0x00, 0x00, 0x20, 0x00, 0x00, 0x00, 0x44,
  0x00, 0x00, 0x00, 0x04, 0x00, 0x00, 0x00, 0x04, 0x00, 0x00, 0x00, 0x01, 0x00,
  0x00, 0x00, 0xff, 0xff, 0xff, 0xff, 0xff, 0xff, 0xff, 0xff, 0x06, 0x00, 0x00,
  0x00, 0x0d, 0x00, 0x00, 0x00, 0x64, 0x65, 0x70, 0x74, 0x68, 0x77, 0x69, 0x73,
  0x65, 0x5f, 0x33, 0x31, 0x32, 0x00, 0x00, 0x00, 0x04, 0x00, 0x00, 0x00, 0x01,
  0x00, 0x00, 0x00, 0x01, 0x00, 0x00, 0x00, 0x01, 0x00, 0x00, 0x00, 0x06, 0x00,
  0x00, 0x00, 0x14, 0x86, 0xff, 0xff, 0x56, 0xe1, 0xff, 0xff, 0x00, 0x00, 0x00,
  0x02, 0x01, 0x00, 0x00, 0x00, 0x24, 0x00, 0x00, 0x00, 0x18, 0x00, 0x00, 0x00,
  0x04, 0x00, 0x00, 0x00, 0x48, 0xe1, 0xff, 0xff, 0x01, 0x00, 0x00, 0x00, 0x01,
  0x00, 0x00, 0x00, 0x01, 0x00, 0x00, 0x00, 0x01, 0x00, 0x00, 0x00, 0x83, 0x00,
  0x00, 0x00, 0x03, 0x00, 0x00, 0x00, 0x7c, 0x00, 0x00, 0x00, 0x36, 0x00, 0x00,
  0x00, 0x37, 0x00, 0x00, 0x00, 0xc4, 0x86, 0xff, 0xff, 0x3c, 0x00, 0x00, 0x00,
  0x84, 0x00, 0x00, 0x00, 0x20, 0x00, 0x00, 0x00, 0x44, 0x00, 0x00, 0x00, 0x04,
  0x00, 0x00, 0x00, 0x04, 0x00, 0x00, 0x00, 0x01, 0x00, 0x00, 0x00, 0xff, 0xff,
  0xff, 0xff, 0xff, 0xff, 0xff, 0xff, 0x06, 0x00, 0x00, 0x00, 0x0d, 0x00, 0x00,
  0x00, 0x64, 0x65, 0x70, 0x74, 0x68, 0x77, 0x69, 0x73, 0x65, 0x5f, 0x33, 0x30,
  0x31, 0x00, 0x00, 0x00, 0x04, 0x00, 0x00, 0x00, 0x01, 0x00, 0x00, 0x00, 0x01,
  0x00, 0x00, 0x00, 0x01, 0x00, 0x00, 0x00, 0x06, 0x00, 0x00, 0x00, 0xac, 0x86,
  0xff, 0xff, 0xee, 0xe1, 0xff, 0xff, 0x00, 0x00, 0x00, 0x01, 0x02, 0x00, 0x00,
  0x00, 0x20, 0x00, 0x00, 0x00, 0x14, 0x00, 0x00, 0x00, 0x04, 0x00, 0x00, 0x00,
  0x4e, 0xe3, 0xff, 0xff, 0x01, 0x00, 0x00, 0x00, 0x01, 0x00, 0x00, 0x00, 0x01,
  0x00, 0x00, 0x00, 0x82, 0x00, 0x00, 0x00, 0x03, 0x00, 0x00, 0x00, 0x81, 0x00,
  0x00, 0x00, 0x35, 0x00, 0x00, 0x00, 0x4e, 0x00, 0x00, 0x00, 0x58, 0x87, 0xff,
  0xff, 0x5c, 0x00, 0x00, 0x00, 0x83, 0x00, 0x00, 0x00, 0x20, 0x00, 0x00, 0x00,
  0x64, 0x00, 0x00, 0x00, 0x04, 0x00, 0x00, 0x00, 0x04, 0x00, 0x00, 0x00, 0x01,
  0x00, 0x00, 0x00, 0xff, 0xff, 0xff, 0xff, 0xff, 0xff, 0xff, 0xff, 0x0b, 0x00,
  0x00, 0x00, 0x2c, 0x00, 0x00, 0x00, 0x42, 0x69, 0x61, 0x73, 0x41, 0x64, 0x64,
  0x5f, 0x31, 0x34, 0x3b, 0x64, 0x65, 0x70, 0x74, 0x68, 0x77, 0x69, 0x73, 0x65,
  0x5f, 0x33, 0x37, 0x3b, 0x43, 0x6f, 0x6e, 0x76, 0x32, 0x44, 0x5f, 0x31, 0x34,
  0x3b, 0x63, 0x6f, 0x6e, 0x76, 0x5f, 0x35, 0x5f, 0x31, 0x5f, 0x62, 0x00, 0x00,
  0x00, 0x00, 0x04, 0x00, 0x00, 0x00, 0x01, 0x00, 0x00, 0x00, 0x01, 0x00, 0x00,
  0x00, 0x01, 0x00, 0x00, 0x00, 0x0b, 0x00, 0x00, 0x00, 0x60, 0x87, 0xff, 0xff,
  0xa2, 0xe2, 0xff, 0xff, 0x00, 0x00, 0x00, 0x02, 0x01, 0x00, 0x00, 0x00, 0x24,
  0x00, 0x00, 0x00, 0x18, 0x00, 0x00, 0x00, 0x04, 0x00, 0x00, 0x00, 0x94, 0xe2,
  0xff, 0xff, 0x01, 0x00, 0x00, 0x00, 0x01, 0x00, 0x00, 0x00, 0x01, 0x00, 0x00,
  0x00, 0x01, 0x00, 0x00, 0x00, 0x81, 0x00, 0x00, 0x00, 0x03, 0x00, 0x00, 0x00,
  0x80, 0x00, 0x00, 0x00, 0x34, 0x00, 0x00, 0x00, 0x41, 0x00, 0x00, 0x00, 0x10,
  0x88, 0xff, 0xff, 0x3c, 0x00, 0x00, 0x00, 0x82, 0x00, 0x00, 0x00, 0x20, 0x00,
  0x00, 0x00, 0x44, 0x00, 0x00, 0x00, 0x04, 0x00, 0x00, 0x00, 0x04, 0x00, 0x00,
  0x00, 0x01, 0x00, 0x00, 0x00, 0xff, 0xff, 0xff, 0xff, 0xff, 0xff, 0xff, 0xff,
  0x0b, 0x00, 0x00, 0x00, 0x0d, 0x00, 0x00, 0x00, 0x64, 0x65, 0x70, 0x74, 0x68,
  0x77, 0x69, 0x73, 0x65, 0x5f, 0x32, 0x39, 0x31, 0x00, 0x00, 0x00, 0x04, 0x00,
  0x00, 0x00, 0x01, 0x00, 0x00, 0x00, 0x01, 0x00, 0x00, 0x00, 0x01, 0x00, 0x00,
  0x00, 0x0b, 0x00, 0x00, 0x00, 0xf8, 0x87, 0xff, 0xff, 0x3a, 0xe3, 0xff, 0xff,
  0x00, 0x00, 0x00, 0x02, 0x01, 0x00, 0x00, 0x00, 0x24, 0x00, 0x00, 0x00, 0x18,
  0x00, 0x00, 0x00, 0x04, 0x00, 0x00, 0x00, 0x2c, 0xe3, 0xff, 0xff, 0x01, 0x00,
  0x00, 0x00, 0x01, 0x00, 0x00, 0x00, 0x01, 0x00, 0x00, 0x00, 0x01, 0x00, 0x00,
  0x00, 0x80, 0x00, 0x00, 0x00, 0x03, 0x00, 0x00, 0x00, 0x7f, 0x00, 0x00, 0x00,
  0x33, 0x00, 0x00, 0x00, 0x41, 0x00, 0x00, 0x00, 0xa8, 0x88, 0xff, 0xff, 0x3c,
  0x00, 0x00, 0x00, 0x81, 0x00, 0x00, 0x00, 0x20, 0x00, 0x00, 0x00, 0x44, 0x00,
  0x00, 0x00, 0x04, 0x00, 0x00, 0x00, 0x04, 0x00, 0x00, 0x00, 0x01, 0x00, 0x00,
  0x00, 0xff, 0xff, 0xff, 0xff, 0xff, 0xff, 0xff, 0xff, 0x0b, 0x00, 0x00, 0x00,
  0x0d, 0x00, 0x00, 0x00, 0x64, 0x65, 0x70, 0x74, 0x68, 0x77, 0x69, 0x73, 0x65,
  0x5f, 0x32, 0x38, 0x31, 0x00, 0x00, 0x00, 0x04, 0x00, 0x00, 0x00, 0x01, 0x00,
  0x00, 0x00, 0x01, 0x00, 0x00, 0x00, 0x01, 0x00, 0x00, 0x00, 0x0b, 0x00, 0x00,
  0x00, 0x90, 0x88, 0xff, 0xff, 0xd2, 0xe3, 0xff, 0xff, 0x00, 0x00, 0x00, 0x01,
  0x02, 0x00, 0x00, 0x00, 0x24, 0x00, 0x00, 0x00, 0x18, 0x00, 0x00, 0x00, 0x04,
  0x00, 0x00, 0x00, 0x38, 0xe7, 0xff, 0xff, 0x01, 0x00, 0x00, 0x00, 0x01, 0x00,
  0x00, 0x00, 0x00, 0x00, 0x00, 0x01, 0x01, 0x00, 0x00, 0x00, 0x7f, 0x00, 0x00,
  0x00, 0x03, 0x00, 0x00, 0x00, 0x7e, 0x00, 0x00, 0x00, 0x32, 0x00, 0x00, 0x00,
  0x02, 0x00, 0x00, 0x00, 0x40, 0x89, 0xff, 0xff, 0x60, 0x00, 0x00, 0x00, 0x80,
  0x00, 0x00, 0x00, 0x20, 0x00, 0x00, 0x00, 0x68, 0x00, 0x00, 0x00, 0x04, 0x00,
  0x00, 0x00, 0x04, 0x00, 0x00, 0x00, 0x01, 0x00, 0x00, 0x00, 0xff, 0xff, 0xff,
  0xff, 0xff, 0xff, 0xff, 0xff, 0x0b, 0x00, 0x00, 0x00, 0x33, 0x00, 0x00, 0x00,
  0x52, 0x65, 0x6c, 0x75, 0x5f, 0x34, 0x3b, 0x42, 0x69, 0x61, 0x73, 0x41, 0x64,
  0x64, 0x5f, 0x31, 0x33, 0x3b, 0x64, 0x65, 0x70, 0x74, 0x68, 0x77, 0x69, 0x73,
  0x65, 0x5f, 0x33, 0x37, 0x3b, 0x43, 0x6f, 0x6e, 0x76, 0x32, 0x44, 0x5f, 0x31,
  0x33, 0x3b, 0x63, 0x6f, 0x6e, 0x76, 0x5f, 0x35, 0x5f, 0x30, 0x5f, 0x62, 0x00,
  0x04, 0x00, 0x00, 0x00, 0x01, 0x00, 0x00, 0x00, 0x01, 0x00, 0x00, 0x00, 0x01,
  0x00, 0x00, 0x00, 0x0b, 0x00, 0x00, 0x00, 0x4c, 0x89, 0xff, 0xff, 0x8e, 0xe4,
  0xff, 0xff, 0x00, 0x00, 0x00, 0x02, 0x01, 0x00, 0x00, 0x00, 0x24, 0x00, 0x00,
  0x00, 0x18, 0x00, 0x00, 0x00, 0x04, 0x00, 0x00, 0x00, 0x80, 0xe4, 0xff, 0xff,
  0x01, 0x00, 0x00, 0x00, 0x01, 0x00, 0x00, 0x00, 0x01, 0x00, 0x00, 0x00, 0x01,
  0x00, 0x00, 0x00, 0x7e, 0x00, 0x00, 0x00, 0x03, 0x00, 0x00, 0x00, 0x7d, 0x00,
  0x00, 0x00, 0x31, 0x00, 0x00, 0x00, 0x37, 0x00, 0x00, 0x00, 0xfc, 0x89, 0xff,
  0xff, 0x3c, 0x00, 0x00, 0x00, 0x7f, 0x00, 0x00, 0x00, 0x20, 0x00, 0x00, 0x00,
  0x44, 0x00, 0x00, 0x00, 0x04, 0x00, 0x00, 0x00, 0x04, 0x00, 0x00, 0x00, 0x01,
  0x00, 0x00, 0x00, 0xff, 0xff, 0xff, 0xff, 0xff, 0xff, 0xff, 0xff, 0x06, 0x00,
  0x00, 0x00, 0x0d, 0x00, 0x00, 0x00, 0x64, 0x65, 0x70, 0x74, 0x68, 0x77, 0x69,
  0x73, 0x65, 0x5f, 0x32, 0x37, 0x31, 0x00, 0x00, 0x00, 0x04, 0x00, 0x00, 0x00,
  0x01, 0x00, 0x00, 0x00, 0x01, 0x00, 0x00, 0x00, 0x01, 0x00, 0x00, 0x00, 0x06,
  0x00, 0x00, 0x00, 0xe4, 0x89, 0xff, 0xff, 0x26, 0xe5, 0xff, 0xff, 0x00, 0x00,
  0x00, 0x02, 0x01, 0x00, 0x00, 0x00, 0x24, 0x00, 0x00, 0x00, 0x18, 0x00, 0x00,
  0x00, 0x04, 0x00, 0x00, 0x00, 0x18, 0xe5, 0xff, 0xff, 0x01, 0x00, 0x00, 0x00,
  0x01, 0x00, 0x00, 0x00, 0x01, 0x00, 0x00, 0x00, 0x01, 0x00, 0x00, 0x00, 0x7d,
  0x00, 0x00, 0x00, 0x03, 0x00, 0x00, 0x00, 0x7c, 0x00, 0x00, 0x00, 0x30, 0x00,
  0x00, 0x00, 0x37, 0x00, 0x00, 0x00, 0x94, 0x8a, 0xff, 0xff, 0x3c, 0x00, 0x00,
  0x00, 0x7e, 0x00, 0x00, 0x00, 0x20, 0x00, 0x00, 0x00, 0x44, 0x00, 0x00, 0x00,
  0x04, 0x00, 0x00, 0x00, 0x04, 0x00, 0x00, 0x00, 0x01, 0x00, 0x00, 0x00, 0xff,
  0xff, 0xff, 0xff, 0xff, 0xff, 0xff, 0xff, 0x06, 0x00, 0x00, 0x00, 0x0d, 0x00,
  0x00, 0x00, 0x64, 0x65, 0x70, 0x74, 0x68, 0x77, 0x69, 0x73, 0x65, 0x5f, 0x32,
  0x36, 0x31, 0x00, 0x00, 0x00, 0x04, 0x00, 0x00, 0x00, 0x01, 0x00, 0x00, 0x00,
  0x01, 0x00, 0x00, 0x00, 0x01, 0x00, 0x00, 0x00, 0x06, 0x00, 0x00, 0x00, 0x7c,
  0x8a, 0xff, 0xff, 0xbe, 0xe5, 0xff, 0xff, 0x00, 0x00, 0x00, 0x0b, 0x03, 0x00,
  0x00, 0x00, 0x18, 0x00, 0x00, 0x00, 0x0c, 0x00, 0x00, 0x00, 0x04, 0x00, 0x00,
  0x00, 0x98, 0x8a, 0xff, 0xff, 0x01, 0x00, 0x00, 0x00, 0x7c, 0x00, 0x00, 0x00,
  0x02, 0x00, 0x00, 0x00, 0x7b, 0x00, 0x00, 0x00, 0x78, 0x00, 0x00, 0x00, 0x1c,
  0x8b, 0xff, 0xff, 0x34, 0x00, 0x00, 0x00, 0x7d, 0x00, 0x00, 0x00, 0x20, 0x00,
  0x00, 0x00, 0x3c, 0x00, 0x00, 0x00, 0x04, 0x00, 0x00, 0x00, 0x04, 0x00, 0x00,
  0x00, 0x01, 0x00, 0x00, 0x00, 0xff, 0xff, 0xff, 0xff, 0xff, 0xff, 0xff, 0xff,
  0x06, 0x00, 0x00, 0x00, 0x05, 0x00, 0x00, 0x00, 0x41, 0x64, 0x64, 0x5f, 0x33,
  0x00, 0x00, 0x00, 0x04, 0x00, 0x00, 0x00, 0x01, 0x00, 0x00, 0x00, 0x01, 0x00,
  0x00, 0x00, 0x01, 0x00, 0x00, 0x00, 0x06, 0x00, 0x00, 0x00, 0xfc, 0x8a, 0xff,
  0xff, 0x3e, 0xe6, 0xff, 0xff, 0x00, 0x00, 0x00, 0x01, 0x02, 0x00, 0x00, 0x00,
  0x20, 0x00, 0x00, 0x00, 0x14, 0x00, 0x00, 0x00, 0x04, 0x00, 0x00, 0x00, 0x9e,
  0xe7, 0xff, 0xff, 0x01, 0x00, 0x00, 0x00, 0x01, 0x00, 0x00, 0x00, 0x01, 0x00,
  0x00, 0x00, 0x7b, 0x00, 0x00, 0x00, 0x03, 0x00, 0x00, 0x00, 0x7a, 0x00, 0x00,
  0x00, 0x2f, 0x00, 0x00, 0x00, 0x4d, 0x00, 0x00, 0x00, 0xa8, 0x8b, 0xff, 0xff,
  0x5c, 0x00, 0x00, 0x00, 0x7c, 0x00, 0x00, 0x00, 0x20, 0x00, 0x00, 0x00, 0x64,
  0x00, 0x00, 0x00, 0x04, 0x00, 0x00, 0x00, 0x04, 0x00, 0x00, 0x00, 0x01, 0x00,
  0x00, 0x00, 0xff, 0xff, 0xff, 0xff, 0xff, 0xff, 0xff, 0xff, 0x06, 0x00, 0x00,
  0x00, 0x2d, 0x00, 0x00, 0x00, 0x42, 0x69, 0x61, 0x73, 0x41, 0x64, 0x64, 0x5f,
  0x31, 0x32, 0x3b, 0x64, 0x65, 0x70, 0x74, 0x68, 0x77, 0x69, 0x73, 0x65, 0x5f,
  0x33, 0x31, 0x3b, 0x43, 0x6f, 0x6e, 0x76, 0x32, 0x44, 0x5f, 0x31, 0x32, 0x3b,
  0x63, 0x6f, 0x6e, 0x76, 0x5f, 0x34, 0x5f, 0x31, 0x5f, 0x62, 0x31, 0x00, 0x00,
  0x00, 0x04, 0x00, 0x00, 0x00, 0x01, 0x00, 0x00, 0x00, 0x01, 0x00, 0x00, 0x00,
  0x01, 0x00, 0x00, 0x00, 0x06, 0x00, 0x00, 0x00, 0xb0, 0x8b, 0xff, 0xff, 0xf2,
  0xe6, 0xff, 0xff, 0x00, 0x00, 0x00, 0x02, 0x01, 0x00, 0x00, 0x00, 0x24, 0x00,
  0x00, 0x00, 0x18, 0x00, 0x00, 0x00, 0x04, 0x00, 0x00, 0x00, 0xe4, 0xe6, 0xff,
  0xff, 0x01, 0x00, 0x00, 0x00, 0x01, 0x00, 0x00, 0x00, 0x01, 0x00, 0x00, 0x00,
  0x01, 0x00, 0x00, 0x00, 0x7a, 0x00, 0x00, 0x00, 0x03, 0x00, 0x00, 0x00, 0x79,
  0x00, 0x00, 0x00, 0x2e, 0x00, 0x00, 0x00, 0x2d, 0x00, 0x00, 0x00, 0x60, 0x8c,
  0xff, 0xff, 0x3c, 0x00, 0x00, 0x00, 0x7b, 0x00, 0x00, 0x00, 0x20, 0x00, 0x00,
  0x00, 0x44, 0x00, 0x00, 0x00, 0x04, 0x00, 0x00, 0x00, 0x04, 0x00, 0x00, 0x00,
  0x01, 0x00, 0x00, 0x00, 0xff, 0xff, 0xff, 0xff, 0xff, 0xff, 0xff, 0xff, 0x04,
  0x00, 0x00, 0x00, 0x0d, 0x00, 0x00, 0x00, 0x64, 0x65, 0x70, 0x74, 0x68, 0x77,
  0x69, 0x73, 0x65, 0x5f, 0x32, 0x35, 0x32, 0x00, 0x00, 0x00, 0x04, 0x00, 0x00,
  0x00, 0x01, 0x00, 0x00, 0x00, 0x01, 0x00, 0x00, 0x00, 0x01, 0x00, 0x00, 0x00,
  0x04, 0x00, 0x00, 0x00, 0x48, 0x8c, 0xff, 0xff, 0x8a, 0xe7, 0xff, 0xff, 0x00,
  0x00, 0x00, 0x02, 0x01, 0x00, 0x00, 0x00, 0x24, 0x00, 0x00, 0x00, 0x18, 0x00,
  0x00, 0x00, 0x04, 0x00, 0x00, 0x00, 0x7c, 0xe7, 0xff, 0xff, 0x01, 0x00, 0x00,
  0x00, 0x01, 0x00, 0x00, 0x00, 0x01, 0x00, 0x00, 0x00, 0x01, 0x00, 0x00, 0x00,
  0x79, 0x00, 0x00, 0x00, 0x03, 0x00, 0x00, 0x00, 0x72, 0x00, 0x00, 0x00, 0x2c,
  0x00, 0x00, 0x00, 0x2d, 0x00, 0x00, 0x00, 0xf8, 0x8c, 0xff, 0xff, 0x3c, 0x00,
  0x00, 0x00, 0x7a, 0x00, 0x00, 0x00, 0x20, 0x00, 0x00, 0x00, 0x44, 0x00, 0x00,
  0x00, 0x04, 0x00, 0x00, 0x00, 0x04, 0x00, 0x00, 0x00, 0x01, 0x00, 0x00, 0x00,
  0xff, 0xff, 0xff, 0xff, 0xff, 0xff, 0xff, 0xff, 0x04, 0x00, 0x00, 0x00, 0x0d,
  0x00, 0x00, 0x00, 0x64, 0x65, 0x70, 0x74, 0x68, 0x77, 0x69, 0x73, 0x65, 0x5f,
  0x32, 0x34, 0x31, 0x00, 0x00, 0x00, 0x04, 0x00, 0x00, 0x00, 0x01, 0x00, 0x00,
  0x00, 0x01, 0x00, 0x00, 0x00, 0x01, 0x00, 0x00, 0x00, 0x04, 0x00, 0x00, 0x00,
  0xe0, 0x8c, 0xff, 0xff, 0x22, 0xe8, 0xff, 0xff, 0x00, 0x00, 0x00, 0x01, 0x02,
  0x00, 0x00, 0x00, 0x20, 0x00, 0x00, 0x00, 0x14, 0x00, 0x00, 0x00, 0x04, 0x00,
  0x00, 0x00, 0x82, 0xe9, 0xff, 0xff, 0x01, 0x00, 0x00, 0x00, 0x01, 0x00, 0x00,
  0x00, 0x01, 0x00, 0x00, 0x00, 0x78, 0x00, 0x00, 0x00, 0x03, 0x00, 0x00, 0x00,
  0x77, 0x00, 0x00, 0x00, 0x2b, 0x00, 0x00, 0x00, 0x4d, 0x00, 0x00, 0x00, 0x8c,
  0x8d, 0xff, 0xff, 0x5c, 0x00, 0x00, 0x00, 0x79, 0x00, 0x00, 0x00, 0x20, 0x00,
  0x00, 0x00, 0x64, 0x00, 0x00, 0x00, 0x04, 0x00, 0x00, 0x00, 0x04, 0x00, 0x00,
  0x00, 0x01, 0x00, 0x00, 0x00, 0xff, 0xff, 0xff, 0xff, 0xff, 0xff, 0xff, 0xff,
  0x06, 0x00, 0x00, 0x00, 0x2c, 0x00, 0x00, 0x00, 0x42, 0x69, 0x61, 0x73, 0x41,
  0x64, 0x64, 0x5f, 0x31, 0x31, 0x3b, 0x64, 0x65, 0x70, 0x74, 0x68, 0x77, 0x69,
  0x73, 0x65, 0x5f, 0x33, 0x31, 0x3b, 0x43, 0x6f, 0x6e, 0x76, 0x32, 0x44, 0x5f,
  0x31, 0x31, 0x3b, 0x63, 0x6f, 0x6e, 0x76, 0x5f, 0x34, 0x5f, 0x31, 0x5f, 0x62,
  0x00, 0x00, 0x00, 0x00, 0x04, 0x00, 0x00, 0x00, 0x01, 0x00, 0x00, 0x00, 0x01,
  0x00, 0x00, 0x00, 0x01, 0x00, 0x00, 0x00, 0x06, 0x00, 0x00, 0x00, 0x94, 0x8d,
  0xff, 0xff, 0xd6, 0xe8, 0xff, 0xff, 0x00, 0x00, 0x00, 0x02, 0x01, 0x00, 0x00,
  0x00, 0x24, 0x00, 0x00, 0x00, 0x18, 0x00, 0x00, 0x00, 0x04, 0x00, 0x00, 0x00,
  0xc8, 0xe8, 0xff, 0xff, 0x01, 0x00, 0x00, 0x00, 0x01, 0x00, 0x00, 0x00, 0x01,
  0x00, 0x00, 0x00, 0x01, 0x00, 0x00, 0x00, 0x77, 0x00, 0x00, 0x00, 0x03, 0x00,
  0x00, 0x00, 0x76, 0x00, 0x00, 0x00, 0x2a, 0x00, 0x00, 0x00, 0x37, 0x00, 0x00,
  0x00, 0x44, 0x8e, 0xff, 0xff, 0x3c, 0x00, 0x00, 0x00, 0x78, 0x00, 0x00, 0x00,
  0x20, 0x00, 0x00, 0x00, 0x44, 0x00, 0x00, 0x00, 0x04, 0x00, 0x00, 0x00, 0x04,
  0x00, 0x00, 0x00, 0x01, 0x00, 0x00, 0x00, 0xff, 0xff, 0xff, 0xff, 0xff, 0xff,
  0xff, 0xff, 0x06, 0x00, 0x00, 0x00, 0x0d, 0x00, 0x00, 0x00, 0x64, 0x65, 0x70,
  0x74, 0x68, 0x77, 0x69, 0x73, 0x65, 0x5f, 0x32, 0x33, 0x31, 0x00, 0x00, 0x00,
  0x04, 0x00, 0x00, 0x00, 0x01, 0x00, 0x00, 0x00, 0x01, 0x00, 0x00, 0x00, 0x01,
  0x00, 0x00, 0x00, 0x06, 0x00, 0x00, 0x00, 0x2c, 0x8e, 0xff, 0xff, 0x6e, 0xe9,
  0xff, 0xff, 0x00, 0x00, 0x00, 0x02, 0x01, 0x00, 0x00, 0x00, 0x24, 0x00, 0x00,
  0x00, 0x18, 0x00, 0x00, 0x00, 0x04, 0x00, 0x00, 0x00, 0x60, 0xe9, 0xff, 0xff,
  0x01, 0x00, 0x00, 0x00, 0x01, 0x00, 0x00, 0x00, 0x01, 0x00, 0x00, 0x00, 0x01,
  0x00, 0x00, 0x00, 0x76, 0x00, 0x00, 0x00, 0x03, 0x00, 0x00, 0x00, 0x75, 0x00,
  0x00, 0x00, 0x29, 0x00, 0x00, 0x00, 0x37, 0x00, 0x00, 0x00, 0xdc, 0x8e, 0xff,
  0xff, 0x3c, 0x00, 0x00, 0x00, 0x77, 0x00, 0x00, 0x00, 0x20, 0x00, 0x00, 0x00,
  0x44, 0x00, 0x00, 0x00, 0x04, 0x00, 0x00, 0x00, 0x04, 0x00, 0x00, 0x00, 0x01,
  0x00, 0x00, 0x00, 0xff, 0xff, 0xff, 0xff, 0xff, 0xff, 0xff, 0xff, 0x06, 0x00,
  0x00, 0x00, 0x0d, 0x00, 0x00, 0x00, 0x64, 0x65, 0x70, 0x74, 0x68, 0x77, 0x69,
  0x73, 0x65, 0x5f, 0x32, 0x32, 0x31, 0x00, 0x00, 0x00, 0x04, 0x00, 0x00, 0x00,
  0x01, 0x00, 0x00, 0x00, 0x01, 0x00, 0x00, 0x00, 0x01, 0x00, 0x00, 0x00, 0x06,
  0x00, 0x00, 0x00, 0xc4, 0x8e, 0xff, 0xff, 0x06, 0xea, 0xff, 0xff, 0x00, 0x00,
  0x00, 0x01, 0x02, 0x00, 0x00, 0x00, 0x24, 0x00, 0x00, 0x00, 0x18, 0x00, 0x00,
  0x00, 0x04, 0x00, 0x00, 0x00, 0x6c, 0xed, 0xff, 0xff, 0x01, 0x00, 0x00, 0x00,
  0x01, 0x00, 0x00, 0x00, 0x00, 0x00, 0x00, 0x01, 0x01, 0x00, 0x00, 0x00, 0x75,
  0x00, 0x00, 0x00, 0x03, 0x00, 0x00, 0x00, 0x74, 0x00, 0x00, 0x00, 0x28, 0x00,
  0x00, 0x00, 0x03, 0x00, 0x00, 0x00, 0x74, 0x8f, 0xff, 0xff, 0x60, 0x00, 0x00,
  0x00, 0x76, 0x00, 0x00, 0x00, 0x20, 0x00, 0x00, 0x00, 0x68, 0x00, 0x00, 0x00,
  0x04, 0x00, 0x00, 0x00, 0x04, 0x00, 0x00, 0x00, 0x01, 0x00, 0x00, 0x00, 0xff,
  0xff, 0xff, 0xff, 0xff, 0xff, 0xff, 0xff, 0x06, 0x00, 0x00, 0x00, 0x33, 0x00,
  0x00, 0x00, 0x52, 0x65, 0x6c, 0x75, 0x5f, 0x33, 0x3b, 0x42, 0x69, 0x61, 0x73,
  0x41, 0x64, 0x64, 0x5f, 0x31, 0x30, 0x3b, 0x64, 0x65, 0x70, 0x74, 0x68, 0x77,
  0x69, 0x73, 0x65, 0x5f, 0x33, 0x31, 0x3b, 0x43, 0x6f, 0x6e, 0x76, 0x32, 0x44,
  0x5f, 0x31, 0x30, 0x3b, 0x63, 0x6f, 0x6e, 0x76, 0x5f, 0x34, 0x5f, 0x30, 0x5f,
  0x62, 0x00, 0x04, 0x00, 0x00, 0x00, 0x01, 0x00, 0x00, 0x00, 0x01, 0x00, 0x00,
  0x00, 0x01, 0x00, 0x00, 0x00, 0x06, 0x00, 0x00, 0x00, 0x80, 0x8f, 0xff, 0xff,
  0xc2, 0xea, 0xff, 0xff, 0x00, 0x00, 0x00, 0x02, 0x01, 0x00, 0x00, 0x00, 0x24,
  0x00, 0x00, 0x00, 0x18, 0x00, 0x00, 0x00, 0x04, 0x00, 0x00, 0x00, 0xb4, 0xea,
  0xff, 0xff, 0x01, 0x00, 0x00, 0x00, 0x01, 0x00, 0x00, 0x00, 0x01, 0x00, 0x00,
  0x00, 0x01, 0x00, 0x00, 0x00, 0x74, 0x00, 0x00, 0x00, 0x03, 0x00, 0x00, 0x00,
  0x73, 0x00, 0x00, 0x00, 0x27, 0x00, 0x00, 0x00, 0x2d, 0x00, 0x00, 0x00, 0x30,
  0x90, 0xff, 0xff, 0x3c, 0x00, 0x00, 0x00, 0x75, 0x00, 0x00, 0x00, 0x20, 0x00,
  0x00, 0x00, 0x44, 0x00, 0x00, 0x00, 0x04, 0x00, 0x00, 0x00, 0x04, 0x00, 0x00,
  0x00, 0x01, 0x00, 0x00, 0x00, 0xff, 0xff, 0xff, 0xff, 0xff, 0xff, 0xff, 0xff,
  0x04, 0x00, 0x00, 0x00, 0x0d, 0x00, 0x00, 0x00, 0x64, 0x65, 0x70, 0x74, 0x68,
  0x77, 0x69, 0x73, 0x65, 0x5f, 0x32, 0x31, 0x31, 0x00, 0x00, 0x00, 0x04, 0x00,
  0x00, 0x00, 0x01, 0x00, 0x00, 0x00, 0x01, 0x00, 0x00, 0x00, 0x01, 0x00, 0x00,
  0x00, 0x04, 0x00, 0x00, 0x00, 0x18, 0x90, 0xff, 0xff, 0x5a, 0xeb, 0xff, 0xff,
  0x00, 0x00, 0x00, 0x02, 0x01, 0x00, 0x00, 0x00, 0x24, 0x00, 0x00, 0x00, 0x18,
  0x00, 0x00, 0x00, 0x04, 0x00, 0x00, 0x00, 0x4c, 0xeb, 0xff, 0xff, 0x01, 0x00,
  0x00, 0x00, 0x01, 0x00, 0x00, 0x00, 0x01, 0x00, 0x00, 0x00, 0x01, 0x00, 0x00,
  0x00, 0x73, 0x00, 0x00, 0x00, 0x03, 0x00, 0x00, 0x00, 0x72, 0x00, 0x00, 0x00,
  0x26, 0x00, 0x00, 0x00, 0x2d, 0x00, 0x00, 0x00, 0xc8, 0x90, 0xff, 0xff, 0x3c,
  0x00, 0x00, 0x00, 0x74, 0x00, 0x00, 0x00, 0x20, 0x00, 0x00, 0x00, 0x44, 0x00,
  0x00, 0x00, 0x04, 0x00, 0x00, 0x00, 0x04, 0x00, 0x00, 0x00, 0x01, 0x00, 0x00,
  0x00, 0xff, 0xff, 0xff, 0xff, 0xff, 0xff, 0xff, 0xff, 0x04, 0x00, 0x00, 0x00,
  0x0d, 0x00, 0x00, 0x00, 0x64, 0x65, 0x70, 0x74, 0x68, 0x77, 0x69, 0x73, 0x65,
  0x5f, 0x32, 0x30, 0x31, 0x00, 0x00, 0x00, 0x04, 0x00, 0x00, 0x00, 0x01, 0x00,
  0x00, 0x00, 0x01, 0x00, 0x00, 0x00, 0x01, 0x00, 0x00, 0x00, 0x04, 0x00, 0x00,
  0x00, 0xb0, 0x90, 0xff, 0xff, 0xf2, 0xeb, 0xff, 0xff, 0x00, 0x00, 0x00, 0x0b,
  0x03, 0x00, 0x00, 0x00, 0x18, 0x00, 0x00, 0x00, 0x0c, 0x00, 0x00, 0x00, 0x04,
  0x00, 0x00, 0x00, 0xcc, 0x90, 0xff, 0xff, 0x01, 0x00, 0x00, 0x00, 0x72, 0x00,
  0x00, 0x00, 0x02, 0x00, 0x00, 0x00, 0x71, 0x00, 0x00, 0x00, 0x6e, 0x00, 0x00,
  0x00, 0x50, 0x91, 0xff, 0xff, 0x34, 0x00, 0x00, 0x00, 0x73, 0x00, 0x00, 0x00,
  0x20, 0x00, 0x00, 0x00, 0x3c, 0x00, 0x00, 0x00, 0x04, 0x00, 0x00, 0x00, 0x04,
  0x00, 0x00, 0x00, 0x01, 0x00, 0x00, 0x00, 0xff, 0xff, 0xff, 0xff, 0xff, 0xff,
  0xff, 0xff, 0x04, 0x00, 0x00, 0x00, 0x05, 0x00, 0x00, 0x00, 0x41, 0x64, 0x64,
  0x5f, 0x32, 0x00, 0x00, 0x00, 0x04, 0x00, 0x00, 0x00, 0x01, 0x00, 0x00, 0x00,
  0x01, 0x00, 0x00, 0x00, 0x01, 0x00, 0x00, 0x00, 0x04, 0x00, 0x00, 0x00, 0x30,
  0x91, 0xff, 0xff, 0x72, 0xec, 0xff, 0xff, 0x00, 0x00, 0x00, 0x01, 0x02, 0x00,
  0x00, 0x00, 0x20, 0x00, 0x00, 0x00, 0x14, 0x00, 0x00, 0x00, 0x04, 0x00, 0x00,
  0x00, 0xd2, 0xed, 0xff, 0xff, 0x01, 0x00, 0x00, 0x00, 0x01, 0x00, 0x00, 0x00,
  0x01, 0x00, 0x00, 0x00, 0x71, 0x00, 0x00, 0x00, 0x03, 0x00, 0x00, 0x00, 0x70,
  0x00, 0x00, 0x00, 0x25, 0x00, 0x00, 0x00, 0x4c, 0x00, 0x00, 0x00, 0xdc, 0x91,
  0xff, 0xff, 0x58, 0x00, 0x00, 0x00, 0x72, 0x00, 0x00, 0x00, 0x20, 0x00, 0x00,
  0x00, 0x60, 0x00, 0x00, 0x00, 0x04, 0x00, 0x00, 0x00, 0x04, 0x00, 0x00, 0x00,
  0x01, 0x00, 0x00, 0x00, 0xff, 0xff, 0xff, 0xff, 0xff, 0xff, 0xff, 0xff, 0x04,
  0x00, 0x00, 0x00, 0x2b, 0x00, 0x00, 0x00, 0x42, 0x69, 0x61, 0x73, 0x41, 0x64,
  0x64, 0x5f, 0x39, 0x3b, 0x64, 0x65, 0x70, 0x74, 0x68, 0x77, 0x69, 0x73, 0x65,
  0x5f, 0x32, 0x35, 0x3b, 0x43, 0x6f, 0x6e, 0x76, 0x32, 0x44, 0x5f, 0x39, 0x3b,
  0x63, 0x6f, 0x6e, 0x76, 0x5f, 0x33, 0x5f, 0x31, 0x5f, 0x62, 0x31, 0x00, 0x04,
  0x00, 0x00, 0x00, 0x01, 0x00, 0x00, 0x00, 0x01, 0x00, 0x00, 0x00, 0x01, 0x00,
  0x00, 0x00, 0x04, 0x00, 0x00, 0x00, 0xe0, 0x91, 0xff, 0xff, 0x22, 0xed, 0xff,
  0xff, 0x00, 0x00, 0x00, 0x02, 0x01, 0x00, 0x00, 0x00, 0x24, 0x00, 0x00, 0x00,
  0x18, 0x00, 0x00, 0x00, 0x04, 0x00, 0x00, 0x00, 0x14, 0xed, 0xff, 0xff, 0x01,
  0x00, 0x00, 0x00, 0x01, 0x00, 0x00, 0x00, 0x01, 0x00, 0x00, 0x00, 0x01, 0x00,
  0x00, 0x00, 0x70, 0x00, 0x00, 0x00, 0x03, 0x00, 0x00, 0x00, 0x6f, 0x00, 0x00,
  0x00, 0x24, 0x00, 0x00, 0x00, 0x37, 0x00, 0x00, 0x00, 0x90, 0x92, 0xff, 0xff,
  0x3c, 0x00, 0x00, 0x00, 0x71, 0x00, 0x00, 0x00, 0x20, 0x00, 0x00, 0x00, 0x44,
  0x00, 0x00, 0x00, 0x04, 0x00, 0x00, 0x00, 0x04, 0x00, 0x00, 0x00, 0x01, 0x00,
  0x00, 0x00, 0xff, 0xff, 0xff, 0xff, 0xff, 0xff, 0xff, 0xff, 0x06, 0x00, 0x00,
  0x00, 0x0d, 0x00, 0x00, 0x00, 0x64, 0x65, 0x70, 0x74, 0x68, 0x77, 0x69, 0x73,
  0x65, 0x5f, 0x31, 0x39, 0x31, 0x00, 0x00, 0x00, 0x04, 0x00, 0x00, 0x00, 0x01,
  0x00, 0x00, 0x00, 0x01, 0x00, 0x00, 0x00, 0x01, 0x00, 0x00, 0x00, 0x06, 0x00,
  0x00, 0x00, 0x78, 0x92, 0xff, 0xff, 0xba, 0xed, 0xff, 0xff, 0x00, 0x00, 0x00,
  0x02, 0x01, 0x00, 0x00, 0x00, 0x24, 0x00, 0x00, 0x00, 0x18, 0x00, 0x00, 0x00,
  0x04, 0x00, 0x00, 0x00, 0xac, 0xed, 0xff, 0xff, 0x01, 0x00, 0x00, 0x00, 0x01,
  0x00, 0x00, 0x00, 0x01, 0x00, 0x00, 0x00, 0x01, 0x00, 0x00, 0x00, 0x6f, 0x00,
  0x00, 0x00, 0x03, 0x00, 0x00, 0x00, 0x68, 0x00, 0x00, 0x00, 0x23, 0x00, 0x00,
  0x00, 0x37, 0x00, 0x00, 0x00, 0x28, 0x93, 0xff, 0xff, 0x3c, 0x00, 0x00, 0x00,
  0x70, 0x00, 0x00, 0x00, 0x20, 0x00, 0x00, 0x00, 0x44, 0x00, 0x00, 0x00, 0x04,
  0x00, 0x00, 0x00, 0x04, 0x00, 0x00, 0x00, 0x01, 0x00, 0x00, 0x00, 0xff, 0xff,
  0xff, 0xff, 0xff, 0xff, 0xff, 0xff, 0x06, 0x00, 0x00, 0x00, 0x0d, 0x00, 0x00,
  0x00, 0x64, 0x65, 0x70, 0x74, 0x68, 0x77, 0x69, 0x73, 0x65, 0x5f, 0x31, 0x38,
  0x31, 0x00, 0x00, 0x00, 0x04, 0x00, 0x00, 0x00, 0x01, 0x00, 0x00, 0x00, 0x01,
  0x00, 0x00, 0x00, 0x01, 0x00, 0x00, 0x00, 0x06, 0x00, 0x00, 0x00, 0x10, 0x93,
  0xff, 0xff, 0x52, 0xee, 0xff, 0xff, 0x00, 0x00, 0x00, 0x01, 0x02, 0x00, 0x00,
  0x00, 0x20, 0x00, 0x00, 0x00, 0x14, 0x00, 0x00, 0x00, 0x04, 0x00, 0x00, 0x00,
  0xb2, 0xef, 0xff, 0xff, 0x01, 0x00, 0x00, 0x00, 0x01, 0x00, 0x00, 0x00, 0x01,
  0x00, 0x00, 0x00, 0x6e, 0x00, 0x00, 0x00, 0x03, 0x00, 0x00, 0x00, 0x6d, 0x00,
  0x00, 0x00, 0x22, 0x00, 0x00, 0x00, 0x4c, 0x00, 0x00, 0x00, 0xbc, 0x93, 0xff,
  0xff, 0x58, 0x00, 0x00, 0x00, 0x6f, 0x00, 0x00, 0x00, 0x20, 0x00, 0x00, 0x00,
  0x60, 0x00, 0x00, 0x00, 0x04, 0x00, 0x00, 0x00, 0x04, 0x00, 0x00, 0x00, 0x01,
  0x00, 0x00, 0x00, 0xff, 0xff, 0xff, 0xff, 0xff, 0xff, 0xff, 0xff, 0x04, 0x00,
  0x00, 0x00, 0x2a, 0x00, 0x00, 0x00, 0x42, 0x69, 0x61, 0x73, 0x41, 0x64, 0x64,
  0x5f, 0x38, 0x3b, 0x64, 0x65, 0x70, 0x74, 0x68, 0x77, 0x69, 0x73, 0x65, 0x5f,
  0x32, 0x35, 0x3b, 0x43, 0x6f, 0x6e, 0x76, 0x32, 0x44, 0x5f, 0x38, 0x3b, 0x63,
  0x6f, 0x6e, 0x76, 0x5f, 0x33, 0x5f, 0x31, 0x5f, 0x62, 0x00, 0x00, 0x04, 0x00,
  0x00, 0x00, 0x01, 0x00, 0x00, 0x00, 0x01, 0x00, 0x00, 0x00, 0x01, 0x00, 0x00,
  0x00, 0x04, 0x00, 0x00, 0x00, 0xc0, 0x93, 0xff, 0xff, 0x02, 0xef, 0xff, 0xff,
  0x00, 0x00, 0x00, 0x02, 0x01, 0x00, 0x00, 0x00, 0x24, 0x00, 0x00, 0x00, 0x18,
  0x00, 0x00, 0x00, 0x04, 0x00, 0x00, 0x00, 0xf4, 0xee, 0xff, 0xff, 0x01, 0x00,
  0x00, 0x00, 0x01, 0x00, 0x00, 0x00, 0x01, 0x00, 0x00, 0x00, 0x01, 0x00, 0x00,
  0x00, 0x6d, 0x00, 0x00, 0x00, 0x03, 0x00, 0x00, 0x00, 0x6c, 0x00, 0x00, 0x00,
  0x21, 0x00, 0x00, 0x00, 0x2d, 0x00, 0x00, 0x00, 0x70, 0x94, 0xff, 0xff, 0x3c,
  0x00, 0x00, 0x00, 0x6e, 0x00, 0x00, 0x00, 0x20, 0x00, 0x00, 0x00, 0x44, 0x00,
  0x00, 0x00, 0x04, 0x00, 0x00, 0x00, 0x04, 0x00, 0x00, 0x00, 0x01, 0x00, 0x00,
  0x00, 0xff, 0xff, 0xff, 0xff, 0xff, 0xff, 0xff, 0xff, 0x04, 0x00, 0x00, 0x00,
  0x0d, 0x00, 0x00, 0x00, 0x64, 0x65, 0x70, 0x74, 0x68, 0x77, 0x69, 0x73, 0x65,
  0x5f, 0x31, 0x37, 0x31, 0x00, 0x00, 0x00, 0x04, 0x00, 0x00, 0x00, 0x01, 0x00,
  0x00, 0x00, 0x01, 0x00, 0x00, 0x00, 0x01, 0x00, 0x00, 0x00, 0x04, 0x00, 0x00,
  0x00, 0x58, 0x94, 0xff, 0xff, 0x9a, 0xef, 0xff, 0xff, 0x00, 0x00, 0x00, 0x02,
  0x01, 0x00, 0x00, 0x00, 0x24, 0x00, 0x00, 0x00, 0x18, 0x00, 0x00, 0x00, 0x04,
  0x00, 0x00, 0x00, 0x8c, 0xef, 0xff, 0xff, 0x01, 0x00, 0x00, 0x00, 0x01, 0x00,
  0x00, 0x00, 0x01, 0x00, 0x00, 0x00, 0x01, 0x00, 0x00, 0x00, 0x6c, 0x00, 0x00,
  0x00, 0x03, 0x00, 0x00, 0x00, 0x6b, 0x00, 0x00, 0x00, 0x20, 0x00, 0x00, 0x00,
  0x2d, 0x00, 0x00, 0x00, 0x08, 0x95, 0xff, 0xff, 0x3c, 0x00, 0x00, 0x00, 0x6d,
  0x00, 0x00, 0x00, 0x20, 0x00, 0x00, 0x00, 0x44, 0x00, 0x00, 0x00, 0x04, 0x00,
  0x00, 0x00, 0x04, 0x00, 0x00, 0x00, 0x01, 0x00, 0x00, 0x00, 0xff, 0xff, 0xff,
  0xff, 0xff, 0xff, 0xff, 0xff, 0x04, 0x00, 0x00, 0x00, 0x0d, 0x00, 0x00, 0x00,
  0x64, 0x65, 0x70, 0x74, 0x68, 0x77, 0x69, 0x73, 0x65, 0x5f, 0x31, 0x36, 0x31,
  0x00, 0x00, 0x00, 0x04, 0x00, 0x00, 0x00, 0x01, 0x00, 0x00, 0x00, 0x01, 0x00,
  0x00, 0x00, 0x01, 0x00, 0x00, 0x00, 0x04, 0x00, 0x00, 0x00, 0xf0, 0x94, 0xff,
  0xff, 0x32, 0xf0, 0xff, 0xff, 0x00, 0x00, 0x00, 0x01, 0x02, 0x00, 0x00, 0x00,
  0x24, 0x00, 0x00, 0x00, 0x18, 0x00, 0x00, 0x00, 0x04, 0x00, 0x00, 0x00, 0x98,
  0xf3, 0xff, 0xff, 0x01, 0x00, 0x00, 0x00, 0x01, 0x00, 0x00, 0x00, 0x00, 0x00,
  0x00, 0x01, 0x01, 0x00, 0x00, 0x00, 0x6b, 0x00, 0x00, 0x00, 0x03, 0x00, 0x00,
  0x00, 0x6a, 0x00, 0x00, 0x00, 0x1f, 0x00, 0x00, 0x00, 0x04, 0x00, 0x00, 0x00,
  0xa0, 0x95, 0xff, 0xff, 0x60, 0x00, 0x00, 0x00, 0x6c, 0x00, 0x00, 0x00, 0x20,
  0x00, 0x00, 0x00, 0x68, 0x00, 0x00, 0x00, 0x04, 0x00, 0x00, 0x00, 0x04, 0x00,
  0x00, 0x00, 0x01, 0x00, 0x00, 0x00, 0xff, 0xff, 0xff, 0xff, 0xff, 0xff, 0xff,
  0xff, 0x04, 0x00, 0x00, 0x00, 0x31, 0x00, 0x00, 0x00, 0x52, 0x65, 0x6c, 0x75,
  0x5f, 0x32, 0x3b, 0x42, 0x69, 0x61, 0x73, 0x41, 0x64, 0x64, 0x5f, 0x37, 0x3b,
  0x64, 0x65, 0x70, 0x74, 0x68, 0x77, 0x69, 0x73, 0x65, 0x5f, 0x32, 0x35, 0x3b,
  0x43, 0x6f, 0x6e, 0x76, 0x32, 0x44, 0x5f, 0x37, 0x3b, 0x63, 0x6f, 0x6e, 0x76,
  0x5f, 0x33, 0x5f, 0x30, 0x5f, 0x62, 0x00, 0x00, 0x00, 0x04, 0x00, 0x00, 0x00,
  0x01, 0x00, 0x00, 0x00, 0x01, 0x00, 0x00, 0x00, 0x01, 0x00, 0x00, 0x00, 0x04,
  0x00, 0x00, 0x00, 0xac, 0x95, 0xff, 0xff, 0xee, 0xf0, 0xff, 0xff, 0x00, 0x00,
  0x00, 0x02, 0x01, 0x00, 0x00, 0x00, 0x24, 0x00, 0x00, 0x00, 0x18, 0x00, 0x00,
  0x00, 0x04, 0x00, 0x00, 0x00, 0xe0, 0xf0, 0xff, 0xff, 0x01, 0x00, 0x00, 0x00,
  0x01, 0x00, 0x00, 0x00, 0x01, 0x00, 0x00, 0x00, 0x01, 0x00, 0x00, 0x00, 0x6a,
  0x00, 0x00, 0x00, 0x03, 0x00, 0x00, 0x00, 0x69, 0x00, 0x00, 0x00, 0x1e, 0x00,
  0x00, 0x00, 0x37, 0x00, 0x00, 0x00, 0x5c, 0x96, 0xff, 0xff, 0x3c, 0x00, 0x00,
  0x00, 0x6b, 0x00, 0x00, 0x00, 0x20, 0x00, 0x00, 0x00, 0x44, 0x00, 0x00, 0x00,
  0x04, 0x00, 0x00, 0x00, 0x04, 0x00, 0x00, 0x00, 0x01, 0x00, 0x00, 0x00, 0xff,
  0xff, 0xff, 0xff, 0xff, 0xff, 0xff, 0xff, 0x06, 0x00, 0x00, 0x00, 0x0d, 0x00,
  0x00, 0x00, 0x64, 0x65, 0x70, 0x74, 0x68, 0x77, 0x69, 0x73, 0x65, 0x5f, 0x31,
  0x35, 0x31, 0x00, 0x00, 0x00, 0x04, 0x00, 0x00, 0x00, 0x01, 0x00, 0x00, 0x00,
  0x01, 0x00, 0x00, 0x00, 0x01, 0x00, 0x00, 0x00, 0x06, 0x00, 0x00, 0x00, 0x44,
  0x96, 0xff, 0xff, 0x86, 0xf1, 0xff, 0xff, 0x00, 0x00, 0x00, 0x02, 0x01, 0x00,
  0x00, 0x00, 0x24, 0x00, 0x00, 0x00, 0x18, 0x00, 0x00, 0x00, 0x04, 0x00, 0x00,
  0x00, 0x78, 0xf1, 0xff, 0xff, 0x01, 0x00, 0x00, 0x00, 0x01, 0x00, 0x00, 0x00,
  0x01, 0x00, 0x00, 0x00, 0x01, 0x00, 0x00, 0x00, 0x69, 0x00, 0x00, 0x00, 0x03,
  0x00, 0x00, 0x00, 0x68, 0x00, 0x00, 0x00, 0x1d, 0x00, 0x00, 0x00, 0x37, 0x00,
  0x00, 0x00, 0xf4, 0x96, 0xff, 0xff, 0x3c, 0x00, 0x00, 0x00, 0x6a, 0x00, 0x00,
  0x00, 0x20, 0x00, 0x00, 0x00, 0x44, 0x00, 0x00, 0x00, 0x04, 0x00, 0x00, 0x00,
  0x04, 0x00, 0x00, 0x00, 0x01, 0x00, 0x00, 0x00, 0xff, 0xff, 0xff, 0xff, 0xff,
  0xff, 0xff, 0xff, 0x06, 0x00, 0x00, 0x00, 0x0d, 0x00, 0x00, 0x00, 0x64, 0x65,
  0x70, 0x74, 0x68, 0x77, 0x69, 0x73, 0x65, 0x5f, 0x31, 0x34, 0x31, 0x00, 0x00,
  0x00, 0x04, 0x00, 0x00, 0x00, 0x01, 0x00, 0x00, 0x00, 0x01, 0x00, 0x00, 0x00,
  0x01, 0x00, 0x00, 0x00, 0x06, 0x00, 0x00, 0x00, 0xdc, 0x96, 0xff, 0xff, 0x1e,
  0xf2, 0xff, 0xff, 0x00, 0x00, 0x00, 0x0b, 0x03, 0x00, 0x00, 0x00, 0x18, 0x00,
  0x00, 0x00, 0x0c, 0x00, 0x00, 0x00, 0x04, 0x00, 0x00, 0x00, 0xf8, 0x96, 0xff,
  0xff, 0x01, 0x00, 0x00, 0x00, 0x68, 0x00, 0x00, 0x00, 0x02, 0x00, 0x00, 0x00,
  0x67, 0x00, 0x00, 0x00, 0x64, 0x00, 0x00, 0x00, 0x7c, 0x97, 0xff, 0xff, 0x34,
  0x00, 0x00, 0x00, 0x69, 0x00, 0x00, 0x00, 0x20, 0x00, 0x00, 0x00, 0x3c, 0x00,
  0x00, 0x00, 0x04, 0x00, 0x00, 0x00, 0x04, 0x00, 0x00, 0x00, 0x01, 0x00, 0x00,
  0x00, 0xff, 0xff, 0xff, 0xff, 0xff, 0xff, 0xff, 0xff, 0x06, 0x00, 0x00, 0x00,
  0x05, 0x00, 0x00, 0x00, 0x41, 0x64, 0x64, 0x5f, 0x31, 0x00, 0x00, 0x00, 0x04,
  0x00, 0x00, 0x00, 0x01, 0x00, 0x00, 0x00, 0x01, 0x00, 0x00, 0x00, 0x01, 0x00,
  0x00, 0x00, 0x06, 0x00, 0x00, 0x00, 0x5c, 0x97, 0xff, 0xff, 0x9e, 0xf2, 0xff,
  0xff, 0x00, 0x00, 0x00, 0x01, 0x02, 0x00, 0x00, 0x00, 0x20, 0x00, 0x00, 0x00,
  0x14, 0x00, 0x00, 0x00, 0x04, 0x00, 0x00, 0x00, 0xfe, 0xf3, 0xff, 0xff, 0x01,
  0x00, 0x00, 0x00, 0x01, 0x00, 0x00, 0x00, 0x01, 0x00, 0x00, 0x00, 0x67, 0x00,
  0x00, 0x00, 0x03, 0x00, 0x00, 0x00, 0x66, 0x00, 0x00, 0x00, 0x1c, 0x00, 0x00,
  0x00, 0x4b, 0x00, 0x00, 0x00, 0x08, 0x98, 0xff, 0xff, 0x58, 0x00, 0x00, 0x00,
  0x68, 0x00, 0x00, 0x00, 0x20, 0x00, 0x00, 0x00, 0x60, 0x00, 0x00, 0x00, 0x04,
  0x00, 0x00, 0x00, 0x04, 0x00, 0x00, 0x00, 0x01, 0x00, 0x00, 0x00, 0xff, 0xff,
  0xff, 0xff, 0xff, 0xff, 0xff, 0xff, 0x06, 0x00, 0x00, 0x00, 0x2b, 0x00, 0x00,
  0x00, 0x42, 0x69, 0x61, 0x73, 0x41, 0x64, 0x64, 0x5f, 0x36, 0x3b, 0x64, 0x65,
  0x70, 0x74, 0x68, 0x77, 0x69, 0x73, 0x65, 0x5f, 0x33, 0x31, 0x3b, 0x43, 0x6f,
  0x6e, 0x76, 0x32, 0x44, 0x5f, 0x36, 0x3b, 0x63, 0x6f, 0x6e, 0x76, 0x5f, 0x32,
  0x5f, 0x31, 0x5f, 0x62, 0x31, 0x00, 0x04, 0x00, 0x00, 0x00, 0x01, 0x00, 0x00,
  0x00, 0x01, 0x00, 0x00, 0x00, 0x01, 0x00, 0x00, 0x00, 0x06, 0x00, 0x00, 0x00,
  0x0c, 0x98, 0xff, 0xff, 0x4e, 0xf3, 0xff, 0xff, 0x00, 0x00, 0x00, 0x02, 0x01,
  0x00, 0x00, 0x00, 0x24, 0x00, 0x00, 0x00, 0x18, 0x00, 0x00, 0x00, 0x04, 0x00,
  0x00, 0x00, 0x40, 0xf3, 0xff, 0xff, 0x01, 0x00, 0x00, 0x00, 0x01, 0x00, 0x00,
  0x00, 0x01, 0x00, 0x00, 0x00, 0x01, 0x00, 0x00, 0x00, 0x66, 0x00, 0x00, 0x00,
  0x03, 0x00, 0x00, 0x00, 0x65, 0x00, 0x00, 0x00, 0x1b, 0x00, 0x00, 0x00, 0x41,
  0x00, 0x00, 0x00, 0xbc, 0x98, 0xff, 0xff, 0x3c, 0x00, 0x00, 0x00, 0x67, 0x00,
  0x00, 0x00, 0x20, 0x00, 0x00, 0x00, 0x44, 0x00, 0x00, 0x00, 0x04, 0x00, 0x00,
  0x00, 0x04, 0x00, 0x00, 0x00, 0x01, 0x00, 0x00, 0x00, 0xff, 0xff, 0xff, 0xff,
  0xff, 0xff, 0xff, 0xff, 0x0b, 0x00, 0x00, 0x00, 0x0d, 0x00, 0x00, 0x00, 0x64,
  0x65, 0x70, 0x74, 0x68, 0x77, 0x69, 0x73, 0x65, 0x5f, 0x31, 0x33, 0x31, 0x00,
  0x00, 0x00, 0x04, 0x00, 0x00, 0x00, 0x01, 0x00, 0x00, 0x00, 0x01, 0x00, 0x00,
  0x00, 0x01, 0x00, 0x00, 0x00, 0x0b, 0x00, 0x00, 0x00, 0xa4, 0x98, 0xff, 0xff,
  0xe6, 0xf3, 0xff, 0xff, 0x00, 0x00, 0x00, 0x02, 0x01, 0x00, 0x00, 0x00, 0x24,
  0x00, 0x00, 0x00, 0x18, 0x00, 0x00, 0x00, 0x04, 0x00, 0x00, 0x00, 0xd8, 0xf3,
  0xff, 0xff, 0x01, 0x00, 0x00, 0x00, 0x01, 0x00, 0x00, 0x00, 0x01, 0x00, 0x00,
  0x00, 0x01, 0x00, 0x00, 0x00, 0x65, 0x00, 0x00, 0x00, 0x03, 0x00, 0x00, 0x00,
  0x5e, 0x00, 0x00, 0x00, 0x1a, 0x00, 0x00, 0x00, 0x41, 0x00, 0x00, 0x00, 0x54,
  0x99, 0xff, 0xff, 0x3c, 0x00, 0x00, 0x00, 0x66, 0x00, 0x00, 0x00, 0x20, 0x00,
  0x00, 0x00, 0x44, 0x00, 0x00, 0x00, 0x04, 0x00, 0x00, 0x00, 0x04, 0x00, 0x00,
  0x00, 0x01, 0x00, 0x00, 0x00, 0xff, 0xff, 0xff, 0xff, 0xff, 0xff, 0xff, 0xff,
  0x0b, 0x00, 0x00, 0x00, 0x0d, 0x00, 0x00, 0x00, 0x64, 0x65, 0x70, 0x74, 0x68,
  0x77, 0x69, 0x73, 0x65, 0x5f, 0x31, 0x32, 0x31, 0x00, 0x00, 0x00, 0x04, 0x00,
  0x00, 0x00, 0x01, 0x00, 0x00, 0x00, 0x01, 0x00, 0x00, 0x00, 0x01, 0x00, 0x00,
  0x00, 0x0b, 0x00, 0x00, 0x00, 0x3c, 0x99, 0xff, 0xff, 0x7e, 0xf4, 0xff, 0xff,
  0x00, 0x00, 0x00, 0x01, 0x02, 0x00, 0x00, 0x00, 0x20, 0x00, 0x00, 0x00, 0x14,
  0x00, 0x00, 0x00, 0x04, 0x00, 0x00, 0x00, 0xde, 0xf5, 0xff, 0xff, 0x01, 0x00,
  0x00, 0x00, 0x01, 0x00, 0x00, 0x00, 0x01, 0x00, 0x00, 0x00, 0x64, 0x00, 0x00,
  0x00, 0x03, 0x00, 0x00, 0x00, 0x63, 0x00, 0x00, 0x00, 0x19, 0x00, 0x00, 0x00,
  0x4b, 0x00, 0x00, 0x00, 0xe8, 0x99, 0xff, 0xff, 0x58, 0x00, 0x00, 0x00, 0x65,
  0x00, 0x00, 0x00, 0x20, 0x00, 0x00, 0x00, 0x60, 0x00, 0x00, 0x00, 0x04, 0x00,
  0x00, 0x00, 0x04, 0x00, 0x00, 0x00, 0x01, 0x00, 0x00, 0x00, 0xff, 0xff, 0xff,
  0xff, 0xff, 0xff, 0xff, 0xff, 0x06, 0x00, 0x00, 0x00, 0x2a, 0x00, 0x00, 0x00,
  0x42, 0x69, 0x61, 0x73, 0x41, 0x64, 0x64, 0x5f, 0x35, 0x3b, 0x64, 0x65, 0x70,
  0x74, 0x68, 0x77, 0x69, 0x73, 0x65, 0x5f, 0x33, 0x31, 0x3b, 0x43, 0x6f, 0x6e,
  0x76, 0x32, 0x44, 0x5f, 0x35, 0x3b, 0x63, 0x6f, 0x6e, 0x76, 0x5f, 0x32, 0x5f,
  0x31, 0x5f, 0x62, 0x00, 0x00, 0x04, 0x00, 0x00, 0x00, 0x01, 0x00, 0x00, 0x00,
  0x01, 0x00, 0x00, 0x00, 0x01, 0x00, 0x00, 0x00, 0x06, 0x00, 0x00, 0x00, 0xec,
  0x99, 0xff, 0xff, 0x2e, 0xf5, 0xff, 0xff, 0x00, 0x00, 0x00, 0x02, 0x01, 0x00,
  0x00, 0x00, 0x24, 0x00, 0x00, 0x00, 0x18, 0x00, 0x00, 0x00, 0x04, 0x00, 0x00,
  0x00, 0x20, 0xf5, 0xff, 0xff, 0x01, 0x00, 0x00, 0x00, 0x01, 0x00, 0x00, 0x00,
  0x01, 0x00, 0x00, 0x00, 0x01, 0x00, 0x00, 0x00, 0x63, 0x00, 0x00, 0x00, 0x03,
  0x00, 0x00, 0x00, 0x62, 0x00, 0x00, 0x00, 0x18, 0x00, 0x00, 0x00, 0x37, 0x00,
  0x00, 0x00, 0x9c, 0x9a, 0xff, 0xff, 0x3c, 0x00, 0x00, 0x00, 0x64, 0x00, 0x00,
  0x00, 0x20, 0x00, 0x00, 0x00, 0x44, 0x00, 0x00, 0x00, 0x04, 0x00, 0x00, 0x00,
  0x04, 0x00, 0x00, 0x00, 0x01, 0x00, 0x00, 0x00, 0xff, 0xff, 0xff, 0xff, 0xff,
  0xff, 0xff, 0xff, 0x06, 0x00, 0x00, 0x00, 0x0d, 0x00, 0x00, 0x00, 0x64, 0x65,
  0x70, 0x74, 0x68, 0x77, 0x69, 0x73, 0x65, 0x5f, 0x31, 0x31, 0x31, 0x00, 0x00,
  0x00, 0x04, 0x00, 0x00, 0x00, 0x01, 0x00, 0x00, 0x00, 0x01, 0x00, 0x00, 0x00,
  0x01, 0x00, 0x00, 0x00, 0x06, 0x00, 0x00, 0x00, 0x84, 0x9a, 0xff, 0xff, 0xc6,
  0xf5, 0xff, 0xff, 0x00, 0x00, 0x00, 0x02, 0x01, 0x00, 0x00, 0x00, 0x24, 0x00,
  0x00, 0x00, 0x18, 0x00, 0x00, 0x00, 0x04, 0x00, 0x00, 0x00, 0xb8, 0xf5, 0xff,
  0xff, 0x01, 0x00, 0x00, 0x00, 0x01, 0x00, 0x00, 0x00, 0x01, 0x00, 0x00, 0x00,
  0x01, 0x00, 0x00, 0x00, 0x62, 0x00, 0x00, 0x00, 0x03, 0x00, 0x00, 0x00, 0x61,
  0x00, 0x00, 0x00, 0x17, 0x00, 0x00, 0x00, 0x37, 0x00, 0x00, 0x00, 0x34, 0x9b,
  0xff, 0xff, 0x3c, 0x00, 0x00, 0x00, 0x63, 0x00, 0x00, 0x00, 0x20, 0x00, 0x00,
  0x00, 0x44, 0x00, 0x00, 0x00, 0x04, 0x00, 0x00, 0x00, 0x04, 0x00, 0x00, 0x00,
  0x01, 0x00, 0x00, 0x00, 0xff, 0xff, 0xff, 0xff, 0xff, 0xff, 0xff, 0xff, 0x06,
  0x00, 0x00, 0x00, 0x0d, 0x00, 0x00, 0x00, 0x64, 0x65, 0x70, 0x74, 0x68, 0x77,
  0x69, 0x73, 0x65, 0x5f, 0x31, 0x30, 0x31, 0x00, 0x00, 0x00, 0x04, 0x00, 0x00,
  0x00, 0x01, 0x00, 0x00, 0x00, 0x01, 0x00, 0x00, 0x00, 0x01, 0x00, 0x00, 0x00,
  0x06, 0x00, 0x00, 0x00, 0x1c, 0x9b, 0xff, 0xff, 0x5e, 0xf6, 0xff, 0xff, 0x00,
  0x00, 0x00, 0x01, 0x02, 0x00, 0x00, 0x00, 0x24, 0x00, 0x00, 0x00, 0x18, 0x00,
  0x00, 0x00, 0x04, 0x00, 0x00, 0x00, 0xc4, 0xf9, 0xff, 0xff, 0x01, 0x00, 0x00,
  0x00, 0x01, 0x00, 0x00, 0x00, 0x00, 0x00, 0x00, 0x01, 0x01, 0x00, 0x00, 0x00,
  0x61, 0x00, 0x00, 0x00, 0x03, 0x00, 0x00, 0x00, 0x60, 0x00, 0x00, 0x00, 0x16,
  0x00, 0x00, 0x00, 0x05, 0x00, 0x00, 0x00, 0xcc, 0x9b, 0xff, 0xff, 0x60, 0x00,
  0x00, 0x00, 0x62, 0x00, 0x00, 0x00, 0x20, 0x00, 0x00, 0x00, 0x68, 0x00, 0x00,
  0x00, 0x04, 0x00, 0x00, 0x00, 0x04, 0x00, 0x00, 0x00, 0x01, 0x00, 0x00, 0x00,
  0xff, 0xff, 0xff, 0xff, 0xff, 0xff, 0xff, 0xff, 0x06, 0x00, 0x00, 0x00, 0x31,
  0x00, 0x00, 0x00, 0x52, 0x65, 0x6c, 0x75, 0x5f, 0x31, 0x3b, 0x42, 0x69, 0x61,
  0x73, 0x41, 0x64, 0x64, 0x5f, 0x34, 0x3b, 0x64, 0x65, 0x70, 0x74, 0x68, 0x77,
  0x69, 0x73, 0x65, 0x5f, 0x33, 0x31, 0x3b, 0x43, 0x6f, 0x6e, 0x76, 0x32, 0x44,
  0x5f, 0x34, 0x3b, 0x63, 0x6f, 0x6e, 0x76, 0x5f, 0x32, 0x5f, 0x30, 0x5f, 0x62,
  0x00, 0x00, 0x00, 0x04, 0x00, 0x00, 0x00, 0x01, 0x00, 0x00, 0x00, 0x01, 0x00,
  0x00, 0x00, 0x01, 0x00, 0x00, 0x00, 0x06, 0x00, 0x00, 0x00, 0xd8, 0x9b, 0xff,
  0xff, 0x1a, 0xf7, 0xff, 0xff, 0x00, 0x00, 0x00, 0x02, 0x01, 0x00, 0x00, 0x00,
  0x24, 0x00, 0x00, 0x00, 0x18, 0x00, 0x00, 0x00, 0x04, 0x00, 0x00, 0x00, 0x0c,
  0xf7, 0xff, 0xff, 0x01, 0x00, 0x00, 0x00, 0x01, 0x00, 0x00, 0x00, 0x01, 0x00,
  0x00, 0x00, 0x01, 0x00, 0x00, 0x00, 0x60, 0x00, 0x00, 0x00, 0x03, 0x00, 0x00,
  0x00, 0x5f, 0x00, 0x00, 0x00, 0x15, 0x00, 0x00, 0x00, 0x41, 0x00, 0x00, 0x00,
  0x88, 0x9c, 0xff, 0xff, 0x3c, 0x00, 0x00, 0x00, 0x61, 0x00, 0x00, 0x00, 0x20,
  0x00, 0x00, 0x00, 0x44, 0x00, 0x00, 0x00, 0x04, 0x00, 0x00, 0x00, 0x04, 0x00,
  0x00, 0x00, 0x01, 0x00, 0x00, 0x00, 0xff, 0xff, 0xff, 0xff, 0xff, 0xff, 0xff,
  0xff, 0x0b, 0x00, 0x00, 0x00, 0x0c, 0x00, 0x00, 0x00, 0x64, 0x65, 0x70, 0x74,
  0x68, 0x77, 0x69, 0x73, 0x65, 0x5f, 0x39, 0x31, 0x00, 0x00, 0x00, 0x00, 0x04,
  0x00, 0x00, 0x00, 0x01, 0x00, 0x00, 0x00, 0x01, 0x00, 0x00, 0x00, 0x01, 0x00,
  0x00, 0x00, 0x0b, 0x00, 0x00, 0x00, 0x70, 0x9c, 0xff, 0xff, 0xb2, 0xf7, 0xff,
  0xff, 0x00, 0x00, 0x00, 0x02, 0x01, 0x00, 0x00, 0x00, 0x24, 0x00, 0x00, 0x00,
  0x18, 0x00, 0x00, 0x00, 0x04, 0x00, 0x00, 0x00, 0xa4, 0xf7, 0xff, 0xff, 0x01,
  0x00, 0x00, 0x00, 0x01, 0x00, 0x00, 0x00, 0x01, 0x00, 0x00, 0x00, 0x01, 0x00,
  0x00, 0x00, 0x5f, 0x00, 0x00, 0x00, 0x03, 0x00, 0x00, 0x00, 0x5e, 0x00, 0x00,
  0x00, 0x14, 0x00, 0x00, 0x00, 0x41, 0x00, 0x00, 0x00, 0x20, 0x9d, 0xff, 0xff,
  0x3c, 0x00, 0x00, 0x00, 0x60, 0x00, 0x00, 0x00, 0x20, 0x00, 0x00, 0x00, 0x44,
  0x00, 0x00, 0x00, 0x04, 0x00, 0x00, 0x00, 0x04, 0x00, 0x00, 0x00, 0x01, 0x00,
  0x00, 0x00, 0xff, 0xff, 0xff, 0xff, 0xff, 0xff, 0xff, 0xff, 0x0b, 0x00, 0x00,
  0x00, 0x0c, 0x00, 0x00, 0x00, 0x64, 0x65, 0x70, 0x74, 0x68, 0x77, 0x69, 0x73,
  0x65, 0x5f, 0x38, 0x31, 0x00, 0x00, 0x00, 0x00, 0x04, 0x00, 0x00, 0x00, 0x01,
  0x00, 0x00, 0x00, 0x01, 0x00, 0x00, 0x00, 0x01, 0x00, 0x00, 0x00, 0x0b, 0x00,
  0x00, 0x00, 0x08, 0x9d, 0xff, 0xff, 0x4a, 0xf8, 0xff, 0xff, 0x00, 0x00, 0x00,
  0x0b, 0x03, 0x00, 0x00, 0x00, 0x18, 0x00, 0x00, 0x00, 0x0c, 0x00, 0x00, 0x00,
  0x04, 0x00, 0x00, 0x00, 0x24, 0x9d, 0xff, 0xff, 0x01, 0x00, 0x00, 0x00, 0x5e,
  0x00, 0x00, 0x00, 0x02, 0x00, 0x00, 0x00, 0x5d, 0x00, 0x00, 0x00, 0x5a, 0x00,
  0x00, 0x00, 0x00, 0x00, 0x0a, 0x00, 0x08, 0x00, 0x00, 0x00, 0x00, 0x00, 0x04,
  0x00, 0x0a, 0x00, 0x00, 0x00, 0x01, 0x00, 0x00, 0x00, 0xbc, 0x9d, 0xff, 0xff,
  0x30, 0x00, 0x00, 0x00, 0x5f, 0x00, 0x00, 0x00, 0x20, 0x00, 0x00, 0x00, 0x38,
  0x00, 0x00, 0x00, 0x04, 0x00, 0x00, 0x00, 0x04, 0x00, 0x00, 0x00, 0x01, 0x00,
  0x00, 0x00, 0xff, 0xff, 0xff, 0xff, 0xff, 0xff, 0xff, 0xff, 0x0b, 0x00, 0x00,
  0x00, 0x03, 0x00, 0x00, 0x00, 0x41, 0x64, 0x64, 0x00, 0x04, 0x00, 0x00, 0x00,
  0x01, 0x00, 0x00, 0x00, 0x01, 0x00, 0x00, 0x00, 0x01, 0x00, 0x00, 0x00, 0x0b,
  0x00, 0x00, 0x00, 0x98, 0x9d, 0xff, 0xff, 0xda, 0xf8, 0xff, 0xff, 0x00, 0x00,
  0x00, 0x01, 0x02, 0x00, 0x00, 0x00, 0x20, 0x00, 0x00, 0x00, 0x14, 0x00, 0x00,
  0x00, 0x04, 0x00, 0x00, 0x00, 0x3a, 0xfa, 0xff, 0xff, 0x01, 0x00, 0x00, 0x00,
  0x01, 0x00, 0x00, 0x00, 0x01, 0x00, 0x00, 0x00, 0x5d, 0x00, 0x00, 0x00, 0x03,
  0x00, 0x00, 0x00, 0x5c, 0x00, 0x00, 0x00, 0x13, 0x00, 0x00, 0x00, 0x4a, 0x00,
  0x00, 0x00, 0x44, 0x9e, 0xff, 0xff, 0x58, 0x00, 0x00, 0x00, 0x5e, 0x00, 0x00,
  0x00, 0x20, 0x00, 0x00, 0x00, 0x60, 0x00, 0x00, 0x00, 0x04, 0x00, 0x00, 0x00,
  0x04, 0x00, 0x00, 0x00, 0x01, 0x00, 0x00, 0x00, 0xff, 0xff, 0xff, 0xff, 0xff,
  0xff, 0xff, 0xff, 0x0b, 0x00, 0x00, 0x00, 0x2b, 0x00, 0x00, 0x00, 0x42, 0x69,
  0x61, 0x73, 0x41, 0x64, 0x64, 0x5f, 0x33, 0x3b, 0x64, 0x65, 0x70, 0x74, 0x68,
  0x77, 0x69, 0x73, 0x65, 0x5f, 0x33, 0x37, 0x3b, 0x43, 0x6f, 0x6e, 0x76, 0x32,
  0x44, 0x5f, 0x33, 0x3b, 0x63, 0x6f, 0x6e, 0x76, 0x5f, 0x31, 0x5f, 0x31, 0x5f,
  0x62, 0x31, 0x00, 0x04, 0x00, 0x00, 0x00, 0x01, 0x00, 0x00, 0x00, 0x01, 0x00,
  0x00, 0x00, 0x01, 0x00, 0x00, 0x00, 0x0b, 0x00, 0x00, 0x00, 0x48, 0x9e, 0xff,
  0xff, 0x8a, 0xf9, 0xff, 0xff, 0x00, 0x00, 0x00, 0x02, 0x01, 0x00, 0x00, 0x00,
  0x24, 0x00, 0x00, 0x00, 0x18, 0x00, 0x00, 0x00, 0x04, 0x00, 0x00, 0x00, 0x7c,
  0xf9, 0xff, 0xff, 0x01, 0x00, 0x00, 0x00, 0x01, 0x00, 0x00, 0x00, 0x01, 0x00,
  0x00, 0x00, 0x01, 0x00, 0x00, 0x00, 0x5c, 0x00, 0x00, 0x00, 0x03, 0x00, 0x00,
  0x00, 0x5b, 0x00, 0x00, 0x00, 0x12, 0x00, 0x00, 0x00, 0x45, 0x00, 0x00, 0x00,
  0xf8, 0x9e, 0xff, 0xff, 0x3c, 0x00, 0x00, 0x00, 0x5d, 0x00, 0x00, 0x00, 0x20,
  0x00, 0x00, 0x00, 0x44, 0x00, 0x00, 0x00, 0x04, 0x00, 0x00, 0x00, 0x04, 0x00,
  0x00, 0x00, 0x01, 0x00, 0x00, 0x00, 0xff, 0xff, 0xff, 0xff, 0xff, 0xff, 0xff,
  0xff, 0x14, 0x00, 0x00, 0x00, 0x0c, 0x00, 0x00, 0x00, 0x64, 0x65, 0x70, 0x74,
  0x68, 0x77, 0x69, 0x73, 0x65, 0x5f, 0x37, 0x31, 0x00, 0x00, 0x00, 0x00, 0x04,
  0x00, 0x00, 0x00, 0x01, 0x00, 0x00, 0x00, 0x01, 0x00, 0x00, 0x00, 0x01, 0x00,
  0x00, 0x00, 0x14, 0x00, 0x00, 0x00, 0xe0, 0x9e, 0xff, 0xff, 0x22, 0xfa, 0xff,
  0xff, 0x00, 0x00, 0x00, 0x02, 0x01, 0x00, 0x00, 0x00, 0x24, 0x00, 0x00, 0x00,
  0x18, 0x00, 0x00, 0x00, 0x04, 0x00, 0x00, 0x00, 0x14, 0xfa, 0xff, 0xff, 0x01,
  0x00, 0x00, 0x00, 0x01, 0x00, 0x00, 0x00, 0x01, 0x00, 0x00, 0x00, 0x01, 0x00,
  0x00, 0x00, 0x5b, 0x00, 0x00, 0x00, 0x03, 0x00, 0x00, 0x00, 0x54, 0x00, 0x00,
  0x00, 0x11, 0x00, 0x00, 0x00, 0x45, 0x00, 0x00, 0x00, 0x90, 0x9f, 0xff, 0xff,
  0x3c, 0x00, 0x00, 0x00, 0x5c, 0x00, 0x00, 0x00, 0x20, 0x00, 0x00, 0x00, 0x44,
  0x00, 0x00, 0x00, 0x04, 0x00, 0x00, 0x00, 0x04, 0x00, 0x00, 0x00, 0x01, 0x00,
  0x00, 0x00, 0xff, 0xff, 0xff, 0xff, 0xff, 0xff, 0xff, 0xff, 0x14, 0x00, 0x00,
  0x00, 0x0c, 0x00, 0x00, 0x00, 0x64, 0x65, 0x70, 0x74, 0x68, 0x77, 0x69, 0x73,
  0x65, 0x5f, 0x36, 0x31, 0x00, 0x00, 0x00, 0x00, 0x04, 0x00, 0x00, 0x00, 0x01,
  0x00, 0x00, 0x00, 0x01, 0x00, 0x00, 0x00, 0x01, 0x00, 0x00, 0x00, 0x14, 0x00,
  0x00, 0x00, 0x78, 0x9f, 0xff, 0xff, 0xba, 0xfa, 0xff, 0xff, 0x00, 0x00, 0x00,
  0x01, 0x02, 0x00, 0x00, 0x00, 0x20, 0x00, 0x00, 0x00, 0x14, 0x00, 0x00, 0x00,
  0x04, 0x00, 0x00, 0x00, 0x1a, 0xfc, 0xff, 0xff, 0x01, 0x00, 0x00, 0x00, 0x01,
  0x00, 0x00, 0x00, 0x01, 0x00, 0x00, 0x00, 0x5a, 0x00, 0x00, 0x00, 0x03, 0x00,
  0x00, 0x00, 0x59, 0x00, 0x00, 0x00, 0x10, 0x00, 0x00, 0x00, 0x4a, 0x00, 0x00,
  0x00, 0x24, 0xa0, 0xff, 0xff, 0x58, 0x00, 0x00, 0x00, 0x5b, 0x00, 0x00, 0x00,
  0x20, 0x00, 0x00, 0x00, 0x60, 0x00, 0x00, 0x00, 0x04, 0x00, 0x00, 0x00, 0x04,
  0x00, 0x00, 0x00, 0x01, 0x00, 0x00, 0x00, 0xff, 0xff, 0xff, 0xff, 0xff, 0xff,
  0xff, 0xff, 0x0b, 0x00, 0x00, 0x00, 0x2a, 0x00, 0x00, 0x00, 0x42, 0x69, 0x61,
  0x73, 0x41, 0x64, 0x64, 0x5f, 0x32, 0x3b, 0x64, 0x65, 0x70, 0x74, 0x68, 0x77,
  0x69, 0x73, 0x65, 0x5f, 0x33, 0x37, 0x3b, 0x43, 0x6f, 0x6e, 0x76, 0x32, 0x44,
  0x5f, 0x32, 0x3b, 0x63, 0x6f, 0x6e, 0x76, 0x5f, 0x31, 0x5f, 0x31, 0x5f, 0x62,
  0x00, 0x00, 0x04, 0x00, 0x00, 0x00, 0x01, 0x00, 0x00, 0x00, 0x01, 0x00, 0x00,
  0x00, 0x01, 0x00, 0x00, 0x00, 0x0b, 0x00, 0x00, 0x00, 0x28, 0xa0, 0xff, 0xff,
  0x6a, 0xfb, 0xff, 0xff, 0x00, 0x00, 0x00, 0x02, 0x01, 0x00, 0x00, 0x00, 0x24,
  0x00, 0x00, 0x00, 0x18, 0x00, 0x00, 0x00, 0x04, 0x00, 0x00, 0x00, 0x5c, 0xfb,
  0xff, 0xff, 0x01, 0x00, 0x00, 0x00, 0x01, 0x00, 0x00, 0x00, 0x01, 0x00, 0x00,
  0x00, 0x01, 0x00, 0x00, 0x00, 0x59, 0x00, 0x00, 0x00, 0x03, 0x00, 0x00, 0x00,
  0x58, 0x00, 0x00, 0x00, 0x0f, 0x00, 0x00, 0x00, 0x41, 0x00, 0x00, 0x00, 0xd8,
  0xa0, 0xff, 0xff, 0x3c, 0x00, 0x00, 0x00, 0x5a, 0x00, 0x00, 0x00, 0x20, 0x00,
  0x00, 0x00, 0x44, 0x00, 0x00, 0x00, 0x04, 0x00, 0x00, 0x00, 0x04, 0x00, 0x00,
  0x00, 0x01, 0x00, 0x00, 0x00, 0xff, 0xff, 0xff, 0xff, 0xff, 0xff, 0xff, 0xff,
  0x0b, 0x00, 0x00, 0x00, 0x0c, 0x00, 0x00, 0x00, 0x64, 0x65, 0x70, 0x74, 0x68,
  0x77, 0x69, 0x73, 0x65, 0x5f, 0x35, 0x31, 0x00, 0x00, 0x00, 0x00, 0x04, 0x00,
  0x00, 0x00, 0x01, 0x00, 0x00, 0x00, 0x01, 0x00, 0x00, 0x00, 0x01, 0x00, 0x00,
  0x00, 0x0b, 0x00, 0x00, 0x00, 0xc0, 0xa0, 0xff, 0xff, 0x02, 0xfc, 0xff, 0xff,
  0x00, 0x00, 0x00, 0x02, 0x01, 0x00, 0x00, 0x00, 0x24, 0x00, 0x00, 0x00, 0x18,
  0x00, 0x00, 0x00, 0x04, 0x00, 0x00, 0x00, 0xf4, 0xfb, 0xff, 0xff, 0x01, 0x00,
  0x00, 0x00, 0x01, 0x00, 0x00, 0x00, 0x01, 0x00, 0x00, 0x00, 0x01, 0x00, 0x00,
  0x00, 0x58, 0x00, 0x00, 0x00, 0x03, 0x00, 0x00, 0x00, 0x57, 0x00, 0x00, 0x00,
  0x0e, 0x00, 0x00, 0x00, 0x41, 0x00, 0x00, 0x00, 0x70, 0xa1, 0xff, 0xff, 0x3c,
  0x00, 0x00, 0x00, 0x59, 0x00, 0x00, 0x00, 0x20, 0x00, 0x00, 0x00, 0x44, 0x00,
  0x00, 0x00, 0x04, 0x00, 0x00, 0x00, 0x04, 0x00, 0x00, 0x00, 0x01, 0x00, 0x00,
  0x00, 0xff, 0xff, 0xff, 0xff, 0xff, 0xff, 0xff, 0xff, 0x0b, 0x00, 0x00, 0x00,
  0x0c, 0x00, 0x00, 0x00, 0x64, 0x65, 0x70, 0x74, 0x68, 0x77, 0x69, 0x73, 0x65,
  0x5f, 0x34, 0x31, 0x00, 0x00, 0x00, 0x00, 0x04, 0x00, 0x00, 0x00, 0x01, 0x00,
  0x00, 0x00, 0x01, 0x00, 0x00, 0x00, 0x01, 0x00, 0x00, 0x00, 0x0b, 0x00, 0x00,
  0x00, 0x58, 0xa1, 0xff, 0xff, 0x9a, 0xfc, 0xff, 0xff, 0x00, 0x00, 0x00, 0x01,
  0x02, 0x00, 0x00, 0x00, 0x30, 0x00, 0x00, 0x00, 0x24, 0x00, 0x00, 0x00, 0x10,
  0x00, 0x00, 0x00, 0x0c, 0x00, 0x10, 0x00, 0x00, 0x00, 0x04, 0x00, 0x08, 0x00,
  0x0f, 0x00, 0x0c, 0x00, 0x00, 0x00, 0x01, 0x00, 0x00, 0x00, 0x01, 0x00, 0x00,
  0x00, 0x00, 0x00, 0x00, 0x01, 0x01, 0x00, 0x00, 0x00, 0x57, 0x00, 0x00, 0x00,
  0x03, 0x00, 0x00, 0x00, 0x56, 0x00, 0x00, 0x00, 0x0d, 0x00, 0x00, 0x00, 0x06,
  0x00, 0x00, 0x00, 0x14, 0xa2, 0xff, 0xff, 0x5c, 0x00, 0x00, 0x00, 0x58, 0x00,
  0x00, 0x00, 0x20, 0x00, 0x00, 0x00, 0x64, 0x00, 0x00, 0x00, 0x04, 0x00, 0x00,
  0x00, 0x04, 0x00, 0x00, 0x00, 0x01, 0x00, 0x00, 0x00, 0xff, 0xff, 0xff, 0xff,
  0xff, 0xff, 0xff, 0xff, 0x0b, 0x00, 0x00, 0x00, 0x2f, 0x00, 0x00, 0x00, 0x52,
  0x65, 0x6c, 0x75, 0x3b, 0x42, 0x69, 0x61, 0x73, 0x41, 0x64, 0x64, 0x5f, 0x31,
  0x3b, 0x64, 0x65, 0x70, 0x74, 0x68, 0x77, 0x69, 0x73, 0x65, 0x5f, 0x33, 0x37,
  0x3b, 0x43, 0x6f, 0x6e, 0x76, 0x32, 0x44, 0x5f, 0x31, 0x3b, 0x63, 0x6f, 0x6e,
  0x76, 0x5f, 0x31, 0x5f, 0x30, 0x5f, 0x62, 0x00, 0x04, 0x00, 0x00, 0x00, 0x01,
  0x00, 0x00, 0x00, 0x01, 0x00, 0x00, 0x00, 0x01, 0x00, 0x00, 0x00, 0x0b, 0x00,
  0x00, 0x00, 0x1c, 0xa2, 0xff, 0xff, 0x5e, 0xfd, 0xff, 0xff, 0x00, 0x00, 0x00,
  0x02, 0x01, 0x00, 0x00, 0x00, 0x24, 0x00, 0x00, 0x00, 0x18, 0x00, 0x00, 0x00,
  0x04, 0x00, 0x00, 0x00, 0x50, 0xfd, 0xff, 0xff, 0x01, 0x00, 0x00, 0x00, 0x01,
  0x00, 0x00, 0x00, 0x01, 0x00, 0x00, 0x00, 0x01, 0x00, 0x00, 0x00, 0x56, 0x00,
  0x00, 0x00, 0x03, 0x00, 0x00, 0x00, 0x55, 0x00, 0x00, 0x00, 0x0c, 0x00, 0x00,
  0x00, 0x45, 0x00, 0x00, 0x00, 0xcc, 0xa2, 0xff, 0xff, 0x3c, 0x00, 0x00, 0x00,
  0x57, 0x00, 0x00, 0x00, 0x20, 0x00, 0x00, 0x00, 0x44, 0x00, 0x00, 0x00, 0x04,
  0x00, 0x00, 0x00, 0x04, 0x00, 0x00, 0x00, 0x01, 0x00, 0x00, 0x00, 0xff, 0xff,
  0xff, 0xff, 0xff, 0xff, 0xff, 0xff, 0x14, 0x00, 0x00, 0x00, 0x0d, 0x00, 0x00,
  0x00, 0x64, 0x65, 0x70, 0x74, 0x68, 0x77, 0x69, 0x73, 0x65, 0x5f, 0x33, 0x31,
  0x30, 0x00, 0x00, 0x00, 0x04, 0x00, 0x00, 0x00, 0x01, 0x00, 0x00, 0x00, 0x01,
  0x00, 0x00, 0x00, 0x01, 0x00, 0x00, 0x00, 0x14, 0x00, 0x00, 0x00, 0xb4, 0xa2,
  0xff, 0xff, 0xf6, 0xfd, 0xff, 0xff, 0x00, 0x00, 0x00, 0x02, 0x01, 0x00, 0x00,
  0x00, 0x24, 0x00, 0x00, 0x00, 0x18, 0x00, 0x00, 0x00, 0x04, 0x00, 0x00, 0x00,
  0xe8, 0xfd, 0xff, 0xff, 0x01, 0x00, 0x00, 0x00, 0x01, 0x00, 0x00, 0x00, 0x01,
  0x00, 0x00, 0x00, 0x01, 0x00, 0x00, 0x00, 0x55, 0x00, 0x00, 0x00, 0x03, 0x00,
  0x00, 0x00, 0x54, 0x00, 0x00, 0x00, 0x0b, 0x00, 0x00, 0x00, 0x45, 0x00, 0x00,
  0x00, 0x64, 0xa3, 0xff, 0xff, 0x3c, 0x00, 0x00, 0x00, 0x56, 0x00, 0x00, 0x00,
  0x20, 0x00, 0x00, 0x00, 0x44, 0x00, 0x00, 0x00, 0x04, 0x00, 0x00, 0x00, 0x04,
  0x00, 0x00, 0x00, 0x01, 0x00, 0x00, 0x00, 0xff, 0xff, 0xff, 0xff, 0xff, 0xff,
  0xff, 0xff, 0x14, 0x00, 0x00, 0x00, 0x0d, 0x00, 0x00, 0x00, 0x64, 0x65, 0x70,
  0x74, 0x68, 0x77, 0x69, 0x73, 0x65, 0x5f, 0x32, 0x31, 0x30, 0x00, 0x00, 0x00,
  0x04, 0x00, 0x00, 0x00, 0x01, 0x00, 0x00, 0x00, 0x01, 0x00, 0x00, 0x00, 0x01,
  0x00, 0x00, 0x00, 0x14, 0x00, 0x00, 0x00, 0x64, 0xa4, 0xff, 0xff, 0x00, 0x00,
  0x0e, 0x00, 0x1a, 0x00, 0x08, 0x00, 0x0c, 0x00, 0x10, 0x00, 0x07, 0x00, 0x14,
  0x00, 0x0e, 0x00, 0x00, 0x00, 0x00, 0x00, 0x00, 0x01, 0x02, 0x00, 0x00, 0x00,
  0x2c, 0x00, 0x00, 0x00, 0x20, 0x00, 0x00, 0x00, 0x10, 0x00, 0x00, 0x00, 0x00,
  0x00, 0x0a, 0x00, 0x0c, 0x00, 0x00, 0x00, 0x04, 0x00, 0x08, 0x00, 0x0a, 0x00,
  0x00, 0x00, 0x01, 0x00, 0x00, 0x00, 0x01, 0x00, 0x00, 0x00, 0x01, 0x00, 0x00,
  0x00, 0x54, 0x00, 0x00, 0x00, 0x03, 0x00, 0x00, 0x00, 0x53, 0x00, 0x00, 0x00,
  0x0a, 0x00, 0x00, 0x00, 0x49, 0x00, 0x00, 0x00, 0xe0, 0xfd, 0xff, 0xff, 0x03,
  0x00, 0x00, 0x00, 0x00, 0x00, 0x00, 0x03, 0x01, 0x00, 0x00, 0x00, 0x24, 0xa4,
  0xff, 0xff, 0x54, 0x00, 0x00, 0x00, 0x55, 0x00, 0x00, 0x00, 0x20, 0x00, 0x00,
  0x00, 0x5c, 0x00, 0x00, 0x00, 0x04, 0x00, 0x00, 0x00, 0x04, 0x00, 0x00, 0x00,
  0x01, 0x00, 0x00, 0x00, 0xff, 0xff, 0xff, 0xff, 0xff, 0xff, 0xff, 0xff, 0x14,
  0x00, 0x00, 0x00, 0x25, 0x00, 0x00, 0x00, 0x42, 0x69, 0x61, 0x73, 0x41, 0x64,
  0x64, 0x3b, 0x64, 0x65, 0x70, 0x74, 0x68, 0x77, 0x69, 0x73, 0x65, 0x5f, 0x33,
  0x39, 0x3b, 0x43, 0x6f, 0x6e, 0x76, 0x32, 0x44, 0x3b, 0x63, 0x6f, 0x6e, 0x76,
  0x5f, 0x30, 0x5f, 0x62, 0x31, 0x00, 0x00, 0x00, 0x04, 0x00, 0x00, 0x00, 0x01,
  0x00, 0x00, 0x00, 0x01, 0x00, 0x00, 0x00, 0x01, 0x00, 0x00, 0x00, 0x14, 0x00,
  0x00, 0x00, 0x24, 0xa4, 0xff, 0xff, 0x66, 0xff, 0xff, 0xff, 0x00, 0x00, 0x00,
  0x02, 0x01, 0x00, 0x00, 0x00, 0x24, 0x00, 0x00, 0x00, 0x18, 0x00, 0x00, 0x00,
  0x04, 0x00, 0x00, 0x00, 0x58, 0xff, 0xff, 0xff, 0x01, 0x00, 0x00, 0x00, 0x01,
  0x00, 0x00, 0x00, 0x01, 0x00, 0x00, 0x00, 0x01, 0x00, 0x00, 0x00, 0x53, 0x00,
  0x00, 0x00, 0x03, 0x00, 0x00, 0x00, 0x52, 0x00, 0x00, 0x00, 0x09, 0x00, 0x00,
  0x00, 0x47, 0x00, 0x00, 0x00, 0xd4, 0xa4, 0xff, 0xff, 0x3c, 0x00, 0x00, 0x00,
  0x54, 0x00, 0x00, 0x00, 0x20, 0x00, 0x00, 0x00, 0x44, 0x00, 0x00, 0x00, 0x04,
  0x00, 0x00, 0x00, 0x04, 0x00, 0x00, 0x00, 0x01, 0x00, 0x00, 0x00, 0xff, 0xff,
  0xff, 0xff, 0xff, 0xff, 0xff, 0xff, 0x01, 0x00, 0x00, 0x00, 0x0d, 0x00, 0x00,
  0x00, 0x64, 0x65, 0x70, 0x74, 0x68, 0x77, 0x69, 0x73, 0x65, 0x5f, 0x31, 0x31,
  0x30, 0x00, 0x00, 0x00, 0x04, 0x00, 0x00, 0x00, 0x01, 0x00, 0x00, 0x00, 0x01,
  0x00, 0x00, 0x00, 0x01, 0x00, 0x00, 0x00, 0x01, 0x00, 0x00, 0x00, 0xd4, 0xa5,
  0xff, 0xff, 0x00, 0x00, 0x0e, 0x00, 0x18, 0x00, 0x08, 0x00, 0x0c, 0x00, 0x10,
  0x00, 0x07, 0x00, 0x14, 0x00, 0x0e, 0x00, 0x00, 0x00, 0x00, 0x00, 0x00, 0x02,
  0x01, 0x00, 0x00, 0x00, 0x30, 0x00, 0x00, 0x00, 0x24, 0x00, 0x00, 0x00, 0x10,
  0x00, 0x00, 0x00, 0x0c, 0x00, 0x10, 0x00, 0x00, 0x00, 0x08, 0x00, 0x0c, 0x00,
  0x04, 0x00, 0x0c, 0x00, 0x00, 0x00, 0x01, 0x00, 0x00, 0x00, 0x01, 0x00, 0x00,
  0x00, 0x01, 0x00, 0x00, 0x00, 0x01, 0x00, 0x00, 0x00, 0x52, 0x00, 0x00, 0x00,
  0x03, 0x00, 0x00, 0x00, 0x51, 0x00, 0x00, 0x00, 0x08, 0x00, 0x00, 0x00, 0x47,
  0x00, 0x00, 0x00, 0x54, 0xff, 0xff, 0xff, 0x04, 0x00, 0x00, 0x00, 0x00, 0x00,
  0x00, 0x04, 0x01, 0x00, 0x00, 0x00, 0x98, 0xa5, 0xff, 0xff, 0x38, 0x00, 0x00,
  0x00, 0x53, 0x00, 0x00, 0x00, 0x20, 0x00, 0x00, 0x00, 0x40, 0x00, 0x00, 0x00,
  0x04, 0x00, 0x00, 0x00, 0x04, 0x00, 0x00, 0x00, 0x01, 0x00, 0x00, 0x00, 0xff,
  0xff, 0xff, 0xff, 0xff, 0xff, 0xff, 0xff, 0x01, 0x00, 0x00, 0x00, 0x0a, 0x00,
  0x00, 0x00, 0x64, 0x65, 0x70, 0x74, 0x68, 0x77, 0x69, 0x73, 0x65, 0x31, 0x00,
  0x00, 0x04, 0x00, 0x00, 0x00, 0x01, 0x00, 0x00, 0x00, 0x01, 0x00, 0x00, 0x00,
  0x01, 0x00, 0x00, 0x00, 0x01, 0x00, 0x00, 0x00, 0x94, 0xa6, 0xff, 0xff, 0x00,
  0x00, 0x0e, 0x00, 0x16, 0x00, 0x00, 0x00, 0x08, 0x00, 0x0c, 0x00, 0x07, 0x00,
  0x10, 0x00, 0x0e, 0x00, 0x00, 0x00, 0x00, 0x00, 0x00, 0x4d, 0x24, 0x00, 0x00,
  0x00, 0x18, 0x00, 0x00, 0x00, 0x0c, 0x00, 0x00, 0x00, 0x00, 0x00, 0x06, 0x00,
  0x08, 0x00, 0x07, 0x00, 0x06, 0x00, 0x00, 0x00, 0x00, 0x00, 0x00, 0x01, 0x01,
  0x00, 0x00, 0x00, 0x51, 0x00, 0x00, 0x00, 0x02, 0x00, 0x00, 0x00, 0x00, 0x00,
  0x00, 0x00, 0x07, 0x00, 0x00, 0x00, 0x0c, 0x00, 0x10, 0x00, 0x0b, 0x00, 0x00,
  0x00, 0x0c, 0x00, 0x04, 0x00, 0x0c, 0x00, 0x00, 0x00, 0x64, 0x00, 0x00, 0x00,
  0x00, 0x00, 0x00, 0x64, 0x01, 0x00, 0x00, 0x00, 0x50, 0xa6, 0xff, 0xff, 0x38,
  0x00, 0x00, 0x00, 0x52, 0x00, 0x00, 0x00, 0x20, 0x00, 0x00, 0x00, 0x40, 0x00,
  0x00, 0x00, 0x04, 0x00, 0x00, 0x00, 0x04, 0x00, 0x00, 0x00, 0x01, 0x00, 0x00,
  0x00, 0xff, 0xff, 0xff, 0xff, 0xff, 0xff, 0xff, 0xff, 0x01, 0x00, 0x00, 0x00,
  0x09, 0x00, 0x00, 0x00, 0x4d, 0x69, 0x72, 0x72, 0x6f, 0x72, 0x50, 0x61, 0x64,
  0x00, 0x00, 0x00, 0x04, 0x00, 0x00, 0x00, 0x01, 0x00, 0x00, 0x00, 0x01, 0x00,
  0x00, 0x00, 0x01, 0x00, 0x00, 0x00, 0x01, 0x00, 0x00, 0x00, 0x34, 0xa6, 0xff,
  0xff, 0x46, 0xa7, 0xff, 0xff, 0x04, 0x00, 0x00, 0x00, 0x04, 0x00, 0x00, 0x00,
  0x1f, 0xfd, 0xd9, 0xb8, 0xf2, 0xa6, 0xff, 0xff, 0x34, 0x00, 0x00, 0x00, 0x51,
  0x00, 0x00, 0x00, 0x08, 0x00, 0x00, 0x00, 0x30, 0x00, 0x00, 0x00, 0x1d, 0x00,
  0x00, 0x00, 0x42, 0x69, 0x61, 0x73, 0x41, 0x64, 0x64, 0x5f, 0x31, 0x39, 0x3b,
  0x43, 0x6f, 0x6e, 0x76, 0x32, 0x44, 0x5f, 0x31, 0x39, 0x3b, 0x63, 0x6f, 0x6e,
  0x76, 0x5f, 0x37, 0x5f, 0x62, 0x00, 0x00, 0x00, 0x01, 0x00, 0x00, 0x00, 0x01,
  0x00, 0x00, 0x00, 0x88, 0xa6, 0xff, 0xff, 0x9a, 0xa7, 0xff, 0xff, 0x04, 0x00,
  0x00, 0x00, 0x50, 0x00, 0x00, 0x00, 0x7f, 0xf5, 0x0e, 0xbc, 0x5d, 0x27, 0x8c,
  0xbd, 0xdd, 0x97, 0xe9, 0xbc, 0x05, 0x3f, 0xff, 0x3c, 0x10, 0xe4, 0xbf, 0x3c,
  0x1c, 0xc8, 0xc0, 0x3c, 0x2d, 0x4f, 0x87, 0xbc, 0xcb, 0xb0, 0x4f, 0xbb, 0x0a,
  0x46, 0xa4, 0xbc, 0x20, 0x6a, 0x90, 0xbc, 0xf5, 0x3d, 0xc0, 0x3d, 0xdb, 0xb6,
  0xb9, 0xbc, 0xbf, 0x46, 0xda, 0x3b, 0x22, 0x14, 0x38, 0xbd, 0x38, 0xdd, 0x85,
  0x3d, 0x27, 0x47, 0x93, 0x3d, 0x52, 0x59, 0xd7, 0xbc, 0x39, 0xe0, 0x46, 0x3c,
  0x5d, 0xd7, 0x97, 0x3d, 0xa3, 0x51, 0x2b, 0x3d, 0x92, 0xa7, 0xff, 0xff, 0x44,
  0x00, 0x00, 0x00, 0x50, 0x00, 0x00, 0x00, 0x08, 0x00, 0x00, 0x00, 0x40, 0x00,
  0x00, 0x00, 0x2c, 0x00, 0x00, 0x00, 0x42, 0x69, 0x61, 0x73, 0x41, 0x64, 0x64,
  0x5f, 0x31, 0x38, 0x3b, 0x64, 0x65, 0x70, 0x74, 0x68, 0x77, 0x69, 0x73, 0x65,
  0x5f, 0x33, 0x39, 0x3b, 0x43, 0x6f, 0x6e, 0x76, 0x32, 0x44, 0x5f, 0x31, 0x38,
  0x3b, 0x63, 0x6f, 0x6e, 0x76, 0x5f, 0x36, 0x5f, 0x31, 0x5f, 0x62, 0x00, 0x00,
  0x00, 0x00, 0x01, 0x00, 0x00, 0x00, 0x14, 0x00, 0x00, 0x00, 0x38, 0xa7, 0xff,
  0xff, 0x4a, 0xa8, 0xff, 0xff, 0x04, 0x00, 0x00, 0x00, 0x2c, 0x00, 0x00, 0x00,
  0x14, 0xf2, 0xdb, 0x3e, 0x74, 0xa4, 0x05, 0xbe, 0xc2, 0xa7, 0x56, 0xbe, 0xa7,
  0x0c, 0x7f, 0xbe, 0x45, 0x71, 0x2f, 0xbe, 0x64, 0x77, 0x0b, 0x3e, 0xf4, 0xb4,
  0x1a, 0x3e, 0x0f, 0x7e, 0x65, 0x3d, 0x9c, 0x5f, 0x7c, 0x3c, 0x00, 0x37, 0xc4,
  0xba, 0xb7, 0x02, 0xa0, 0xbd, 0x1e, 0xa8, 0xff, 0xff, 0x44, 0x00, 0x00, 0x00,
  0x4f, 0x00, 0x00, 0x00, 0x08, 0x00, 0x00, 0x00, 0x40, 0x00, 0x00, 0x00, 0x2c,
  0x00, 0x00, 0x00, 0x42, 0x69, 0x61, 0x73, 0x41, 0x64, 0x64, 0x5f, 0x31, 0x35,
  0x3b, 0x64, 0x65, 0x70, 0x74, 0x68, 0x77, 0x69, 0x73, 0x65, 0x5f, 0x33, 0x37,
  0x3b, 0x43, 0x6f, 0x6e, 0x76, 0x32, 0x44, 0x5f, 0x31, 0x35, 0x3b, 0x63, 0x6f,
  0x6e, 0x76, 0x5f, 0x35, 0x5f, 0x31, 0x5f, 0x62, 0x00, 0x00, 0x00, 0x00, 0x01,
  0x00, 0x00, 0x00, 0x0b, 0x00, 0x00, 0x00, 0xc4, 0xa7, 0xff, 0xff, 0xd6, 0xa8,
  0xff, 0xff, 0x04, 0x00, 0x00, 0x00, 0x18, 0x00, 0x00, 0x00, 0x34, 0xd2, 0x75,
  0xbc, 0x25, 0x11, 0xc9, 0x3d, 0x4d, 0x32, 0x8b, 0x3e, 0x61, 0xaa, 0x41, 0x3d,
  0x58, 0x59, 0x5f, 0x3d, 0xcf, 0x4c, 0xa2, 0xbd, 0x96, 0xa8, 0xff, 0xff, 0x44,
  0x00, 0x00, 0x00, 0x4e, 0x00, 0x00, 0x00, 0x08, 0x00, 0x00, 0x00, 0x40, 0x00,
  0x00, 0x00, 0x2c, 0x00, 0x00, 0x00, 0x42, 0x69, 0x61, 0x73, 0x41, 0x64, 0x64,
  0x5f, 0x31, 0x32, 0x3b, 0x64, 0x65, 0x70, 0x74, 0x68, 0x77, 0x69, 0x73, 0x65,
  0x5f, 0x33, 0x31, 0x3b, 0x43, 0x6f, 0x6e, 0x76, 0x32, 0x44, 0x5f, 0x31, 0x32,
  0x3b, 0x63, 0x6f, 0x6e, 0x76, 0x5f, 0x34, 0x5f, 0x31, 0x5f, 0x62, 0x00, 0x00,
  0x00, 0x00, 0x01, 0x00, 0x00, 0x00, 0x06, 0x00, 0x00, 0x00, 0x3c, 0xa8, 0xff,
  0xff, 0x4e, 0xa9, 0xff, 0xff, 0x04, 0x00, 0x00, 0x00, 0x10, 0x00, 0x00, 0x00,
  0xed, 0xb9, 0xaf, 0xbe, 0x2d, 0x39, 0x60, 0x3e, 0xa6, 0xd5, 0xe8, 0x3b, 0x89,
  0xa6, 0xab, 0xbd, 0x06, 0xa9, 0xff, 0xff, 0x40, 0x00, 0x00, 0x00, 0x4d, 0x00,
  0x00, 0x00, 0x08, 0x00, 0x00, 0x00, 0x3c, 0x00, 0x00, 0x00, 0x2a, 0x00, 0x00,
  0x00, 0x42, 0x69, 0x61, 0x73, 0x41, 0x64, 0x64, 0x5f, 0x39, 0x3b, 0x64, 0x65,
  0x70, 0x74, 0x68, 0x77, 0x69, 0x73, 0x65, 0x5f, 0x32, 0x35, 0x3b, 0x43, 0x6f,
  0x6e, 0x76, 0x32, 0x44, 0x5f, 0x39, 0x3b, 0x63, 0x6f, 0x6e, 0x76, 0x5f, 0x33,
  0x5f, 0x31, 0x5f, 0x62, 0x00, 0x00, 0x01, 0x00, 0x00, 0x00, 0x04, 0x00, 0x00,
  0x00, 0xa8, 0xa8, 0xff, 0xff, 0xba, 0xa9, 0xff, 0xff, 0x04, 0x00, 0x00, 0x00,
  0x18, 0x00, 0x00, 0x00, 0x2c, 0x5c, 0x9d, 0x3d, 0xd3, 0x0e, 0xd7, 0xbe, 0xdb,
  0xc5, 0x62, 0x3f, 0x23, 0xee, 0x9c, 0xbe, 0x98, 0xad, 0xce, 0x3d, 0x18, 0x55,
  0x38, 0xbe, 0x7a, 0xa9, 0xff, 0xff, 0x40, 0x00, 0x00, 0x00, 0x4c, 0x00, 0x00,
  0x00, 0x08, 0x00, 0x00, 0x00, 0x3c, 0x00, 0x00, 0x00, 0x2a, 0x00, 0x00, 0x00,
  0x42, 0x69, 0x61, 0x73, 0x41, 0x64, 0x64, 0x5f, 0x36, 0x3b, 0x64, 0x65, 0x70,
  0x74, 0x68, 0x77, 0x69, 0x73, 0x65, 0x5f, 0x33, 0x31, 0x3b, 0x43, 0x6f, 0x6e,
  0x76, 0x32, 0x44, 0x5f, 0x36, 0x3b, 0x63, 0x6f, 0x6e, 0x76, 0x5f, 0x32, 0x5f,
  0x31, 0x5f, 0x62, 0x00, 0x00, 0x01, 0x00, 0x00, 0x00, 0x06, 0x00, 0x00, 0x00,
  0x1c, 0xa9, 0xff, 0xff, 0x2e, 0xaa, 0xff, 0xff, 0x04, 0x00, 0x00, 0x00, 0x2c,
  0x00, 0x00, 0x00, 0xa9, 0xc4, 0xfa, 0xbb, 0xfd, 0xd5, 0x15, 0x3e, 0x8d, 0xc7,
  0x44, 0x3d, 0xb9, 0xb5, 0xdb, 0x3d, 0x0c, 0x3e, 0x93, 0xbd, 0x03, 0x31, 0x29,
  0xbd, 0xcd, 0xfb, 0x19, 0xbf, 0x6e, 0x92, 0x35, 0xbf, 0x62, 0x5d, 0x40, 0x3e,
  0x13, 0xfb, 0x75, 0x3f, 0x52, 0xb5, 0x87, 0x3e, 0x02, 0xaa, 0xff, 0xff, 0x40,
  0x00, 0x00, 0x00, 0x4b, 0x00, 0x00, 0x00, 0x08, 0x00, 0x00, 0x00, 0x3c, 0x00,
  0x00, 0x00, 0x2a, 0x00, 0x00, 0x00, 0x42, 0x69, 0x61, 0x73, 0x41, 0x64, 0x64,
  0x5f, 0x33, 0x3b, 0x64, 0x65, 0x70, 0x74, 0x68, 0x77, 0x69, 0x73, 0x65, 0x5f,
  0x33, 0x37, 0x3b, 0x43, 0x6f, 0x6e, 0x76, 0x32, 0x44, 0x5f, 0x33, 0x3b, 0x63,
  0x6f, 0x6e, 0x76, 0x5f, 0x31, 0x5f, 0x31, 0x5f, 0x62, 0x00, 0x00, 0x01, 0x00,
  0x00, 0x00, 0x0b, 0x00, 0x00, 0x00, 0xa4, 0xa9, 0xff, 0xff, 0xb6, 0xaa, 0xff,
  0xff, 0x04, 0x00, 0x00, 0x00, 0x50, 0x00, 0x00, 0x00, 0xfd, 0x0e, 0xa4, 0x3e,
  0x0d, 0xf1, 0x4b, 0x3f, 0x02, 0xe8, 0x29, 0x3f, 0xf7, 0xbb, 0x04, 0x3f, 0xc1,
  0x42, 0xa3, 0x3e, 0xa9, 0xd6, 0x54, 0x3f, 0xb4, 0xbe, 0x37, 0x3f, 0x55, 0x47,
  0x85, 0x3f, 0xf4, 0x8c, 0xb8, 0x3e, 0x12, 0x2b, 0x82, 0x3e, 0x61, 0xf4, 0xd7,
  0x3f, 0x02, 0x50, 0x5f, 0xbf, 0xaa, 0x13, 0x0a, 0x3f, 0x12, 0x18, 0xe8, 0x3e,
  0x04, 0xc6, 0xe5, 0xbf, 0xed, 0x98, 0xcd, 0xbe, 0x0b, 0xd8, 0x43, 0x3f, 0x66,
  0x85, 0x09, 0xc0, 0xa0, 0xf8, 0xb0, 0x3f, 0x30, 0x01, 0xc6, 0x3e, 0xae, 0xaa,
  0xff, 0xff, 0x3c, 0x00, 0x00, 0x00, 0x4a, 0x00, 0x00, 0x00, 0x08, 0x00, 0x00,
  0x00, 0x38, 0x00, 0x00, 0x00, 0x24, 0x00, 0x00, 0x00, 0x42, 0x69, 0x61, 0x73,
  0x41, 0x64, 0x64, 0x3b, 0x64, 0x65, 0x70, 0x74, 0x68, 0x77, 0x69, 0x73, 0x65,
  0x5f, 0x33, 0x39, 0x3b, 0x43, 0x6f, 0x6e, 0x76, 0x32, 0x44, 0x3b, 0x63, 0x6f,
  0x6e, 0x76, 0x5f, 0x30, 0x5f, 0x62, 0x00, 0x00, 0x00, 0x00, 0x01, 0x00, 0x00,
  0x00, 0x14, 0x00, 0x00, 0x00, 0x4c, 0xaa, 0xff, 0xff, 0x5e, 0xab, 0xff, 0xff,
  0x04, 0x00, 0x00, 0x00, 0x50, 0x00, 0x00, 0x00, 0xf6, 0x9c, 0xfd, 0x3c, 0x4a,
  0xfc, 0x9f, 0xbd, 0x4b, 0x8b, 0x81, 0xbd, 0x19, 0x45, 0xb5, 0x3d, 0x8c, 0x15,
  0xb3, 0x3d, 0x8b, 0x13, 0xcb, 0x3d, 0x97, 0xc8, 0xcf, 0xbd, 0x7f, 0xfe, 0xf3,
  0xbc, 0x49, 0x75, 0x1e, 0x3d, 0x33, 0x2d, 0x4d, 0x3d, 0xd6, 0x6c, 0x5b, 0xbd,
  0x6e, 0xd1, 0x5e, 0xbd, 0xcc, 0x9a, 0x28, 0x3d, 0x5b, 0x3b, 0x8d, 0xbd, 0x0c,
  0xa2, 0xca, 0x3c, 0x56, 0x79, 0x5f, 0x3e, 0xd2, 0x6a, 0x17, 0x3d, 0x0e, 0xd8,
  0xee, 0x3c, 0xca, 0x25, 0x82, 0x3d, 0xd4, 0xb6, 0x68, 0x3d, 0x56, 0xab, 0xff,
  0xff, 0x20, 0x00, 0x00, 0x00, 0x49, 0x00, 0x00, 0x00, 0x08, 0x00, 0x00, 0x00,
  0x28, 0x00, 0x00, 0x00, 0x0a, 0x00, 0x00, 0x00, 0x43, 0x6f, 0x6e, 0x76, 0x32,
  0x44, 0x5f, 0x31, 0x39, 0x31, 0x00, 0x00, 0x04, 0x00, 0x00, 0x00, 0x01, 0x00,
  0x00, 0x00, 0x01, 0x00, 0x00, 0x00, 0x01, 0x00, 0x00, 0x00, 0x14, 0x00, 0x00,
  0x00, 0xe4, 0xaa, 0xff, 0xff, 0xf6, 0xab, 0xff, 0xff, 0x04, 0x00, 0x00, 0x00,
  0x04, 0x00, 0x00, 0x00, 0x00, 0x00, 0x00, 0x00, 0xa2, 0xab, 0xff, 0xff, 0x20,
  0x00, 0x00, 0x00, 0x48, 0x00, 0x00, 0x00, 0x08, 0x00, 0x00, 0x00, 0x1c, 0x00,
  0x00, 0x00, 0x09, 0x00, 0x00, 0x00, 0x43, 0x6f, 0x6e, 0x76, 0x32, 0x44, 0x5f,
  0x31, 0x39, 0x00, 0x00, 0x00, 0x01, 0x00, 0x00, 0x00, 0x01, 0x00, 0x00, 0x00,
  0x24, 0xab, 0xff, 0xff, 0x36, 0xac, 0xff, 0xff, 0x04, 0x00, 0x00, 0x00, 0x30,
  0x02, 0x00, 0x00, 0x2b, 0x1f, 0x23, 0xbc, 0xa8, 0x75, 0x50, 0xba, 0xdb, 0x2c,
  0xe8, 0x3d, 0xee, 0x6f, 0xae, 0x3c, 0x60, 0xc5, 0x1f, 0xbc, 0x9d, 0x22, 0xbe,
  0x3d, 0x39, 0xa5, 0xeb, 0x3c, 0x31, 0x7b, 0x04, 0x3e, 0x5e, 0x00, 0x9e, 0x3d,
  0x0c, 0x59, 0xf5, 0xbd, 0x37, 0x0b, 0xc6, 0xbd, 0x1d, 0x67, 0xfe, 0xbd, 0x1d,
  0xc3, 0x06, 0xbb, 0xd3, 0x81, 0xcc, 0x3c, 0xc9, 0x66, 0x24, 0x3e, 0x0e, 0x48,
  0x67, 0xbd, 0x94, 0x17, 0x52, 0x3d, 0x2a, 0xc7, 0xbb, 0x3d, 0xa4, 0x2b, 0x2d,
  0xbd, 0x34, 0x11, 0x61, 0xbd, 0x9b, 0x5e, 0x29, 0x3e, 0x0a, 0x1a, 0xf3, 0xbd,
  0x7d, 0x12, 0xb9, 0xbc, 0x17, 0xa1, 0xbe, 0xbd, 0xeb, 0x8d, 0x11, 0xbd, 0x79,
  0x60, 0xaf, 0x3c, 0xa6, 0xe5, 0x0c, 0xbd, 0x61, 0xc3, 0xbf, 0x3e, 0x2c, 0x39,
  0xb1, 0xbe, 0x63, 0x5b, 0x98, 0x3d, 0x8e, 0x38, 0xd9, 0xbd, 0x86, 0x15, 0x53,
  0x3e, 0xa3, 0x46, 0xd6, 0x3d, 0x54, 0xe7, 0xf5, 0xbd, 0xef, 0x99, 0x95, 0x3d,
  0xd9, 0x18, 0xa9, 0xbd, 0xaa, 0x8c, 0xf3, 0x3b, 0xd2, 0x58, 0xd0, 0x3d, 0x9c,
  0x24, 0xdd, 0xba, 0xb4, 0xc7, 0x83, 0x3e, 0xc9, 0xbe, 0xe9, 0xbd, 0x16, 0xa7,
  0xc8, 0xbd, 0x77, 0x8f, 0x91, 0x3e, 0x48, 0xf3, 0x66, 0x3e, 0xd9, 0xf2, 0xe7,
  0xbd, 0x55, 0x0c, 0x56, 0x3d, 0x2f, 0xf9, 0x99, 0x3e, 0x58, 0x92, 0x3a, 0xbe,
  0x87, 0x3d, 0x6f, 0xbe, 0xc4, 0x82, 0x91, 0xbe, 0x4e, 0xf9, 0xba, 0xbe, 0x91,
  0x60, 0x1c, 0xbe, 0xae, 0x38, 0x73, 0x3d, 0x85, 0x04, 0x29, 0xbe, 0xae, 0x62,
  0x3a, 0xbe, 0x1f, 0x73, 0x16, 0xbe, 0xed, 0x52, 0x44, 0xbe, 0x8b, 0x7b, 0x75,
  0x3d, 0xd5, 0x3a, 0x81, 0xbe, 0xb4, 0x2b, 0x55, 0xbe, 0x84, 0x1e, 0x13, 0x3e,
  0x9e, 0x3a, 0xb1, 0x3e, 0xf3, 0xcb, 0xbb, 0xbe, 0xca, 0x2a, 0x09, 0xbf, 0xf9,
  0xb4, 0x3b, 0xbe, 0xb0, 0x24, 0x68, 0xbe, 0xea, 0x15, 0x2f, 0x3d, 0x0d, 0x98,
  0x41, 0xbd, 0x22, 0x0e, 0x32, 0x3d, 0x7c, 0x8a, 0xde, 0xbd, 0x3c, 0xb9, 0x9e,
  0x3e, 0x85, 0x06, 0x27, 0xbe, 0x35, 0x41, 0xbe, 0xbe, 0x15, 0xcd, 0xdc, 0x3e,
  0x9f, 0x57, 0x56, 0x3e, 0xaa, 0x56, 0x18, 0xbe, 0x70, 0xc2, 0xcf, 0x3e, 0xaf,
  0x5e, 0x23, 0x3e, 0x18, 0x2d, 0xb3, 0xbe, 0xb3, 0x27, 0x88, 0x3d, 0x11, 0xfc,
  0x0e, 0x3e, 0xf0, 0x8c, 0xc2, 0x3d, 0x7c, 0xca, 0x52, 0xbd, 0x42, 0x06, 0x82,
  0x3e, 0xee, 0x4e, 0x82, 0xbe, 0x93, 0x05, 0xa6, 0x3e, 0x30, 0x65, 0x8f, 0x3d,
  0x5b, 0x4d, 0x87, 0xbe, 0x14, 0x35, 0xbe, 0x3e, 0x14, 0x67, 0x4b, 0xbd, 0x49,
  0x2d, 0xbc, 0xbe, 0xd3, 0x12, 0xc3, 0x3e, 0x38, 0x7d, 0xb8, 0x3e, 0xc9, 0x02,
  0x3c, 0xbe, 0x5a, 0xd1, 0xa1, 0xbe, 0x11, 0x30, 0x33, 0x3d, 0xdb, 0x3c, 0xfb,
  0x3d, 0x73, 0x59, 0xa1, 0xbe, 0x7e, 0xac, 0xd9, 0xbd, 0x18, 0x37, 0x70, 0xbe,
  0xcb, 0x9a, 0x8e, 0xbe, 0x3f, 0x4a, 0x2d, 0x3e, 0x2e, 0xdc, 0x18, 0x3c, 0x0a,
  0x36, 0x86, 0xba, 0x4c, 0x82, 0xea, 0xbd, 0xef, 0xf1, 0x95, 0xbe, 0x35, 0x8c,
  0x06, 0xbe, 0x9f, 0x42, 0xa8, 0xbd, 0x11, 0xf2, 0x84, 0x3c, 0xa9, 0x1b, 0x44,
  0xbe, 0x3e, 0xfd, 0xd5, 0x3d, 0x40, 0x78, 0x9b, 0xbe, 0xf4, 0x7f, 0xaf, 0x3d,
  0xaf, 0x47, 0x4e, 0x3c, 0x31, 0x80, 0xcf, 0x3e, 0x78, 0xb7, 0x90, 0x3c, 0xf4,
  0x5a, 0x7c, 0x3c, 0xac, 0x0e, 0x8d, 0xbe, 0xb5, 0x9f, 0x5e, 0x3d, 0xcc, 0x27,
  0x0e, 0x3e, 0x32, 0x51, 0x43, 0xbe, 0x2e, 0x6e, 0x8c, 0xbd, 0xf7, 0xf4, 0x22,
  0xbd, 0x96, 0x81, 0x00, 0xbd, 0xf2, 0xa3, 0x2a, 0xbd, 0x57, 0x63, 0xbd, 0x3d,
  0x57, 0x8d, 0x90, 0x3d, 0xc3, 0x23, 0x15, 0x3e, 0x9a, 0x2c, 0xd7, 0xbc, 0x6f,
  0x22, 0x16, 0x3e, 0xc8, 0x99, 0x91, 0x3d, 0x52, 0x51, 0x02, 0x3e, 0xa0, 0x0f,
  0x57, 0x3d, 0xeb, 0x2c, 0x84, 0x3c, 0xe4, 0xed, 0x5d, 0xbe, 0x75, 0x35, 0x91,
  0xbc, 0xd5, 0x67, 0x0e, 0xbe, 0x42, 0xdf, 0xef, 0x39, 0xfc, 0xbc, 0xb0, 0xbc,
  0xf1, 0xca, 0xf4, 0x3c, 0x0e, 0xae, 0xff, 0xff, 0x24, 0x00, 0x00, 0x00, 0x47,
  0x00, 0x00, 0x00, 0x08, 0x00, 0x00, 0x00, 0x2c, 0x00, 0x00, 0x00, 0x0d, 0x00,
  0x00, 0x00, 0x64, 0x65, 0x70, 0x74, 0x68, 0x77, 0x69, 0x73, 0x65, 0x5f, 0x33,
  0x39, 0x31, 0x00, 0x00, 0x00, 0x04, 0x00, 0x00, 0x00, 0x01, 0x00, 0x00, 0x00,
  0x01, 0x00, 0x00, 0x00, 0x07, 0x00, 0x00, 0x00, 0x14, 0x00, 0x00, 0x00, 0xa0,
  0xad, 0xff, 0xff, 0xb2, 0xae, 0xff, 0xff, 0x04, 0x00, 0x00, 0x00, 0x50, 0x00,
  0x00, 0x00, 0x00, 0x00, 0x00, 0x00, 0x00, 0x00, 0x00, 0x00, 0x00, 0x00, 0x00,
  0x00, 0x00, 0x00, 0x00, 0x00, 0x00, 0x00, 0x00, 0x00, 0x00, 0x00, 0x00, 0x00,
  0x00, 0x00, 0x00, 0x00, 0x00, 0x00, 0x00, 0x00, 0x00, 0x00, 0x00, 0x00, 0x00,
  0x00, 0x00, 0x00, 0x00, 0x00, 0x00, 0x00, 0x00, 0x00, 0x00, 0x00, 0x00, 0x00,
  0x00, 0x00, 0x00, 0x00, 0x00, 0x00, 0x00, 0x00, 0x00, 0x00, 0x00, 0x00, 0x00,
  0x00, 0x00, 0x00, 0x00, 0x00, 0x00, 0x00, 0x00, 0x00, 0x00, 0x00, 0x00, 0x00,
  0x00, 0x00, 0x00, 0x00, 0xaa, 0xae, 0xff, 0xff, 0x24, 0x00, 0x00, 0x00, 0x46,
  0x00, 0x00, 0x00, 0x08, 0x00, 0x00, 0x00, 0x20, 0x00, 0x00, 0x00, 0x0c, 0x00,
  0x00, 0x00, 0x64, 0x65, 0x70, 0x74, 0x68, 0x77, 0x69, 0x73, 0x65, 0x5f, 0x33,
  0x39, 0x00, 0x00, 0x00, 0x00, 0x01, 0x00, 0x00, 0x00, 0x14, 0x00, 0x00, 0x00,
  0x30, 0xae, 0xff, 0xff, 0x42, 0xaf, 0xff, 0xff, 0x04, 0x00, 0x00, 0x00, 0x30,
  0x02, 0x00, 0x00, 0xe0, 0xd7, 0x54, 0xbd, 0x5c, 0xcd, 0x2b, 0xbe, 0xc7, 0x65,
  0x14, 0x3e, 0xef, 0x76, 0x7d, 0xbb, 0x94, 0x9a, 0xe2, 0x3d, 0x13, 0xc0, 0x83,
  0x3b, 0xee, 0x40, 0xe7, 0x3d, 0xa4, 0x3a, 0x6b, 0xbc, 0x18, 0xd1, 0xa4, 0xbd,
  0xe0, 0xe8, 0x20, 0x3e, 0x78, 0x32, 0x0b, 0xbd, 0xd1, 0x6a, 0x3f, 0xbd, 0xae,
  0x2f, 0x74, 0xbd, 0xe9, 0xe2, 0x07, 0x3d, 0x7a, 0x21, 0xc3, 0xbc, 0x15, 0x0e,
  0x8e, 0xbb, 0x69, 0x16, 0xb2, 0xbd, 0x90, 0xbe, 0x03, 0xbd, 0xbd, 0x9c, 0x9a,
  0x3d, 0x86, 0x7c, 0xd9, 0x3d, 0x33, 0xcf, 0xc2, 0xbd, 0x39, 0x0f, 0x68, 0x3d,
  0xa7, 0xca, 0xc6, 0xbd, 0xb2, 0x1f, 0x0a, 0xbc, 0x37, 0x76, 0x95, 0xbe, 0xec,
  0xfc, 0xac, 0x3d, 0x43, 0x8e, 0x92, 0xbd, 0x1d, 0xb8, 0xa8, 0xbe, 0x4a, 0xb2,
  0xa6, 0x3d, 0x29, 0x70, 0xc1, 0xbd, 0x21, 0x59, 0x11, 0xbe, 0x6c, 0xa5, 0xb6,
  0xbd, 0x7d, 0x3b, 0x68, 0x3d, 0x41, 0x1a, 0x85, 0xbd, 0x66, 0xbc, 0xc7, 0x3d,
  0x77, 0x16, 0xeb, 0x3c, 0x82, 0xda, 0x6d, 0xbe, 0xdb, 0x85, 0x78, 0x3e, 0x15,
  0xbc, 0x90, 0xbe, 0x18, 0xaf, 0x2c, 0xbd, 0x1a, 0x84, 0x77, 0xbd, 0xf4, 0x96,
  0x66, 0x3e, 0xaa, 0x48, 0xf4, 0xbd, 0x03, 0xdf, 0xee, 0x3c, 0x37, 0xb0, 0xb3,
  0x3e, 0xb2, 0x1e, 0x58, 0x3e, 0x74, 0x30, 0x9d, 0x3d, 0x7f, 0x8c, 0x23, 0x3d,
  0x2c, 0xcd, 0xaf, 0x3e, 0x38, 0x34, 0x95, 0xbd, 0x20, 0x19, 0x47, 0x3e, 0x4f,
  0xfd, 0x26, 0xbe, 0xa8, 0x3a, 0x13, 0x3e, 0x38, 0x82, 0x88, 0xbe, 0x0b, 0x90,
  0x56, 0x3e, 0xc3, 0x44, 0x16, 0xbe, 0x42, 0xc7, 0xec, 0x3d, 0x9c, 0x88, 0x9f,
  0xbe, 0x06, 0xb1, 0x97, 0x3e, 0x6a, 0x4b, 0x79, 0x3e, 0x07, 0xb9, 0x99, 0x3e,
  0xf1, 0x22, 0x1b, 0xbe, 0x30, 0x55, 0x65, 0xbe, 0x2b, 0xbf, 0xdb, 0xbe, 0x86,
  0x1d, 0x9a, 0xbe, 0xa5, 0x65, 0x97, 0x3e, 0x16, 0x27, 0xe0, 0xbd, 0xad, 0xcf,
  0xb6, 0x3e, 0x15, 0x1a, 0x5e, 0xbe, 0xcc, 0xd8, 0xc4, 0x3d, 0x0e, 0xd0, 0x5d,
  0x3e, 0x48, 0x22, 0x9b, 0xbe, 0x5a, 0x7c, 0x9c, 0xbe, 0x99, 0x64, 0x1f, 0x3e,
  0xd6, 0x77, 0x50, 0xbe, 0xfe, 0x06, 0x6c, 0x3e, 0xa6, 0x77, 0x0a, 0xbd, 0xc3,
  0xa7, 0x63, 0xbc, 0xc4, 0x7e, 0xf6, 0x3d, 0x69, 0xea, 0x86, 0x3e, 0x39, 0x2b,
  0x51, 0xbd, 0xdb, 0x32, 0x46, 0x3e, 0xad, 0x35, 0xe4, 0x3e, 0xca, 0xe7, 0x75,
  0xbe, 0xb7, 0x9d, 0x30, 0x3e, 0xa0, 0x64, 0x89, 0xbd, 0x8f, 0x73, 0x79, 0xbe,
  0x2c, 0x24, 0xa7, 0xbd, 0x12, 0xcb, 0xe1, 0x3d, 0x09, 0xc8, 0x11, 0x3e, 0x28,
  0xc9, 0xf9, 0x3d, 0xc6, 0x9e, 0xde, 0xbe, 0xd6, 0xda, 0xaa, 0x3e, 0xaa, 0xc4,
  0xba, 0x3d, 0xdc, 0x99, 0x04, 0xbe, 0x48, 0xfb, 0x90, 0xbe, 0xf5, 0xb6, 0x8a,
  0x3e, 0xb5, 0x03, 0xe1, 0xbe, 0x1d, 0x3f, 0x24, 0xbd, 0x20, 0x46, 0xd1, 0x3e,
  0x50, 0x22, 0x13, 0xbe, 0x2b, 0x25, 0xdc, 0xbd, 0x34, 0x5f, 0xdf, 0xbc, 0x63,
  0xd6, 0x9a, 0x3d, 0x1e, 0x33, 0x89, 0xbd, 0x87, 0x89, 0x27, 0xbd, 0xd3, 0xe9,
  0xd6, 0x3d, 0x64, 0x25, 0x22, 0x3e, 0xa0, 0x75, 0x98, 0xbe, 0xe7, 0xf0, 0xa7,
  0xbe, 0x73, 0xb0, 0xc4, 0xbe, 0x75, 0x98, 0x1a, 0xbe, 0xbe, 0xe0, 0x8a, 0xbe,
  0xdf, 0x6e, 0xc5, 0x3e, 0x0b, 0x65, 0x72, 0xbe, 0x4b, 0x62, 0x0a, 0x3e, 0x24,
  0xe5, 0xed, 0xbe, 0x8c, 0x9a, 0x04, 0x3d, 0xaf, 0x54, 0x14, 0x3e, 0x0d, 0xd0,
  0x5a, 0xbc, 0x25, 0x89, 0xeb, 0x3c, 0x5e, 0x1e, 0x3c, 0xbe, 0x04, 0x1f, 0x0c,
  0x3d, 0xae, 0xe3, 0x36, 0x3d, 0x47, 0xab, 0x79, 0x3d, 0xb9, 0x29, 0x16, 0x3d,
  0x5a, 0xcd, 0x47, 0x3e, 0x8e, 0x25, 0x34, 0xbe, 0x54, 0x1b, 0x87, 0x3e, 0x5d,
  0x97, 0x0a, 0x3d, 0x56, 0xba, 0xd3, 0xbc, 0x1e, 0x0b, 0x2e, 0x3b, 0x6a, 0x6a,
  0x8c, 0x3e, 0x21, 0x3e, 0x02, 0x3e, 0x66, 0x93, 0x49, 0xbe, 0xa0, 0xf6, 0x22,
  0x3c, 0xde, 0x2b, 0x03, 0x3e, 0x15, 0x8b, 0x50, 0x3d, 0xcb, 0xf8, 0x9e, 0xbe,
  0x9b, 0x9d, 0xb0, 0x3b, 0x1a, 0xb1, 0xff, 0xff, 0x24, 0x00, 0x00, 0x00, 0x45,
  0x00, 0x00, 0x00, 0x08, 0x00, 0x00, 0x00, 0x2c, 0x00, 0x00, 0x00, 0x0c, 0x00,
  0x00, 0x00, 0x64, 0x65, 0x70, 0x74, 0x68, 0x77, 0x69, 0x73, 0x65, 0x5f, 0x33,
  0x38, 0x00, 0x00, 0x00, 0x00, 0x04, 0x00, 0x00, 0x00, 0x01, 0x00, 0x00, 0x00,
  0x07, 0x00, 0x00, 0x00, 0x01, 0x00, 0x00, 0x00, 0x14, 0x00, 0x00, 0x00, 0xac,
  0xb0, 0xff, 0xff, 0xbe, 0xb1, 0xff, 0xff, 0x04, 0x00, 0x00, 0x00, 0x70, 0x03,
  0x00, 0x00, 0x04, 0x85, 0xbc, 0x3e, 0x9c, 0x60, 0x5c, 0x3d, 0x37, 0x29, 0x41,
  0xbf, 0x17, 0x60, 0x4e, 0xbf, 0xa8, 0x4b, 0xfa, 0xbc, 0xff, 0xec, 0x8a, 0xbf,
  0xff, 0xa8, 0x35, 0x3d, 0x07, 0x45, 0x8e, 0x3e, 0x2e, 0xf8, 0x02, 0xbf, 0xf7,
  0x1c, 0x64, 0x3f, 0x47, 0x41, 0x33, 0x3f, 0xd4, 0xe4, 0xc3, 0x3e, 0xad, 0x9b,
  0x30, 0xbe, 0xd8, 0x62, 0x34, 0xbd, 0x5b, 0xe0, 0xd8, 0xbe, 0x70, 0x17, 0x9a,
  0xbe, 0x0f, 0xa4, 0x82, 0xbe, 0x8b, 0x23, 0xbb, 0xbe, 0x02, 0xc1, 0xf3, 0x3d,
  0x74, 0x81, 0x32, 0x3d, 0xe1, 0xf3, 0x28, 0x3e, 0x01, 0xd3, 0x33, 0x3d, 0x80,
  0xed, 0x30, 0xbf, 0x49, 0x2a, 0xf2, 0xbe, 0xb6, 0xe8, 0xda, 0x3d, 0x09, 0x96,
  0xb9, 0x3c, 0x44, 0xa4, 0xcb, 0xbe, 0x39, 0xbe, 0xbc, 0x3c, 0xa4, 0x96, 0x4c,
  0x3e, 0x53, 0x22, 0x98, 0x3c, 0xd7, 0x2e, 0x62, 0xbd, 0x69, 0xb4, 0xf3, 0x3d,
  0x8d, 0xf6, 0x72, 0x3e, 0xce, 0x33, 0xe9, 0xbe, 0x2c, 0x59, 0x66, 0x3e, 0xf3,
  0x12, 0x09, 0xbc, 0x69, 0xc1, 0x00, 0xbd, 0xa9, 0x51, 0x62, 0xbe, 0xa0, 0x0a,
  0xd1, 0xbd, 0xa7, 0xc6, 0xa1, 0x3d, 0x16, 0xbc, 0xec, 0x3c, 0xfc, 0xb3, 0xe4,
  0xbe, 0xab, 0x6e, 0x9b, 0x3e, 0x3d, 0xcb, 0x59, 0xbf, 0xaa, 0x4f, 0x21, 0xbf,
  0x0b, 0x9c, 0x37, 0xbd, 0x0b, 0x46, 0x5e, 0xbf, 0x25, 0x98, 0xe8, 0x3e, 0xf0,
  0x96, 0x20, 0x3d, 0xb3, 0xf9, 0xb2, 0x3c, 0x51, 0x4c, 0x27, 0xbe, 0x38, 0xee,
  0xe4, 0x3d, 0xc3, 0xc0, 0x58, 0xbe, 0x6a, 0x53, 0x48, 0x3f, 0xd7, 0xc7, 0x8c,
  0x3d, 0x2d, 0x38, 0x53, 0xbe, 0x8a, 0xa0, 0xe1, 0x3c, 0x0f, 0x5f, 0x1b, 0x3e,
  0x99, 0x91, 0x2c, 0x3f, 0x8f, 0x3b, 0xb6, 0xbe, 0xf3, 0xa7, 0xe8, 0x3e, 0xb3,
  0x35, 0xa3, 0xbe, 0x3a, 0xaa, 0xc1, 0xbd, 0x22, 0xf5, 0xea, 0x3e, 0x95, 0xa3,
  0xd2, 0xbe, 0x98, 0xe2, 0x91, 0xbc, 0x4e, 0xd9, 0x12, 0x3e, 0x22, 0x83, 0xac,
  0xbe, 0x56, 0xc2, 0x57, 0xbe, 0x0c, 0xd5, 0x0a, 0x3e, 0xe2, 0x0f, 0x98, 0x3e,
  0x24, 0x98, 0x1c, 0xbf, 0xad, 0x32, 0x4b, 0xbd, 0xbb, 0xdb, 0x75, 0x3d, 0xae,
  0x85, 0x9e, 0x3e, 0x98, 0x4a, 0x6f, 0xbe, 0xea, 0x23, 0xed, 0xbe, 0xe1, 0x45,
  0x97, 0x3e, 0xaf, 0x26, 0x82, 0xbe, 0xf3, 0xca, 0x08, 0xbe, 0x91, 0x0b, 0x87,
  0x3e, 0x64, 0xf6, 0x15, 0xbf, 0xd9, 0xd0, 0x24, 0x3e, 0x4c, 0x57, 0x97, 0xbe,
  0x96, 0x70, 0xcd, 0xbd, 0x38, 0xd3, 0x95, 0x3d, 0x64, 0x3c, 0x10, 0xbf, 0xf6,
  0x19, 0x0d, 0xbf, 0x86, 0x47, 0x48, 0xbb, 0x43, 0x03, 0x3f, 0xbf, 0x1c, 0xee,
  0x68, 0x3e, 0x4b, 0x6c, 0x21, 0x3e, 0x9f, 0xa2, 0x01, 0xbf, 0xab, 0x67, 0x83,
  0xbe, 0x11, 0x40, 0x8a, 0x3e, 0x24, 0xf6, 0x3f, 0x3e, 0xc4, 0x4d, 0x08, 0x3e,
  0x46, 0x15, 0x67, 0x3e, 0x07, 0x59, 0xf1, 0x3d, 0xb8, 0x62, 0x5f, 0x3f, 0x98,
  0xa8, 0x02, 0xbf, 0xf8, 0xb5, 0xa3, 0xbd, 0x8d, 0xaa, 0xa1, 0x3e, 0x74, 0x1c,
  0x10, 0x3f, 0x4a, 0x4e, 0x22, 0x3e, 0x95, 0x26, 0xa6, 0x3d, 0x6c, 0x7c, 0x7e,
  0x3d, 0xa7, 0x13, 0x35, 0x3f, 0xe9, 0x2e, 0x0f, 0x3f, 0xbd, 0x0c, 0x4a, 0x3e,
  0xd6, 0x07, 0x0b, 0xbe, 0xd9, 0xbb, 0x5e, 0x3f, 0x83, 0xb5, 0xb6, 0xbd, 0x91,
  0x78, 0xa1, 0x3e, 0x9e, 0xc1, 0x33, 0x3f, 0xf2, 0xdf, 0x91, 0xbf, 0x55, 0x62,
  0xdc, 0xbd, 0x1e, 0x1e, 0xa8, 0xbe, 0xc6, 0xeb, 0x51, 0x3e, 0x8b, 0xad, 0xa3,
  0x3e, 0x47, 0xbf, 0xd8, 0x3d, 0x70, 0xcf, 0x77, 0xbd, 0xba, 0x99, 0x74, 0x3e,
  0x52, 0xba, 0x56, 0x3e, 0x66, 0xed, 0x42, 0xbd, 0xfa, 0x4d, 0xc7, 0x3e, 0xb5,
  0xb5, 0xc6, 0xbe, 0xfa, 0x0d, 0x14, 0xbe, 0x76, 0xbf, 0xdd, 0xbf, 0xb2, 0x41,
  0x53, 0xbf, 0x5e, 0x5b, 0x1f, 0xbd, 0x13, 0x6c, 0x29, 0xbe, 0x57, 0x71, 0x9e,
  0xbe, 0xfd, 0x82, 0xb2, 0x3e, 0x55, 0xb1, 0x8d, 0xbe, 0xe5, 0x20, 0xec, 0x3d,
  0x6e, 0x60, 0x02, 0x3f, 0xde, 0xa8, 0xe5, 0xbe, 0x01, 0x2d, 0x56, 0x3f, 0x91,
  0xe0, 0x34, 0x3e, 0x80, 0x2d, 0xd6, 0x3e, 0x5a, 0x68, 0x08, 0xbe, 0x44, 0x12,
  0x01, 0x3d, 0x23, 0x30, 0x19, 0xbf, 0xa0, 0x5b, 0x01, 0xbf, 0x13, 0x25, 0x86,
  0xbd, 0x6f, 0xe1, 0x86, 0x3d, 0xdd, 0xd6, 0x2c, 0x3d, 0xc7, 0x67, 0x0e, 0xbf,
  0xd3, 0x2a, 0x41, 0xbf, 0x04, 0x38, 0x69, 0xbd, 0x11, 0xd3, 0xb2, 0xbd, 0x93,
  0x9a, 0x92, 0x3b, 0x5a, 0xde, 0xbd, 0xbe, 0xd1, 0x1b, 0xc9, 0xbe, 0xba, 0x96,
  0x68, 0x3f, 0x83, 0x51, 0x02, 0xbd, 0x55, 0x7c, 0x9e, 0xbe, 0x55, 0x8e, 0x83,
  0xbe, 0x61, 0xd5, 0xff, 0x3e, 0xa3, 0x5c, 0x91, 0xbd, 0xab, 0x14, 0x23, 0x3f,
  0x7d, 0x1a, 0xbb, 0x3e, 0x63, 0x81, 0xc6, 0x3e, 0xc0, 0xcb, 0xab, 0xbe, 0x29,
  0x40, 0x5e, 0x3d, 0xdd, 0xce, 0x8a, 0x3e, 0x9c, 0x38, 0xce, 0x3e, 0x99, 0x1a,
  0x58, 0xbc, 0x55, 0x8c, 0xb8, 0x3e, 0xe0, 0x9e, 0xe2, 0xbd, 0xd0, 0xc8, 0xef,
  0xbc, 0x7c, 0x0c, 0xa5, 0xbe, 0x04, 0x48, 0xa5, 0xbe, 0x6e, 0x2b, 0x86, 0x3e,
  0xec, 0x0e, 0xa1, 0x3e, 0xa5, 0xb6, 0xaf, 0xbe, 0x69, 0x7c, 0xfb, 0xbe, 0xfe,
  0xb6, 0x2e, 0x3d, 0xf1, 0x0a, 0x19, 0xbf, 0xf7, 0xd2, 0x42, 0xbf, 0xc1, 0x22,
  0x5b, 0xbf, 0x33, 0x19, 0x24, 0x3f, 0xe9, 0xbc, 0x02, 0x3d, 0xd9, 0xd0, 0xe1,
  0x3e, 0x69, 0x82, 0xad, 0x3d, 0xc2, 0x79, 0xfd, 0xbe, 0xb3, 0x7e, 0x1e, 0xbf,
  0x99, 0x8e, 0x97, 0xbe, 0xf0, 0xc4, 0x3e, 0xbe, 0x78, 0x39, 0x54, 0xbd, 0xfa,
  0x72, 0x0c, 0xbd, 0x09, 0xe0, 0x27, 0x3f, 0xa3, 0x80, 0x0b, 0x3f, 0x4f, 0xec,
  0x3e, 0x3e, 0x9b, 0x74, 0x46, 0x3e, 0xb7, 0x35, 0xaf, 0x3f, 0x92, 0x72, 0x73,
  0xbf, 0xb8, 0x33, 0xdd, 0xbd, 0xc7, 0x5d, 0x26, 0xbb, 0xab, 0x7a, 0x9a, 0x3d,
  0x7c, 0x16, 0x35, 0x3e, 0xc4, 0x22, 0x63, 0x3f, 0x29, 0x1a, 0x46, 0xbe, 0xd0,
  0x53, 0x80, 0x3e, 0xcd, 0x7f, 0x72, 0xbe, 0x0f, 0x9c, 0x98, 0xbe, 0xf0, 0x11,
  0xda, 0xbe, 0xd1, 0xb8, 0xef, 0x3e, 0xff, 0x69, 0xe6, 0xbd, 0x4e, 0x46, 0xb8,
  0x3e, 0x29, 0xdf, 0x21, 0xbf, 0x66, 0xce, 0x13, 0x3e, 0x84, 0x08, 0x75, 0xbe,
  0xd3, 0xa4, 0x37, 0x3e, 0x4c, 0x0b, 0x11, 0xbf, 0xf6, 0x01, 0x46, 0x3d, 0x3c,
  0x62, 0x91, 0xbe, 0x31, 0x17, 0x4f, 0xbe, 0x29, 0x89, 0xb0, 0xbe, 0xd6, 0xb4,
  0xff, 0xff, 0x20, 0x00, 0x00, 0x00, 0x44, 0x00, 0x00, 0x00, 0x08, 0x00, 0x00,
  0x00, 0x28, 0x00, 0x00, 0x00, 0x09, 0x00, 0x00, 0x00, 0x43, 0x6f, 0x6e, 0x76,
  0x32, 0x44, 0x5f, 0x31, 0x38, 0x00, 0x00, 0x00, 0x04, 0x00, 0x00, 0x00, 0x14,
