const unsigned char sr3by2_4_tflite[] = {
  0x1c, 0x00, 0x00, 0x00, 0x54, 0x46, 0x4c, 0x33, 0x14, 0x00, 0x20, 0x00, 0x1c,
  0x00, 0x18, 0x00, 0x14, 0x00, 0x10, 0x00, 0x0c, 0x00, 0x00, 0x00, 0x08, 0x00,
  0x04, 0x00, 0x14, 0x00, 0x00, 0x00, 0x1c, 0x00, 0x00, 0x00, 0x88, 0x00, 0x00,
  0x00, 0xb8, 0x00, 0x00, 0x00, 0xec, 0x47, 0x00, 0x00, 0xfc, 0x47, 0x00, 0x00,
  0xd8, 0x86, 0x00, 0x00, 0x03, 0x00, 0x00, 0x00, 0x01, 0x00, 0x00, 0x00, 0x10,
  0x00, 0x00, 0x00, 0x00, 0x00, 0x0a, 0x00, 0x10, 0x00, 0x0c, 0x00, 0x08, 0x00,
  0x04, 0x00, 0x0a, 0x00, 0x00, 0x00, 0x0c, 0x00, 0x00, 0x00, 0x1c, 0x00, 0x00,
  0x00, 0x38, 0x00, 0x00, 0x00, 0x0f, 0x00, 0x00, 0x00, 0x73, 0x65, 0x72, 0x76,
  0x69, 0x6e, 0x67, 0x5f, 0x64, 0x65, 0x66, 0x61, 0x75, 0x6c, 0x74, 0x00, 0x01,
  0x00, 0x00, 0x00, 0x04, 0x00, 0x00, 0x00, 0xc8, 0xff, 0xff, 0xff, 0x8f, 0x00,
  0x00, 0x00, 0x04, 0x00, 0x00, 0x00, 0x06, 0x00, 0x00, 0x00, 0x6f, 0x75, 0x74,
  0x70, 0x75, 0x74, 0x00, 0x00, 0x01, 0x00, 0x00, 0x00, 0x04, 0x00, 0x00, 0x00,
  0xb2, 0xb8, 0xff, 0xff, 0x04, 0x00, 0x00, 0x00, 0x03, 0x00, 0x00, 0x00, 0x69,
  0x6d, 0x67, 0x00, 0x01, 0x00, 0x00, 0x00, 0x0c, 0x00, 0x00, 0x00, 0x08, 0x00,
  0x0c, 0x00, 0x08, 0x00, 0x04, 0x00, 0x08, 0x00, 0x00, 0x00, 0x91, 0x00, 0x00,
  0x00, 0x04, 0x00, 0x00, 0x00, 0x13, 0x00, 0x00, 0x00, 0x6d, 0x69, 0x6e, 0x5f,
  0x72, 0x75, 0x6e, 0x74, 0x69, 0x6d, 0x65, 0x5f, 0x76, 0x65, 0x72, 0x73, 0x69,
  0x6f, 0x6e, 0x00, 0x92, 0x00, 0x00, 0x00, 0x30, 0x47, 0x00, 0x00, 0x28, 0x47,
  0x00, 0x00, 0x04, 0x47, 0x00, 0x00, 0xd8, 0x46, 0x00, 0x00, 0xac, 0x46, 0x00,
  0x00, 0x78, 0x46, 0x00, 0x00, 0x38, 0x46, 0x00, 0x00, 0xec, 0x45, 0x00, 0x00,
  0xbc, 0x45, 0x00, 0x00, 0x90, 0x45, 0x00, 0x00, 0x64, 0x45, 0x00, 0x00, 0x04,
  0x45, 0x00, 0x00, 0x64, 0x43, 0x00, 0x00, 0xc4, 0x41, 0x00, 0x00, 0x04, 0x3d,
  0x00, 0x00, 0xc8, 0x3b, 0x00, 0x00, 0x8c, 0x3a, 0x00, 0x00, 0xf8, 0x36, 0x00,
  0x00, 0x58, 0x35, 0x00, 0x00, 0xf8, 0x34, 0x00, 0x00, 0x58, 0x33, 0x00, 0x00,
  0x98, 0x2e, 0x00, 0x00, 0x5c, 0x2d, 0x00, 0x00, 0x20, 0x2c, 0x00, 0x00, 0x40,
  0x29, 0x00, 0x00, 0x40, 0x28, 0x00, 0x00, 0x40, 0x27, 0x00, 0x00, 0xf0, 0x24,
  0x00, 0x00, 0xb4, 0x23, 0x00, 0x00, 0x68, 0x23, 0x00, 0x00, 0x2c, 0x22, 0x00,
  0x00, 0x4c, 0x1f, 0x00, 0x00, 0x4c, 0x1e, 0x00, 0x00, 0x4c, 0x1d, 0x00, 0x00,
  0x8c, 0x1b, 0x00, 0x00, 0xc8, 0x1a, 0x00, 0x00, 0x04, 0x1a, 0x00, 0x00, 0xb0,
  0x18, 0x00, 0x00, 0xb0, 0x17, 0x00, 0x00, 0x70, 0x17, 0x00, 0x00, 0x70, 0x16,
  0x00, 0x00, 0xb0, 0x14, 0x00, 0x00, 0xec, 0x13, 0x00, 0x00, 0x28, 0x13, 0x00,
  0x00, 0x1c, 0x12, 0x00, 0x00, 0x80, 0x11, 0x00, 0x00, 0xe4, 0x10, 0x00, 0x00,
  0x10, 0x10, 0x00, 0x00, 0x4c, 0x0f, 0x00, 0x00, 0x18, 0x0f, 0x00, 0x00, 0x54,
  0x0e, 0x00, 0x00, 0x48, 0x0d, 0x00, 0x00, 0xac, 0x0c, 0x00, 0x00, 0x10, 0x0c,
  0x00, 0x00, 0x74, 0x0b, 0x00, 0x00, 0x00, 0x0b, 0x00, 0x00, 0x8c, 0x0a, 0x00,
  0x00, 0x18, 0x0a, 0x00, 0x00, 0x7c, 0x09, 0x00, 0x00, 0x50, 0x09, 0x00, 0x00,
  0xb4, 0x08, 0x00, 0x00, 0x18, 0x08, 0x00, 0x00, 0xa4, 0x07, 0x00, 0x00, 0x30,
  0x07, 0x00, 0x00, 0xbc, 0x06, 0x00, 0x00, 0x48, 0x06, 0x00, 0x00, 0xd4, 0x05,
  0x00, 0x00, 0x60, 0x05, 0x00, 0x00, 0xc4, 0x04, 0x00, 0x00, 0xa0, 0x04, 0x00,
  0x00, 0x04, 0x04, 0x00, 0x00, 0xf0, 0x03, 0x00, 0x00, 0xcc, 0x03, 0x00, 0x00,
  0x6c, 0x03, 0x00, 0x00, 0x20, 0x03, 0x00, 0x00, 0xe0, 0x02, 0x00, 0x00, 0xac,
  0x02, 0x00, 0x00, 0x80, 0x02, 0x00, 0x00, 0x5c, 0x02, 0x00, 0x00, 0x38, 0x02,
  0x00, 0x00, 0x24, 0x02, 0x00, 0x00, 0x1c, 0x02, 0x00, 0x00, 0x14, 0x02, 0x00,
  0x00, 0x0c, 0x02, 0x00, 0x00, 0x04, 0x02, 0x00, 0x00, 0xfc, 0x01, 0x00, 0x00,
  0xf4, 0x01, 0x00, 0x00, 0xec, 0x01, 0x00, 0x00, 0xe4, 0x01, 0x00, 0x00, 0xdc,
  0x01, 0x00, 0x00, 0xd4, 0x01, 0x00, 0x00, 0xcc, 0x01, 0x00, 0x00, 0xc4, 0x01,
  0x00, 0x00, 0xbc, 0x01, 0x00, 0x00, 0xb4, 0x01, 0x00, 0x00, 0xac, 0x01, 0x00,
  0x00, 0xa4, 0x01, 0x00, 0x00, 0x9c, 0x01, 0x00, 0x00, 0x94, 0x01, 0x00, 0x00,
  0x8c, 0x01, 0x00, 0x00, 0x84, 0x01, 0x00, 0x00, 0x7c, 0x01, 0x00, 0x00, 0x74,
  0x01, 0x00, 0x00, 0x6c, 0x01, 0x00, 0x00, 0x64, 0x01, 0x00, 0x00, 0x5c, 0x01,
  0x00, 0x00, 0x54, 0x01, 0x00, 0x00, 0x4c, 0x01, 0x00, 0x00, 0x44, 0x01, 0x00,
  0x00, 0x3c, 0x01, 0x00, 0x00, 0x34, 0x01, 0x00, 0x00, 0x2c, 0x01, 0x00, 0x00,
  0x24, 0x01, 0x00, 0x00, 0x1c, 0x01, 0x00, 0x00, 0x14, 0x01, 0x00, 0x00, 0x0c,
  0x01, 0x00, 0x00, 0x04, 0x01, 0x00, 0x00, 0xfc, 0x00, 0x00, 0x00, 0xf4, 0x00,
  0x00, 0x00, 0xec, 0x00, 0x00, 0x00, 0xe4, 0x00, 0x00, 0x00, 0xdc, 0x00, 0x00,
  0x00, 0xd4, 0x00, 0x00, 0x00, 0xcc, 0x00, 0x00, 0x00, 0xc4, 0x00, 0x00, 0x00,
  0xbc, 0x00, 0x00, 0x00, 0xb4, 0x00, 0x00, 0x00, 0xac, 0x00, 0x00, 0x00, 0xa4,
  0x00, 0x00, 0x00, 0x9c, 0x00, 0x00, 0x00, 0x94, 0x00, 0x00, 0x00, 0x8c, 0x00,
  0x00, 0x00, 0x84, 0x00, 0x00, 0x00, 0x7c, 0x00, 0x00, 0x00, 0x74, 0x00, 0x00,
  0x00, 0x6c, 0x00, 0x00, 0x00, 0x64, 0x00, 0x00, 0x00, 0x5c, 0x00, 0x00, 0x00,
  0x54, 0x00, 0x00, 0x00, 0x4c, 0x00, 0x00, 0x00, 0x44, 0x00, 0x00, 0x00, 0x3c,
  0x00, 0x00, 0x00, 0x34, 0x00, 0x00, 0x00, 0x2c, 0x00, 0x00, 0x00, 0x24, 0x00,
  0x00, 0x00, 0x04, 0x00, 0x00, 0x00, 0x42, 0xbb, 0xff, 0xff, 0x04, 0x00, 0x00,
  0x00, 0x10, 0x00, 0x00, 0x00, 0x31, 0x2e, 0x31, 0x33, 0x2e, 0x31, 0x00, 0x00,
  0x00, 0x00, 0x00, 0x00, 0x00, 0x00, 0x00, 0x00, 0x28, 0x7c, 0xff, 0xff, 0x2c,
  0x7c, 0xff, 0xff, 0x30, 0x7c, 0xff, 0xff, 0x34, 0x7c, 0xff, 0xff, 0x38, 0x7c,
  0xff, 0xff, 0x3c, 0x7c, 0xff, 0xff, 0x40, 0x7c, 0xff, 0xff, 0x44, 0x7c, 0xff,
  0xff, 0x48, 0x7c, 0xff, 0xff, 0x4c, 0x7c, 0xff, 0xff, 0x50, 0x7c, 0xff, 0xff,
  0x54, 0x7c, 0xff, 0xff, 0x58, 0x7c, 0xff, 0xff, 0x5c, 0x7c, 0xff, 0xff, 0x60,
  0x7c, 0xff, 0xff, 0x64, 0x7c, 0xff, 0xff, 0x68, 0x7c, 0xff, 0xff, 0x6c, 0x7c,
  0xff, 0xff, 0x70, 0x7c, 0xff, 0xff, 0x74, 0x7c, 0xff, 0xff, 0x78, 0x7c, 0xff,
  0xff, 0x7c, 0x7c, 0xff, 0xff, 0x80, 0x7c, 0xff, 0xff, 0x84, 0x7c, 0xff, 0xff,
  0x88, 0x7c, 0xff, 0xff, 0x8c, 0x7c, 0xff, 0xff, 0x90, 0x7c, 0xff, 0xff, 0x94,
  0x7c, 0xff, 0xff, 0x98, 0x7c, 0xff, 0xff, 0x9c, 0x7c, 0xff, 0xff, 0xa0, 0x7c,
  0xff, 0xff, 0xa4, 0x7c, 0xff, 0xff, 0xa8, 0x7c, 0xff, 0xff, 0xac, 0x7c, 0xff,
  0xff, 0xb0, 0x7c, 0xff, 0xff, 0xb4, 0x7c, 0xff, 0xff, 0xb8, 0x7c, 0xff, 0xff,
  0xbc, 0x7c, 0xff, 0xff, 0xc0, 0x7c, 0xff, 0xff, 0xc4, 0x7c, 0xff, 0xff, 0xc8,
  0x7c, 0xff, 0xff, 0xcc, 0x7c, 0xff, 0xff, 0xd0, 0x7c, 0xff, 0xff, 0xd4, 0x7c,
  0xff, 0xff, 0xd8, 0x7c, 0xff, 0xff, 0xdc, 0x7c, 0xff, 0xff, 0xe0, 0x7c, 0xff,
  0xff, 0xe4, 0x7c, 0xff, 0xff, 0xe8, 0x7c, 0xff, 0xff, 0xec, 0x7c, 0xff, 0xff,
  0xf0, 0x7c, 0xff, 0xff, 0xf4, 0x7c, 0xff, 0xff, 0xf8, 0x7c, 0xff, 0xff, 0xfc,
  0x7c, 0xff, 0xff, 0x00, 0x7d, 0xff, 0xff, 0x04, 0x7d, 0xff, 0xff, 0x08, 0x7d,
  0xff, 0xff, 0x0c, 0x7d, 0xff, 0xff, 0x10, 0x7d, 0xff, 0xff, 0x14, 0x7d, 0xff,
  0xff, 0x18, 0x7d, 0xff, 0xff, 0x1c, 0x7d, 0xff, 0xff, 0x20, 0x7d, 0xff, 0xff,
  0x24, 0x7d, 0xff, 0xff, 0x5e, 0xbc, 0xff, 0xff, 0x04, 0x00, 0x00, 0x00, 0x04,
  0x00, 0x00, 0x00, 0x9c, 0x28, 0xb1, 0x39, 0x6e, 0xbc, 0xff, 0xff, 0x04, 0x00,
  0x00, 0x00, 0x14, 0x00, 0x00, 0x00, 0x5e, 0x4c, 0xc4, 0xbd, 0x40, 0x20, 0xea,
  0x3e, 0x44, 0xaf, 0x22, 0xbe, 0x89, 0x3e, 0x45, 0xbe, 0x52, 0x4a, 0x89, 0x3d,
  0x8e, 0xbc, 0xff, 0xff, 0x04, 0x00, 0x00, 0x00, 0x14, 0x00, 0x00, 0x00, 0xf7,
  0x06, 0xcf, 0x3d, 0x66, 0x22, 0xe3, 0xbb, 0x50, 0x44, 0x0b, 0xbe, 0x83, 0x1f,
  0xfb, 0x3c, 0x7d, 0xeb, 0x80, 0x3c, 0xae, 0xbc, 0xff, 0xff, 0x04, 0x00, 0x00,
  0x00, 0x1c, 0x00, 0x00, 0x00, 0xb1, 0xa3, 0x05, 0xbf, 0xe4, 0xe4, 0x30, 0xbe,
  0x8f, 0xf3, 0xa7, 0x3e, 0x19, 0x03, 0x9a, 0x3d, 0xb0, 0xf2, 0xb2, 0x3e, 0x16,
  0xca, 0x02, 0x3f, 0xa9, 0x30, 0x62, 0xbe, 0xd6, 0xbc, 0xff, 0xff, 0x04, 0x00,
  0x00, 0x00, 0x24, 0x00, 0x00, 0x00, 0xcb, 0x81, 0xa2, 0xbe, 0xff, 0xac, 0x5c,
  0x3e, 0x5d, 0xa6, 0x1c, 0x3e, 0xed, 0x06, 0x02, 0xbf, 0xbd, 0xd5, 0xb8, 0xbe,
  0x4d, 0xf5, 0xc8, 0x3e, 0x45, 0x73, 0xd7, 0xbe, 0x93, 0x0c, 0x75, 0x3e, 0x04,
  0x37, 0xf8, 0x3c, 0x06, 0xbd, 0xff, 0xff, 0x04, 0x00, 0x00, 0x00, 0x30, 0x00,
  0x00, 0x00, 0xdd, 0x82, 0x79, 0x3c, 0x04, 0xd1, 0xdb, 0xbe, 0x4d, 0x79, 0x32,
  0xbd, 0xe0, 0xe5, 0x18, 0x3e, 0xe2, 0x6b, 0x11, 0xbe, 0x7f, 0x6b, 0xa7, 0x3e,
  0x6f, 0xc5, 0xb0, 0x3e, 0x36, 0xd9, 0x17, 0xbf, 0xbe, 0xd8, 0x7c, 0xbf, 0x01,
  0xcf, 0xd0, 0x3e, 0x59, 0x13, 0x76, 0x3e, 0x12, 0x49, 0xab, 0xbe, 0x42, 0xbd,
  0xff, 0xff, 0x04, 0x00, 0x00, 0x00, 0x3c, 0x00, 0x00, 0x00, 0x5b, 0x16, 0x15,
  0xbd, 0xe5, 0x01, 0xa9, 0x3e, 0xd5, 0x49, 0x54, 0x3e, 0xf8, 0xe2, 0x13, 0x3e,
  0xf1, 0x4e, 0x2b, 0x3e, 0x52, 0xda, 0x25, 0xbf, 0x99, 0x28, 0x06, 0xbf, 0x81,
  0xd3, 0x8e, 0xbe, 0x48, 0xb5, 0xc5, 0xbd, 0xfe, 0xec, 0xba, 0x3e, 0x5f, 0xd1,
  0x27, 0xbf, 0x7d, 0x15, 0x1f, 0xbe, 0x7a, 0x6f, 0x42, 0x3f, 0x29, 0xd4, 0x29,
  0x3e, 0x43, 0xb6, 0xb7, 0xbe, 0x8a, 0xbd, 0xff, 0xff, 0x04, 0x00, 0x00, 0x00,
  0x50, 0x00, 0x00, 0x00, 0x3d, 0xe5, 0x89, 0xc0, 0x35, 0x14, 0xca, 0xbf, 0xf1,
  0xe1, 0xa8, 0x40, 0x83, 0x93, 0x56, 0xc0, 0x8c, 0xdd, 0x09, 0xc0, 0x8e, 0x07,
  0x00, 0x40, 0x53, 0x90, 0xae, 0xbf, 0xca, 0x97, 0x18, 0x3e, 0x9a, 0x08, 0xcb,
  0xc0, 0xf1, 0xb3, 0x35, 0xc0, 0x01, 0xc5, 0x0c, 0x40, 0xbd, 0xf1, 0xc0, 0x40,
  0x6d, 0x23, 0x07, 0xc0, 0xfa, 0xb1, 0x79, 0xc1, 0xe2, 0x70, 0xe6, 0xbf, 0x25,
  0xa1, 0x5d, 0xc0, 0xe7, 0x2d, 0xf3, 0x3f, 0xa3, 0xfc, 0x98, 0x40, 0x12, 0x61,
  0xff, 0xbf, 0xc0, 0x89, 0x26, 0x40, 0xe6, 0xbd, 0xff, 0xff, 0x04, 0x00, 0x00,
  0x00, 0x14, 0x00, 0x00, 0x00, 0x01, 0xc5, 0x02, 0x3d, 0x91, 0xfe, 0xf1, 0x3c,
  0xc3, 0x66, 0x08, 0xbd, 0x91, 0x97, 0xe0, 0xbc, 0x5c, 0xeb, 0x08, 0xbd, 0x06,
  0xbe, 0xff, 0xff, 0x04, 0x00, 0x00, 0x00, 0x04, 0x00, 0x00, 0x00, 0x00, 0x00,
  0x00, 0x00, 0x16, 0xbe, 0xff, 0xff, 0x04, 0x00, 0x00, 0x00, 0x8c, 0x00, 0x00,
  0x00, 0x49, 0x37, 0x53, 0x3a, 0x9f, 0xfd, 0x4e, 0x3c, 0xc3, 0x9e, 0x49, 0x3d,
  0x13, 0xe8, 0x7d, 0xbb, 0xf1, 0x74, 0x60, 0xbd, 0x51, 0x8c, 0x63, 0x3d, 0x37,
  0xcc, 0x2d, 0xbe, 0x21, 0x25, 0xcd, 0x3d, 0x8f, 0x87, 0x23, 0x3e, 0x59, 0xd1,
  0x14, 0xbe, 0xdf, 0xcf, 0x49, 0x3d, 0xbb, 0x6a, 0xbc, 0x3e, 0x2f, 0x2b, 0x28,
  0x3e, 0xf4, 0xeb, 0xdb, 0x3d, 0xef, 0x4a, 0x00, 0x3f, 0x4c, 0x30, 0xd0, 0xbe,
  0x94, 0xba, 0x54, 0xbe, 0xf5, 0x08, 0x13, 0x3e, 0xe6, 0xe9, 0x05, 0x3e, 0x8a,
  0x28, 0x8d, 0xbd, 0x9c, 0xe5, 0x38, 0x3e, 0x2d, 0x26, 0x34, 0x3d, 0x01, 0x1e,
  0x44, 0xbd, 0xad, 0xe7, 0xef, 0xbc, 0x1a, 0x23, 0xb4, 0xbd, 0x80, 0x2f, 0xa9,
  0xbb, 0x03, 0x5f, 0x8a, 0x3d, 0x7e, 0x89, 0xd3, 0xbb, 0xad, 0xc7, 0x11, 0xbd,
  0x8f, 0xf4, 0x72, 0x3d, 0x20, 0x38, 0x07, 0x3d, 0xfd, 0x63, 0x78, 0xbd, 0x30,
  0x04, 0x35, 0x3d, 0x63, 0xfb, 0x05, 0x3d, 0x0d, 0x31, 0x8d, 0xbd, 0xae, 0xbe,
  0xff, 0xff, 0x04, 0x00, 0x00, 0x00, 0x14, 0x00, 0x00, 0x00, 0x00, 0x00, 0x00,
  0x00, 0x00, 0x00, 0x00, 0x00, 0x00, 0x00, 0x00, 0x00, 0x00, 0x00, 0x00, 0x00,
  0x00, 0x00, 0x00, 0x00, 0xce, 0xbe, 0xff, 0xff, 0x04, 0x00, 0x00, 0x00, 0x8c,
  0x00, 0x00, 0x00, 0xc2, 0x9b, 0x33, 0x39, 0x5c, 0x26, 0xaf, 0x3c, 0xcf, 0xe7,
  0xed, 0xbb, 0xb1, 0x99, 0x2b, 0x3d, 0xec, 0x5f, 0x0b, 0x3c, 0xb5, 0x69, 0x08,
  0x3d, 0xc3, 0x92, 0xbd, 0x3c, 0x7b, 0xfd, 0x00, 0x3d, 0xa0, 0xaa, 0x81, 0xbc,
  0x23, 0x37, 0x34, 0xbd, 0x42, 0x24, 0x04, 0x3d, 0xc1, 0x7a, 0x1d, 0x3d, 0x32,
  0x45, 0xa1, 0xbd, 0x89, 0x42, 0xda, 0x3c, 0xac, 0xb2, 0x57, 0x3d, 0xfa, 0x1f,
  0xb0, 0xbd, 0x5c, 0xbb, 0x8b, 0xbb, 0x6f, 0x0b, 0xac, 0xbd, 0xde, 0xb8, 0x16,
  0x3e, 0x77, 0xd5, 0xe6, 0x3d, 0x67, 0xef, 0xa4, 0xbe, 0x59, 0x6b, 0x45, 0x3e,
  0xa5, 0xb8, 0x6a, 0x3e, 0xa2, 0x78, 0x38, 0xbd, 0x5a, 0x7c, 0x90, 0x3e, 0x58,
  0x20, 0x09, 0x3e, 0xf3, 0xef, 0x98, 0x3d, 0xd2, 0x5a, 0x71, 0xbe, 0xc6, 0x78,
  0x1a, 0xbd, 0x60, 0x96, 0x6c, 0xbc, 0x38, 0x8b, 0xaf, 0xbc, 0xd0, 0xb3, 0xcd,
  0xbc, 0xe3, 0xf1, 0xdd, 0x3c, 0x70, 0x66, 0x24, 0x3e, 0x20, 0xe4, 0x07, 0xbc,
  0x66, 0xbf, 0xff, 0xff, 0x04, 0x00, 0x00, 0x00, 0x64, 0x00, 0x00, 0x00, 0x1e,
  0x1c, 0xaa, 0xbd, 0xb2, 0x4e, 0xcb, 0x3d, 0xfc, 0x06, 0xfd, 0x3d, 0x2b, 0x70,
  0x29, 0x3f, 0xcb, 0xa3, 0xfd, 0xbc, 0xd0, 0xed, 0x16, 0xbe, 0xcf, 0x8f, 0xed,
  0x3e, 0xc6, 0x99, 0x9b, 0x3f, 0xce, 0xe0, 0x74, 0x3c, 0xe3, 0x11, 0xc7, 0x3e,
  0x19, 0x17, 0xad, 0xbf, 0xd5, 0x4c, 0x33, 0x40, 0x0e, 0x7a, 0xdb, 0x3d, 0xfa,
  0x06, 0x3b, 0x3f, 0x01, 0x85, 0x12, 0x40, 0xae, 0x9b, 0x3e, 0xbf, 0xc8, 0xaf,
  0xcf, 0x3f, 0x87, 0x87, 0xd1, 0x3f, 0x90, 0x3b, 0x20, 0x3f, 0xac, 0x71, 0x4b,
  0x3f, 0x0b, 0xf0, 0xcb, 0xbd, 0x4f, 0x8b, 0x46, 0x3e, 0x43, 0x2f, 0x97, 0x3e,
  0x8b, 0x7f, 0xcc, 0x3e, 0xf8, 0x3d, 0xf0, 0x3e, 0xd6, 0xbf, 0xff, 0xff, 0x04,
  0x00, 0x00, 0x00, 0x64, 0x00, 0x00, 0x00, 0x1e, 0xac, 0x6f, 0x3e, 0xc4, 0x99,
  0xcc, 0xbe, 0x60, 0xf3, 0x57, 0xbd, 0x7c, 0x06, 0x11, 0xbe, 0x06, 0x8e, 0x3f,
  0xbe, 0xf3, 0x7f, 0x26, 0xbf, 0xf5, 0x80, 0x15, 0x3e, 0x8e, 0x9a, 0x82, 0x3d,
  0x8f, 0x72, 0x0e, 0x3b, 0x6b, 0xb3, 0xdd, 0x3e, 0x8d, 0x81, 0x44, 0x3f, 0x24,
  0x64, 0x57, 0x3f, 0xa9, 0xa2, 0x4e, 0x3d, 0x0f, 0x8a, 0x61, 0xbf, 0x94, 0x54,
  0x25, 0xbf, 0xf2, 0xd7, 0xf3, 0xbb, 0xb7, 0xaa, 0x73, 0xbf, 0x4c, 0xa9, 0x52,
  0xbf, 0x53, 0x62, 0x03, 0xbe, 0xc7, 0x5d, 0x2f, 0xbe, 0xa3, 0xbc, 0x44, 0x3e,
  0x94, 0xfc, 0xe9, 0x3e, 0x32, 0x6e, 0x0b, 0x3e, 0xee, 0xde, 0xff, 0xbe, 0x65,
  0x05, 0x84, 0xbe, 0x46, 0xc0, 0xff, 0xff, 0x04, 0x00, 0x00, 0x00, 0x64, 0x00,
  0x00, 0x00, 0xeb, 0xf0, 0x34, 0x3e, 0xb1, 0x61, 0xe0, 0x3e, 0xfb, 0xa5, 0xc5,
  0x3e, 0x58, 0xa3, 0x93, 0xbd, 0x35, 0x3c, 0xf3, 0x3e, 0x14, 0x44, 0x2e, 0xbf,
  0xd0, 0x11, 0x61, 0x3f, 0x93, 0xa5, 0xf4, 0xbe, 0x26, 0xa5, 0xbb, 0xbd, 0x01,
  0x2c, 0x81, 0xbe, 0x2d, 0x52, 0x09, 0x3c, 0x6c, 0xa1, 0x8c, 0x3f, 0x19, 0x39,
  0xbc, 0xbe, 0x70, 0x3d, 0x91, 0x3f, 0xc1, 0x97, 0x13, 0x3f, 0x8c, 0x9d, 0xf8,
  0xbe, 0xb9, 0x3c, 0x51, 0x3f, 0xbf, 0x19, 0xc1, 0x3e, 0xda, 0x70, 0xa5, 0x3d,
  0x7c, 0x03, 0xc6, 0xbd, 0x27, 0x5d, 0xb0, 0xbe, 0xea, 0x4c, 0xd9, 0x3e, 0x07,
  0x9c, 0x63, 0xbd, 0xcd, 0x86, 0x10, 0xbe, 0x5e, 0x64, 0x4c, 0x3d, 0xb6, 0xc0,
  0xff, 0xff, 0x04, 0x00, 0x00, 0x00, 0x64, 0x00, 0x00, 0x00, 0x51, 0xb7, 0xbf,
  0x3f, 0xdc, 0xb3, 0x73, 0x3f, 0xe2, 0xd0, 0x7d, 0x3f, 0x1c, 0xeb, 0x52, 0x3f,
  0xe9, 0x66, 0x55, 0x3f, 0x38, 0xf6, 0x94, 0xbf, 0x15, 0x0e, 0xfe, 0x3e, 0x1c,
  0xae, 0xa5, 0x3e, 0x84, 0xf9, 0xd4, 0x3f, 0x40, 0x46, 0x90, 0xbe, 0x95, 0xa6,
  0xc9, 0x3f, 0x9c, 0x13, 0x37, 0x3f, 0xb1, 0xb8, 0x58, 0x3f, 0xa8, 0xf0, 0x0a,
  0x3f, 0x12, 0xda, 0x3d, 0x3f, 0x9a, 0x0f, 0x76, 0x3e, 0xcd, 0x1e, 0xe6, 0x3e,
  0xc2, 0x57, 0x68, 0x3e, 0xa5, 0x6f, 0x8a, 0xbe, 0x91, 0x51, 0x8e, 0xbf, 0xf6,
  0x65, 0x20, 0x3f, 0xfc, 0x7b, 0x34, 0x3f, 0xfd, 0x2c, 0x1b, 0x3f, 0xb3, 0x8f,
  0x0e, 0x3f, 0xa4, 0x8c, 0x9a, 0x3e, 0x26, 0xc1, 0xff, 0xff, 0x04, 0x00, 0x00,
  0x00, 0x64, 0x00, 0x00, 0x00, 0x20, 0x0d, 0xce, 0xbd, 0x95, 0x67, 0xf6, 0x3e,
  0x8f, 0xaa, 0xc0, 0x3d, 0xd0, 0x71, 0x95, 0xbd, 0xa5, 0xad, 0xef, 0xbe, 0xfe,
  0x40, 0xa7, 0xbe, 0x7a, 0x5e, 0x4b, 0x3f, 0xdf, 0xfc, 0x77, 0x3f, 0x11, 0xab,
  0x85, 0xbf, 0xab, 0xf6, 0x1e, 0x3f, 0x13, 0xfb, 0x1c, 0xbf, 0xa8, 0xd5, 0x10,
  0x3f, 0x02, 0xce, 0xa9, 0x3e, 0xfd, 0xe6, 0x26, 0xbe, 0xc7, 0xd2, 0xd9, 0xbe,
  0xb2, 0x42, 0xef, 0xbe, 0x4c, 0x41, 0xa9, 0x3d, 0xe5, 0xf6, 0x13, 0x3e, 0x50,
  0xb4, 0x08, 0xbf, 0x4f, 0x06, 0x07, 0xbe, 0x6f, 0x50, 0x73, 0xbe, 0x3f, 0x2c,
  0x75, 0x3d, 0xc1, 0x3f, 0xe9, 0x3d, 0x7f, 0x36, 0x8c, 0xbe, 0xaf, 0xa5, 0x55,
  0xbd, 0x96, 0xc1, 0xff, 0xff, 0x04, 0x00, 0x00, 0x00, 0x64, 0x00, 0x00, 0x00,
  0x4d, 0x71, 0x99, 0x3d, 0x33, 0xbf, 0x00, 0x3f, 0xa4, 0xb5, 0x04, 0xbf, 0xcf,
  0xe5, 0x07, 0x3f, 0x7b, 0xec, 0x74, 0xbe, 0x39, 0x01, 0x04, 0xbf, 0xb9, 0xb2,
  0xd6, 0x3e, 0x32, 0x8c, 0x00, 0x3f, 0xf7, 0x77, 0xb7, 0x3e, 0x8a, 0x7f, 0x94,
  0x3e, 0x0b, 0xf0, 0xa2, 0xbe, 0x29, 0xdd, 0x80, 0x3f, 0x72, 0xc2, 0x15, 0x3f,
  0x64, 0x86, 0x3d, 0x3d, 0xfe, 0xff, 0x60, 0xbf, 0x0d, 0x15, 0x8e, 0xbc, 0x9c,
  0x2e, 0xe8, 0x3c, 0x8a, 0x01, 0x01, 0xbf, 0xac, 0xec, 0x59, 0x3f, 0x66, 0xd2,
  0x1c, 0x3d, 0xbd, 0x68, 0xf7, 0xbe, 0x9a, 0xa6, 0x74, 0x3e, 0x6d, 0x49, 0x4a,
  0xbd, 0x45, 0x50, 0x52, 0x3e, 0x74, 0xff, 0xcd, 0x3d, 0x06, 0xc2, 0xff, 0xff,
  0x04, 0x00, 0x00, 0x00, 0x8c, 0x00, 0x00, 0x00, 0x27, 0x3e, 0xa8, 0xbd, 0xcd,
  0xf1, 0xbe, 0x3e, 0xbb, 0xc6, 0x89, 0x3d, 0x01, 0x78, 0xf5, 0xbe, 0xb9, 0x00,
  0x00, 0xbf, 0x65, 0xc8, 0x48, 0xbc, 0xb2, 0x50, 0x0a, 0xbf, 0x6f, 0x41, 0x87,
  0x3e, 0xda, 0x04, 0x7a, 0x3e, 0xc4, 0x9a, 0xff, 0xbe, 0x03, 0xb2, 0x6a, 0x3d,
  0xc2, 0x77, 0x2a, 0xbf, 0xea, 0x81, 0x2c, 0x3e, 0x4f, 0xb5, 0x27, 0x3e, 0x7a,
  0x46, 0xfb, 0x3e, 0x98, 0xbd, 0x24, 0x3d, 0x52, 0x9f, 0xd4, 0x3e, 0xf4, 0xfd,
  0xce, 0x3d, 0xe3, 0x00, 0x27, 0x3e, 0x1b, 0x7f, 0x1a, 0xbe, 0xe4, 0xbf, 0xf7,
  0x3d, 0xe7, 0x01, 0xfd, 0xbb, 0xa2, 0x37, 0xd0, 0x39, 0xf1, 0xa3, 0x8f, 0xbe,
  0x6f, 0x53, 0xb6, 0x3b, 0xdc, 0x6d, 0x05, 0x3e, 0xb3, 0x57, 0xf2, 0xbe, 0x00,
  0xe0, 0x59, 0xbc, 0x5b, 0x44, 0x08, 0x3f, 0x6f, 0x05, 0x45, 0xbd, 0x01, 0x70,
  0x31, 0x3f, 0x77, 0x56, 0x88, 0x3d, 0x6a, 0x33, 0xb2, 0xbe, 0x5a, 0xb2, 0xac,
  0x3e, 0xf6, 0x31, 0x45, 0x3e, 0x9e, 0xc2, 0xff, 0xff, 0x04, 0x00, 0x00, 0x00,
  0x8c, 0x00, 0x00, 0x00, 0x83, 0x8f, 0x16, 0xbd, 0xac, 0x7d, 0x31, 0x3e, 0xdf,
  0x82, 0x05, 0xbd, 0x14, 0x1c, 0xe6, 0xbd, 0x48, 0x92, 0xaf, 0xbd, 0x59, 0x8f,
  0xa6, 0x3d, 0x21, 0x59, 0x1d, 0xbe, 0xbe, 0x4c, 0xa5, 0xbd, 0x2c, 0xa3, 0x25,
  0x3e, 0x7f, 0x85, 0x5c, 0xbd, 0x05, 0x3e, 0xce, 0xbe, 0xa1, 0x35, 0xeb, 0xbc,
  0x96, 0xf7, 0xe0, 0x3c, 0x76, 0x49, 0x9d, 0xbe, 0xb0, 0xc2, 0x84, 0xbe, 0xa7,
  0xa1, 0x55, 0x3e, 0x16, 0x87, 0x97, 0xbe, 0x25, 0xf9, 0xb9, 0xbe, 0x09, 0xbc,
  0x50, 0xbe, 0xec, 0x97, 0x6b, 0x3e, 0x7e, 0xd8, 0xf3, 0xbe, 0x5f, 0xc8, 0x87,
  0xbe, 0xbc, 0xb6, 0x12, 0xbd, 0x9a, 0x2a, 0xf8, 0xbe, 0x05, 0x4a, 0x29, 0x3e,
  0x7c, 0x9d, 0x13, 0xbe, 0x84, 0x4a, 0x83, 0x3e, 0xed, 0x18, 0xb4, 0x3e, 0x95,
  0x4c, 0xee, 0xbe, 0xe8, 0xc2, 0x64, 0x3e, 0x2a, 0x44, 0xc9, 0xbe, 0xaa, 0xce,
  0x0e, 0xbe, 0x7b, 0x8c, 0x24, 0x3d, 0x51, 0xf2, 0x81, 0x3e, 0xb8, 0xf4, 0x1e,
  0xbe, 0x36, 0xc3, 0xff, 0xff, 0x04, 0x00, 0x00, 0x00, 0x1c, 0x00, 0x00, 0x00,
  0x00, 0x00, 0x00, 0x00, 0x00, 0x00, 0x00, 0x00, 0x00, 0x00, 0x00, 0x00, 0x00,
  0x00, 0x00, 0x00, 0x00, 0x00, 0x00, 0x00, 0x00, 0x00, 0x00, 0x00, 0x00, 0x00,
  0x00, 0x00, 0x5e, 0xc3, 0xff, 0xff, 0x04, 0x00, 0x00, 0x00, 0x8c, 0x00, 0x00,
  0x00, 0x61, 0x78, 0x42, 0xbc, 0x55, 0x0a, 0x0c, 0xbe, 0xac, 0xb1, 0x32, 0xbd,
  0xc1, 0x0d, 0x28, 0x3e, 0x53, 0x34, 0xbe, 0x3d, 0x2f, 0xdd, 0xa1, 0xbe, 0x5b,
  0x82, 0x59, 0x3d, 0xea, 0x7c, 0xda, 0x3d, 0xbe, 0x46, 0x01, 0xbe, 0xbb, 0xf4,
  0xb6, 0x3d, 0xcd, 0xeb, 0x80, 0x3d, 0x11, 0x0a, 0xf2, 0xbd, 0x9e, 0x20, 0x15,
  0xbd, 0x11, 0x50, 0x01, 0x3e, 0x32, 0x47, 0x9e, 0xbd, 0x5b, 0x0d, 0x0c, 0xbf,
  0x5b, 0xc1, 0x3d, 0x3e, 0xeb, 0xd7, 0x67, 0x3e, 0xba, 0x59, 0x16, 0xbe, 0x15,
  0x86, 0x23, 0xbe, 0xe1, 0xba, 0xd5, 0xbd, 0x8b, 0x5a, 0xd5, 0x3e, 0xaa, 0x4a,
  0xd5, 0xbe, 0x5f, 0xe7, 0x1b, 0xbf, 0x71, 0xda, 0xd7, 0x3e, 0x42, 0xee, 0xc1,
  0xbe, 0x15, 0xcb, 0xad, 0x3e, 0xb5, 0xce, 0x16, 0x3f, 0xc9, 0x66, 0xa0, 0x3e,
  0x12, 0x65, 0xee, 0x3d, 0x0a, 0xac, 0x26, 0xbe, 0xfd, 0x5e, 0xb7, 0x3e, 0x1d,
  0x2a, 0xd8, 0xbe, 0x11, 0x08, 0xc0, 0xbe, 0x99, 0x74, 0x8b, 0x3e, 0xf6, 0xc3,
  0xff, 0xff, 0x04, 0x00, 0x00, 0x00, 0x64, 0x00, 0x00, 0x00, 0x5d, 0x8e, 0xab,
  0xbd, 0xf1, 0x81, 0xaf, 0x3e, 0x65, 0xaf, 0x7a, 0x3e, 0x19, 0xcf, 0x8c, 0x3d,
  0xaf, 0xa0, 0x03, 0x3f, 0xc3, 0xc9, 0x13, 0x3f, 0x0b, 0x73, 0x35, 0x3d, 0x17,
  0xa8, 0x04, 0xbf, 0x38, 0x6e, 0x1d, 0xbf, 0x84, 0xa0, 0x97, 0x3e, 0xaa, 0x3a,
  0x3a, 0x3b, 0xb4, 0xd3, 0x4e, 0xbd, 0x0d, 0x97, 0x90, 0xbe, 0x41, 0x6f, 0x4c,
  0x3f, 0xe2, 0x8b, 0x2d, 0x3e, 0x32, 0xd3, 0x07, 0xbd, 0x76, 0x02, 0xa9, 0x3e,
  0x1c, 0x3c, 0x9b, 0xbe, 0x20, 0xfa, 0x7e, 0xbf, 0x36, 0x79, 0x80, 0x3e, 0xbf,
  0x2b, 0xd6, 0xbe, 0x2b, 0x96, 0x22, 0xbf, 0x75, 0x4a, 0x05, 0x3f, 0x7f, 0xa5,
  0x08, 0x3e, 0xca, 0x4c, 0xcc, 0x3d, 0x66, 0xc4, 0xff, 0xff, 0x04, 0x00, 0x00,
  0x00, 0x64, 0x00, 0x00, 0x00, 0xa2, 0x0d, 0x80, 0xbd, 0xf5, 0xdd, 0x68, 0x3b,
  0x6e, 0xa5, 0x92, 0xbe, 0x05, 0xea, 0x7d, 0xbc, 0x1b, 0x63, 0x4a, 0xbd, 0x87,
  0x0c, 0x9c, 0xbe, 0x01, 0x19, 0x17, 0x3c, 0x49, 0x8d, 0xe8, 0x3c, 0x76, 0xc3,
  0x1a, 0x3e, 0xa4, 0xed, 0x02, 0xbf, 0xe7, 0x9b, 0x40, 0x3f, 0xf6, 0xc8, 0x8f,
  0x3e, 0xa0, 0xb0, 0xeb, 0x3e, 0x7b, 0x24, 0x39, 0xbe, 0xaf, 0xbd, 0xa1, 0xbe,
  0x2c, 0xbb, 0xea, 0xbe, 0x9f, 0xd2, 0x03, 0x3f, 0x33, 0x57, 0x9f, 0xbe, 0xc8,
  0x63, 0xf5, 0xbe, 0x6c, 0xf3, 0xb3, 0xbd, 0x89, 0x1e, 0x28, 0x3e, 0x89, 0x2e,
  0x78, 0x3e, 0x10, 0x3b, 0xd6, 0xbe, 0x72, 0x1c, 0x15, 0x3f, 0xa6, 0x4c, 0xd6,
  0x3b, 0xd6, 0xc4, 0xff, 0xff, 0x04, 0x00, 0x00, 0x00, 0x64, 0x00, 0x00, 0x00,
  0x03, 0xd2, 0x16, 0x3e, 0xe6, 0x53, 0x83, 0xbe, 0xae, 0x30, 0xac, 0x3d, 0x4a,
  0x5e, 0x13, 0x3e, 0xa5, 0xac, 0x2e, 0xbe, 0xe0, 0x55, 0x68, 0xbe, 0x35, 0xe9,
  0xcf, 0x3e, 0x68, 0x22, 0x43, 0xbe, 0x43, 0x46, 0x45, 0x3e, 0x8d, 0x79, 0x14,
  0x3f, 0xef, 0x39, 0x2e, 0xbf, 0x23, 0xc8, 0xfa, 0x3e, 0xf3, 0x56, 0x0a, 0xbf,
  0xd5, 0x7e, 0x82, 0x3e, 0xf0, 0xad, 0xfe, 0x3d, 0x05, 0x98, 0x4b, 0x3d, 0x72,
  0x33, 0x99, 0x3d, 0xf8, 0x22, 0x0b, 0xbe, 0x7f, 0x6c, 0xc2, 0xbe, 0xa7, 0xd0,
  0x07, 0x3d, 0xc0, 0x2c, 0xa4, 0xbd, 0xb7, 0x8d, 0x9d, 0x3d, 0x8b, 0x6c, 0xd2,
  0x3c, 0x83, 0xf3, 0x1b, 0x3f, 0xc2, 0xda, 0xfd, 0x3d, 0x46, 0xc5, 0xff, 0xff,
  0x04, 0x00, 0x00, 0x00, 0x8c, 0x00, 0x00, 0x00, 0xa7, 0xa8, 0xdc, 0xbd, 0xd9,
  0x47, 0x47, 0x3f, 0x9e, 0xc8, 0x6f, 0x3d, 0xf3, 0x38, 0xc5, 0xbd, 0xf1, 0xbc,
  0x73, 0xbe, 0xaa, 0xf0, 0x02, 0xbf, 0xed, 0x2c, 0xa3, 0x3e, 0x60, 0xfb, 0x2c,
  0xbf, 0x79, 0x8e, 0xae, 0x3d, 0x37, 0x0d, 0xeb, 0x3e, 0x3a, 0x58, 0x19, 0x3e,
  0x4a, 0x59, 0xaf, 0xbe, 0x5d, 0xa4, 0x48, 0xbf, 0xb0, 0x19, 0x00, 0xbe, 0x28,
  0xb6, 0xc5, 0x3e, 0xe0, 0x47, 0x51, 0xbf, 0x4a, 0x35, 0x3d, 0x3e, 0x9e, 0x35,
  0x29, 0xbe, 0xec, 0xb8, 0x89, 0xbe, 0xe7, 0x64, 0x1e, 0xbf, 0x23, 0xce, 0xc4,
  0x3d, 0x4a, 0x9c, 0x45, 0xbe, 0x79, 0xeb, 0xe1, 0xbc, 0xd2, 0x9c, 0x23, 0x3f,
  0x9f, 0x03, 0x6c, 0x3e, 0x28, 0x88, 0x29, 0xbe, 0x0e, 0xf7, 0x5e, 0xbe, 0x6d,
  0x24, 0x25, 0x3f, 0xf3, 0xea, 0x8b, 0x3b, 0xdd, 0x98, 0x03, 0xbf, 0xa6, 0xd1,
  0x08, 0xbe, 0x12, 0xbd, 0x13, 0x3f, 0x6f, 0x5c, 0x85, 0xbf, 0x73, 0xdf, 0x86,
  0x3e, 0xd4, 0x60, 0x00, 0x3f, 0xde, 0xc5, 0xff, 0xff, 0x04, 0x00, 0x00, 0x00,
  0x8c, 0x00, 0x00, 0x00, 0xa8, 0x11, 0x68, 0xbd, 0xf4, 0x1c, 0xa9, 0xbe, 0x21,
  0x8f, 0xb0, 0x3d, 0xd0, 0x14, 0x9e, 0x3e, 0x98, 0xb7, 0x1a, 0x3e, 0xb6, 0x57,
  0x91, 0x3d, 0x58, 0xd9, 0xef, 0x3d, 0x41, 0x67, 0xe4, 0xbe, 0xe9, 0x55, 0x1a,
  0x3f, 0xc7, 0x20, 0xf5, 0x3e, 0xd4, 0x58, 0x16, 0xbf, 0x60, 0x55, 0xfd, 0xbe,
  0x05, 0x0f, 0x17, 0x3e, 0x75, 0xc3, 0xed, 0xbe, 0x14, 0x18, 0xb3, 0xbe, 0xa0,
  0x5c, 0x02, 0xbf, 0xda, 0x13, 0xd8, 0xbe, 0xef, 0xa7, 0x90, 0xbe, 0xa5, 0xef,
  0x02, 0x3e, 0x89, 0xda, 0x28, 0x3f, 0x9f, 0x32, 0xd4, 0xbc, 0x17, 0x66, 0x14,
  0xbf, 0x12, 0x65, 0xec, 0x3d, 0x7d, 0x8a, 0xa6, 0xbe, 0x67, 0xc5, 0x0b, 0xbd,
  0xec, 0xa1, 0xc1, 0xbe, 0x7d, 0x4a, 0xf1, 0xbd, 0x0e, 0x60, 0xaf, 0xbe, 0xeb,
  0x8e, 0x9a, 0x3e, 0x05, 0x99, 0x1d, 0x3e, 0x82, 0x95, 0x6a, 0x3d, 0x33, 0xe7,
  0x48, 0xbe, 0x74, 0xa6, 0x14, 0x3d, 0x9f, 0x9d, 0xf6, 0x3d, 0xa0, 0xb3, 0x0b,
  0xbe, 0x76, 0xc6, 0xff, 0xff, 0x04, 0x00, 0x00, 0x00, 0x8c, 0x00, 0x00, 0x00,
  0x35, 0xe8, 0x84, 0xbd, 0x7d, 0xe9, 0xca, 0x3d, 0x4a, 0x43, 0xac, 0xbe, 0x14,
  0x24, 0xb5, 0xbd, 0xdc, 0x1d, 0xbc, 0xbe, 0xf3, 0x40, 0xc4, 0x3e, 0x75, 0x30,
  0x49, 0xbe, 0x30, 0x1a, 0x77, 0x3c, 0xd9, 0x84, 0x0f, 0x3e, 0xb3, 0x4a, 0xa0,
  0x3e, 0xd4, 0x5b, 0x9d, 0xbe, 0x73, 0xb3, 0x8c, 0xbe, 0xa3, 0xf4, 0x88, 0x3e,
  0x55, 0x12, 0x57, 0xbb, 0x8f, 0x97, 0xac, 0xbe, 0xbd, 0xb2, 0x19, 0x3f, 0x1c,
  0x0b, 0xf5, 0xbe, 0xca, 0xe8, 0x42, 0x3e, 0x6d, 0x7a, 0x18, 0xbf, 0xac, 0xbe,
  0x1c, 0x3f, 0x1c, 0xd8, 0x15, 0xbe, 0xd3, 0x40, 0x0f, 0xbe, 0x6f, 0x31, 0x7f,
  0x3e, 0x93, 0x38, 0xe8, 0xbd, 0xbe, 0x73, 0xee, 0xbe, 0x13, 0xcb, 0xbe, 0xbe,
  0x9a, 0x0d, 0x59, 0x3e, 0x58, 0xad, 0xd2, 0xbe, 0x0d, 0xee, 0x00, 0xbf, 0x3c,
  0x49, 0xa8, 0xbd, 0x13, 0xad, 0x98, 0xbe, 0x86, 0xa5, 0x9b, 0xbd, 0x76, 0xbb,
  0x07, 0xbd, 0xb9, 0x91, 0xcc, 0x3d, 0x2b, 0x68, 0x83, 0xbe, 0x0e, 0xc7, 0xff,
  0xff, 0x04, 0x00, 0x00, 0x00, 0xfc, 0x00, 0x00, 0x00, 0xcc, 0x9e, 0x5e, 0x3e,
  0xe1, 0x0e, 0xf1, 0x3c, 0xf3, 0x16, 0x1a, 0xbf, 0x1b, 0xc7, 0x4d, 0x3c, 0x67,
  0x1f, 0x04, 0x3e, 0x5d, 0x71, 0xfe, 0x3d, 0xcc, 0x67, 0x80, 0xbe, 0x86, 0xbd,
  0x15, 0xbf, 0x27, 0x62, 0x89, 0x3e, 0x39, 0x9d, 0x74, 0xbd, 0x12, 0x18, 0xa5,
  0x3e, 0x23, 0x30, 0xb8, 0x3d, 0x7c, 0x0b, 0xe8, 0xbd, 0xe7, 0x66, 0x73, 0x3f,
  0xe0, 0xeb, 0x83, 0xbf, 0x82, 0x00, 0x4b, 0x3d, 0xf2, 0xf7, 0x1c, 0x3b, 0x96,
  0x78, 0x77, 0x3f, 0xf4, 0xca, 0x7a, 0x3f, 0x5f, 0x21, 0x1e, 0xbf, 0xc2, 0x47,
  0x6f, 0xbe, 0x94, 0x4b, 0xf9, 0x3e, 0x20, 0xbb, 0x54, 0xbe, 0xcd, 0x24, 0x28,
  0xbe, 0x68, 0x6a, 0xc8, 0xbe, 0x22, 0x7a, 0x42, 0x3f, 0xcd, 0x90, 0xb2, 0xbd,
  0x04, 0xdb, 0xcd, 0xbe, 0xbc, 0x56, 0xb9, 0xbc, 0x9e, 0xe0, 0x51, 0xbd, 0x06,
  0x59, 0x69, 0xbf, 0xcc, 0xd0, 0xa4, 0x3e, 0xb1, 0xa7, 0x55, 0x3d, 0x2f, 0x0c,
  0x3e, 0xbf, 0xdc, 0x0c, 0x94, 0x3e, 0xeb, 0x56, 0xd3, 0x3e, 0x8d, 0xbd, 0xb3,
  0x3e, 0xa4, 0xa5, 0x2b, 0xbd, 0xef, 0xe3, 0x35, 0x3e, 0xdf, 0x61, 0xb2, 0xbe,
  0xbe, 0xc0, 0xde, 0x3a, 0xe3, 0x9f, 0x48, 0x3e, 0xaa, 0x3c, 0x25, 0xbf, 0x9f,
  0x2a, 0x46, 0x3e, 0xe4, 0xe5, 0xd4, 0xbe, 0xdb, 0x55, 0x9e, 0x3d, 0x2e, 0x87,
  0x29, 0xbd, 0x81, 0xff, 0x31, 0x3d, 0x7f, 0x1a, 0x0b, 0x3d, 0x92, 0x55, 0xa1,
  0x3e, 0x44, 0xbe, 0x33, 0x3e, 0x77, 0x9e, 0x09, 0x3e, 0x71, 0xa4, 0x0d, 0x3e,
  0x87, 0xae, 0x73, 0xbe, 0x9e, 0xd2, 0x46, 0x3d, 0x2e, 0xf2, 0x0b, 0x3f, 0xfe,
  0xc5, 0x4a, 0x3f, 0x9c, 0x15, 0x12, 0xbe, 0xdd, 0xef, 0xe3, 0xbc, 0x7a, 0xac,
  0x13, 0x3f, 0xf8, 0x51, 0x26, 0xbd, 0x97, 0x00, 0x8a, 0x3e, 0x2d, 0x98, 0x0d,
  0x3f, 0x16, 0xc8, 0xff, 0xff, 0x04, 0x00, 0x00, 0x00, 0xb4, 0x00, 0x00, 0x00,
  0x19, 0x7d, 0x4a, 0x3c, 0x97, 0xf4, 0xec, 0x3d, 0xe4, 0x2f, 0xf6, 0xbd, 0x67,
  0xb2, 0x88, 0x3c, 0xdc, 0x3d, 0xb2, 0xbe, 0xda, 0x59, 0x41, 0xbc, 0xdd, 0x90,
  0x80, 0x3d, 0xe6, 0x15, 0xc0, 0x3e, 0x5b, 0x9f, 0x73, 0x3c, 0x9e, 0xcf, 0x96,
  0x3e, 0xab, 0x90, 0x3a, 0x3e, 0x18, 0xf3, 0x29, 0xbe, 0x39, 0x7a, 0xfd, 0xba,
  0x80, 0xa2, 0xb0, 0xbe, 0x4e, 0x8b, 0x29, 0xbe, 0x51, 0x2f, 0xda, 0xbe, 0xca,
  0x2a, 0x2e, 0xbf, 0x9c, 0x97, 0x95, 0xbc, 0x7f, 0xf1, 0x83, 0x3e, 0x31, 0xe3,
  0xfd, 0x3e, 0xf8, 0x74, 0xe6, 0x3e, 0x19, 0x16, 0x15, 0x3f, 0x50, 0x57, 0xb1,
  0xbd, 0x50, 0x35, 0x0a, 0xbe, 0xa9, 0x7d, 0x0c, 0x3f, 0x25, 0x52, 0x9c, 0xbe,
  0xfa, 0x8c, 0x9e, 0x3e, 0xe0, 0x81, 0xe1, 0x3e, 0xb3, 0x45, 0x3a, 0x3d, 0xe5,
  0xb2, 0xaf, 0xbe, 0xcd, 0xb8, 0xab, 0x3e, 0xc2, 0x0c, 0x28, 0xbf, 0xd0, 0xf4,
  0x69, 0xbe, 0x34, 0x8c, 0x82, 0x3e, 0x7b, 0xc0, 0xcf, 0xbe, 0x26, 0x3e, 0x08,
  0x3f, 0x99, 0x9c, 0x0e, 0xbc, 0xed, 0x75, 0xa3, 0xbd, 0x61, 0xcb, 0x6f, 0xbe,
  0x77, 0x75, 0x5a, 0xbd, 0x1c, 0x54, 0x04, 0x3e, 0x03, 0x9d, 0x08, 0xbf, 0x82,
  0x67, 0xaa, 0x3e, 0x1d, 0xd6, 0x90, 0xbc, 0xb8, 0x80, 0x29, 0xbe, 0xd6, 0xc8,
  0xff, 0xff, 0x04, 0x00, 0x00, 0x00, 0x24, 0x00, 0x00, 0x00, 0x00, 0x00, 0x00,
  0x00, 0x00, 0x00, 0x00, 0x00, 0x00, 0x00, 0x00, 0x00, 0x00, 0x00, 0x00, 0x00,
  0x00, 0x00, 0x00, 0x00, 0x00, 0x00, 0x00, 0x00, 0x00, 0x00, 0x00, 0x00, 0x00,
  0x00, 0x00, 0x00, 0x00, 0x00, 0x00, 0x00, 0x06, 0xc9, 0xff, 0xff, 0x04, 0x00,
  0x00, 0x00, 0xb4, 0x00, 0x00, 0x00, 0xaa, 0xa0, 0xd2, 0xbe, 0x15, 0x06, 0xc5,
  0xbe, 0xf6, 0xdf, 0x17, 0x3f, 0x73, 0x2b, 0x4b, 0x3e, 0xc0, 0xf9, 0x9c, 0x3e,
  0xb2, 0x9a, 0xb4, 0xbe, 0xc0, 0x6b, 0x5d, 0x3e, 0xb2, 0x33, 0x2a, 0xbf, 0x6b,
  0x2f, 0x84, 0xbe, 0x9a, 0xec, 0x3d, 0xbf, 0x80, 0xd9, 0xf7, 0x3e, 0x5d, 0x50,
  0x75, 0x3e, 0xec, 0x4c, 0x10, 0x3f, 0x5a, 0x94, 0x18, 0xbf, 0x68, 0xe9, 0xea,
  0x3e, 0xaf, 0x2d, 0x23, 0x3f, 0x59, 0xb2, 0x86, 0xbe, 0x37, 0x50, 0x0d, 0xbf,
  0x85, 0xbc, 0x76, 0xbd, 0x87, 0x56, 0x0f, 0x3e, 0x9e, 0x3e, 0x9b, 0x3c, 0xdb,
  0x08, 0x4e, 0xbe, 0x3a, 0x37, 0x2e, 0xbe, 0x78, 0x65, 0xac, 0x3e, 0x9d, 0xaa,
  0x0a, 0xbe, 0x3b, 0x1f, 0x1c, 0xbe, 0x3a, 0x30, 0x35, 0x3f, 0x3d, 0x6b, 0x11,
  0xbe, 0x0b, 0x8c, 0xe1, 0x3d, 0xb4, 0x12, 0x33, 0x3d, 0xcc, 0xda, 0xca, 0x3d,
  0x0f, 0x52, 0xd5, 0xbc, 0x9d, 0xb8, 0x2b, 0x3e, 0x0d, 0x47, 0xe4, 0x3d, 0x0b,
  0x4a, 0x50, 0x3d, 0x4c, 0x6f, 0xb5, 0xbe, 0x9a, 0xdf, 0x45, 0xbd, 0xc0, 0x72,
  0xb9, 0xbd, 0xbf, 0x09, 0x1a, 0x3d, 0x6a, 0x7b, 0x08, 0xbe, 0xe3, 0x8d, 0xc1,
  0xbc, 0x01, 0x4d, 0xed, 0xbc, 0x3e, 0xdd, 0x7b, 0xbd, 0x8c, 0x0c, 0x4a, 0xbd,
  0x60, 0xbd, 0x08, 0x3e, 0xc6, 0xc9, 0xff, 0xff, 0x04, 0x00, 0x00, 0x00, 0xc4,
  0x00, 0x00, 0x00, 0xbc, 0x19, 0xc5, 0xbe, 0xee, 0x1b, 0xc7, 0xbb, 0x6d, 0x78,
  0xa8, 0x3e, 0x8f, 0x29, 0x58, 0xbe, 0x53, 0x42, 0x32, 0xbf, 0x79, 0xfd, 0x9b,
  0xbf, 0x51, 0x33, 0x58, 0xbe, 0xc2, 0x9d, 0x17, 0xbf, 0xfc, 0xa7, 0xf2, 0xbe,
  0x02, 0x4f, 0xec, 0xbc, 0xe6, 0x08, 0xcd, 0x3e, 0x0e, 0x6d, 0x2b, 0x3d, 0xa7,
  0x0a, 0xb1, 0x3e, 0xe5, 0x91, 0xa6, 0xbd, 0x1b, 0x1a, 0x93, 0xbe, 0x24, 0x5e,
  0x2d, 0xbf, 0x71, 0xeb, 0xb9, 0x3c, 0x48, 0xe5, 0x93, 0x3e, 0x21, 0xa0, 0x64,
  0xbf, 0xc3, 0xb0, 0x02, 0xbf, 0xef, 0xf1, 0x24, 0xbe, 0x3f, 0xb8, 0xa7, 0xbe,
  0xed, 0xa2, 0x05, 0xbf, 0xb6, 0xab, 0x52, 0xbf, 0x7d, 0x69, 0x1b, 0xbf, 0x7b,
  0x09, 0xad, 0x3e, 0x09, 0x53, 0xa5, 0xbf, 0xc4, 0xf6, 0x86, 0xbf, 0xce, 0xd8,
  0x4a, 0x3f, 0x13, 0x2c, 0x25, 0xbf, 0xdd, 0x91, 0x18, 0xbe, 0x48, 0x87, 0x09,
  0x3f, 0x04, 0xf2, 0x44, 0xbe, 0x27, 0x0f, 0x3b, 0xbe, 0x96, 0x83, 0x48, 0x3f,
  0x5a, 0x63, 0x03, 0xbf, 0x26, 0x7d, 0xab, 0x3c, 0xa0, 0x4a, 0x5f, 0xbf, 0x70,
  0x67, 0xf5, 0xbd, 0x72, 0xd7, 0x08, 0x3d, 0x5c, 0xe8, 0x86, 0xbe, 0xc1, 0x0f,
  0xd1, 0xbe, 0x28, 0xe4, 0xad, 0xbe, 0xba, 0x17, 0x17, 0x3e, 0xa3, 0x89, 0x0a,
  0x3f, 0x3d, 0x45, 0x10, 0xbf, 0xba, 0xf6, 0xd7, 0x3d, 0xf8, 0x36, 0xa4, 0x3e,
  0xcd, 0x9b, 0x9f, 0x3e, 0x96, 0xca, 0xff, 0xff, 0x04, 0x00, 0x00, 0x00, 0x8c,
  0x00, 0x00, 0x00, 0x5d, 0xbb, 0x5d, 0x3d, 0xe2, 0xc4, 0x93, 0x3d, 0x8b, 0x33,
  0x99, 0xbd, 0x3e, 0xf9, 0xd3, 0xbd, 0x75, 0x0b, 0x93, 0x3d, 0x8f, 0xfe, 0x7b,
  0xbf, 0xca, 0x4e, 0xd0, 0x3e, 0x60, 0xc0, 0x52, 0x3e, 0x2a, 0x63, 0x4d, 0x3d,
  0x25, 0xf3, 0x9f, 0xbe, 0xe5, 0xdb, 0xe9, 0x3d, 0xd0, 0x5c, 0xab, 0xbe, 0x94,
  0xa7, 0xce, 0x3d, 0x15, 0x0f, 0xc4, 0x3c, 0x57, 0x0f, 0xbf, 0x3e, 0x7e, 0x2f,
  0x05, 0x3f, 0x70, 0xec, 0xfa, 0xbd, 0x86, 0xe8, 0xc5, 0xbe, 0xda, 0x58, 0x77,
  0x3f, 0xd7, 0xca, 0xc9, 0xbe, 0xb3, 0x9d, 0x73, 0x3e, 0x57, 0x1a, 0xba, 0x3e,
  0x83, 0x1e, 0xeb, 0x3e, 0x81, 0x1a, 0xc0, 0xbe, 0xfb, 0x0e, 0x0f, 0xbf, 0x08,
  0x0e, 0x67, 0xbe, 0x73, 0xcd, 0x3e, 0xbe, 0x3d, 0xa3, 0x16, 0x3f, 0x82, 0x0d,
  0x93, 0x3e, 0x95, 0x69, 0x50, 0xbc, 0xb5, 0x0d, 0xfa, 0xbe, 0xce, 0x6c, 0xa4,
  0x3c, 0x8b, 0x28, 0xbb, 0xbb, 0xd7, 0x45, 0xaf, 0xbd, 0xfe, 0xf8, 0xcf, 0x3e,
  0x2e, 0xcb, 0xff, 0xff, 0x04, 0x00, 0x00, 0x00, 0x8c, 0x00, 0x00, 0x00, 0xd5,
  0xd5, 0x16, 0x3f, 0xd0, 0xe2, 0x27, 0xbf, 0xc0, 0xb1, 0x6d, 0xbe, 0x67, 0x5e,
  0x09, 0x3f, 0x83, 0xd7, 0xf0, 0xbe, 0x57, 0x70, 0x69, 0xbf, 0x59, 0x1e, 0xb9,
  0xbe, 0xf3, 0x80, 0x8c, 0x3e, 0xc0, 0x87, 0xe2, 0x3e, 0x8e, 0x7a, 0x9c, 0xbe,
  0x0e, 0x55, 0xc3, 0xbe, 0x47, 0x91, 0xde, 0xbe, 0x28, 0x21, 0x63, 0x3e, 0x35,
  0x0a, 0xda, 0xbe, 0x88, 0xf8, 0x50, 0xbe, 0x10, 0x74, 0x92, 0xbe, 0xf7, 0xf2,
  0xa3, 0xbe, 0x59, 0x27, 0xd1, 0x3e, 0x82, 0xca, 0xe3, 0x3e, 0xb3, 0x52, 0x86,
  0xbf, 0x0e, 0x6e, 0x39, 0x3e, 0x6d, 0xd3, 0xba, 0x3d, 0x93, 0x67, 0xbf, 0xbe,
  0xe7, 0x10, 0x11, 0xbe, 0xd4, 0x93, 0xdc, 0xbc, 0xc5, 0x94, 0xf0, 0xbe, 0xf4,
  0x4f, 0x1b, 0xbe, 0x6c, 0x0f, 0x9c, 0xbd, 0x2e, 0xfe, 0xca, 0x3e, 0xf3, 0x76,
  0x61, 0x3e, 0x28, 0xc8, 0x0d, 0xbe, 0xfb, 0xa2, 0x11, 0xbe, 0x95, 0xec, 0x15,
  0x3e, 0x0d, 0xe6, 0x5a, 0xbe, 0x2c, 0x8b, 0x22, 0xbf, 0xc6, 0xcb, 0xff, 0xff,
  0x04, 0x00, 0x00, 0x00, 0xfc, 0x00, 0x00, 0x00, 0x9b, 0x44, 0x4b, 0xbe, 0x52,
  0x10, 0x77, 0x3f, 0x75, 0x02, 0x50, 0xbe, 0x5c, 0xd6, 0x85, 0x3e, 0x30, 0xd3,
  0x9c, 0xbd, 0x44, 0xd9, 0x3c, 0x3e, 0x33, 0xa7, 0x66, 0xbe, 0x82, 0x42, 0x8f,
  0x3e, 0x6f, 0x7d, 0x4e, 0x3e, 0x00, 0xd3, 0xae, 0x3e, 0xdc, 0xc2, 0x3f, 0x3e,
  0x8a, 0xeb, 0x18, 0xbe, 0x86, 0xd6, 0x91, 0x3e, 0x55, 0x6f, 0x35, 0x3f, 0x62,
  0x19, 0x2e, 0x3d, 0xd8, 0x48, 0xed, 0xbc, 0xb0, 0x75, 0xc4, 0xbe, 0x98, 0xcd,
  0x9a, 0x3d, 0x10, 0x25, 0x98, 0x3e, 0x68, 0xf0, 0x5c, 0xbd, 0xe4, 0x23, 0x6e,
  0x3f, 0xc0, 0x2d, 0x0c, 0xbe, 0x4f, 0xb4, 0xaa, 0xbe, 0xee, 0x98, 0x90, 0x3d,
  0x1d, 0xd5, 0xa7, 0xbf, 0x21, 0x61, 0x61, 0xbe, 0x4b, 0x7f, 0x1c, 0xbe, 0x63,
  0xb1, 0xf6, 0x3e, 0xfa, 0xe7, 0xb1, 0xbe, 0x2f, 0x5e, 0x33, 0xbd, 0x7c, 0xc9,
  0x7b, 0x3f, 0x83, 0xf5, 0x15, 0x3f, 0x17, 0xc6, 0x53, 0x3e, 0x8d, 0x57, 0x51,
  0x3d, 0x6f, 0x41, 0x83, 0xbf, 0xfd, 0x38, 0x93, 0xbf, 0xdb, 0xc1, 0xa9, 0x3f,
  0x43, 0x44, 0xb8, 0xbe, 0xbb, 0x15, 0xb7, 0xbe, 0x7c, 0x83, 0x0b, 0x3c, 0x70,
  0x0b, 0x74, 0x3e, 0x23, 0x4c, 0xc6, 0x3e, 0x42, 0x2a, 0x5a, 0x3e, 0x7f, 0x03,
  0x83, 0xbe, 0x44, 0xdb, 0x4b, 0xbf, 0x0d, 0x0c, 0x11, 0xbe, 0x7a, 0xc7, 0x0b,
  0xbe, 0x86, 0x60, 0x86, 0x3e, 0xe9, 0xeb, 0x2f, 0xbe, 0x7a, 0x92, 0x5a, 0xbe,
  0x3c, 0xe1, 0x50, 0x3f, 0xf1, 0x36, 0x16, 0x3e, 0x0a, 0x74, 0x56, 0xbf, 0xc9,
  0xe1, 0x25, 0xbe, 0x62, 0x10, 0x0b, 0xbf, 0x5f, 0x16, 0xf6, 0x3d, 0xc7, 0x55,
  0xbf, 0x3d, 0x1e, 0xc1, 0x67, 0x3f, 0x77, 0x02, 0x28, 0x3e, 0x3c, 0x65, 0x9c,
  0x3e, 0xee, 0xb6, 0xa1, 0xbe, 0x4b, 0x3f, 0x32, 0xbf, 0xb6, 0xcf, 0x96, 0x3f,
  0xce, 0xcc, 0xff, 0xff, 0x04, 0x00, 0x00, 0x00, 0xb4, 0x00, 0x00, 0x00, 0x66,
  0xd1, 0x04, 0x3e, 0xc8, 0x36, 0x8c, 0xbe, 0x00, 0xd8, 0x43, 0x3e, 0xfa, 0x57,
  0xd7, 0xbd, 0xb0, 0x25, 0x6f, 0xbd, 0x99, 0x06, 0x39, 0x3e, 0x2a, 0x87, 0xbb,
  0xbe, 0xa2, 0x09, 0x0b, 0xbe, 0x93, 0x3f, 0xeb, 0xbc, 0x7a, 0x1e, 0x8d, 0x3e,
  0xd5, 0x8c, 0x91, 0xbe, 0xc2, 0x54, 0xcc, 0x3d, 0x6c, 0x7b, 0x23, 0xbe, 0xf2,
  0x4e, 0x53, 0x3e, 0x83, 0x26, 0x9f, 0x3e, 0xe9, 0x6c, 0x65, 0x3f, 0x75, 0x6f,
  0x0a, 0xbe, 0x74, 0x3a, 0x62, 0xbe, 0x93, 0x7d, 0x85, 0x3e, 0xcb, 0x96, 0x03,
  0xbf, 0x8c, 0xfd, 0xa5, 0x3e, 0xa3, 0x6d, 0xe0, 0xbe, 0x21, 0x43, 0x14, 0x3f,
  0x7e, 0x3a, 0x3f, 0x3f, 0x3b, 0x15, 0x36, 0xbc, 0x63, 0xfa, 0x70, 0xbe, 0xf4,
  0x1d, 0x13, 0xbf, 0xcd, 0x83, 0xa4, 0x3e, 0x8e, 0x18, 0x12, 0xbe, 0x07, 0xc3,
  0x9c, 0xbe, 0x42, 0x52, 0x36, 0xbe, 0x5b, 0x06, 0x9c, 0x3e, 0x12, 0x31, 0xad,
  0xbe, 0xa7, 0x5d, 0xdc, 0xbc, 0x7e, 0x26, 0xce, 0xbd, 0x03, 0x19, 0x4c, 0x3d,
  0x86, 0x95, 0x11, 0x3d, 0xe2, 0x26, 0x16, 0xbe, 0x32, 0x93, 0xb2, 0x3e, 0xd6,
  0xf1, 0x9d, 0xbd, 0x40, 0x70, 0x3c, 0xbd, 0xd5, 0x3f, 0x21, 0x3c, 0x58, 0xf9,
  0x89, 0x3d, 0x4b, 0x91, 0x48, 0xbe, 0x68, 0xaf, 0x07, 0xbe, 0x8e, 0xcd, 0xff,
  0xff, 0x04, 0x00, 0x00, 0x00, 0xb4, 0x00, 0x00, 0x00, 0x31, 0x4a, 0x06, 0x3c,
  0xde, 0x27, 0x1f, 0xbf, 0x87, 0xcc, 0x34, 0xbd, 0xe4, 0xad, 0x22, 0x3e, 0x2b,
  0xc6, 0x6e, 0x3e, 0x7a, 0xb5, 0xc4, 0xbe, 0x88, 0x30, 0xf6, 0xbd, 0x1c, 0x52,
  0xd0, 0x3e, 0xc7, 0x11, 0x2d, 0x3c, 0xec, 0x98, 0x26, 0xbb, 0xd0, 0x9d, 0x8a,
  0x3e, 0xbb, 0x4d, 0x5d, 0x3b, 0x2d, 0x15, 0x9a, 0xbd, 0xd0, 0x0f, 0xa6, 0x3e,
  0x6c, 0xc3, 0x1a, 0xbf, 0xe7, 0xe9, 0x96, 0x3c, 0xca, 0x7e, 0x6d, 0xbe, 0x03,
  0xc1, 0xd2, 0x3e, 0x06, 0x5a, 0x06, 0x3f, 0xeb, 0xfa, 0x5a, 0x3c, 0xce, 0xb1,
  0x0d, 0xbf, 0x51, 0x94, 0x43, 0xbf, 0xa0, 0x67, 0x32, 0xbe, 0x5e, 0xde, 0x8b,
  0xbe, 0xd8, 0xaf, 0xc7, 0xbe, 0xf0, 0x7a, 0x24, 0x3f, 0x00, 0x93, 0x1b, 0xbf,
  0x8e, 0x17, 0x1e, 0x3f, 0xd8, 0xb2, 0xdd, 0xbe, 0x0d, 0x8d, 0xba, 0xbe, 0x3a,
  0xca, 0xc9, 0x3e, 0x43, 0xb2, 0xb7, 0x3e, 0x36, 0x1b, 0xb6, 0xbd, 0x84, 0x90,
  0x3a, 0xbf, 0x40, 0xd8, 0xc7, 0x3e, 0x77, 0x0e, 0xb1, 0xbb, 0xbb, 0x2b, 0x41,
  0x3e, 0x21, 0xbf, 0xce, 0x3e, 0x60, 0xa5, 0x1f, 0x3e, 0x69, 0xde, 0x04, 0xbd,
  0x1f, 0xd7, 0x26, 0x3e, 0x8c, 0x12, 0x90, 0xbb, 0x0b, 0x39, 0xac, 0xbb, 0xf0,
  0xf8, 0xbb, 0xbd, 0x22, 0xd1, 0x99, 0x3e, 0x4e, 0xce, 0xff, 0xff, 0x04, 0x00,
  0x00, 0x00, 0xb0, 0x01, 0x00, 0x00, 0x5d, 0xbf, 0x1d, 0x3f, 0xd6, 0x75, 0xbe,
  0xbe, 0x2d, 0x00, 0x93, 0x3e, 0x9e, 0x9d, 0xfc, 0x3e, 0x1c, 0x07, 0xdf, 0xbc,
  0xd4, 0xd2, 0x9c, 0x3c, 0x2b, 0xab, 0xc6, 0xbc, 0x4d, 0x3f, 0x0c, 0x3f, 0xa3,
  0x11, 0x76, 0xbf, 0x6a, 0x37, 0x14, 0x3f, 0x86, 0xbd, 0x88, 0xbf, 0x69, 0xba,
  0xcb, 0xbe, 0xe9, 0x83, 0xaa, 0xbf, 0x1c, 0xd2, 0xec, 0xbd, 0x2d, 0xd8, 0xce,
  0x3e, 0xb6, 0x61, 0xed, 0x3e, 0x9a, 0xa6, 0x79, 0xbf, 0xba, 0x1f, 0x4b, 0xbf,
  0x3e, 0xbb, 0x7b, 0x3e, 0x70, 0xe2, 0x16, 0xbf, 0x2a, 0x09, 0xae, 0xbe, 0xd4,
  0x59, 0x37, 0xbe, 0x02, 0xb3, 0xbb, 0xbe, 0xdd, 0xf3, 0x2f, 0x3f, 0x08, 0x32,
  0xc4, 0xbd, 0xa0, 0xae, 0x3c, 0x3e, 0x90, 0x8d, 0x87, 0x3e, 0xbc, 0x61, 0x7f,
  0x3f, 0x32, 0xe1, 0xbc, 0x3e, 0x76, 0x81, 0x6e, 0x3f, 0xbc, 0xeb, 0x70, 0xbd,
  0x98, 0x29, 0x4a, 0xbf, 0x68, 0x71, 0x0a, 0xbf, 0x4f, 0x0c, 0x87, 0x3e, 0xbd,
  0x91, 0x4b, 0x3e, 0x76, 0x1d, 0x21, 0x3e, 0x77, 0x30, 0x62, 0xbf, 0x1c, 0xe2,
  0x93, 0x3b, 0x93, 0x56, 0x78, 0x3e, 0x19, 0xb1, 0x03, 0x3f, 0x3f, 0xc6, 0x4a,
  0x3e, 0x12, 0x89, 0x84, 0xbe, 0xc2, 0xb3, 0x56, 0x3e, 0x9b, 0xe8, 0xf3, 0xbd,
  0xa6, 0x13, 0x87, 0xbf, 0x23, 0xff, 0x52, 0xbf, 0x5a, 0x47, 0x19, 0xbf, 0x95,
  0x56, 0x27, 0xbe, 0x84, 0x7b, 0x2e, 0x3d, 0x7e, 0xa8, 0x30, 0xbf, 0xb3, 0xe2,
  0x08, 0x3e, 0x2d, 0x8e, 0x1e, 0xbe, 0xb2, 0xa7, 0xc4, 0x3e, 0x49, 0xf1, 0x94,
  0xbd, 0xad, 0x02, 0xf3, 0xbd, 0x1e, 0x1c, 0x1f, 0x3f, 0x51, 0xeb, 0xfc, 0x3e,
  0x5c, 0x3c, 0x1a, 0x3f, 0x76, 0x81, 0xb4, 0x3d, 0x55, 0xac, 0x9c, 0xbe, 0xf2,
  0xa3, 0xa5, 0xbe, 0xcd, 0x06, 0xa9, 0xbd, 0xa5, 0x76, 0x67, 0x3e, 0xda, 0xcd,
  0xb1, 0xbd, 0x60, 0x7c, 0xad, 0x3d, 0xcd, 0x5f, 0x9f, 0x3e, 0xd2, 0xd4, 0xa6,
  0xbe, 0x18, 0x5e, 0x75, 0xbe, 0x4a, 0x57, 0x8a, 0x3e, 0x65, 0x6d, 0xc8, 0xbe,
  0x1a, 0xd7, 0xc5, 0x3e, 0x22, 0xa2, 0xba, 0x3e, 0x42, 0x4b, 0x12, 0x3d, 0x67,
  0xdb, 0xe6, 0x3e, 0x33, 0x66, 0xd5, 0xbd, 0x0b, 0xdb, 0x0f, 0x3f, 0xa5, 0x9d,
  0xac, 0xbe, 0xad, 0x08, 0x6f, 0x3e, 0x1c, 0x33, 0x82, 0xbf, 0x99, 0xf1, 0xaa,
  0xbe, 0xc9, 0xd7, 0x9e, 0x3e, 0x38, 0x0c, 0xb8, 0xbe, 0x93, 0x5c, 0xf6, 0x3e,
  0xf3, 0x81, 0xf5, 0x3c, 0x0e, 0x27, 0x7c, 0x3e, 0x95, 0xa5, 0x75, 0x3e, 0x0a,
  0x7e, 0xc6, 0x3d, 0x03, 0x66, 0xb7, 0x3e, 0x97, 0xfa, 0x13, 0xbf, 0xc2, 0x05,
  0xa6, 0xbb, 0xa6, 0x69, 0x01, 0xbe, 0x10, 0xeb, 0xdb, 0xbe, 0x28, 0x4f, 0xb0,
  0xbe, 0x4c, 0x59, 0xd8, 0xbd, 0xb8, 0x88, 0xba, 0xbc, 0x69, 0xc0, 0x08, 0x3f,
  0xea, 0xc7, 0xa6, 0x3e, 0xe9, 0x46, 0x0e, 0x3c, 0xda, 0x21, 0x7c, 0xbf, 0xb4,
  0x2e, 0x00, 0x3e, 0xbf, 0x3e, 0xdd, 0xbd, 0x61, 0x52, 0xb8, 0xbe, 0xad, 0x16,
  0xf7, 0x3e, 0xdd, 0xd5, 0xc4, 0xbd, 0x6f, 0x04, 0x64, 0x3e, 0x97, 0x04, 0x38,
  0x3e, 0x26, 0x74, 0x80, 0xbe, 0x5c, 0x9d, 0x47, 0xbf, 0x0a, 0xd0, 0xff, 0xff,
  0x04, 0x00, 0x00, 0x00, 0xf0, 0x00, 0x00, 0x00, 0x1b, 0xa4, 0xed, 0xbd, 0xdc,
  0x28, 0x06, 0x3f, 0xa6, 0xdf, 0x97, 0xbd, 0xb9, 0xd2, 0xc6, 0xbd, 0x86, 0xac,
  0x45, 0xbe, 0xd7, 0xea, 0xc0, 0xbd, 0x37, 0x8a, 0x45, 0x3e, 0x00, 0x49, 0xe1,
  0xbd, 0x7a, 0xc5, 0xbd, 0xbd, 0xfc, 0xd9, 0x19, 0x3d, 0xcd, 0x12, 0xb1, 0xbd,
  0xce, 0x43, 0x93, 0xbc, 0x91, 0xeb, 0x4f, 0xbe, 0x54, 0x12, 0xb1, 0xbe, 0xf8,
  0x66, 0x39, 0x3e, 0x8f, 0xec, 0xeb, 0x3e, 0xee, 0x56, 0xe0, 0x3e, 0xb6, 0x4c,
  0xa9, 0xbd, 0x87, 0x98, 0xc3, 0x3e, 0x9d, 0x78, 0x61, 0x3e, 0x66, 0xa1, 0x2d,
  0x3d, 0x7c, 0x20, 0x3e, 0xbe, 0x70, 0xbf, 0x93, 0xbd, 0x46, 0x5a, 0x32, 0xbe,
  0x67, 0x2c, 0xdf, 0x3e, 0xf2, 0x39, 0x7a, 0xbd, 0x76, 0x39, 0x8b, 0xbe, 0x99,
  0xb4, 0xcd, 0x3e, 0x0a, 0xdd, 0x05, 0xbf, 0x51, 0xcc, 0x66, 0xbe, 0xfb, 0x19,
  0x32, 0x3e, 0x46, 0x32, 0xeb, 0x3e, 0xec, 0x1f, 0xff, 0x3e, 0xac, 0x71, 0x85,
  0xbe, 0xfa, 0x52, 0xc0, 0xbe, 0x6c, 0xfd, 0x1d, 0xbf, 0x11, 0x9e, 0xc8, 0xbd,
  0xf8, 0x1b, 0xe6, 0x3d, 0x7d, 0xcb, 0x89, 0xbe, 0xf9, 0xed, 0x29, 0x3e, 0x77,
  0xf7, 0x01, 0xbe, 0xd1, 0x2b, 0x3a, 0xbe, 0x86, 0xdc, 0xda, 0x3d, 0x0f, 0xdc,
  0xfb, 0xbe, 0x81, 0xc2, 0x1b, 0xbf, 0xf9, 0x04, 0xb3, 0xbd, 0x00, 0x65, 0x4b,
  0xbe, 0xf4, 0xb4, 0x4e, 0xbe, 0xaf, 0x86, 0xe1, 0x3d, 0x07, 0x30, 0xdb, 0x3d,
  0xbb, 0xe5, 0xaf, 0xbd, 0x8a, 0xdf, 0x55, 0xbd, 0x71, 0x9c, 0xf3, 0x3d, 0xf3,
  0x48, 0xe7, 0xbd, 0x37, 0xd4, 0x6c, 0x3d, 0xd5, 0x36, 0x30, 0x3e, 0x41, 0x60,
  0x84, 0x3c, 0x50, 0x26, 0x88, 0xbd, 0xf5, 0x81, 0x75, 0x3d, 0xfd, 0xd2, 0xf0,
  0x3d, 0x06, 0xd1, 0xff, 0xff, 0x04, 0x00, 0x00, 0x00, 0x30, 0x00, 0x00, 0x00,
  0x00, 0x00, 0x00, 0x00, 0x00, 0x00, 0x00, 0x00, 0x00, 0x00, 0x00, 0x00, 0x00,
  0x00, 0x00, 0x00, 0x00, 0x00, 0x00, 0x00, 0x00, 0x00, 0x00, 0x00, 0x00, 0x00,
  0x00, 0x00, 0x00, 0x00, 0x00, 0x00, 0x00, 0x00, 0x00, 0x00, 0x00, 0x00, 0x00,
  0x00, 0x00, 0x00, 0x00, 0x00, 0x00, 0x00, 0x00, 0x00, 0x42, 0xd1, 0xff, 0xff,
  0x04, 0x00, 0x00, 0x00, 0xf0, 0x00, 0x00, 0x00, 0xf3, 0xd0, 0x23, 0x3e, 0x9d,
  0x00, 0x9b, 0x3c, 0x79, 0xd3, 0xf7, 0x3e, 0x9c, 0x69, 0xc5, 0xbc, 0xeb, 0x1f,
  0x09, 0x3c, 0x89, 0x1e, 0xb2, 0x3d, 0x0c, 0x94, 0x04, 0xbf, 0x06, 0x2a, 0x90,
  0xbc, 0xad, 0xec, 0xe3, 0xbe, 0x1d, 0x1f, 0xce, 0xbe, 0x5d, 0x57, 0xa8, 0xbe,
  0x11, 0xe7, 0x5d, 0x3e, 0xfc, 0xa3, 0x6a, 0x3d, 0xeb, 0x8d, 0x3c, 0x3d, 0x3f,
  0x6d, 0x78, 0xbe, 0xa8, 0x06, 0x19, 0xbd, 0x55, 0x6c, 0x93, 0x3d, 0x6e, 0x97,
  0x36, 0x3e, 0x2c, 0x87, 0xe8, 0x3e, 0x16, 0xae, 0xb4, 0xbc, 0x79, 0xe9, 0x38,
  0x3f, 0x13, 0x87, 0x3a, 0x3f, 0xfd, 0x68, 0x1b, 0x3f, 0x29, 0x66, 0xb3, 0xbe,
  0x63, 0xa9, 0xa0, 0x3e, 0x10, 0x33, 0x0d, 0x3f, 0xc4, 0x78, 0x32, 0xbe, 0x72,
  0xfc, 0x36, 0x3f, 0x25, 0xa1, 0x17, 0xbf, 0x87, 0x16, 0x12, 0x3f, 0x42, 0xa1,
  0x22, 0xbd, 0x58, 0xcc, 0x1d, 0x3f, 0xf6, 0x7b, 0xeb, 0x3d, 0x00, 0x94, 0xa5,
  0x3d, 0x6e, 0x01, 0x25, 0xbe, 0x79, 0xf7, 0x9a, 0x3e, 0x03, 0xb5, 0x78, 0x3e,
  0x43, 0xe5, 0x09, 0xbe, 0x79, 0x56, 0x69, 0x3d, 0xd7, 0x16, 0x4e, 0xbb, 0x19,
  0x43, 0xde, 0x3b, 0x3f, 0x5f, 0xfe, 0x3e, 0x02, 0x0b, 0x92, 0xbd, 0x79, 0xc1,
  0xba, 0xbd, 0xc0, 0xf4, 0xd6, 0xbc, 0x0c, 0xa7, 0xcc, 0xbd, 0x99, 0xf8, 0x4c,
  0xbe, 0xf6, 0x0e, 0xdd, 0x3e, 0x88, 0x73, 0xdf, 0x3c, 0xfa, 0xaf, 0x60, 0xbc,
  0x3d, 0xc9, 0x54, 0xbc, 0x52, 0xe9, 0xb4, 0xbc, 0x79, 0xaa, 0x25, 0x3c, 0x16,
  0xf9, 0x2c, 0x3e, 0x28, 0xcb, 0xe2, 0xbd, 0x83, 0x5a, 0x69, 0xbc, 0xd6, 0x80,
  0xfb, 0xbc, 0x64, 0x6e, 0x18, 0xbd, 0x4d, 0x8e, 0x66, 0xbd, 0x00, 0xd9, 0x83,
  0xbc, 0x3e, 0xd2, 0xff, 0xff, 0x04, 0x00, 0x00, 0x00, 0x44, 0x01, 0x00, 0x00,
  0x85, 0x1e, 0xfe, 0xbe, 0x5f, 0x11, 0x26, 0xbe, 0x91, 0x3e, 0x1c, 0x3e, 0x18,
  0x1f, 0x46, 0x3f, 0xd3, 0x85, 0x54, 0xbf, 0xc5, 0xe8, 0x45, 0xbe, 0x6c, 0x34,
  0x29, 0x3f, 0xa4, 0x23, 0x5f, 0xbe, 0x17, 0xb2, 0xd9, 0x3d, 0x31, 0xea, 0x6e,
  0x3e, 0x36, 0x46, 0x56, 0x3e, 0xb1, 0x19, 0x45, 0x3f, 0x3e, 0x9a, 0x95, 0x3e,
  0x96, 0xb9, 0x04, 0xbf, 0xd1, 0x44, 0xb5, 0xbc, 0xd9, 0x99, 0xdd, 0x3e, 0x19,
  0x77, 0xa6, 0x3f, 0x7d, 0xe3, 0x24, 0xbf, 0x32, 0x46, 0x92, 0xbe, 0xc5, 0x50,
  0x04, 0x3f, 0x20, 0x03, 0x17, 0x3f, 0x8b, 0x64, 0x16, 0x3f, 0xa2, 0x67, 0xb6,
  0x3f, 0x94, 0xa5, 0x1c, 0x3f, 0x5b, 0x99, 0x79, 0x3f, 0x1e, 0x46, 0x5c, 0x3f,
  0x52, 0x5b, 0x4b, 0x3f, 0xbf, 0xfe, 0xdb, 0x3e, 0xca, 0xc8, 0x2d, 0xbf, 0xf9,
  0xbb, 0x28, 0x3e, 0x58, 0x2c, 0x88, 0x3e, 0x18, 0x68, 0x59, 0x3f, 0x37, 0x13,
  0x04, 0xbf, 0xf6, 0x19, 0xd4, 0x3f, 0x18, 0xed, 0x99, 0x3f, 0x06, 0xbd, 0x13,
  0xbe, 0x4b, 0xa7, 0xa5, 0xbd, 0xf1, 0xda, 0x54, 0xbf, 0xfa, 0xd2, 0x82, 0xbf,
  0x77, 0xeb, 0xe4, 0xbe, 0x2b, 0xbd, 0xf9, 0x3e, 0x74, 0x5f, 0x39, 0xbf, 0xfb,
  0x9a, 0x5f, 0xbf, 0x63, 0x4a, 0x13, 0xbf, 0xdc, 0xa2, 0x0c, 0xbf, 0xe3, 0x0b,
  0xc2, 0x3e, 0xff, 0x43, 0xe5, 0x3e, 0xd2, 0x70, 0x8f, 0x3d, 0xa1, 0x6d, 0xaa,
  0x3d, 0x45, 0x53, 0x03, 0xc0, 0x9e, 0x44, 0x4c, 0x3f, 0x12, 0x12, 0x67, 0x3e,
  0x0b, 0x0e, 0xb5, 0x3d, 0x59, 0x72, 0x5e, 0xbd, 0xbe, 0x3d, 0xc1, 0x3e, 0x83,
  0xfe, 0x0d, 0xbf, 0xb7, 0x47, 0x14, 0x3f, 0x5a, 0x24, 0xdf, 0xbe, 0x2d, 0xc8,
  0x26, 0x3f, 0xce, 0x46, 0xb5, 0xbe, 0x35, 0x39, 0xc5, 0x3e, 0x2b, 0xe2, 0xe2,
  0x3d, 0x5b, 0xa2, 0x29, 0x3c, 0xd5, 0xd9, 0x23, 0x3e, 0xd1, 0x23, 0x57, 0x3f,
  0x44, 0x4c, 0x2a, 0x3f, 0x80, 0x96, 0x54, 0x3f, 0xaa, 0xca, 0x71, 0xbf, 0xab,
  0x9b, 0x2e, 0x3f, 0x5b, 0xc5, 0x07, 0x3f, 0xd8, 0xdf, 0x18, 0x3e, 0xd5, 0xa1,
  0x58, 0x3e, 0x16, 0xe8, 0x5c, 0xbf, 0x4a, 0xb5, 0xed, 0x3e, 0x3c, 0x2f, 0x05,
  0x3f, 0xf4, 0xa2, 0x49, 0x3f, 0xb1, 0xfd, 0x96, 0xbf, 0x4b, 0x6b, 0xb1, 0xbe,
  0x03, 0xa2, 0x9b, 0xbe, 0x02, 0x27, 0x00, 0x3d, 0x60, 0x0f, 0x43, 0xbe, 0x8e,
  0xd3, 0xff, 0xff, 0x04, 0x00, 0x00, 0x00, 0xb4, 0x00, 0x00, 0x00, 0xab, 0x3e,
  0x03, 0xbe, 0x3d, 0xec, 0x0f, 0x3e, 0x12, 0x3f, 0x91, 0xbd, 0xed, 0xd8, 0xee,
  0x3d, 0x87, 0xf9, 0x19, 0x3f, 0x04, 0xed, 0x20, 0x3e, 0x9b, 0x9a, 0x0c, 0xbf,
  0xc5, 0xfd, 0x1b, 0x3f, 0x57, 0xcf, 0xbd, 0xbd, 0x21, 0xe7, 0x01, 0xbf, 0x5d,
  0x82, 0x0b, 0xbf, 0xf2, 0xba, 0x76, 0x3f, 0xa8, 0xf7, 0xfd, 0x3e, 0x34, 0xe9,
  0xff, 0xbf, 0xfd, 0x31, 0x54, 0x3e, 0x63, 0xba, 0x0e, 0x3f, 0x43, 0x02, 0xed,
  0xbe, 0x88, 0x66, 0x24, 0x3f, 0x64, 0xbc, 0xe0, 0xbe, 0x51, 0xb9, 0x81, 0xbf,
  0xb7, 0xea, 0xe1, 0xbd, 0x21, 0x1f, 0xef, 0x3e, 0x1f, 0x24, 0xbc, 0xbe, 0x4f,
  0x9b, 0x26, 0x3f, 0x9c, 0x76, 0x60, 0xbc, 0x9e, 0x05, 0xd0, 0xbe, 0xb5, 0x95,
  0x61, 0x3d, 0x4c, 0x76, 0x34, 0x3e, 0x09, 0xc5, 0x1e, 0x3f, 0x79, 0x75, 0x70,
  0x3c, 0x8f, 0xb4, 0xd1, 0x3d, 0x84, 0x3d, 0xe0, 0x3c, 0x1e, 0x58, 0x48, 0x3d,
  0x88, 0x12, 0x55, 0xbe, 0xd9, 0x8a, 0xf6, 0x3c, 0xe2, 0x95, 0x49, 0xbf, 0x24,
  0xf1, 0x2c, 0xbd, 0x19, 0xeb, 0xf2, 0xbd, 0x30, 0x7f, 0xa3, 0x3d, 0x9f, 0x4f,
  0x19, 0x3b, 0x7c, 0x07, 0xda, 0x3d, 0x1c, 0xcb, 0x5f, 0xbe, 0x3d, 0xfa, 0xce,
  0xbd, 0xcb, 0x53, 0xc3, 0xbd, 0xf1, 0x88, 0x0c, 0x3d, 0x4e, 0xd4, 0xff, 0xff,
  0x04, 0x00, 0x00, 0x00, 0xb4, 0x00, 0x00, 0x00, 0x4d, 0x5d, 0xaa, 0x3e, 0xe9,
  0x4e, 0x55, 0x3e, 0x67, 0xfd, 0xf2, 0x3d, 0x75, 0x87, 0xa7, 0xbd, 0x53, 0x58,
  0x8a, 0x3e, 0xfd, 0x2f, 0x2c, 0x3e, 0x1a, 0x53, 0x1e, 0xbe, 0x63, 0x26, 0x2f,
  0xbe, 0xb0, 0x87, 0x19, 0xbd, 0x23, 0x70, 0x3c, 0xbf, 0x25, 0x3e, 0xf0, 0xbe,
  0x27, 0x1f, 0x9d, 0xbd, 0x70, 0x20, 0x36, 0x3e, 0x09, 0xc8, 0xd8, 0xbe, 0x77,
  0x34, 0x94, 0xbe, 0xd7, 0x95, 0x3f, 0x3f, 0x49, 0x14, 0x05, 0xbd, 0xe1, 0x1d,
  0xc0, 0xbe, 0x38, 0x2f, 0x0e, 0x3f, 0xff, 0x8c, 0x76, 0x3f, 0xe9, 0xfe, 0x30,
  0xbf, 0x90, 0xae, 0x31, 0x3f, 0x27, 0x47, 0x02, 0x40, 0x82, 0x56, 0x22, 0x3f,
  0x2c, 0x09, 0x95, 0x3e, 0xe7, 0x35, 0x19, 0x3f, 0x5d, 0xc9, 0xf1, 0x3e, 0x9b,
  0x89, 0x77, 0x3e, 0x7a, 0xe9, 0xbd, 0x3d, 0x25, 0x0b, 0x5a, 0x3e, 0x17, 0x0b,
  0x47, 0x3e, 0x4f, 0x7b, 0x64, 0xbe, 0xad, 0xf1, 0xb0, 0x3e, 0x55, 0x83, 0xb5,
  0x3d, 0xda, 0x24, 0x98, 0x3e, 0x95, 0x4b, 0x3f, 0x3f, 0x78, 0x65, 0xd1, 0x3d,
  0x2b, 0xa7, 0xbb, 0xbd, 0x9b, 0x4e, 0xf0, 0x3d, 0x37, 0x88, 0x0f, 0xbe, 0x61,
  0xb2, 0x12, 0x3e, 0x24, 0xa7, 0xff, 0xbd, 0x18, 0xe4, 0xbf, 0x3d, 0x76, 0xaf,
  0x45, 0xbd, 0xc4, 0x7f, 0xb0, 0x3d, 0x0e, 0xd5, 0xff, 0xff, 0x04, 0x00, 0x00,
  0x00, 0xb0, 0x01, 0x00, 0x00, 0xb5, 0x44, 0xb5, 0x3d, 0x82, 0x75, 0x68, 0xbb,
  0xe0, 0x99, 0xf5, 0x3e, 0x99, 0x84, 0x91, 0x3d, 0x41, 0x69, 0x17, 0xbf, 0xf9,
  0x5c, 0x8f, 0xbe, 0xd8, 0x65, 0x9e, 0xbe, 0xfe, 0x54, 0x0c, 0x3f, 0x4f, 0xfa,
  0x96, 0x3d, 0x86, 0x78, 0x1b, 0xbf, 0x7b, 0xe3, 0x16, 0xbf, 0xb7, 0x55, 0x58,
  0xbf, 0xef, 0x71, 0x27, 0x3f, 0xd4, 0x9d, 0xc7, 0x3e, 0x47, 0x59, 0x04, 0xbf,
  0xd9, 0x58, 0x1f, 0xbf, 0x44, 0xe7, 0xd1, 0x3d, 0x3b, 0xa0, 0x70, 0x3e, 0x38,
  0x00, 0xc8, 0xbe, 0x47, 0xf9, 0x2a, 0xbd, 0x37, 0xd9, 0xab, 0xbe, 0x33, 0x69,
  0xb0, 0xbe, 0xdd, 0x4b, 0x0c, 0xbf, 0xe1, 0x1e, 0x2b, 0xbf, 0xc1, 0xa5, 0x0e,
  0x3e, 0x05, 0x18, 0x95, 0xbf, 0xf7, 0x94, 0x93, 0xbe, 0x90, 0x0a, 0x5c, 0x3e,
  0x49, 0xb7, 0x0a, 0xbd, 0x48, 0x3f, 0x93, 0x3f, 0x02, 0x67, 0x24, 0xbe, 0xb1,
  0x2c, 0xd9, 0x3e, 0x18, 0xf8, 0x82, 0xbd, 0x23, 0x28, 0x8f, 0x3f, 0x13, 0xef,
  0xf5, 0x3d, 0xff, 0x3a, 0x65, 0x3d, 0xdc, 0x2c, 0xd3, 0x3e, 0xf4, 0x01, 0xc7,
  0xbe, 0x4b, 0x39, 0x0c, 0xbf, 0x86, 0xe8, 0x36, 0xbe, 0x43, 0xed, 0xaf, 0xbe,
  0xf7, 0xc6, 0x3b, 0xbe, 0xf9, 0x22, 0x14, 0xbf, 0x30, 0xd9, 0x4f, 0x3f, 0x9c,
  0x83, 0x39, 0xbf, 0xfe, 0xd1, 0x42, 0xbe, 0x08, 0x8c, 0x43, 0xbf, 0xf1, 0x2b,
  0x8a, 0x3d, 0x07, 0x34, 0x92, 0x3d, 0xc9, 0x91, 0x4c, 0x3d, 0x0d, 0x0b, 0xbb,
  0xbd, 0x54, 0xb4, 0x3e, 0xba, 0x8d, 0xd8, 0x57, 0x3b, 0x97, 0x0e, 0x8b, 0x3d,
  0x32, 0xd6, 0xd8, 0xbd, 0xc6, 0xe6, 0xea, 0xbc, 0xa6, 0x30, 0x33, 0xbe, 0x89,
  0x3d, 0x05, 0x3e, 0x80, 0x83, 0x81, 0x3e, 0x5e, 0x3a, 0xfe, 0xbd, 0x86, 0xda,
  0x4f, 0x3f, 0x0b, 0x69, 0x34, 0x3f, 0xf6, 0xe8, 0x02, 0xbe, 0xb6, 0x70, 0x85,
  0xbf, 0x6b, 0x32, 0xff, 0x3d, 0x90, 0xfe, 0x33, 0x3f, 0xa5, 0x13, 0x37, 0x3f,
  0x98, 0x6e, 0xa2, 0xbe, 0x3f, 0xef, 0x66, 0xbe, 0xf9, 0x34, 0xdf, 0xbe, 0x4c,
  0xf2, 0x88, 0xbe, 0xb4, 0xdf, 0x45, 0xbf, 0x1c, 0x91, 0xaf, 0xbe, 0xdf, 0x84,
  0xbb, 0x3e, 0x26, 0x7e, 0x22, 0x3f, 0x28, 0x71, 0x26, 0x3f, 0x55, 0xe8, 0x4b,
  0xbe, 0xc9, 0x25, 0x0f, 0x3f, 0x13, 0xf4, 0x92, 0x3e, 0x0a, 0xc6, 0x17, 0xbd,
  0x2c, 0x24, 0x9c, 0xbf, 0xd2, 0x76, 0x65, 0xbd, 0x5d, 0x70, 0x6b, 0xbe, 0x1f,
  0x19, 0x42, 0x3f, 0x41, 0x2d, 0xab, 0x3e, 0x37, 0xfc, 0xa0, 0xbe, 0xff, 0x49,
  0x00, 0x40, 0x1b, 0xf1, 0xc2, 0x3e, 0xb1, 0x39, 0xcf, 0xbf, 0x6d, 0x74, 0x85,
  0x3c, 0x22, 0x56, 0x27, 0xbe, 0xfa, 0x61, 0x89, 0x3f, 0x27, 0xbe, 0x22, 0x3d,
  0x75, 0xac, 0xd3, 0x3d, 0xf4, 0x27, 0xd8, 0x3e, 0x57, 0xf9, 0x46, 0x3d, 0xa2,
  0x03, 0x05, 0xbf, 0xe3, 0xd6, 0x4c, 0xbe, 0x44, 0x4e, 0xc8, 0xbe, 0xef, 0x36,
  0x1b, 0x3f, 0xb3, 0x57, 0x99, 0xbf, 0x2b, 0x1f, 0x0c, 0xbe, 0x83, 0xf4, 0xc1,
  0x3e, 0x6c, 0xfe, 0xf2, 0x3e, 0x9c, 0xc6, 0x17, 0x3d, 0xc6, 0x31, 0x32, 0x3f,
  0xe0, 0xfc, 0x70, 0x3e, 0x5c, 0xbc, 0x20, 0x3f, 0xca, 0xd6, 0xff, 0xff, 0x04,
  0x00, 0x00, 0x00, 0xf0, 0x00, 0x00, 0x00, 0x69, 0xab, 0xe4, 0x3d, 0x89, 0xbb,
  0xd7, 0x3b, 0xd5, 0x31, 0xa0, 0xbd, 0x75, 0xba, 0x68, 0x3d, 0xfb, 0xd1, 0x2a,
  0x3c, 0x11, 0x63, 0x92, 0xbd, 0xb1, 0x18, 0x0a, 0x3e, 0xc4, 0x73, 0x96, 0xbc,
  0x74, 0xa2, 0x87, 0x3d, 0xed, 0x42, 0x8b, 0x3d, 0xf7, 0xd1, 0x33, 0x3c, 0x9e,
  0x2d, 0xef, 0x3d, 0x58, 0x85, 0x4b, 0x3e, 0x3c, 0xb7, 0xa7, 0x3d, 0x18, 0xbf,
  0x1d, 0xbe, 0xb2, 0xcb, 0x27, 0x3e, 0x33, 0x72, 0x60, 0x3d, 0xcc, 0x4f, 0x6c,
  0xbd, 0x2c, 0xd7, 0x86, 0x3d, 0xeb, 0xbc, 0x02, 0xbe, 0x97, 0x6b, 0xca, 0x3d,
  0x4d, 0xee, 0x01, 0xbb, 0x36, 0x7d, 0xae, 0x3d, 0x85, 0x6d, 0x1a, 0x3e, 0xb3,
  0x4d, 0x01, 0x3f, 0x0d, 0x36, 0x54, 0xbe, 0xc0, 0x13, 0x6a, 0xbd, 0x42, 0x31,
  0x97, 0x3e, 0x1c, 0x80, 0x95, 0xbe, 0x10, 0xfb, 0x94, 0xbd, 0x25, 0xef, 0xc2,
  0xbe, 0xd7, 0x3a, 0x52, 0x3e, 0xd1, 0xe5, 0x81, 0x3e, 0xbf, 0x9a, 0x2d, 0x3e,
  0x29, 0x62, 0x9e, 0x3e, 0xef, 0x93, 0xac, 0x3e, 0x03, 0x69, 0x01, 0x3f, 0xbf,
  0x28, 0x05, 0xbf, 0x6b, 0xe6, 0xc1, 0xbd, 0x45, 0x5a, 0xd0, 0x3e, 0x20, 0x20,
  0xd6, 0xbe, 0x4b, 0x86, 0xeb, 0xbe, 0x05, 0xb1, 0xd3, 0xbe, 0x73, 0x54, 0x03,
  0x3f, 0xef, 0xb3, 0xd6, 0x3e, 0xd2, 0xd2, 0xcb, 0x3e, 0x03, 0xfd, 0x9f, 0x3e,
  0xdc, 0x73, 0xbf, 0x3e, 0x28, 0x86, 0x5f, 0x3e, 0x7c, 0x21, 0x95, 0xbe, 0xcf,
  0xc3, 0x8e, 0xbe, 0xbb, 0xb6, 0x92, 0x3e, 0xff, 0x08, 0xcf, 0xbd, 0xe3, 0xf6,
  0x99, 0xbe, 0xe8, 0x9f, 0xb9, 0xbd, 0xa3, 0x41, 0x63, 0x3c, 0x0b, 0xc0, 0x56,
  0xbe, 0x81, 0x95, 0x25, 0x3e, 0x28, 0x51, 0xc5, 0x3d, 0x34, 0x47, 0x39, 0x3e,
  0xc6, 0xd7, 0xff, 0xff, 0x04, 0x00, 0x00, 0x00, 0xf0, 0x00, 0x00, 0x00, 0x90,
  0x10, 0xb9, 0xbc, 0x47, 0xb8, 0x03, 0x3e, 0x79, 0x13, 0x02, 0x3e, 0x95, 0x2b,
  0x5b, 0xbe, 0x8d, 0x25, 0x91, 0x3b, 0xbe, 0xd7, 0x1c, 0xbd, 0xcc, 0x98, 0x81,
  0xbd, 0x2c, 0xdc, 0x66, 0x3d, 0xdc, 0x8f, 0x25, 0xbd, 0x4f, 0x0e, 0xa0, 0x3d,
  0x21, 0xd3, 0x43, 0x3e, 0x91, 0x9f, 0x50, 0x3c, 0xee, 0xf6, 0xca, 0xbe, 0xfb,
  0xa9, 0x28, 0x3d, 0x7a, 0x64, 0xa5, 0x3e, 0x16, 0x0a, 0xa6, 0xbe, 0x1d, 0xa1,
  0xff, 0xbe, 0xd9, 0x56, 0x12, 0xbc, 0x15, 0xeb, 0xce, 0xbe, 0xa5, 0xf1, 0xaa,
  0x3e, 0xb6, 0xf7, 0x20, 0xbd, 0x64, 0x51, 0x92, 0xbd, 0x61, 0x3d, 0x35, 0xbe,
  0xb2, 0xf3, 0x7a, 0x3e, 0x72, 0xf6, 0x2e, 0xbf, 0x2c, 0xc8, 0xe6, 0xbe, 0xda,
  0x89, 0xde, 0x3e, 0x89, 0x34, 0xaa, 0xbe, 0x0c, 0x31, 0xce, 0x3e, 0x7e, 0x03,
  0x19, 0xbf, 0x59, 0xbe, 0x2b, 0x3e, 0x2e, 0x94, 0xe3, 0xbe, 0x68, 0x55, 0x0d,
  0xbf, 0xab, 0xd7, 0x9b, 0x3e, 0xe4, 0xbb, 0xf9, 0xbe, 0xcb, 0xf9, 0x36, 0x3f,
  0xc2, 0xe6, 0x6d, 0x3d, 0xfb, 0x7c, 0xcf, 0xbe, 0x97, 0x04, 0x24, 0x3e, 0x04,
  0x4e, 0x92, 0xbe, 0x60, 0xe9, 0xcc, 0x3c, 0x9f, 0x29, 0xd8, 0xbe, 0x56, 0xf9,
  0x6e, 0xbe, 0xbd, 0xac, 0x62, 0xbe, 0xa3, 0xee, 0xa4, 0xbe, 0x4c, 0x57, 0xc3,
  0x3e, 0xad, 0xca, 0x83, 0xbe, 0x89, 0x58, 0x3d, 0x3e, 0x3f, 0xa5, 0x1d, 0xbe,
  0x80, 0x59, 0x5c, 0x3e, 0x58, 0x45, 0x1e, 0x3e, 0xdb, 0xa5, 0x3d, 0xbe, 0xfa,
  0x4f, 0x81, 0x3d, 0xc9, 0x36, 0x4b, 0xbe, 0x0b, 0x93, 0xe1, 0xbd, 0x2b, 0x0d,
  0x89, 0x3e, 0x78, 0x08, 0x14, 0x3d, 0x3c, 0xc7, 0x88, 0x3e, 0x24, 0x5a, 0x03,
  0xbd, 0x7c, 0x1d, 0x37, 0x3d, 0xc2, 0xd8, 0xff, 0xff, 0x04, 0x00, 0x00, 0x00,
  0xd0, 0x02, 0x00, 0x00, 0x01, 0x0c, 0x23, 0x3e, 0xe4, 0xcd, 0x10, 0xbf, 0x50,
  0xbd, 0x89, 0xbf, 0xcc, 0xc5, 0x2d, 0x3f, 0xe4, 0x83, 0x2b, 0xbf, 0x4d, 0x8a,
  0xd6, 0xbe, 0xfe, 0x3a, 0x8b, 0xbf, 0xad, 0xc7, 0x1b, 0xbf, 0x5c, 0xa2, 0x32,
  0x3f, 0x06, 0x3e, 0x68, 0x3e, 0x1b, 0x3d, 0x6a, 0x3d, 0x4b, 0xa1, 0x86, 0xbd,
  0xb0, 0xe7, 0x47, 0x3f, 0x1b, 0x6e, 0xf3, 0xbd, 0xa9, 0xb3, 0x82, 0xbe, 0xc9,
  0x3f, 0x34, 0x3e, 0x87, 0x64, 0xf4, 0xbe, 0xb3, 0xf3, 0x37, 0x3f, 0xa1, 0x7e,
  0x85, 0xbe, 0x6f, 0xfe, 0xed, 0xbe, 0x7f, 0xb7, 0x90, 0xbf, 0xf3, 0x23, 0x7d,
  0x3e, 0x3a, 0xaa, 0xe1, 0x3e, 0x01, 0x5c, 0xcf, 0xbe, 0xe6, 0xdc, 0x44, 0xbe,
  0xae, 0x45, 0xd5, 0xbd, 0xe1, 0x6d, 0xd8, 0xbe, 0x45, 0x59, 0x22, 0xbf, 0x45,
  0x65, 0x9e, 0xbc, 0xb6, 0xa5, 0x34, 0x3d, 0x2d, 0xd5, 0x71, 0x3e, 0xcd, 0xf4,
  0x27, 0xbf, 0x38, 0x32, 0x15, 0xbe, 0x63, 0xdb, 0x7e, 0x3e, 0xba, 0x7d, 0x2d,
  0x3f, 0x86, 0x39, 0xd2, 0xbb, 0xbd, 0x12, 0xc5, 0xbb, 0x72, 0x1d, 0x32, 0xbe,
  0x1f, 0x2d, 0xb6, 0x3d, 0xb7, 0x13, 0x07, 0x3f, 0x71, 0x95, 0x03, 0xbe, 0x60,
  0x55, 0x26, 0x3f, 0x02, 0x6e, 0xe6, 0xbc, 0xb2, 0x6a, 0xb5, 0x3c, 0x0d, 0x44,
  0x50, 0x3f, 0xe3, 0xcb, 0x1c, 0xbe, 0xcf, 0x4f, 0xd1, 0xbe, 0x9d, 0xc9, 0x82,
  0xbe, 0x4e, 0x39, 0x6f, 0x3e, 0x7c, 0xe6, 0x2b, 0xbf, 0xc4, 0x39, 0x6f, 0xbe,
  0x1f, 0x9c, 0x5f, 0xbf, 0xeb, 0x5f, 0x28, 0xbf, 0x1c, 0xcd, 0x7f, 0xbf, 0x72,
  0x92, 0xc0, 0xbe, 0x74, 0xef, 0x89, 0x3d, 0xa3, 0x81, 0x8e, 0xbe, 0x60, 0x7e,
  0xa7, 0x3e, 0x78, 0x3f, 0xbe, 0x3e, 0x36, 0x3d, 0xc4, 0x3e, 0x73, 0x6d, 0x69,
  0x3f, 0xfb, 0xbd, 0xe6, 0xbe, 0x71, 0x1d, 0x79, 0x3c, 0x9f, 0xff, 0x7d, 0x3f,
  0xea, 0xfc, 0x1a, 0x3f, 0xab, 0xe0, 0x35, 0xbf, 0x06, 0xe0, 0x0e, 0xbe, 0xfa,
  0xe1, 0x96, 0x3f, 0x0a, 0xe1, 0x2e, 0xbf, 0xb3, 0xef, 0x90, 0xbe, 0xca, 0xdc,
  0x32, 0xbf, 0x87, 0x3f, 0x03, 0x3e, 0xdb, 0x75, 0xbf, 0x3f, 0xff, 0x24, 0x92,
  0xbf, 0x5b, 0x71, 0x5e, 0xbf, 0xb8, 0x2b, 0x19, 0xbe, 0x21, 0x66, 0x38, 0xbf,
  0x85, 0xc7, 0xd0, 0x3e, 0xa3, 0xc6, 0xae, 0x3d, 0x5f, 0x13, 0x98, 0x3e, 0x7c,
  0x65, 0x8c, 0xbe, 0x9e, 0x99, 0xcb, 0x3d, 0x31, 0x7c, 0x1e, 0x3f, 0xb5, 0x1a,
  0x8d, 0xbe, 0x1d, 0x92, 0x17, 0x3f, 0x55, 0x71, 0xd4, 0xbe, 0x77, 0x79, 0x3d,
  0x3f, 0x7e, 0xbc, 0x2f, 0xbe, 0xc4, 0x5c, 0xd5, 0xbd, 0x67, 0x2f, 0xb6, 0x3e,
  0xda, 0x51, 0x71, 0x3d, 0x68, 0xc0, 0x93, 0x3e, 0xf8, 0x3e, 0xae, 0xbe, 0x5a,
  0xad, 0xbb, 0x3e, 0x59, 0xff, 0x04, 0x3f, 0xe8, 0x8e, 0x48, 0x3f, 0x31, 0xa1,
  0x5e, 0xbe, 0x4a, 0x45, 0x61, 0x3e, 0x15, 0xfb, 0x9f, 0xbe, 0xe3, 0xf5, 0x26,
  0x3f, 0x5b, 0x6a, 0xee, 0xbd, 0x9e, 0xaa, 0x44, 0x3f, 0x40, 0xe7, 0x96, 0xbe,
  0x0a, 0xe6, 0x38, 0x3f, 0xbd, 0xc5, 0x3a, 0x3e, 0x9f, 0x92, 0xa6, 0xbe, 0xfe,
  0x80, 0x81, 0x3e, 0x54, 0xce, 0xb7, 0xbc, 0x24, 0x86, 0xaf, 0x3f, 0x4c, 0xbe,
  0xa6, 0xbc, 0xa9, 0xea, 0x48, 0x3f, 0x7f, 0x5e, 0x70, 0xbe, 0x65, 0x02, 0xe3,
  0xbe, 0x13, 0x18, 0x84, 0xbd, 0x03, 0xf1, 0x5c, 0xbf, 0x22, 0x34, 0x6c, 0x3f,
  0x91, 0xc7, 0x51, 0xbf, 0xc2, 0x4d, 0xd1, 0x3e, 0x5f, 0xc8, 0xa5, 0x3e, 0x3c,
  0xa5, 0x58, 0xbf, 0x6d, 0xa2, 0x5f, 0x3f, 0x67, 0x80, 0x66, 0x3f, 0x27, 0x19,
  0x26, 0x3d, 0x4b, 0xaf, 0x1f, 0xbf, 0x12, 0x9f, 0x85, 0x3d, 0x4d, 0x93, 0x57,
  0x3e, 0xbf, 0x2a, 0xba, 0xbd, 0x45, 0x58, 0x61, 0xbe, 0x73, 0x1e, 0x82, 0x3e,
  0x9b, 0x40, 0xa1, 0xbe, 0xf9, 0xb3, 0x09, 0x3f, 0x12, 0x1d, 0x20, 0xbf, 0xde,
  0xaa, 0x0b, 0xbe, 0xe0, 0x2d, 0x94, 0x3e, 0x1d, 0x47, 0xde, 0x3e, 0xcb, 0xdc,
  0xe1, 0x3c, 0x7a, 0x07, 0x03, 0xbf, 0x13, 0xfe, 0xa8, 0x3e, 0xfe, 0x0d, 0xdc,
  0xbe, 0x80, 0x7b, 0x48, 0xbf, 0x12, 0x28, 0x75, 0xbe, 0x47, 0x8d, 0x47, 0x3d,
  0xfd, 0x11, 0x29, 0xbf, 0x7b, 0x16, 0x05, 0x3f, 0x4e, 0x21, 0x8f, 0x3d, 0xbf,
  0xb0, 0xcb, 0x3e, 0x1f, 0x9d, 0x95, 0xbe, 0x24, 0xc2, 0x0b, 0xbf, 0xbd, 0x21,
  0x99, 0x3e, 0x20, 0xb2, 0x9b, 0xbd, 0x55, 0xaa, 0x2b, 0xbf, 0x5e, 0x3f, 0x56,
  0xbf, 0x67, 0x89, 0xfc, 0xbd, 0xdd, 0x4d, 0xda, 0xbd, 0x0c, 0x2d, 0xc2, 0x3e,
  0x00, 0x37, 0xe0, 0x3e, 0xf0, 0x83, 0xf0, 0xbe, 0x88, 0xa9, 0x05, 0xbe, 0xf0,
  0x68, 0x9c, 0xbe, 0x3e, 0xb0, 0x2f, 0x3e, 0x8f, 0xd0, 0x68, 0x3f, 0xf1, 0x2a,
  0xc1, 0x3e, 0x06, 0xba, 0x1a, 0x3f, 0x47, 0x01, 0x78, 0x3f, 0x28, 0x18, 0xd2,
  0xbe, 0x32, 0x91, 0xad, 0xbe, 0x66, 0xfb, 0xba, 0x3d, 0x50, 0xb9, 0x94, 0x3e,
  0x4a, 0xd7, 0x04, 0xbd, 0xc5, 0x9f, 0x32, 0x3f, 0x38, 0x87, 0xa7, 0xbd, 0x2d,
  0xda, 0x1f, 0x3f, 0x71, 0x4b, 0xb8, 0x3e, 0xd6, 0xa2, 0x3d, 0xbf, 0x82, 0x0d,
  0x0a, 0xbc, 0xb0, 0xe9, 0x87, 0xbd, 0x0c, 0xbf, 0xa1, 0x3e, 0xca, 0xe1, 0x77,
  0xbe, 0x2b, 0x11, 0x38, 0xbf, 0x52, 0x60, 0xbe, 0xbe, 0x9e, 0xdb, 0xff, 0xff,
  0x04, 0x00, 0x00, 0x00, 0x2c, 0x01, 0x00, 0x00, 0xa5, 0x2b, 0x51, 0x3d, 0xe5,
  0xd4, 0x45, 0xbe, 0xb3, 0x10, 0xcc, 0xbd, 0xae, 0x47, 0x23, 0x3f, 0x74, 0x17,
  0xde, 0x3d, 0x99, 0x0e, 0x57, 0x3d, 0x8d, 0x7e, 0x69, 0xbe, 0xb5, 0x84, 0x57,
  0x3c, 0x4b, 0xbf, 0x0c, 0xbe, 0x53, 0x97, 0x08, 0xbe, 0x67, 0xb1, 0x68, 0xbe,
  0x4e, 0xaa, 0x95, 0x3e, 0x31, 0xc5, 0xae, 0xbe, 0xb0, 0xee, 0x15, 0x3d, 0xb0,
  0x2b, 0x0a, 0x3e, 0x86, 0xb7, 0x01, 0x3e, 0x20, 0x7b, 0xbb, 0x3d, 0x15, 0xd4,
  0xe1, 0xbe, 0x24, 0x06, 0xbb, 0x3e, 0x65, 0xb4, 0x4f, 0x3c, 0x7f, 0x49, 0xeb,
  0xbe, 0x54, 0xa9, 0x45, 0xbd, 0xf3, 0x55, 0x7c, 0xbe, 0xe3, 0xc1, 0x90, 0xbe,
  0xea, 0x37, 0xed, 0x3e, 0x6f, 0xab, 0xa9, 0x3e, 0x16, 0xec, 0x6b, 0x3d, 0x59,
  0xc9, 0x49, 0xbe, 0x5e, 0x76, 0xed, 0x3c, 0xfa, 0x62, 0xfd, 0x3e, 0x01, 0x7b,
  0x64, 0x3e, 0x9e, 0xaa, 0xe4, 0xbe, 0x3b, 0xdb, 0x87, 0x3e, 0xb0, 0xef, 0x5b,
  0xbd, 0x0b, 0xe7, 0x64, 0xbf, 0x39, 0x8a, 0x83, 0x3e, 0x18, 0x0c, 0x29, 0x3f,
  0x8e, 0xa2, 0x32, 0x3f, 0xbd, 0x9d, 0x93, 0x3e, 0x3b, 0x58, 0x06, 0x3c, 0x50,
  0xf1, 0x20, 0xbe, 0x03, 0x28, 0x61, 0x3e, 0x16, 0x93, 0xe2, 0x3e, 0xc5, 0x09,
  0x12, 0x3f, 0x92, 0x59, 0x12, 0xbe, 0xef, 0xb6, 0x51, 0x3e, 0xaf, 0x70, 0xc2,
  0xbe, 0x0d, 0xb4, 0xbb, 0xbe, 0xdc, 0xe5, 0xe1, 0xbc, 0x36, 0x0a, 0x29, 0xbd,
  0xd7, 0x3d, 0x2e, 0x3e, 0x26, 0x04, 0x36, 0x3e, 0x08, 0x23, 0x05, 0xbd, 0xed,
  0x62, 0xb3, 0xbe, 0x1d, 0x3d, 0x3c, 0x3e, 0x95, 0xf1, 0x65, 0xbe, 0x36, 0x8e,
  0x2c, 0x3d, 0xf2, 0x90, 0x5c, 0xbe, 0xc1, 0xf5, 0x23, 0xbf, 0x0f, 0x50, 0x41,
  0xbb, 0x3a, 0x56, 0xa7, 0x3e, 0x80, 0x24, 0x88, 0xbb, 0xd3, 0xe6, 0x00, 0x3c,
  0x99, 0xfc, 0x6f, 0x3d, 0xa7, 0x39, 0x1e, 0x3e, 0x82, 0x32, 0xc3, 0xbe, 0x13,
  0xda, 0x06, 0x3d, 0x9e, 0x77, 0x8b, 0x3e, 0xd2, 0xab, 0x7a, 0x3d, 0xff, 0x76,
  0x7d, 0x3d, 0x5a, 0x3d, 0xb0, 0xbe, 0xe5, 0xbd, 0x6f, 0x3e, 0xad, 0x8c, 0x6a,
  0x3e, 0xee, 0x86, 0x95, 0x3e, 0xc7, 0x9e, 0x9e, 0x3d, 0xd6, 0xdc, 0xff, 0xff,
  0x04, 0x00, 0x00, 0x00, 0x3c, 0x00, 0x00, 0x00, 0x00, 0x00, 0x00, 0x00, 0x00,
  0x00, 0x00, 0x00, 0x00, 0x00, 0x00, 0x00, 0x00, 0x00, 0x00, 0x00, 0x00, 0x00,
  0x00, 0x00, 0x00, 0x00, 0x00, 0x00, 0x00, 0x00, 0x00, 0x00, 0x00, 0x00, 0x00,
  0x00, 0x00, 0x00, 0x00, 0x00, 0x00, 0x00, 0x00, 0x00, 0x00, 0x00, 0x00, 0x00,
  0x00, 0x00, 0x00, 0x00, 0x00, 0x00, 0x00, 0x00, 0x00, 0x00, 0x00, 0x00, 0x00,
  0x00, 0x00, 0x00, 0x1e, 0xdd, 0xff, 0xff, 0x04, 0x00, 0x00, 0x00, 0x2c, 0x01,
  0x00, 0x00, 0x90, 0x91, 0x4a, 0x3c, 0x9c, 0xc0, 0x73, 0xbb, 0x90, 0x03, 0xb2,
  0xbd, 0x9a, 0x73, 0x13, 0x3e, 0x7e, 0x0d, 0xfb, 0xbc, 0xd0, 0xa3, 0x51, 0x3d,
  0xae, 0x95, 0x57, 0xbe, 0x8b, 0x26, 0xc3, 0xbd, 0x35, 0xd7, 0x12, 0xbe, 0x04,
  0xe8, 0x09, 0xbe, 0x09, 0x41, 0xf0, 0x3d, 0x50, 0x9a, 0x85, 0xbd, 0x2e, 0xc8,
  0x39, 0x3e, 0x6b, 0xec, 0x8e, 0x3d, 0x7d, 0xca, 0x68, 0xbd, 0x9f, 0x96, 0x43,
  0xbd, 0x0a, 0x3a, 0x5d, 0x3e, 0x20, 0x0a, 0xa3, 0x3e, 0x96, 0xa3, 0xe7, 0xbe,
  0xc6, 0xd7, 0x3f, 0x3d, 0x4a, 0xb8, 0x48, 0x3d, 0x19, 0xe4, 0x86, 0x3e, 0x88,
  0xd9, 0x29, 0xbe, 0x43, 0x89, 0xc7, 0x3e, 0xfe, 0x3d, 0x1d, 0x3c, 0x28, 0xd7,
  0x98, 0x3d, 0xe1, 0xa1, 0x51, 0xbe, 0x50, 0x86, 0xb6, 0xbd, 0xe9, 0x0e, 0x07,
  0xbd, 0xc8, 0xe7, 0x19, 0xbd, 0xcf, 0xf9, 0xca, 0xbe, 0x63, 0x48, 0xa8, 0xbe,
  0xad, 0x8d, 0xf8, 0xbd, 0x26, 0xc6, 0x14, 0x3f, 0x8a, 0x50, 0x1b, 0xbe, 0x19,
  0xf7, 0x9c, 0x3e, 0x6b, 0xcc, 0x50, 0xbe, 0x41, 0xd9, 0x11, 0xbf, 0x78, 0x58,
  0xb5, 0xbe, 0x04, 0x55, 0x6b, 0xbe, 0xe9, 0xae, 0xd0, 0x3e, 0x81, 0xaa, 0x5c,
  0xbe, 0x34, 0x5a, 0x8b, 0x3e, 0x89, 0xad, 0x05, 0x3f, 0x1b, 0x57, 0xb4, 0x3e,
  0xaf, 0x55, 0xc5, 0xbe, 0xff, 0x4b, 0x34, 0x3f, 0x95, 0xe3, 0x23, 0x3f, 0x92,
  0x59, 0xe5, 0x3d, 0xde, 0x1b, 0xe8, 0xbe, 0x17, 0x2f, 0x04, 0x3f, 0xae, 0xda,
  0x52, 0x3f, 0x23, 0x56, 0xcc, 0xbd, 0xd1, 0x55, 0x56, 0xbe, 0x6d, 0x75, 0x18,
  0x3f, 0xa2, 0x2c, 0x85, 0x3e, 0x54, 0x17, 0xc0, 0xbe, 0xf0, 0x9b, 0x07, 0x3f,
  0xbc, 0x09, 0x52, 0x3e, 0x6b, 0xb2, 0xbe, 0x3e, 0x2c, 0x8b, 0x41, 0x3e, 0x51,
  0xdb, 0x81, 0xbe, 0xde, 0xb9, 0xbb, 0x3e, 0x3c, 0x8a, 0x2c, 0xbe, 0x37, 0x52,
  0xc6, 0x3e, 0x1b, 0xe4, 0xa5, 0x3d, 0xf7, 0x2e, 0xe4, 0xbe, 0xf9, 0x9c, 0x36,
  0xbe, 0xc2, 0xf1, 0xaa, 0xbe, 0xba, 0x98, 0xa0, 0xbe, 0x52, 0x63, 0x15, 0x3e,
  0xa4, 0xea, 0x28, 0x3e, 0xbe, 0xa7, 0x0c, 0xbe, 0xf1, 0x5c, 0x13, 0x3e, 0x49,
  0x41, 0x6c, 0x3c, 0x56, 0xde, 0xff, 0xff, 0x04, 0x00, 0x00, 0x00, 0x40, 0x02,
  0x00, 0x00, 0x0f, 0x00, 0xcb, 0xbe, 0xd7, 0x92, 0x60, 0x3e, 0x6d, 0x0e, 0x7c,
  0xbe, 0xd3, 0x10, 0x37, 0x3f, 0x94, 0x21, 0x55, 0x3f, 0x66, 0x07, 0xa6, 0x3e,
  0xc5, 0x76, 0x05, 0xbf, 0x6c, 0x77, 0x28, 0xbf, 0x7c, 0xf4, 0x35, 0x3d, 0x4a,
  0x11, 0x78, 0x3e, 0x07, 0x27, 0xc7, 0xbe, 0x54, 0x2d, 0xc5, 0x3e, 0x42, 0x44,
  0x00, 0x3e, 0x87, 0x27, 0x70, 0x3f, 0x0a, 0x27, 0x1e, 0xbf, 0x67, 0xa3, 0x1a,
  0x3f, 0x7a, 0x25, 0x00, 0xbc, 0xeb, 0xeb, 0x01, 0xbf, 0xb0, 0xaf, 0x87, 0x3e,
  0xe9, 0x59, 0x72, 0x3f, 0xb5, 0xb9, 0x58, 0xbb, 0xb6, 0xa5, 0x2a, 0xbf, 0x76,
  0xc5, 0x91, 0xbe, 0xde, 0x16, 0x93, 0x3e, 0x77, 0x3d, 0xf9, 0x3e, 0x32, 0x0e,
  0xa0, 0x3a, 0x51, 0xed, 0x02, 0xbe, 0x29, 0x92, 0x09, 0x3f, 0x4f, 0xab, 0x90,
  0x3e, 0x6f, 0xb9, 0xce, 0xbd, 0x56, 0x82, 0x89, 0xbf, 0xe9, 0xf0, 0xd9, 0x3f,
  0xe8, 0xdc, 0x87, 0xbf, 0x9f, 0x15, 0xf7, 0xbe, 0x8d, 0x34, 0xe3, 0x3e, 0xd1,
  0x5b, 0x2d, 0x3f, 0x30, 0x75, 0x50, 0xbe, 0x11, 0x00, 0x02, 0x3e, 0x8e, 0x15,
  0x39, 0x3f, 0xda, 0x76, 0x28, 0x3f, 0x9c, 0x91, 0xff, 0xbe, 0x86, 0x7f, 0xbc,
  0x3e, 0x47, 0x92, 0x88, 0x3e, 0x29, 0xa8, 0x89, 0x3f, 0xa2, 0x4e, 0xc5, 0x3e,
  0x14, 0xcd, 0x33, 0xbe, 0xee, 0x1e, 0xf1, 0xbe, 0x1d, 0xbc, 0x24, 0xbf, 0x4a,
  0x1b, 0x3b, 0xbe, 0xa9, 0x33, 0xc7, 0xbe, 0xce, 0x69, 0x84, 0x3f, 0x83, 0xb5,
  0x90, 0xbe, 0xc9, 0x06, 0x27, 0xbf, 0xde, 0xba, 0x87, 0xbe, 0x03, 0x84, 0x1f,
  0x3e, 0xbe, 0x03, 0x97, 0x3f, 0xf3, 0xc7, 0x58, 0xbe, 0x70, 0xff, 0x0a, 0x3e,
  0x88, 0x45, 0x9d, 0xbe, 0xcd, 0x15, 0x62, 0x3e, 0x50, 0xf7, 0x3b, 0x3f, 0xad,
  0xf1, 0x39, 0xbf, 0x1f, 0x58, 0x15, 0xbf, 0xb1, 0x61, 0x60, 0x3e, 0xc5, 0xc4,
  0x81, 0x3e, 0xe8, 0x8e, 0x51, 0xbf, 0x88, 0xf1, 0x0e, 0x3f, 0x06, 0x5e, 0x7e,
  0x3f, 0xc4, 0x69, 0x0b, 0xbf, 0x66, 0x94, 0xf3, 0x3e, 0xa1, 0x87, 0x9d, 0x3d,
  0x58, 0x7f, 0xa5, 0x3d, 0xfb, 0x1e, 0x61, 0x3e, 0x3d, 0x34, 0x9f, 0xbd, 0x3a,
  0x6d, 0x92, 0x3e, 0x7f, 0x18, 0xf8, 0xbe, 0xca, 0x74, 0x86, 0xbd, 0xb0, 0xdc,
  0x3f, 0xbf, 0x63, 0xc5, 0xc2, 0x3c, 0xc3, 0x41, 0xde, 0xbf, 0xe7, 0xb8, 0x18,
  0xbf, 0x86, 0x98, 0xfb, 0x3c, 0x62, 0x2e, 0x8e, 0x3e, 0x4b, 0x47, 0x92, 0x3c,
  0xe6, 0x0f, 0x09, 0x3e, 0x1a, 0xb2, 0xbb, 0xbf, 0x14, 0x4a, 0xb0, 0xbd, 0x75,
  0x7e, 0x84, 0xbf, 0xca, 0x8b, 0xf6, 0x3e, 0x29, 0x6c, 0x7a, 0xbe, 0x54, 0x09,
  0x45, 0x3d, 0x2e, 0x8d, 0xa9, 0x3e, 0x18, 0xb4, 0x4c, 0x3d, 0x14, 0x98, 0xcc,
  0x3e, 0xee, 0x9d, 0x9f, 0xbf, 0x2e, 0x81, 0x38, 0xbe, 0x96, 0x91, 0x53, 0xbe,
  0xd1, 0xa6, 0x36, 0xbe, 0xb0, 0xd3, 0x0e, 0xbf, 0xb6, 0x03, 0xfb, 0xbe, 0x6e,
  0x02, 0x9a, 0x3f, 0x0b, 0xcc, 0xb6, 0xbe, 0x21, 0x13, 0xb5, 0x3d, 0x2d, 0x7c,
  0x32, 0x3d, 0x3f, 0xc5, 0xa3, 0xbd, 0x52, 0x77, 0x0c, 0xbc, 0xaa, 0xdd, 0xe0,
  0xbe, 0x16, 0xeb, 0x9c, 0xbd, 0x2d, 0xb1, 0xe6, 0xbc, 0xe7, 0x79, 0xf3, 0x3c,
  0xa0, 0x4a, 0xe9, 0x3e, 0xde, 0x56, 0xe0, 0x3c, 0xf9, 0xa5, 0x09, 0xbe, 0x48,
  0x8d, 0x78, 0xbd, 0xb2, 0x59, 0x16, 0xbd, 0xb4, 0x04, 0x03, 0x3f, 0x43, 0x8b,
  0x76, 0x3f, 0x0e, 0xb4, 0x62, 0x3f, 0xbe, 0xc8, 0xbb, 0xbe, 0x78, 0x16, 0xb0,
  0x3e, 0x10, 0xff, 0x24, 0xbf, 0x6c, 0x05, 0xae, 0x3d, 0xb5, 0xa2, 0x79, 0x3e,
  0x48, 0xf1, 0xd0, 0x3e, 0x02, 0xf0, 0xcd, 0xbd, 0x10, 0x30, 0x17, 0x3f, 0x34,
  0x66, 0xef, 0xbe, 0xbd, 0x4e, 0x9c, 0xbe, 0xe2, 0x7f, 0x5c, 0x3f, 0x1d, 0xc3,
  0x30, 0x3e, 0xef, 0x7c, 0xc8, 0xbe, 0xb3, 0xf3, 0x76, 0xbe, 0x35, 0x05, 0x41,
  0x3f, 0xc1, 0x1d, 0x04, 0xbe, 0xb8, 0x58, 0xda, 0xbe, 0x02, 0xb3, 0x63, 0xbf,
  0x6f, 0x19, 0x41, 0x3e, 0x2a, 0x3a, 0x45, 0xbf, 0xff, 0xac, 0x27, 0x3f, 0xca,
  0xe5, 0xe9, 0xbe, 0x81, 0xbe, 0xae, 0xbc, 0x48, 0x46, 0xd7, 0xbe, 0xbc, 0x4c,
  0x6c, 0xbd, 0x0c, 0xa4, 0x86, 0x3e, 0xa2, 0xe0, 0xff, 0xff, 0x04, 0x00, 0x00,
  0x00, 0xf0, 0x00, 0x00, 0x00, 0x68, 0x17, 0xf6, 0x3a, 0xcb, 0x04, 0xaf, 0x3c,
  0xc1, 0x01, 0x30, 0xbd, 0xf9, 0xee, 0x85, 0xbd, 0x5e, 0xb8, 0xa4, 0xbe, 0x67,
  0x4c, 0x58, 0x3e, 0x75, 0x15, 0x59, 0x3e, 0x72, 0x3a, 0x36, 0xbe, 0x24, 0xcc,
  0x01, 0x3e, 0x63, 0x42, 0xa8, 0xbd, 0xeb, 0x27, 0x16, 0x3e, 0x00, 0xad, 0x0b,
  0x3e, 0x2e, 0xc9, 0x44, 0x3e, 0x4a, 0x0c, 0x31, 0xbe, 0xe6, 0xaf, 0xcf, 0xbe,
  0x0e, 0xc3, 0x07, 0xbf, 0x08, 0x51, 0xdd, 0xbe, 0x80, 0x82, 0x20, 0xbd, 0x98,
  0xa1, 0x68, 0x3d, 0x1f, 0x94, 0xc7, 0x3c, 0x2e, 0xa4, 0x3e, 0x3e, 0x15, 0x48,
  0xeb, 0xbc, 0x93, 0xb2, 0x19, 0xbf, 0x3f, 0x3a, 0xf3, 0xbd, 0xaf, 0x02, 0x16,
  0x3f, 0x64, 0x08, 0x2f, 0xbf, 0x68, 0xb6, 0xcb, 0xbe, 0x5a, 0x26, 0x31, 0x3f,
  0x02, 0xe7, 0x92, 0xbe, 0xf3, 0xa8, 0xbd, 0x3e, 0x4b, 0xf8, 0xc4, 0x3e, 0xee,
  0xec, 0xd0, 0x3d, 0xe6, 0x44, 0x8a, 0x3e, 0x5f, 0x96, 0x3f, 0x3f, 0xe2, 0xf6,
  0x9e, 0x3d, 0xb6, 0x56, 0x9f, 0x3e, 0x74, 0xa3, 0x85, 0xbc, 0x21, 0xf5, 0x2e,
  0xbd, 0x42, 0x47, 0x50, 0xbe, 0x16, 0x1e, 0x0e, 0xbf, 0x7a, 0xe7, 0xa8, 0xbe,
  0xdc, 0x37, 0x06, 0x3d, 0xc0, 0xf7, 0x5b, 0xbc, 0xa3, 0x04, 0x9b, 0x3e, 0x31,
  0x36, 0x8e, 0xbc, 0x79, 0xe5, 0x99, 0xbe, 0xae, 0x31, 0xcb, 0xbe, 0xb0, 0x8c,
  0x87, 0x3d, 0x22, 0x7b, 0x04, 0x3e, 0x00, 0x61, 0x32, 0xbd, 0x90, 0x51, 0xa0,
  0xbd, 0x26, 0xe3, 0x3e, 0xbd, 0xdd, 0xbb, 0xf2, 0xbd, 0x32, 0x67, 0x5d, 0x3e,
  0x1c, 0x05, 0xa4, 0x3e, 0xa1, 0x0d, 0x9c, 0xbf, 0x53, 0xe8, 0x95, 0x3e, 0x7d,
  0xe2, 0xcf, 0x3d, 0x14, 0xe8, 0x11, 0x3e, 0x8e, 0x84, 0xb2, 0x3e, 0x9e, 0xe1,
  0xff, 0xff, 0x04, 0x00, 0x00, 0x00, 0xf0, 0x00, 0x00, 0x00, 0x8a, 0x0a, 0x93,
  0xbd, 0x6c, 0xad, 0xa1, 0x3d, 0xb4, 0x6d, 0x70, 0x3d, 0x60, 0xb6, 0xa0, 0x3b,
  0xf8, 0x4a, 0x27, 0x3e, 0x37, 0x0b, 0x3b, 0xbe, 0xe3, 0x3b, 0x92, 0xbe, 0x15,
  0x62, 0x20, 0xbf, 0xad, 0x74, 0xc8, 0xbd, 0x4d, 0xe1, 0x64, 0xbd, 0xaa, 0x4a,
  0x87, 0x3e, 0xb1, 0x48, 0x42, 0xbe, 0x2c, 0xd6, 0xa4, 0xbd, 0x2d, 0x00, 0x17,
  0x3e, 0x1a, 0x23, 0x97, 0x3e, 0xe7, 0x6d, 0xa1, 0x3b, 0xa0, 0x36, 0xa6, 0x3e,
  0xb6, 0x65, 0x4d, 0xbe, 0x5f, 0x94, 0x36, 0xbe, 0x35, 0xb7, 0x05, 0xbe, 0x95,
  0x37, 0xd7, 0xbe, 0xad, 0x89, 0xfa, 0x3d, 0xfa, 0x37, 0xa3, 0xbe, 0x87, 0xd3,
  0x3f, 0xbe, 0x99, 0x23, 0x99, 0xbe, 0x16, 0x47, 0x0d, 0x3f, 0x0d, 0x93, 0xff,
  0x3e, 0xb3, 0x79, 0x4e, 0x3f, 0x2e, 0x06, 0xd2, 0x3e, 0xd5, 0xc5, 0x28, 0xbf,
  0xea, 0x50, 0x1b, 0xbf, 0x7a, 0x3a, 0x52, 0xbf, 0x36, 0xc9, 0xaf, 0x3e, 0x17,
  0xff, 0x31, 0xbe, 0xf3, 0xda, 0xd7, 0x3b, 0x56, 0xf1, 0x8b, 0xbe, 0x7b, 0x0e,
  0x39, 0xbf, 0x9a, 0x14, 0x59, 0x3e, 0xe4, 0xe0, 0xb8, 0x3e, 0x68, 0x33, 0x29,
  0xbb, 0xa8, 0xac, 0x68, 0x3e, 0x9c, 0x25, 0xab, 0xbe, 0x2a, 0x04, 0x4e, 0xbe,
  0xa4, 0x2d, 0x98, 0xbf, 0x59, 0x14, 0xf9, 0x3e, 0x95, 0xff, 0x51, 0xbf, 0xea,
  0x0a, 0x42, 0xbf, 0xe5, 0x97, 0x2f, 0xbf, 0x94, 0x27, 0x0b, 0xbe, 0xab, 0x5f,
  0x3c, 0xbb, 0xab, 0x54, 0xbc, 0x3d, 0x2d, 0xbd, 0x97, 0x3c, 0x25, 0x82, 0xcb,
  0x3d, 0x34, 0x39, 0x42, 0xbe, 0xe4, 0x16, 0x68, 0xbe, 0xc4, 0xb2, 0xd5, 0x3e,
  0x62, 0x72, 0xec, 0x3e, 0x21, 0xe8, 0x91, 0x3d, 0x58, 0x53, 0x6e, 0x3d, 0x17,
  0x0b, 0xf1, 0xbd, 0x9a, 0xe2, 0xff, 0xff, 0x04, 0x00, 0x00, 0x00, 0xd0, 0x02,
  0x00, 0x00, 0xa0, 0xde, 0xa1, 0xbe, 0xa2, 0xef, 0xf5, 0x3d, 0x63, 0x4c, 0x82,
  0xbe, 0x41, 0x6f, 0xa3, 0x3d, 0x0b, 0xa2, 0xc0, 0x3f, 0xf4, 0x08, 0xc0, 0xbd,
  0x4c, 0x58, 0xfa, 0xbd, 0x08, 0x28, 0x03, 0x3d, 0xa7, 0x32, 0x29, 0x3e, 0x88,
  0x98, 0x55, 0xbf, 0xf4, 0xc9, 0xb7, 0xbe, 0xf8, 0xfc, 0xd2, 0xbe, 0xf4, 0x7a,
  0x81, 0xbe, 0xee, 0x2c, 0x1a, 0x3f, 0x91, 0xb3, 0x29, 0x3f, 0xfd, 0xca, 0xa4,
  0xbe, 0xd3, 0x6b, 0xd5, 0x3c, 0xfd, 0xe8, 0x6b, 0xbf, 0x55, 0xb1, 0x80, 0xbe,
  0x62, 0x27, 0x96, 0x3d, 0x61, 0xbb, 0xc4, 0x3f, 0x30, 0x8b, 0x8c, 0x3f, 0x95,
  0x4d, 0x04, 0x3e, 0xc6, 0x1d, 0x5e, 0x3f, 0x00, 0x10, 0x81, 0xbe, 0x40, 0xc7,
  0xab, 0xbf, 0xa6, 0x6e, 0xcf, 0x3d, 0xdf, 0xc0, 0xb8, 0x3e, 0x11, 0xe3, 0xc7,
  0xbe, 0xc1, 0x97, 0xda, 0xbe, 0xad, 0xd7, 0xa9, 0x3d, 0xf5, 0xe5, 0xfc, 0x3e,
  0x54, 0x38, 0x91, 0x3e, 0x46, 0x65, 0xf3, 0x3e, 0xce, 0xd2, 0x88, 0xbe, 0xe7,
  0x95, 0xb4, 0xbe, 0x48, 0x00, 0x06, 0x3e, 0xba, 0x54, 0x55, 0x3f, 0xfb, 0xad,
  0x0b, 0x3f, 0x0f, 0x11, 0x57, 0xbf, 0xbf, 0x60, 0xdc, 0x3e, 0x4e, 0x39, 0x65,
  0xbf, 0x35, 0xe4, 0xba, 0xbe, 0xfa, 0xf8, 0x0a, 0x3f, 0x27, 0x22, 0xb0, 0xbe,
  0x55, 0xb2, 0x0a, 0xbe, 0x71, 0x23, 0xf3, 0xbd, 0x4f, 0xfa, 0xb2, 0x3d, 0xc5,
  0x25, 0xe3, 0x3d, 0x41, 0x21, 0x0b, 0xbe, 0x0a, 0x97, 0x92, 0x3e, 0xba, 0xfe,
  0x91, 0x3f, 0x9b, 0x73, 0x88, 0x3f, 0xe8, 0x49, 0x79, 0xbe, 0x17, 0xcf, 0x5f,
  0x3f, 0xa5, 0x70, 0x36, 0xbf, 0x3a, 0xc1, 0x85, 0x3e, 0xce, 0x4d, 0x09, 0x3f,
  0x51, 0x22, 0x09, 0xbf, 0x08, 0x0a, 0x99, 0x3f, 0x8d, 0xb1, 0x2e, 0x3e, 0x16,
  0x35, 0x72, 0x3e, 0x0d, 0x5d, 0xa9, 0x3e, 0x63, 0x36, 0x43, 0x3f, 0x17, 0x60,
  0x5c, 0x3d, 0x79, 0x56, 0xd2, 0xbe, 0xb2, 0x19, 0xe9, 0x3e, 0xcc, 0x8c, 0xca,
  0x3d, 0x69, 0xe8, 0xc0, 0x3e, 0x71, 0xf9, 0xf9, 0xbe, 0x9d, 0x3b, 0x3d, 0x3f,
  0xe2, 0x42, 0x1d, 0xbf, 0xfb, 0x27, 0x41, 0xbd, 0x78, 0x7d, 0x2d, 0x3f, 0x75,
  0xbc, 0x08, 0xbf, 0xf9, 0xf2, 0xeb, 0x3e, 0x92, 0x45, 0x7f, 0x3e, 0xa3, 0x05,
  0x36, 0x3e, 0xdc, 0xab, 0x18, 0x3d, 0xb6, 0x05, 0x11, 0x3f, 0xd4, 0x72, 0xcf,
  0x3d, 0x02, 0x08, 0x36, 0x3e, 0x81, 0x4c, 0x54, 0xbe, 0xfa, 0x8d, 0xcc, 0x3d,
  0x80, 0x12, 0xb3, 0xbe, 0xe0, 0xd1, 0x2c, 0x3f, 0x0e, 0xfe, 0x5d, 0x3f, 0xa2,
  0x92, 0xd5, 0xbe, 0xcf, 0x88, 0x8b, 0x3f, 0x09, 0x66, 0x42, 0x3f, 0xdf, 0x31,
  0x7f, 0xbd, 0x12, 0xb7, 0x47, 0xbf, 0xfa, 0x1c, 0xd1, 0xbf, 0xd1, 0xf3, 0x9f,
  0x3f, 0xf7, 0x34, 0xcf, 0xbe, 0x4d, 0x04, 0x7e, 0x3e, 0x5a, 0x8a, 0x84, 0x3f,
  0x8a, 0x5a, 0x26, 0xbe, 0xf3, 0x33, 0x20, 0x3f, 0xca, 0xaa, 0xde, 0x3e, 0x83,
  0x7b, 0x03, 0xbf, 0x29, 0xd2, 0x6a, 0xbf, 0x35, 0x2a, 0xed, 0xbc, 0xd4, 0xf3,
  0x31, 0x3f, 0xbc, 0x85, 0x14, 0x3e, 0x74, 0x78, 0x25, 0x3f, 0xe8, 0x8f, 0x8c,
  0x3e, 0x1d, 0x88, 0xd8, 0x3d, 0x5b, 0x54, 0xa5, 0xbd, 0x58, 0x03, 0x4f, 0x3e,
  0x61, 0xd5, 0x3a, 0x3f, 0xd4, 0x16, 0x2c, 0xbe, 0xb8, 0x1c, 0x90, 0x3e, 0xa5,
  0xd1, 0x69, 0xbe, 0x14, 0x84, 0x9f, 0xbc, 0x7e, 0x3c, 0x12, 0xbf, 0xaf, 0x08,
  0x4a, 0xbf, 0x44, 0xff, 0x02, 0x3f, 0x46, 0xa9, 0x7a, 0x3e, 0x9d, 0xf6, 0x4a,
  0x3e, 0x4f, 0xcf, 0x32, 0xbf, 0x24, 0xb4, 0x01, 0xbe, 0xb1, 0xf8, 0x08, 0xbe,
  0x87, 0x0c, 0xb1, 0xbe, 0xa4, 0x62, 0x91, 0xbe, 0x74, 0xee, 0x65, 0x3d, 0x70,
  0xd1, 0x14, 0x3e, 0x5c, 0x21, 0x39, 0x3f, 0x70, 0xb5, 0x9c, 0x3e, 0xa9, 0xa1,
  0xa3, 0xbd, 0x20, 0x47, 0x8f, 0xbe, 0xfb, 0xb2, 0x0b, 0xbf, 0x5e, 0xaf, 0x07,
  0x3e, 0x30, 0xc2, 0x80, 0xbe, 0xc8, 0x50, 0x94, 0xbb, 0xef, 0x00, 0xb3, 0x3d,
  0x22, 0x4e, 0xab, 0x3e, 0x30, 0xf2, 0x5d, 0x3d, 0xd4, 0xb6, 0x3b, 0xbe, 0x39,
  0x66, 0x9e, 0xbf, 0xaf, 0xc5, 0x88, 0xbe, 0xe0, 0xb7, 0x32, 0xbe, 0x2d, 0x2c,
  0x06, 0x3e, 0xb7, 0xf3, 0x26, 0x3e, 0x02, 0xe0, 0x8d, 0x3e, 0x83, 0x04, 0x0b,
  0xbb, 0xd9, 0x85, 0xe9, 0xbe, 0xd8, 0x75, 0x09, 0x3e, 0xf1, 0xa6, 0xba, 0xbe,
  0x99, 0xc7, 0xc9, 0xbe, 0xc9, 0xed, 0x7e, 0xbf, 0xb4, 0xf0, 0x00, 0xbf, 0x43,
  0x0b, 0x88, 0x3d, 0xdd, 0xad, 0x72, 0xbe, 0xcd, 0xb0, 0x8f, 0x3e, 0x73, 0xb9,
  0x74, 0x3f, 0x43, 0x4c, 0x95, 0x3f, 0x7b, 0x7c, 0x5d, 0xbe, 0x67, 0x97, 0xcc,
  0x3d, 0x42, 0x94, 0x3f, 0xbf, 0xe7, 0xd0, 0x01, 0xbf, 0x89, 0x1b, 0x16, 0x3f,
  0xc7, 0x4d, 0x2d, 0x3f, 0x4b, 0x41, 0x95, 0xbe, 0x01, 0x55, 0xa4, 0x3c, 0xf6,
  0xba, 0x02, 0x3e, 0x1a, 0x05, 0xec, 0xbe, 0x7a, 0xa3, 0x22, 0x3f, 0x5c, 0x0f,
  0x4b, 0x3f, 0x2f, 0xf4, 0x08, 0xbf, 0xb3, 0x88, 0x2c, 0x3e, 0x32, 0x7e, 0x4e,
  0x3f, 0x4f, 0x79, 0x31, 0xbe, 0x4f, 0xd4, 0xce, 0xbe, 0x82, 0xeb, 0x21, 0xbf,
  0x5a, 0x68, 0x1d, 0xbf, 0xd0, 0x96, 0x43, 0xbe, 0x7f, 0x9f, 0x37, 0xbf, 0x58,
  0x4e, 0xa7, 0x3e, 0x64, 0x47, 0xf1, 0x3d, 0x76, 0xe5, 0xff, 0xff, 0x04, 0x00,
  0x00, 0x00, 0x2c, 0x01, 0x00, 0x00, 0xc4, 0x75, 0xf7, 0xbd, 0x88, 0xa5, 0xb3,
  0x3d, 0x29, 0x62, 0x2a, 0xbf, 0x02, 0xdc, 0x06, 0x3f, 0x6a, 0x38, 0xb3, 0xbd,
  0xc3, 0xfe, 0xff, 0x3d, 0xd1, 0x71, 0x84, 0xbe, 0xe4, 0x67, 0xca, 0x3e, 0x66,
  0x60, 0xb8, 0x3e, 0xa5, 0x72, 0x0f, 0x3e, 0xfc, 0x93, 0xd2, 0xbd, 0x89, 0xfa,
  0xc7, 0xbe, 0x6a, 0x68, 0xa5, 0xbe, 0xeb, 0x4d, 0x65, 0x3d, 0xe3, 0xab, 0xf7,
  0xbc, 0xa9, 0x99, 0xca, 0xbd, 0x86, 0xc8, 0x8b, 0x3e, 0xb6, 0x50, 0xb7, 0xbe,
  0x67, 0x68, 0x16, 0x3f, 0x3b, 0x85, 0x0d, 0x3d, 0xfb, 0x95, 0x56, 0x3e, 0x5d,
  0x7a, 0x88, 0xbe, 0xef, 0x36, 0xb8, 0xbc, 0xe8, 0x5c, 0x81, 0x3e, 0x6b, 0x19,
  0xe7, 0x3e, 0xca, 0x1b, 0xa0, 0xbd, 0x84, 0x46, 0xb8, 0xbe, 0xce, 0xad, 0x01,
  0xbf, 0x47, 0x80, 0x4b, 0xbe, 0xe0, 0x75, 0x41, 0xbe, 0x14, 0xd6, 0x62, 0xbe,
  0xf2, 0xe4, 0xc5, 0xbe, 0x97, 0x39, 0x70, 0x3e, 0x1d, 0x5a, 0x7a, 0x3d, 0xe0,
  0x8d, 0x17, 0x3f, 0xd6, 0xe5, 0xc7, 0x3e, 0x05, 0x71, 0x57, 0xbe, 0xca, 0xf7,
  0x19, 0xbf, 0x2b, 0x8d, 0xa6, 0x3e, 0xf8, 0x50, 0x51, 0x3e, 0xac, 0x2b, 0x84,
  0xbe, 0x19, 0xa6, 0x2d, 0x3e, 0xf3, 0xfb, 0xa5, 0xbd, 0xae, 0x7f, 0x3a, 0xbe,
  0x0f, 0x18, 0x23, 0xbf, 0x2a, 0xd8, 0xb6, 0xbe, 0xa0, 0x8e, 0x4c, 0x3d, 0x9d,
  0x29, 0xa0, 0x3d, 0x03, 0x7f, 0x94, 0xbc, 0xb1, 0x12, 0xf1, 0x3d, 0xd4, 0xf4,
  0xc0, 0x3e, 0xb6, 0x16, 0x49, 0xbe, 0x79, 0x35, 0xa5, 0xbc, 0xfb, 0xa3, 0xcc,
  0xbc, 0xaf, 0x12, 0xc8, 0x3d, 0x18, 0x9a, 0x7a, 0xbe, 0x83, 0x9b, 0xef, 0x3d,
  0x36, 0xd2, 0x82, 0xbc, 0xe9, 0xc2, 0x0a, 0xbf, 0x50, 0xd3, 0x8c, 0x3d, 0x89,
  0x5a, 0x82, 0xbb, 0x97, 0x4f, 0xca, 0x3e, 0x5c, 0x60, 0xbd, 0x3c, 0xb2, 0x34,
  0x54, 0x3c, 0x93, 0xaa, 0x10, 0x3b, 0x7c, 0x10, 0x0a, 0x3e, 0x4a, 0x3d, 0xbf,
  0xbd, 0xf4, 0xc5, 0x22, 0x3d, 0x6a, 0xbc, 0xd5, 0xbd, 0x9a, 0x85, 0xba, 0xbd,
  0x7c, 0x8f, 0x22, 0xbe, 0xee, 0x57, 0x38, 0xbd, 0xac, 0x7b, 0xfa, 0xbd, 0x42,
  0xd3, 0xa9, 0xbd, 0x91, 0x1a, 0x20, 0x3d, 0xae, 0xe6, 0xff, 0xff, 0x04, 0x00,
  0x00, 0x00, 0x2c, 0x01, 0x00, 0x00, 0x1b, 0x87, 0xd7, 0x3d, 0x2b, 0x77, 0x54,
  0x3e, 0xd0, 0xed, 0x68, 0xb7, 0x0a, 0x47, 0x93, 0x3d, 0x56, 0xaf, 0x37, 0xbe,
  0xf2, 0xce, 0x19, 0x3d, 0x2d, 0x7f, 0x5b, 0x3e, 0xb6, 0x46, 0x7f, 0x3d, 0xf1,
  0x2d, 0x81, 0x3e, 0x93, 0x99, 0x0f, 0x3e, 0x3f, 0xca, 0x7a, 0xbd, 0x79, 0x91,
  0x40, 0xbe, 0x73, 0x8c, 0x0c, 0xbe, 0x98, 0x47, 0xa1, 0xbc, 0x6c, 0xf8, 0xd1,
  0xbd, 0x61, 0x2c, 0x52, 0x3d, 0x0e, 0xfe, 0xab, 0xbc, 0x16, 0xe0, 0xe4, 0x3d,
  0x72, 0x2f, 0x18, 0xbe, 0xe3, 0x01, 0xd5, 0x3d, 0x31, 0xa0, 0x22, 0x3e, 0x35,
  0x5e, 0xd7, 0x3c, 0xe2, 0x67, 0x3c, 0xbc, 0x91, 0x05, 0x0f, 0xbf, 0x6f, 0x83,
  0x4f, 0x3e, 0x38, 0x05, 0x00, 0x3d, 0xe5, 0x57, 0x14, 0x3e, 0xfa, 0xd5, 0x8d,
  0x3e, 0x5a, 0x93, 0xc8, 0xbd, 0x3d, 0x32, 0xd1, 0x3d, 0x81, 0xb7, 0x10, 0x3f,
  0x96, 0x4c, 0x1a, 0x3f, 0xfc, 0x70, 0x2a, 0xbe, 0xe2, 0x5e, 0x6c, 0xbf, 0xec,
  0x5e, 0x5d, 0x3f, 0x3a, 0x3e, 0xef, 0x3e, 0x12, 0xbf, 0x1a, 0x3e, 0x79, 0xd0,
  0x0f, 0xbe, 0xf5, 0x9e, 0x93, 0xbc, 0xe7, 0x59, 0x0c, 0x3f, 0xc9, 0x19, 0x5e,
  0x3f, 0xc9, 0x87, 0x0c, 0x3f, 0xb9, 0xc9, 0x41, 0x3e, 0x1d, 0x0d, 0x20, 0x3f,
  0x56, 0x77, 0x7e, 0xbe, 0x47, 0x0a, 0x8a, 0x3e, 0xdc, 0xfd, 0x10, 0xbe, 0xf1,
  0x5a, 0x07, 0xbf, 0xac, 0x4d, 0x1b, 0x3d, 0x27, 0x0e, 0xd7, 0x3d, 0x7e, 0x64,
  0x9e, 0x3e, 0x4f, 0xe8, 0x25, 0x3e, 0xbc, 0x58, 0x29, 0xbf, 0xc3, 0x00, 0x10,
  0xbf, 0x2d, 0x72, 0xc8, 0xbd, 0xdd, 0xd9, 0xa0, 0xbe, 0xe9, 0x95, 0x4c, 0xbe,
  0x2d, 0xd2, 0x92, 0x3e, 0xbf, 0xad, 0x88, 0x3e, 0x79, 0xd7, 0x04, 0xbf, 0x51,
  0x76, 0x30, 0xbe, 0x7f, 0x5f, 0xd1, 0x3d, 0xd8, 0x9f, 0x2d, 0xbd, 0xd0, 0xdd,
  0x97, 0x3e, 0xe9, 0x29, 0xb5, 0xbc, 0xa9, 0x8a, 0x99, 0x3e, 0x78, 0x04, 0x54,
  0x3e, 0x72, 0x08, 0x29, 0x3e, 0x07, 0x13, 0x0c, 0x3c, 0x14, 0x15, 0x1f, 0x3e,
  0xe8, 0xe3, 0xcc, 0xbd, 0x92, 0x3f, 0x13, 0xbd, 0x7d, 0x29, 0x03, 0x3f, 0x5a,
  0x7a, 0x31, 0x3d, 0x12, 0x74, 0xa6, 0x3c, 0xe6, 0xe7, 0xff, 0xff, 0x04, 0x00,
  0x00, 0x00, 0xb0, 0x04, 0x00, 0x00, 0x09, 0x5f, 0x94, 0x3e, 0xf4, 0x1f, 0x10,
  0xbe, 0x3d, 0xe6, 0xa7, 0x3f, 0x0c, 0xa9, 0x56, 0x3f, 0xe3, 0xac, 0x5c, 0x3e,
  0x08, 0x6a, 0x77, 0x3f, 0x0e, 0x78, 0x47, 0xbe, 0x21, 0x5b, 0x56, 0x3f, 0x70,
  0x1f, 0xfb, 0x3d, 0x40, 0x20, 0x54, 0xbd, 0x44, 0x5b, 0x70, 0xbe, 0x74, 0xdd,
  0x07, 0xbe, 0xaa, 0xd6, 0x1d, 0xbf, 0xc9, 0x65, 0x5b, 0x3f, 0xed, 0x26, 0x1a,
  0xbf, 0xee, 0xb2, 0x06, 0x3f, 0x2b, 0xf7, 0x6c, 0xbe, 0xab, 0x49, 0x34, 0xbf,
  0xc9, 0x6f, 0x53, 0x3e, 0x32, 0x86, 0x89, 0x3f, 0x96, 0x85, 0xe7, 0x3c, 0xfb,
  0x9c, 0x0d, 0x3f, 0x38, 0x9a, 0xd7, 0xbe, 0x20, 0xa5, 0x88, 0xbf, 0x68, 0x9c,
  0x78, 0x3c, 0x09, 0x84, 0xd0, 0xbe, 0x8f, 0x45, 0x32, 0xbe, 0xde, 0xb8, 0x12,
  0x3f, 0xf7, 0x8d, 0x60, 0x3f, 0xe2, 0x1c, 0xb3, 0x3b, 0x10, 0x98, 0xdf, 0x3e,
  0xc5, 0xbd, 0x00, 0xbe, 0x00, 0x00, 0xa9, 0xbe, 0xb5, 0x7d, 0xfa, 0x3e, 0xdb,
  0x1c, 0x53, 0x3f, 0x2d, 0x28, 0x4d, 0xbf, 0xca, 0x78, 0x5b, 0xbf, 0xff, 0x66,
  0x22, 0x3f, 0x84, 0xfc, 0x6a, 0x3e, 0x23, 0x8f, 0x9f, 0x3d, 0x1b, 0x4d, 0xde,
  0xbc, 0x16, 0xfb, 0x7a, 0xbe, 0xf4, 0x9b, 0x1f, 0xbc, 0x45, 0xfd, 0x35, 0x3f,
  0xc4, 0xb9, 0x64, 0xbf, 0xf8, 0x82, 0xb6, 0x3f, 0x5b, 0x95, 0x27, 0x3d, 0xba,
  0x69, 0xd6, 0x3e, 0x47, 0x77, 0x3f, 0xbf, 0x31, 0xa0, 0x4a, 0x3f, 0x40, 0x7c,
  0x5c, 0x3f, 0xc9, 0x02, 0xc3, 0x3d, 0x4e, 0x31, 0xc0, 0x3e, 0x5d, 0x1f, 0xda,
  0xbf, 0x72, 0xfc, 0x0a, 0xbe, 0xd4, 0x05, 0x09, 0x3f, 0xab, 0xaa, 0x4d, 0x3d,
  0x76, 0xb7, 0x93, 0x3f, 0x92, 0xbb, 0x3a, 0xbf, 0x31, 0x51, 0x47, 0xbf, 0x5d,
  0xb6, 0xca, 0x3e, 0x87, 0x4d, 0xff, 0x3b, 0xd6, 0x0d, 0x82, 0xbf, 0x02, 0x3f,
  0x20, 0x3f, 0x62, 0x4a, 0x76, 0x3e, 0xfb, 0xc3, 0xb3, 0x3f, 0x0d, 0x05, 0x27,
  0x3f, 0xd3, 0xf2, 0x69, 0xbf, 0xc6, 0x68, 0x8a, 0x3e, 0x5a, 0x90, 0xd2, 0x3e,
  0x3f, 0xe4, 0x09, 0xbf, 0xfe, 0x16, 0x44, 0xbd, 0xf4, 0x18, 0xc4, 0x3c, 0x89,
  0x4c, 0xd8, 0x3c, 0xad, 0xfc, 0x40, 0xbd, 0xb6, 0xc9, 0xd0, 0x3e, 0xde, 0x9a,
  0xf0, 0xbd, 0x10, 0xce, 0x45, 0x3d, 0xf8, 0x84, 0x3c, 0x3f, 0x11, 0x98, 0x94,
  0xbc, 0xd1, 0x51, 0x9d, 0x3f, 0x1f, 0x2b, 0x0b, 0x3f, 0xd0, 0xad, 0x02, 0xbf,
  0xf2, 0xfb, 0x0a, 0xc0, 0xe3, 0x71, 0xe3, 0xbe, 0xdd, 0x45, 0x2a, 0x3f, 0x68,
  0x77, 0xa3, 0xbf, 0x2a, 0x7f, 0x04, 0x3f, 0x58, 0x8f, 0x8f, 0x3e, 0x9a, 0x62,
  0x9c, 0xbd, 0x5f, 0x75, 0x61, 0xbe, 0x14, 0xce, 0xc5, 0x3e, 0xe2, 0x1d, 0x91,
  0x3e, 0x1c, 0x2c, 0x1e, 0x3f, 0xe6, 0x91, 0x76, 0x3f, 0xb2, 0xf1, 0x41, 0xbd,
  0x56, 0xeb, 0x92, 0x3e, 0x19, 0x7a, 0x84, 0x3f, 0x80, 0x50, 0xbf, 0x3f, 0x74,
  0x64, 0xfd, 0x3e, 0x2f, 0xab, 0x02, 0xbf, 0xbb, 0x8e, 0xc3, 0xbd, 0x2f, 0x12,
  0x55, 0x3f, 0xc6, 0xa0, 0x82, 0x3e, 0x8d, 0x26, 0x87, 0xbf, 0x20, 0x7c, 0xec,
  0xbe, 0x6a, 0x50, 0x91, 0xbe, 0x6e, 0xdb, 0x59, 0x3e, 0xb3, 0xe7, 0x99, 0x3f,
  0xe1, 0x3e, 0x09, 0xbe, 0x63, 0xd2, 0x7f, 0x3f, 0x7e, 0x2f, 0x8c, 0xbe, 0x7d,
  0x03, 0x37, 0xbf, 0x65, 0xc6, 0x13, 0x3f, 0xb2, 0x27, 0x93, 0xbe, 0x28, 0x1b,
  0x51, 0xbf, 0x9e, 0x8c, 0x55, 0x3f, 0xfd, 0x38, 0x9e, 0xbe, 0x35, 0x83, 0xe1,
  0x3e, 0x9b, 0x3a, 0xb4, 0x3e, 0x24, 0x62, 0x6f, 0xbd, 0x88, 0x5f, 0x08, 0x3f,
  0x82, 0xe2, 0x14, 0x3f, 0x77, 0xcc, 0x35, 0xbf, 0x7d, 0x21, 0xc2, 0xbe, 0x70,
  0x30, 0x68, 0xbf, 0x1c, 0x0b, 0x2e, 0xbd, 0xe7, 0xeb, 0xab, 0x3e, 0xb7, 0x4b,
  0x71, 0x3e, 0x05, 0xbd, 0x24, 0x3e, 0x75, 0x1f, 0x07, 0x3e, 0xe4, 0x3f, 0x94,
  0xbd, 0x74, 0x73, 0x6f, 0xbf, 0xb6, 0x2a, 0x2d, 0x3e, 0xb4, 0xe1, 0x72, 0xbf,
  0x17, 0x36, 0xf3, 0xbf, 0xac, 0xea, 0x28, 0xbf, 0x29, 0x77, 0xcb, 0xbd, 0xfd,
  0xb3, 0x8d, 0xbe, 0x47, 0xb7, 0x11, 0xbd, 0x04, 0x7a, 0x42, 0xbd, 0x7c, 0xcd,
  0x16, 0x3f, 0x99, 0x11, 0xe5, 0xbe, 0x27, 0x5b, 0x61, 0x3f, 0xd8, 0x42, 0xcf,
  0x3e, 0x1e, 0xd4, 0xb4, 0xbc, 0xb0, 0x42, 0x07, 0x3e, 0x83, 0x86, 0x64, 0x3e,
  0x0b, 0xf4, 0x74, 0x3e, 0x87, 0xb4, 0x30, 0xbf, 0x6c, 0x69, 0xb7, 0x3c, 0x98,
  0xdf, 0x12, 0x3f, 0xbf, 0xaf, 0x16, 0x3f, 0x07, 0x89, 0x28, 0x3f, 0xc3, 0x68,
  0x11, 0x3f, 0xe2, 0x67, 0x1b, 0xbf, 0xf8, 0xda, 0xc4, 0x3e, 0x9e, 0x2c, 0x48,
  0x3f, 0x92, 0x6e, 0x0b, 0xbf, 0x76, 0x6c, 0x38, 0xbf, 0x97, 0xaa, 0x9d, 0xbe,
  0xc6, 0x14, 0x1a, 0xbe, 0xbb, 0x70, 0xec, 0x3e, 0xb5, 0x66, 0x72, 0xbf, 0x3e,
  0xc5, 0x96, 0x3e, 0x91, 0x2b, 0xc1, 0xbf, 0x88, 0x00, 0xa8, 0x3e, 0x5b, 0xa3,
  0x2d, 0xbe, 0x34, 0x01, 0x60, 0xbd, 0x77, 0xd0, 0xb4, 0xbf, 0x17, 0x9d, 0x76,
  0x3f, 0x53, 0x3a, 0x5d, 0x3f, 0xdb, 0xb5, 0xc6, 0x3e, 0xac, 0xe6, 0xce, 0x3e,
  0x59, 0x83, 0x9c, 0xbf, 0xa3, 0x57, 0xaf, 0x3f, 0xf2, 0xb1, 0x9f, 0xbe, 0x3e,
  0x45, 0x1a, 0xbf, 0x83, 0x42, 0xd8, 0x3f, 0x1e, 0x15, 0xb4, 0xbf, 0x57, 0x56,
  0x66, 0x3f, 0x76, 0x12, 0xd8, 0x3e, 0xc0, 0x1b, 0x12, 0x3e, 0xbf, 0xba, 0xd8,
  0x3f, 0x45, 0x8d, 0x04, 0xbc, 0x6e, 0x40, 0x9a, 0x3e, 0xcc, 0x74, 0x02, 0x3e,
  0xa3, 0x34, 0x80, 0xbd, 0x36, 0xcc, 0xa0, 0x3f, 0x50, 0x63, 0xe2, 0x3e, 0x7a,
  0x5a, 0x96, 0xbf, 0x22, 0x09, 0x0f, 0xbf, 0xd5, 0x75, 0x08, 0xbe, 0x59, 0xb8,
  0x90, 0xbf, 0xf3, 0x97, 0x52, 0x3f, 0x55, 0xf5, 0xa5, 0xbe, 0x07, 0xf3, 0x69,
  0x3e, 0x70, 0xcf, 0xfc, 0x3e, 0x8c, 0xad, 0xf4, 0x3e, 0x1f, 0xf2, 0xe4, 0xbe,
  0x03, 0x92, 0x6d, 0x3f, 0x34, 0x76, 0xa6, 0xbd, 0xc4, 0x20, 0x14, 0xbf, 0xa9,
  0xc4, 0x59, 0x3f, 0x1d, 0x9a, 0xa7, 0x3e, 0xa8, 0xf8, 0x1b, 0x3e, 0xb9, 0x1d,
  0x32, 0x3e, 0xf1, 0x49, 0x48, 0x3f, 0x9d, 0x96, 0x11, 0xbf, 0xb6, 0x68, 0xd4,
  0xbe, 0x25, 0xd3, 0xb2, 0x3e, 0x2c, 0x06, 0x83, 0xbf, 0x9a, 0x8b, 0x14, 0xbe,
  0x75, 0x4a, 0xbd, 0xbd, 0xbc, 0x2c, 0x55, 0xbe, 0xf1, 0x36, 0x93, 0x3f, 0xe9,
  0x79, 0xd7, 0x3f, 0x87, 0x54, 0xd0, 0x3e, 0x11, 0xfe, 0x10, 0x3e, 0x98, 0xd2,
  0xcf, 0x3c, 0xa7, 0xbe, 0x10, 0xbf, 0x9e, 0xdf, 0xbb, 0x3e, 0x13, 0x0b, 0xb2,
  0xbf, 0x0a, 0xf3, 0xb9, 0x3e, 0x68, 0x27, 0x68, 0xbe, 0x2c, 0x0f, 0x00, 0xbf,
  0x0a, 0x46, 0xce, 0x3e, 0xfb, 0xb6, 0x0c, 0x3e, 0x9f, 0xfe, 0x04, 0x3f, 0xd8,
  0xc9, 0x8e, 0x3f, 0xc3, 0x4e, 0x61, 0xbf, 0xb6, 0x6e, 0xde, 0x3e, 0x72, 0x75,
  0x20, 0xbe, 0xaa, 0x0e, 0xc7, 0xbd, 0x26, 0x2d, 0x55, 0xbf, 0x1c, 0xb7, 0x71,
  0x3d, 0x67, 0x97, 0x81, 0x3e, 0x4e, 0x65, 0x16, 0x3e, 0x86, 0x9c, 0x11, 0x3f,
  0x67, 0x93, 0x5a, 0xbf, 0x78, 0x9b, 0xa7, 0x3f, 0x36, 0xa1, 0x6f, 0xbe, 0xda,
  0xf9, 0x3c, 0x3e, 0xfa, 0xae, 0xb8, 0xbe, 0x25, 0xfa, 0xe5, 0xbe, 0xcf, 0x42,
  0x2e, 0x3f, 0x33, 0x74, 0x13, 0x3d, 0x20, 0x1d, 0x92, 0x3e, 0x5b, 0xb4, 0xa3,
  0xbe, 0x56, 0xf9, 0xd8, 0xbe, 0x19, 0x97, 0x47, 0xbf, 0x62, 0x52, 0x69, 0xbe,
  0x20, 0x45, 0xc1, 0xbd, 0x78, 0xde, 0x40, 0x3f, 0xc1, 0x3e, 0xf6, 0xbe, 0x20,
  0x7f, 0xbe, 0xbc, 0x0d, 0xce, 0x95, 0x3e, 0x6b, 0xb9, 0x84, 0xbe, 0x5f, 0x33,
  0xa8, 0xbf, 0x08, 0x61, 0x07, 0xbe, 0x74, 0xc7, 0xdc, 0xbc, 0xa5, 0x92, 0x82,
  0xbf, 0x13, 0x7d, 0x95, 0x3e, 0x2d, 0x13, 0x09, 0xc0, 0x2c, 0x90, 0x83, 0xbf,
  0x65, 0x21, 0x89, 0x3e, 0x46, 0xc5, 0xa3, 0x3d, 0x6b, 0x5b, 0x14, 0xbf, 0xf0,
  0x18, 0xa8, 0x3f, 0xdb, 0xfd, 0x16, 0xbe, 0xd4, 0x1d, 0xa3, 0x3e, 0x57, 0x94,
  0xea, 0x3d, 0xe3, 0x76, 0x77, 0xbc, 0x3b, 0xd8, 0xa3, 0x3d, 0xc3, 0xca, 0x29,
  0xbf, 0x4c, 0xb4, 0x02, 0xbf, 0xc0, 0xc0, 0x52, 0xbf, 0xab, 0x96, 0xed, 0xbd,
  0x38, 0xbd, 0xb2, 0xbf, 0x08, 0xe0, 0x88, 0x3e, 0x18, 0xf4, 0x24, 0xbf, 0x36,
  0x56, 0x40, 0x3e, 0xd2, 0x0b, 0xad, 0x3d, 0x26, 0xd5, 0x31, 0x3f, 0x83, 0x87,
  0x2f, 0x3c, 0xa1, 0x5d, 0xda, 0xbc, 0x75, 0xbc, 0xf3, 0xbe, 0xf6, 0x8b, 0x7a,
  0xbd, 0x4d, 0x20, 0x15, 0x3f, 0x33, 0x86, 0xce, 0x3f, 0x11, 0x1f, 0x13, 0x40,
  0xe1, 0x44, 0xe6, 0x3d, 0x7e, 0xf4, 0x3b, 0x3e, 0x16, 0x8e, 0x8d, 0x3e, 0x12,
  0x9b, 0x4e, 0xbf, 0x63, 0x46, 0x01, 0x40, 0xa4, 0x5f, 0xcb, 0xbd, 0xbc, 0x33,
  0xd6, 0xbe, 0x34, 0x65, 0x2e, 0xbe, 0x20, 0xa1, 0x0d, 0xbf, 0xa2, 0xec, 0xff,
  0xff, 0x04, 0x00, 0x00, 0x00, 0x90, 0x01, 0x00, 0x00, 0x23, 0xe9, 0xfb, 0x3e,
  0x2c, 0xae, 0x96, 0xbe, 0x92, 0x1c, 0x4d, 0xbf, 0xcf, 0x94, 0xd1, 0x3e, 0x78,
  0x5c, 0xf0, 0xbe, 0x91, 0xae, 0x92, 0xbe, 0x6f, 0x96, 0x36, 0x3b, 0xbe, 0x74,
  0xb3, 0xbe, 0x7b, 0x03, 0x40, 0xbf, 0xa8, 0xf0, 0xab, 0xbe, 0xf3, 0x6c, 0xb0,
  0xbf, 0x1f, 0x53, 0x9e, 0x3d, 0xda, 0xe8, 0x58, 0x3c, 0xb9, 0x54, 0x0d, 0x3e,
  0xb2, 0x91, 0x33, 0xbd, 0x62, 0x4a, 0xbf, 0x3e, 0x53, 0x9a, 0x2f, 0xbf, 0xe1,
  0x12, 0x55, 0x3d, 0x6d, 0xdc, 0x2a, 0x3e, 0xa8, 0xe7, 0x1d, 0xbd, 0xfc, 0x97,
  0x89, 0xbe, 0x70, 0xac, 0x6a, 0x3e, 0x1d, 0x33, 0x0e, 0x3f, 0xe3, 0x12, 0xf0,
  0xbe, 0x07, 0xe3, 0x10, 0x3f, 0xdf, 0xd7, 0xe0, 0x3e, 0x74, 0xa2, 0xb8, 0x3c,
  0xb2, 0xea, 0x36, 0x3f, 0x86, 0xb0, 0xda, 0x3e, 0xe4, 0x7c, 0x08, 0x3e, 0x9f,
  0xcd, 0xe1, 0xbe, 0xa2, 0x66, 0x9f, 0x3e, 0xa7, 0x7b, 0xb3, 0xbe, 0xf9, 0x77,
  0x36, 0xbe, 0x60, 0xa0, 0x90, 0x3d, 0x02, 0x81, 0x2b, 0xbf, 0xa0, 0x68, 0xca,
  0x3e, 0xe0, 0x22, 0x98, 0x3e, 0x73, 0x29, 0x8a, 0x3e, 0xd1, 0x54, 0x58, 0xbf,
  0x66, 0x7b, 0x46, 0x3f, 0x24, 0xca, 0x4d, 0x3f, 0x3e, 0x01, 0x77, 0x3f, 0x21,
  0xe3, 0x02, 0x40, 0x67, 0x6c, 0x05, 0x3f, 0xdf, 0xad, 0xa7, 0xbe, 0xea, 0xce,
  0xda, 0x3e, 0x58, 0xae, 0x4a, 0xbf, 0x11, 0x37, 0xa6, 0xbd, 0x13, 0xdc, 0xd4,
  0x3e, 0x80, 0xa4, 0xed, 0x3e, 0x25, 0xf1, 0xb0, 0xbd, 0x1a, 0xbc, 0x0e, 0xbe,
  0x6e, 0xe0, 0x5f, 0xbe, 0x3f, 0xa2, 0x8c, 0xbe, 0xcd, 0x82, 0x2b, 0x3f, 0xcb,
  0x59, 0x1e, 0x3f, 0x13, 0x8a, 0x8f, 0xbf, 0x24, 0x8b, 0xdc, 0x3f, 0xaf, 0x67,
  0xcd, 0xbd, 0xe8, 0x10, 0x08, 0x3f, 0x15, 0xc3, 0x0a, 0x3d, 0x4e, 0x55, 0xa8,
  0xbd, 0x3a, 0x88, 0x0b, 0x3f, 0xa3, 0xc8, 0x13, 0xbe, 0x1e, 0x15, 0x27, 0xbd,
  0xa4, 0x47, 0x81, 0xbd, 0x5f, 0xc9, 0xa0, 0x3e, 0x78, 0x98, 0x90, 0x3e, 0xdf,
  0x49, 0xf8, 0x3e, 0x9d, 0x52, 0xa5, 0xbe, 0xeb, 0xa0, 0xab, 0x3d, 0x3e, 0x76,
  0x32, 0xbd, 0x47, 0xa9, 0x9f, 0xbe, 0x56, 0x8b, 0xbd, 0xbe, 0x8d, 0x47, 0x86,
  0x3e, 0x06, 0x82, 0xaa, 0xbe, 0xf0, 0x7a, 0x31, 0x3f, 0xdd, 0xef, 0x6e, 0xbd,
  0x7f, 0x9e, 0xa4, 0x3d, 0x13, 0x2f, 0x03, 0x3f, 0x64, 0x56, 0x43, 0x3e, 0xd1,
  0xf1, 0xa2, 0xbe, 0x28, 0xb8, 0xd2, 0x3f, 0xbc, 0x1d, 0xd4, 0xbe, 0x81, 0x84,
  0x90, 0x3f, 0x06, 0x03, 0x82, 0x3e, 0x30, 0x8f, 0x1d, 0x3d, 0x77, 0x82, 0xf6,
  0x3d, 0x4d, 0x0f, 0x18, 0xbe, 0x0f, 0x32, 0xca, 0x3e, 0x35, 0x0d, 0x2b, 0x3d,
  0x57, 0x0f, 0x0e, 0x3f, 0x94, 0x6b, 0x0a, 0x3c, 0xfc, 0xc9, 0x1d, 0x3f, 0x1b,
  0x1e, 0x0a, 0xbf, 0xc1, 0x87, 0xb9, 0x3d, 0x86, 0x65, 0x94, 0x3d, 0x4b, 0xe1,
  0x75, 0xbf, 0x94, 0xe4, 0xe1, 0x3e, 0x3e, 0xee, 0xff, 0xff, 0x04, 0x00, 0x00,
  0x00, 0x50, 0x00, 0x00, 0x00, 0x00, 0x00, 0x00, 0x00, 0x00, 0x00, 0x00, 0x00,
  0x00, 0x00, 0x00, 0x00, 0x00, 0x00, 0x00, 0x00, 0x00, 0x00, 0x00, 0x00, 0x00,
  0x00, 0x00, 0x00, 0x00, 0x00, 0x00, 0x00, 0x00, 0x00, 0x00, 0x00, 0x00, 0x00,
  0x00, 0x00, 0x00, 0x00, 0x00, 0x00, 0x00, 0x00, 0x00, 0x00, 0x00, 0x00, 0x00,
  0x00, 0x00, 0x00, 0x00, 0x00, 0x00, 0x00, 0x00, 0x00, 0x00, 0x00, 0x00, 0x00,
  0x00, 0x00, 0x00, 0x00, 0x00, 0x00, 0x00, 0x00, 0x00, 0x00, 0x00, 0x00, 0x00,
  0x00, 0x00, 0x00, 0x00, 0x00, 0x00, 0x00, 0x9a, 0xee, 0xff, 0xff, 0x04, 0x00,
  0x00, 0x00, 0x90, 0x01, 0x00, 0x00, 0xc8, 0xa9, 0x8d, 0x3f, 0xdf, 0x2e, 0x95,
  0x3e, 0x14, 0x66, 0x85, 0xbe, 0x57, 0x2b, 0x98, 0xbe, 0x6d, 0x45, 0x0d, 0xbf,
  0x45, 0x8c, 0xcd, 0x3e, 0x21, 0xa2, 0x4a, 0x3f, 0xea, 0x19, 0x10, 0xbf, 0x98,
  0xe7, 0x86, 0x3e, 0x87, 0x9f, 0x43, 0x3d, 0x6c, 0xe5, 0xd0, 0xbe, 0x24, 0xd5,
  0xa8, 0x3e, 0x85, 0x07, 0xd0, 0x3e, 0x5e, 0x3a, 0x30, 0x3f, 0xea, 0x39, 0x2d,
  0x3f, 0xf5, 0x71, 0x11, 0x3f, 0x6c, 0x95, 0xe0, 0x3e, 0x11, 0x01, 0x5b, 0x3f,
  0xbe, 0x3b, 0x87, 0x3f, 0xc1, 0xf7, 0x38, 0x3f, 0x42, 0x67, 0x1a, 0xbf, 0x12,
  0x74, 0x2b, 0x3e, 0xab, 0x09, 0xfb, 0x3e, 0xef, 0xb3, 0x6c, 0x3f, 0x93, 0x10,
  0x73, 0x3f, 0x49, 0x23, 0x0c, 0xbe, 0xf3, 0x9c, 0x0f, 0xbe, 0x23, 0xf4, 0xa5,
  0x3e, 0x7e, 0x5f, 0x28, 0xbf, 0x71, 0xd7, 0x1b, 0xbf, 0xeb, 0xe4, 0x88, 0x3f,
  0x89, 0x72, 0x0c, 0xbc, 0xfc, 0xc0, 0x39, 0x3c, 0x91, 0x0b, 0xee, 0xbe, 0x34,
  0x42, 0x07, 0x3f, 0x10, 0xfa, 0x8b, 0xbe, 0x7e, 0x95, 0x3b, 0xbf, 0x06, 0xd2,
  0x40, 0xbf, 0xa4, 0x01, 0xda, 0xbe, 0xbb, 0x35, 0xc8, 0xbe, 0x1e, 0x55, 0x64,
  0xbe, 0x83, 0x5d, 0x5e, 0x3e, 0x52, 0xf5, 0xaf, 0x3e, 0x3c, 0xb3, 0x06, 0xbf,
  0x5b, 0x37, 0x05, 0x3f, 0x9b, 0x22, 0x80, 0x3f, 0x9e, 0xfb, 0xf1, 0xbe, 0x63,
  0x96, 0x0e, 0x3f, 0x65, 0xeb, 0xad, 0x3e, 0x42, 0x77, 0xa2, 0xbd, 0x97, 0x8a,
  0x25, 0x3f, 0x68, 0x43, 0x0a, 0x3d, 0x32, 0x38, 0xfa, 0x3e, 0x74, 0xff, 0x8a,
  0xbe, 0xf7, 0x8b, 0x0d, 0xbf, 0x54, 0x90, 0x73, 0xbf, 0x32, 0xbb, 0x8b, 0x3e,
  0xc8, 0xc3, 0x64, 0x3e, 0x2b, 0x80, 0xc9, 0x3d, 0x2f, 0x3f, 0x7b, 0xbe, 0xeb,
  0x98, 0x0e, 0xbe, 0x3a, 0x38, 0x4e, 0x3e, 0xbb, 0x34, 0x94, 0x3f, 0x80, 0xd5,
  0x1e, 0xbd, 0xd1, 0x1b, 0xa2, 0xbe, 0x24, 0x60, 0x89, 0x3f, 0x95, 0x82, 0x3a,
  0xbe, 0xdd, 0x22, 0x66, 0xbe, 0x4e, 0x35, 0x1f, 0xbe, 0x24, 0xef, 0x13, 0x3f,
  0x40, 0x79, 0xf7, 0xbe, 0x96, 0x94, 0x77, 0x3e, 0x9e, 0x8e, 0x01, 0x3f, 0x4d,
  0x61, 0x49, 0x3d, 0xac, 0x81, 0xde, 0xbe, 0x89, 0x18, 0xbb, 0x3e, 0x75, 0xc3,
  0xda, 0x3e, 0xc7, 0xe6, 0x2b, 0xbe, 0x00, 0x25, 0x1d, 0xbf, 0xa0, 0x1c, 0xdf,
  0xbe, 0x1a, 0xb4, 0x58, 0xbe, 0xad, 0xf5, 0x40, 0xbf, 0x1c, 0xc6, 0x53, 0x3f,
  0x47, 0x9d, 0xe1, 0xbd, 0x47, 0x05, 0x16, 0xba, 0xc6, 0x50, 0xa7, 0x3e, 0x49,
  0xd8, 0xf7, 0x3d, 0x4a, 0x50, 0x6a, 0x3e, 0x00, 0x88, 0x70, 0xbc, 0xea, 0xcd,
  0xa0, 0x3d, 0x99, 0xd3, 0xf6, 0xbe, 0x35, 0x44, 0x1b, 0xbf, 0xe3, 0xd6, 0x7e,
  0xbe, 0xcf, 0xac, 0x5a, 0x3d, 0x19, 0xd3, 0x09, 0xbe, 0x58, 0x70, 0xe4, 0x3e,
  0x0c, 0xe0, 0xfb, 0xbc, 0x84, 0x8f, 0x82, 0xbd, 0x49, 0x64, 0x75, 0x3e, 0x39,
  0xcd, 0x2e, 0xbf, 0x36, 0xf0, 0xff, 0xff, 0x04, 0x00, 0x00, 0x00, 0x84, 0x03,
  0x00, 0x00, 0x4c, 0xd5, 0x72, 0x3f, 0x5e, 0x6a, 0x95, 0xbe, 0x4b, 0x86, 0x7a,
  0xbe, 0x0f, 0x06, 0x51, 0xbd, 0xd4, 0xc8, 0x20, 0x3e, 0x9a, 0xca, 0x15, 0x3e,
  0x32, 0x0a, 0x19, 0x3e, 0xa0, 0xb1, 0x34, 0xbf, 0xf7, 0x3f, 0x11, 0xbf, 0xf1,
  0x62, 0xe1, 0x3d, 0x66, 0x7b, 0xbd, 0x3e, 0xed, 0x74, 0x77, 0xbe, 0x35, 0x78,
  0xec, 0xbe, 0xcd, 0x4d, 0xd0, 0x3f, 0x96, 0xb9, 0xae, 0x3e, 0x0a, 0x08, 0x2d,
  0xbf, 0x56, 0x8e, 0x93, 0xbf, 0x05, 0xcc, 0xb9, 0x3d, 0x47, 0xb1, 0x89, 0xbf,
  0xec, 0x30, 0x95, 0xbe, 0xdd, 0x7d, 0x96, 0xbe, 0x07, 0x79, 0xa6, 0xbe, 0xd3,
  0x83, 0x78, 0x3d, 0x84, 0x6f, 0xb5, 0x3e, 0xd3, 0xd5, 0x8b, 0x3f, 0xa7, 0x85,
  0xb4, 0x3d, 0x5d, 0x8d, 0x45, 0x3d, 0xd6, 0xe3, 0x98, 0x3f, 0xfb, 0x82, 0x2b,
  0x3f, 0x6e, 0xcd, 0xc6, 0xbe, 0x6d, 0x33, 0x02, 0x3e, 0x42, 0x62, 0x61, 0x3d,
  0x2b, 0x5c, 0xfc, 0x3e, 0xe9, 0x8c, 0x17, 0x3f, 0xaf, 0x75, 0xd0, 0x3e, 0xcf,
  0x63, 0x7f, 0x3d, 0xa8, 0x35, 0x58, 0x3e, 0x05, 0x36, 0x19, 0xbf, 0xfd, 0x6a,
  0x30, 0xbf, 0x16, 0x67, 0xfe, 0xbe, 0x2a, 0x28, 0x4c, 0x3d, 0xa9, 0xc9, 0x34,
  0xbe, 0x81, 0x3a, 0xa1, 0xbe, 0xe5, 0x9e, 0x91, 0xbd, 0x88, 0x30, 0xdb, 0x3c,
  0x80, 0xc9, 0x47, 0x3d, 0x94, 0x5a, 0xd4, 0x3e, 0xaf, 0x1d, 0xb4, 0x3e, 0xec,
  0xa0, 0x41, 0xbf, 0x9f, 0x9e, 0x80, 0x3e, 0x3f, 0x0c, 0x2f, 0xbd, 0xac, 0x19,
  0x9a, 0xbf, 0x37, 0xc8, 0x47, 0x3f, 0x0f, 0xd3, 0x77, 0x3f, 0xa6, 0x97, 0x0f,
  0x3f, 0x69, 0xff, 0x3a, 0x3e, 0x87, 0xaa, 0x89, 0x3f, 0x74, 0x6d, 0x44, 0x3e,
  0x48, 0xc8, 0xd1, 0x3e, 0x30, 0xdb, 0x51, 0xbf, 0x34, 0x5a, 0xa9, 0x3c, 0x36,
  0x94, 0x81, 0x3d, 0xcb, 0xf7, 0xe8, 0x3e, 0x8d, 0xdb, 0xfe, 0xbd, 0x26, 0x6f,
  0x9b, 0xbf, 0xc9, 0x61, 0x49, 0xbe, 0x88, 0x62, 0xfb, 0x3d, 0x0e, 0x85, 0x04,
  0x3f, 0x16, 0xd0, 0x49, 0x3f, 0xc4, 0x43, 0x82, 0x3e, 0xba, 0x0f, 0xe1, 0xbe,
  0x5a, 0x77, 0x3b, 0xbe, 0x73, 0x86, 0x59, 0x3d, 0x56, 0x2a, 0xcf, 0x3c, 0x5f,
  0x5e, 0x80, 0x3e, 0x8a, 0x0a, 0x7b, 0xbe, 0xc7, 0x7b, 0x23, 0xbf, 0x5e, 0x35,
  0xb8, 0xbf, 0x75, 0x16, 0xa4, 0x3e, 0xba, 0x12, 0x2c, 0xbd, 0x41, 0x0b, 0x56,
  0x3f, 0x7d, 0xff, 0xd8, 0x3e, 0x65, 0x9f, 0x6a, 0xbe, 0xf3, 0x99, 0xba, 0xbe,
  0xd4, 0xb8, 0xd8, 0xbe, 0x0d, 0x9c, 0x7a, 0xbf, 0xb9, 0xc6, 0x8c, 0xbf, 0x69,
  0x0f, 0xc2, 0xbd, 0x84, 0x24, 0x8d, 0x3f, 0xba, 0xd3, 0xe1, 0x3e, 0x11, 0x71,
  0xe8, 0xbe, 0xbf, 0xb1, 0x7c, 0xbf, 0xcb, 0x7b, 0x1e, 0xbe, 0x47, 0x83, 0xae,
  0x3f, 0x01, 0x9c, 0x09, 0xbf, 0x53, 0xaa, 0xac, 0xbe, 0x23, 0x01, 0x73, 0x3f,
  0xa1, 0x86, 0x1f, 0xbf, 0xb8, 0xb4, 0x79, 0xbf, 0x68, 0x0e, 0x83, 0xbf, 0x3a,
  0x56, 0x8b, 0x3e, 0x99, 0x33, 0x89, 0xbe, 0x9a, 0xec, 0x2f, 0xbe, 0x0f, 0x16,
  0x19, 0x3f, 0x9d, 0xbf, 0xed, 0x3e, 0xb3, 0x91, 0xdd, 0x3e, 0x66, 0xb0, 0x73,
  0x3f, 0x4b, 0xce, 0x97, 0x3e, 0x41, 0x18, 0x41, 0xbf, 0xa8, 0x26, 0x6b, 0xbe,
  0xd3, 0x1d, 0x71, 0xbe, 0xf0, 0xd8, 0xee, 0xbe, 0x64, 0x0d, 0xc8, 0x3e, 0x74,
  0x4d, 0x03, 0x3f, 0x31, 0xfd, 0x8a, 0x3f, 0x0c, 0x36, 0xad, 0x3e, 0xa1, 0xfa,
  0x2a, 0x3f, 0xff, 0xe0, 0xf4, 0x3e, 0xb5, 0x6f, 0x20, 0xbe, 0x89, 0x66, 0x3c,
  0xbf, 0xda, 0x8d, 0xd0, 0xbe, 0xba, 0x0b, 0xe2, 0x3e, 0x5d, 0x8e, 0x3a, 0x3f,
  0x5c, 0x70, 0x00, 0xbf, 0xce, 0xf5, 0x6a, 0x3e, 0x98, 0xf5, 0x23, 0xbf, 0x91,
  0xe7, 0x29, 0xbf, 0x79, 0xaf, 0x4d, 0x3d, 0xe8, 0x9f, 0xe4, 0x3e, 0x1d, 0x5c,
  0x7a, 0x3e, 0xad, 0xa0, 0x81, 0x3e, 0x04, 0x21, 0x97, 0xbd, 0xb6, 0x8c, 0x21,
  0x3f, 0x9d, 0x42, 0x19, 0x3f, 0x70, 0xa0, 0x6c, 0xbf, 0xbd, 0x72, 0x4a, 0x3e,
  0xe0, 0x0c, 0xae, 0x3e, 0x05, 0xe2, 0x99, 0xbe, 0xc7, 0xf1, 0xfb, 0xbe, 0x5e,
  0xb9, 0x84, 0xbf, 0x19, 0x72, 0x1d, 0xbe, 0xe3, 0x0a, 0x3c, 0x3f, 0x80, 0x72,
  0x2a, 0x3e, 0x4a, 0xd3, 0x13, 0x3f, 0xda, 0x75, 0x86, 0x3e, 0x9d, 0x52, 0x39,
  0xbe, 0xed, 0x20, 0x85, 0x3e, 0x3f, 0x9b, 0x25, 0xbf, 0x06, 0x9c, 0xf6, 0xbd,
  0xd8, 0x58, 0x28, 0x3f, 0xd2, 0xa4, 0xcf, 0x3e, 0x0e, 0xed, 0xf9, 0x3e, 0x09,
  0xaa, 0xd1, 0x3f, 0x5e, 0xce, 0x02, 0xbd, 0xd8, 0xba, 0x22, 0x3e, 0x08, 0x4f,
  0xe6, 0xbe, 0x11, 0xb2, 0x34, 0x3f, 0x52, 0xb1, 0xe2, 0xbd, 0x58, 0xcb, 0x92,
  0xbc, 0xbc, 0x47, 0x57, 0x3e, 0xcd, 0xf4, 0x2f, 0x3f, 0x88, 0xde, 0x8d, 0x3e,
  0x31, 0x25, 0x7e, 0xbf, 0xb8, 0x29, 0xab, 0x3f, 0xeb, 0x4b, 0xd8, 0xbd, 0x01,
  0x32, 0x3b, 0x3f, 0x91, 0x44, 0xe5, 0x3c, 0x2d, 0xfb, 0x82, 0x3f, 0xb3, 0xc3,
  0x95, 0xbd, 0x22, 0xf2, 0x7b, 0xbe, 0x5b, 0x1c, 0x34, 0xbe, 0x72, 0xd7, 0x01,
  0x3f, 0x07, 0xf8, 0xe3, 0x3d, 0xc1, 0x78, 0x17, 0x3f, 0x17, 0x68, 0xb4, 0x3e,
  0x5e, 0x04, 0x35, 0x3f, 0xb0, 0x64, 0xb5, 0x3e, 0x66, 0x57, 0xb5, 0x3f, 0xdb,
  0xc7, 0x12, 0x3e, 0xf4, 0xef, 0x3e, 0x3d, 0x7f, 0x25, 0x10, 0xbe, 0xc7, 0x6a,
  0x02, 0x3e, 0x7a, 0x2f, 0xed, 0xbc, 0x4c, 0xf7, 0xc6, 0x3d, 0x8b, 0x4c, 0x05,
  0xbf, 0x86, 0x75, 0x04, 0x3f, 0xdb, 0xcd, 0x41, 0x3f, 0x0b, 0x7f, 0xfa, 0x3e,
  0x9a, 0xa2, 0x27, 0x3f, 0xde, 0x8c, 0xa2, 0x3e, 0x25, 0x3a, 0x65, 0xbe, 0xad,
  0xe5, 0x26, 0x3e, 0xd5, 0xb0, 0x71, 0xbe, 0xe5, 0x31, 0x4b, 0x3d, 0x27, 0x35,
  0x1f, 0x3f, 0x8e, 0x11, 0x02, 0xbf, 0x51, 0xb1, 0x88, 0x3e, 0x45, 0xaa, 0x22,
  0xbf, 0xf6, 0xb1, 0x65, 0x3e, 0xb9, 0x0c, 0x2a, 0xbf, 0xb9, 0xd6, 0x0b, 0x3f,
  0x86, 0x3f, 0x1c, 0x3f, 0xb4, 0x59, 0x23, 0x3e, 0x1f, 0x1f, 0xea, 0x3d, 0x71,
  0x97, 0x9a, 0xbe, 0xb5, 0xa0, 0x4f, 0xbe, 0x3f, 0x45, 0x0e, 0xbf, 0x9c, 0x49,
  0x07, 0xbe, 0x4e, 0xf1, 0x94, 0x3f, 0x1f, 0x27, 0xa4, 0xbe, 0xb7, 0x24, 0xc3,
  0x3e, 0xb4, 0x69, 0x31, 0x3f, 0x49, 0x5a, 0xa1, 0x3e, 0x88, 0x26, 0x8a, 0x3d,
  0x1e, 0xda, 0xfa, 0x3e, 0xad, 0x89, 0x84, 0xbf, 0x9a, 0x5d, 0x8e, 0x3e, 0x77,
  0x70, 0x1a, 0xbf, 0xb1, 0x41, 0xdc, 0xbe, 0x8c, 0x45, 0x53, 0xbe, 0x4e, 0x4f,
  0x85, 0x3f, 0x4a, 0x6c, 0x92, 0x3e, 0x20, 0xd4, 0xe2, 0x3c, 0x03, 0xa5, 0xfe,
  0xbd, 0xfd, 0x9a, 0x04, 0x3e, 0xc6, 0xf3, 0xff, 0xff, 0x04, 0x00, 0x00, 0x00,
  0x2c, 0x01, 0x00, 0x00, 0x3d, 0xda, 0x96, 0x3e, 0x29, 0xf8, 0x27, 0xbe, 0xdd,
  0x7b, 0x04, 0x3e, 0x9f, 0x0d, 0x32, 0x3e, 0xd1, 0x5d, 0x3b, 0xbd, 0x04, 0xe6,
  0xa3, 0x3e, 0xa1, 0x34, 0x2c, 0xbe, 0xea, 0xb3, 0x4b, 0xba, 0xa8, 0x34, 0xd4,
  0x3c, 0xf7, 0x2b, 0xa4, 0xbe, 0x80, 0x25, 0x37, 0x3f, 0xa8, 0x54, 0x57, 0x3e,
  0x28, 0x88, 0x39, 0xbd, 0x80, 0x13, 0x2f, 0x3f, 0xf5, 0xe2, 0x1f, 0x3d, 0x00,
  0xae, 0xa4, 0x3e, 0x2a, 0xc1, 0xae, 0x3d, 0x34, 0x47, 0x1d, 0x3f, 0x0d, 0x7d,
  0x06, 0xbe, 0xde, 0xbb, 0xae, 0xbe, 0x3d, 0x72, 0x5a, 0x3f, 0x94, 0x81, 0xa8,
  0x3e, 0xeb, 0xc8, 0xff, 0xbd, 0x94, 0xa7, 0x0c, 0xbe, 0xc8, 0x99, 0xaa, 0xbd,
  0x76, 0x38, 0xe4, 0x3e, 0x48, 0xc6, 0xd5, 0xbe, 0x2c, 0xcc, 0x9b, 0x3e, 0x75,
  0x44, 0x99, 0xbf, 0xeb, 0x02, 0x2d, 0x3e, 0xf4, 0xf2, 0x10, 0x3f, 0x20, 0x91,
  0x2a, 0xbf, 0xde, 0x95, 0x20, 0x3a, 0x6b, 0x85, 0x51, 0x3e, 0xcd, 0xa0, 0x63,
  0xbf, 0x2e, 0x4f, 0x78, 0xbe, 0x65, 0x3f, 0x3d, 0xbd, 0xe6, 0x25, 0x17, 0xbd,
  0x9b, 0x0c, 0x9a, 0x3c, 0xd6, 0x48, 0x05, 0xbf, 0x29, 0x60, 0x63, 0xbe, 0xfe,
  0xdd, 0xe3, 0x3e, 0xfc, 0xe6, 0x1e, 0x3f, 0x5e, 0x53, 0x86, 0x3d, 0xd2, 0x4c,
  0x29, 0xbf, 0x24, 0x0a, 0x76, 0xbe, 0x6b, 0xf7, 0x81, 0xbd, 0xae, 0x8e, 0x53,
  0x3e, 0xd5, 0xa0, 0x1e, 0xbd, 0xf9, 0x38, 0xf9, 0x3b, 0xc2, 0xfd, 0x74, 0xbd,
  0x4c, 0x7b, 0x65, 0xbf, 0x0e, 0x52, 0x87, 0xbf, 0xf7, 0x37, 0x5e, 0xbf, 0x92,
  0x75, 0xce, 0xbd, 0xda, 0x48, 0xb7, 0x3d, 0x78, 0xbe, 0x0c, 0x3f, 0x9c, 0xbe,
  0xde, 0x3d, 0x5d, 0xa4, 0xd0, 0x3e, 0x80, 0x74, 0xb0, 0x3e, 0x4e, 0xf2, 0x49,
  0x3e, 0xf3, 0x91, 0xa5, 0xbd, 0x39, 0xb5, 0x1f, 0x3f, 0x5e, 0x1a, 0x5a, 0xbf,
  0x74, 0x15, 0xb5, 0xbd, 0x20, 0xfa, 0x1c, 0x3e, 0xc7, 0xa6, 0xa5, 0x3e, 0xed,
  0x08, 0x55, 0xbd, 0xda, 0x51, 0xe7, 0xbd, 0x15, 0x06, 0x34, 0x3f, 0x38, 0xb0,
  0x38, 0xbb, 0x84, 0xec, 0x4e, 0x3e, 0x1f, 0x49, 0xfe, 0xba, 0x22, 0x9b, 0xc4,
  0xbd, 0x91, 0xe8, 0x1b, 0x3f, 0xfe, 0xf4, 0xff, 0xff, 0x04, 0x00, 0x00, 0x00,
  0x2c, 0x01, 0x00, 0x00, 0x8b, 0xe1, 0xa1, 0xbe, 0x79, 0x89, 0x61, 0x3e, 0xc0,
  0xdc, 0xb7, 0x3d, 0xf2, 0x49, 0xb7, 0x3c, 0x92, 0x0e, 0x30, 0xbf, 0x57, 0xbc,
  0xa9, 0xbe, 0x96, 0x91, 0xc2, 0x3b, 0xea, 0x82, 0x81, 0xbd, 0xb1, 0xa4, 0xb0,
  0x3d, 0xc4, 0x59, 0x6e, 0x3d, 0x26, 0x89, 0xa6, 0x3e, 0xf7, 0x33, 0xd8, 0x3a,
  0x38, 0xb7, 0x68, 0x3d, 0xd7, 0x38, 0x86, 0xbe, 0xb2, 0x68, 0x62, 0xbd, 0x5a,
  0x53, 0xef, 0xbe, 0x48, 0xb8, 0x68, 0x3e, 0x48, 0xa2, 0x2d, 0xbf, 0x6c, 0xfd,
  0xd0, 0x3e, 0x62, 0x90, 0x81, 0xbe, 0x9e, 0x67, 0x3b, 0x3f, 0x3b, 0x44, 0x79,
  0xbc, 0x90, 0x11, 0x2b, 0xbd, 0x5e, 0xff, 0x51, 0x3d, 0xf0, 0x36, 0xf2, 0xbe,
  0x8f, 0x0d, 0x23, 0xbe, 0x96, 0x4b, 0xc2, 0xbc, 0xb3, 0x55, 0xbf, 0xbe, 0x7c,
  0xc9, 0x8f, 0x3e, 0x4c, 0x2e, 0x88, 0x3e, 0x9f, 0x8b, 0xfa, 0xbe, 0x5f, 0xb0,
  0x51, 0x3e, 0x35, 0x00, 0x3a, 0xbf, 0xb0, 0xf7, 0x13, 0x3f, 0x06, 0x8f, 0x3c,
  0x3f, 0x67, 0x61, 0x0a, 0x3f, 0x40, 0xce, 0x84, 0xbf, 0xc3, 0x38, 0x93, 0x3f,
  0x29, 0x35, 0x8a, 0xbf, 0x59, 0x57, 0x06, 0xbf, 0x0a, 0x50, 0x99, 0x3f, 0x30,
  0x87, 0x71, 0x3f, 0xf2, 0xd7, 0x52, 0xbf, 0xd0, 0xfc, 0x31, 0x3f, 0x8b, 0xe0,
  0x85, 0xbf, 0xc7, 0x28, 0xf9, 0xbe, 0xb5, 0xdf, 0x35, 0x3e, 0x10, 0xe9, 0xc4,
  0x3d, 0xf0, 0x80, 0x8e, 0x3e, 0x26, 0x22, 0x0d, 0x3f, 0xd5, 0x42, 0x51, 0x3d,
  0x3c, 0x21, 0x85, 0xbe, 0x4d, 0x1f, 0x83, 0x3e, 0x54, 0x2e, 0x8e, 0xbe, 0x64,
  0xd9, 0x57, 0xbe, 0xb9, 0x69, 0x0c, 0xbe, 0x45, 0xc8, 0xde, 0x3d, 0x4b, 0x46,
  0x97, 0xbd, 0x8a, 0x02, 0x88, 0x3e, 0x0b, 0x18, 0xc7, 0xbc, 0x0d, 0x04, 0x2e,
  0xbd, 0x4c, 0xce, 0x93, 0x3e, 0x8e, 0xfa, 0x84, 0xbe, 0x2a, 0xb0, 0x21, 0x3e,
  0xa3, 0xe3, 0xbb, 0xbd, 0xc4, 0xa7, 0x4b, 0xbe, 0x75, 0x69, 0x85, 0xbd, 0xdb,
  0x13, 0xa5, 0x3d, 0x92, 0xf5, 0xc8, 0xbd, 0xf4, 0x83, 0xfa, 0xbd, 0x92, 0x12,
  0x86, 0x3e, 0x1c, 0x8e, 0x0c, 0x3e, 0xe2, 0x33, 0x3c, 0xbd, 0x69, 0xfa, 0x50,
  0xbe, 0xf5, 0x32, 0x28, 0x3d, 0x36, 0xf6, 0xff, 0xff, 0x04, 0x00, 0x00, 0x00,
  0xb0, 0x04, 0x00, 0x00, 0x30, 0x50, 0x4e, 0xbf, 0x55, 0x8a, 0x41, 0xbe, 0x13,
  0x5c, 0x2c, 0x3d, 0x65, 0xb1, 0x8d, 0x3f, 0x8b, 0x5f, 0x09, 0x3f, 0xb5, 0x4c,
  0xc1, 0xbf, 0x8d, 0x6b, 0x87, 0x3d, 0x71, 0x47, 0x86, 0xbb, 0x5f, 0x59, 0xe0,
  0x3c, 0xdb, 0x07, 0xb2, 0x3e, 0x91, 0x2e, 0x7d, 0x3f, 0xeb, 0xb2, 0x8c, 0xbd,
  0x59, 0x4c, 0x9d, 0x3e, 0x0f, 0x3c, 0x48, 0x3e, 0xc5, 0x47, 0x98, 0xbe, 0xb6,
  0x28, 0x0e, 0xbe, 0x7d, 0x57, 0xaf, 0x3c, 0x83, 0x8b, 0xa5, 0x3f, 0x88, 0xdb,
  0x6a, 0x3f, 0x5b, 0x66, 0xe1, 0xbe, 0x03, 0x8c, 0x9f, 0x3f, 0x1a, 0x12, 0x99,
  0xbe, 0x52, 0xe5, 0x2d, 0xbe, 0xf1, 0x69, 0xe2, 0xbe, 0x5f, 0xdc, 0xa5, 0xbe,
  0x9f, 0xaa, 0x15, 0xbf, 0x05, 0x9b, 0x7b, 0xbc, 0xb5, 0x9e, 0xce, 0x3d, 0x3e,
  0x7b, 0x19, 0x3f, 0x53, 0x9d, 0x32, 0xbe, 0x86, 0xf2, 0x60, 0x3f, 0x3c, 0xd2,
  0x59, 0x3e, 0x59, 0x52, 0x7d, 0xbe, 0x8b, 0x08, 0x15, 0x3e, 0xb6, 0x6d, 0x47,
  0x3f, 0x24, 0x7b, 0xbb, 0xbf, 0xa6, 0xa9, 0x39, 0x3e, 0x14, 0xf8, 0xbc, 0xbe,
  0x39, 0xe5, 0x6b, 0x3f, 0x5b, 0xa7, 0xa4, 0x3e, 0x66, 0x23, 0xf5, 0x3d, 0x17,
  0xbe, 0x1a, 0x3e, 0xa3, 0xf3, 0x55, 0x3e, 0x2d, 0x5b, 0x19, 0x3f, 0x7e, 0xe7,
  0xfb, 0x3e, 0xbb, 0xdf, 0x6d, 0xbe, 0xdf, 0xef, 0x0d, 0xbd, 0x58, 0x96, 0xc2,
  0x3e, 0x01, 0xdf, 0x86, 0xbe, 0x3a, 0x38, 0x48, 0x3f, 0x3a, 0x79, 0x52, 0x3f,
  0x50, 0x06, 0x7d, 0x3e, 0xf4, 0x86, 0x2a, 0xbd, 0xfc, 0x4e, 0x3c, 0xbe, 0x6c,
  0x22, 0x8f, 0x3e, 0xc9, 0xee, 0x4b, 0x3e, 0x04, 0xd2, 0xfc, 0xbd, 0x75, 0xb5,
  0x17, 0xbe, 0x2c, 0x9a, 0x36, 0x3f, 0xac, 0x35, 0xae, 0x3f, 0x20, 0x69, 0x43,
  0x3f, 0x42, 0xcf, 0x90, 0xbd, 0x93, 0x05, 0xfc, 0xbd, 0xb6, 0x53, 0xe5, 0x3e,
  0x2f, 0x42, 0x2d, 0xbf, 0x77, 0x2d, 0xb4, 0x3e, 0xe4, 0xa5, 0xad, 0x3e, 0x35,
  0xb9, 0x8d, 0xbd, 0xba, 0xa6, 0x0a, 0x3f, 0x00, 0x15, 0x35, 0x3f, 0x5a, 0x54,
  0x6b, 0xbf, 0xf3, 0x21, 0x0e, 0x3e, 0x76, 0xf0, 0x88, 0x3e, 0x52, 0xd6, 0xbe,
  0x3d, 0xac, 0xf1, 0x41, 0xbf, 0x61, 0x68, 0xac, 0xbe, 0xe6, 0x1d, 0x58, 0x3f,
  0x03, 0x94, 0x94, 0x3d, 0xae, 0xba, 0xae, 0x3f, 0x29, 0xca, 0x94, 0xbf, 0xc8,
