const unsigned char sr4by3_2_tflite[] = {
  0x1c, 0x00, 0x00, 0x00, 0x54, 0x46, 0x4c, 0x33, 0x14, 0x00, 0x20, 0x00, 0x1c,
  0x00, 0x18, 0x00, 0x14, 0x00, 0x10, 0x00, 0x0c, 0x00, 0x00, 0x00, 0x08, 0x00,
  0x04, 0x00, 0x14, 0x00, 0x00, 0x00, 0x1c, 0x00, 0x00, 0x00, 0x88, 0x00, 0x00,
  0x00, 0xb8, 0x00, 0x00, 0x00, 0xec, 0x47, 0x00, 0x00, 0xfc, 0x47, 0x00, 0x00,
  0xd8, 0x86, 0x00, 0x00, 0x03, 0x00, 0x00, 0x00, 0x01, 0x00, 0x00, 0x00, 0x10,
  0x00, 0x00, 0x00, 0x00, 0x00, 0x0a, 0x00, 0x10, 0x00, 0x0c, 0x00, 0x08, 0x00,
  0x04, 0x00, 0x0a, 0x00, 0x00, 0x00, 0x0c, 0x00, 0x00, 0x00, 0x1c, 0x00, 0x00,
  0x00, 0x38, 0x00, 0x00, 0x00, 0x0f, 0x00, 0x00, 0x00, 0x73, 0x65, 0x72, 0x76,
  0x69, 0x6e, 0x67, 0x5f, 0x64, 0x65, 0x66, 0x61, 0x75, 0x6c, 0x74, 0x00, 0x01,
  0x00, 0x00, 0x00, 0x04, 0x00, 0x00, 0x00, 0xc8, 0xff, 0xff, 0xff, 0x8f, 0x00,
  0x00, 0x00, 0x04, 0x00, 0x00, 0x00, 0x06, 0x00, 0x00, 0x00, 0x6f, 0x75, 0x74,
  0x70, 0x75, 0x74, 0x00, 0x00, 0x01, 0x00, 0x00, 0x00, 0x04, 0x00, 0x00, 0x00,
  0xb2, 0xb8, 0xff, 0xff, 0x04, 0x00, 0x00, 0x00, 0x03, 0x00, 0x00, 0x00, 0x69,
  0x6d, 0x67, 0x00, 0x01, 0x00, 0x00, 0x00, 0x0c, 0x00, 0x00, 0x00, 0x08, 0x00,
  0x0c, 0x00, 0x08, 0x00, 0x04, 0x00, 0x08, 0x00, 0x00, 0x00, 0x91, 0x00, 0x00,
  0x00, 0x04, 0x00, 0x00, 0x00, 0x13, 0x00, 0x00, 0x00, 0x6d, 0x69, 0x6e, 0x5f,
  0x72, 0x75, 0x6e, 0x74, 0x69, 0x6d, 0x65, 0x5f, 0x76, 0x65, 0x72, 0x73, 0x69,
  0x6f, 0x6e, 0x00, 0x92, 0x00, 0x00, 0x00, 0x30, 0x47, 0x00, 0x00, 0x28, 0x47,
  0x00, 0x00, 0x04, 0x47, 0x00, 0x00, 0xd8, 0x46, 0x00, 0x00, 0xac, 0x46, 0x00,
  0x00, 0x78, 0x46, 0x00, 0x00, 0x38, 0x46, 0x00, 0x00, 0xec, 0x45, 0x00, 0x00,
  0xbc, 0x45, 0x00, 0x00, 0x90, 0x45, 0x00, 0x00, 0x64, 0x45, 0x00, 0x00, 0x04,
  0x45, 0x00, 0x00, 0x64, 0x43, 0x00, 0x00, 0xc4, 0x41, 0x00, 0x00, 0x04, 0x3d,
  0x00, 0x00, 0xc8, 0x3b, 0x00, 0x00, 0x8c, 0x3a, 0x00, 0x00, 0xf8, 0x36, 0x00,
  0x00, 0x58, 0x35, 0x00, 0x00, 0xf8, 0x34, 0x00, 0x00, 0x58, 0x33, 0x00, 0x00,
  0x98, 0x2e, 0x00, 0x00, 0x5c, 0x2d, 0x00, 0x00, 0x20, 0x2c, 0x00, 0x00, 0x40,
  0x29, 0x00, 0x00, 0x40, 0x28, 0x00, 0x00, 0x40, 0x27, 0x00, 0x00, 0xf0, 0x24,
  0x00, 0x00, 0xb4, 0x23, 0x00, 0x00, 0x68, 0x23, 0x00, 0x00, 0x2c, 0x22, 0x00,
  0x00, 0x4c, 0x1f, 0x00, 0x00, 0x4c, 0x1e, 0x00, 0x00, 0x4c, 0x1d, 0x00, 0x00,
  0x8c, 0x1b, 0x00, 0x00, 0xc8, 0x1a, 0x00, 0x00, 0x04, 0x1a, 0x00, 0x00, 0xb0,
  0x18, 0x00, 0x00, 0xb0, 0x17, 0x00, 0x00, 0x70, 0x17, 0x00, 0x00, 0x70, 0x16,
  0x00, 0x00, 0xb0, 0x14, 0x00, 0x00, 0xec, 0x13, 0x00, 0x00, 0x28, 0x13, 0x00,
  0x00, 0x1c, 0x12, 0x00, 0x00, 0x80, 0x11, 0x00, 0x00, 0xe4, 0x10, 0x00, 0x00,
  0x10, 0x10, 0x00, 0x00, 0x4c, 0x0f, 0x00, 0x00, 0x18, 0x0f, 0x00, 0x00, 0x54,
  0x0e, 0x00, 0x00, 0x48, 0x0d, 0x00, 0x00, 0xac, 0x0c, 0x00, 0x00, 0x10, 0x0c,
  0x00, 0x00, 0x74, 0x0b, 0x00, 0x00, 0x00, 0x0b, 0x00, 0x00, 0x8c, 0x0a, 0x00,
  0x00, 0x18, 0x0a, 0x00, 0x00, 0x7c, 0x09, 0x00, 0x00, 0x50, 0x09, 0x00, 0x00,
  0xb4, 0x08, 0x00, 0x00, 0x18, 0x08, 0x00, 0x00, 0xa4, 0x07, 0x00, 0x00, 0x30,
  0x07, 0x00, 0x00, 0xbc, 0x06, 0x00, 0x00, 0x48, 0x06, 0x00, 0x00, 0xd4, 0x05,
  0x00, 0x00, 0x60, 0x05, 0x00, 0x00, 0xc4, 0x04, 0x00, 0x00, 0xa0, 0x04, 0x00,
  0x00, 0x04, 0x04, 0x00, 0x00, 0xf0, 0x03, 0x00, 0x00, 0xcc, 0x03, 0x00, 0x00,
  0x6c, 0x03, 0x00, 0x00, 0x20, 0x03, 0x00, 0x00, 0xe0, 0x02, 0x00, 0x00, 0xac,
  0x02, 0x00, 0x00, 0x80, 0x02, 0x00, 0x00, 0x5c, 0x02, 0x00, 0x00, 0x38, 0x02,
  0x00, 0x00, 0x24, 0x02, 0x00, 0x00, 0x1c, 0x02, 0x00, 0x00, 0x14, 0x02, 0x00,
  0x00, 0x0c, 0x02, 0x00, 0x00, 0x04, 0x02, 0x00, 0x00, 0xfc, 0x01, 0x00, 0x00,
  0xf4, 0x01, 0x00, 0x00, 0xec, 0x01, 0x00, 0x00, 0xe4, 0x01, 0x00, 0x00, 0xdc,
  0x01, 0x00, 0x00, 0xd4, 0x01, 0x00, 0x00, 0xcc, 0x01, 0x00, 0x00, 0xc4, 0x01,
  0x00, 0x00, 0xbc, 0x01, 0x00, 0x00, 0xb4, 0x01, 0x00, 0x00, 0xac, 0x01, 0x00,
  0x00, 0xa4, 0x01, 0x00, 0x00, 0x9c, 0x01, 0x00, 0x00, 0x94, 0x01, 0x00, 0x00,
  0x8c, 0x01, 0x00, 0x00, 0x84, 0x01, 0x00, 0x00, 0x7c, 0x01, 0x00, 0x00, 0x74,
  0x01, 0x00, 0x00, 0x6c, 0x01, 0x00, 0x00, 0x64, 0x01, 0x00, 0x00, 0x5c, 0x01,
  0x00, 0x00, 0x54, 0x01, 0x00, 0x00, 0x4c, 0x01, 0x00, 0x00, 0x44, 0x01, 0x00,
  0x00, 0x3c, 0x01, 0x00, 0x00, 0x34, 0x01, 0x00, 0x00, 0x2c, 0x01, 0x00, 0x00,
  0x24, 0x01, 0x00, 0x00, 0x1c, 0x01, 0x00, 0x00, 0x14, 0x01, 0x00, 0x00, 0x0c,
  0x01, 0x00, 0x00, 0x04, 0x01, 0x00, 0x00, 0xfc, 0x00, 0x00, 0x00, 0xf4, 0x00,
  0x00, 0x00, 0xec, 0x00, 0x00, 0x00, 0xe4, 0x00, 0x00, 0x00, 0xdc, 0x00, 0x00,
  0x00, 0xd4, 0x00, 0x00, 0x00, 0xcc, 0x00, 0x00, 0x00, 0xc4, 0x00, 0x00, 0x00,
  0xbc, 0x00, 0x00, 0x00, 0xb4, 0x00, 0x00, 0x00, 0xac, 0x00, 0x00, 0x00, 0xa4,
  0x00, 0x00, 0x00, 0x9c, 0x00, 0x00, 0x00, 0x94, 0x00, 0x00, 0x00, 0x8c, 0x00,
  0x00, 0x00, 0x84, 0x00, 0x00, 0x00, 0x7c, 0x00, 0x00, 0x00, 0x74, 0x00, 0x00,
  0x00, 0x6c, 0x00, 0x00, 0x00, 0x64, 0x00, 0x00, 0x00, 0x5c, 0x00, 0x00, 0x00,
  0x54, 0x00, 0x00, 0x00, 0x4c, 0x00, 0x00, 0x00, 0x44, 0x00, 0x00, 0x00, 0x3c,
  0x00, 0x00, 0x00, 0x34, 0x00, 0x00, 0x00, 0x2c, 0x00, 0x00, 0x00, 0x24, 0x00,
  0x00, 0x00, 0x04, 0x00, 0x00, 0x00, 0x42, 0xbb, 0xff, 0xff, 0x04, 0x00, 0x00,
  0x00, 0x10, 0x00, 0x00, 0x00, 0x31, 0x2e, 0x31, 0x33, 0x2e, 0x31, 0x00, 0x00,
  0x00, 0x00, 0x00, 0x00, 0x00, 0x00, 0x00, 0x00, 0x28, 0x7c, 0xff, 0xff, 0x2c,
  0x7c, 0xff, 0xff, 0x30, 0x7c, 0xff, 0xff, 0x34, 0x7c, 0xff, 0xff, 0x38, 0x7c,
  0xff, 0xff, 0x3c, 0x7c, 0xff, 0xff, 0x40, 0x7c, 0xff, 0xff, 0x44, 0x7c, 0xff,
  0xff, 0x48, 0x7c, 0xff, 0xff, 0x4c, 0x7c, 0xff, 0xff, 0x50, 0x7c, 0xff, 0xff,
  0x54, 0x7c, 0xff, 0xff, 0x58, 0x7c, 0xff, 0xff, 0x5c, 0x7c, 0xff, 0xff, 0x60,
  0x7c, 0xff, 0xff, 0x64, 0x7c, 0xff, 0xff, 0x68, 0x7c, 0xff, 0xff, 0x6c, 0x7c,
  0xff, 0xff, 0x70, 0x7c, 0xff, 0xff, 0x74, 0x7c, 0xff, 0xff, 0x78, 0x7c, 0xff,
  0xff, 0x7c, 0x7c, 0xff, 0xff, 0x80, 0x7c, 0xff, 0xff, 0x84, 0x7c, 0xff, 0xff,
  0x88, 0x7c, 0xff, 0xff, 0x8c, 0x7c, 0xff, 0xff, 0x90, 0x7c, 0xff, 0xff, 0x94,
  0x7c, 0xff, 0xff, 0x98, 0x7c, 0xff, 0xff, 0x9c, 0x7c, 0xff, 0xff, 0xa0, 0x7c,
  0xff, 0xff, 0xa4, 0x7c, 0xff, 0xff, 0xa8, 0x7c, 0xff, 0xff, 0xac, 0x7c, 0xff,
  0xff, 0xb0, 0x7c, 0xff, 0xff, 0xb4, 0x7c, 0xff, 0xff, 0xb8, 0x7c, 0xff, 0xff,
  0xbc, 0x7c, 0xff, 0xff, 0xc0, 0x7c, 0xff, 0xff, 0xc4, 0x7c, 0xff, 0xff, 0xc8,
  0x7c, 0xff, 0xff, 0xcc, 0x7c, 0xff, 0xff, 0xd0, 0x7c, 0xff, 0xff, 0xd4, 0x7c,
  0xff, 0xff, 0xd8, 0x7c, 0xff, 0xff, 0xdc, 0x7c, 0xff, 0xff, 0xe0, 0x7c, 0xff,
  0xff, 0xe4, 0x7c, 0xff, 0xff, 0xe8, 0x7c, 0xff, 0xff, 0xec, 0x7c, 0xff, 0xff,
  0xf0, 0x7c, 0xff, 0xff, 0xf4, 0x7c, 0xff, 0xff, 0xf8, 0x7c, 0xff, 0xff, 0xfc,
  0x7c, 0xff, 0xff, 0x00, 0x7d, 0xff, 0xff, 0x04, 0x7d, 0xff, 0xff, 0x08, 0x7d,
  0xff, 0xff, 0x0c, 0x7d, 0xff, 0xff, 0x10, 0x7d, 0xff, 0xff, 0x14, 0x7d, 0xff,
  0xff, 0x18, 0x7d, 0xff, 0xff, 0x1c, 0x7d, 0xff, 0xff, 0x20, 0x7d, 0xff, 0xff,
  0x24, 0x7d, 0xff, 0xff, 0x5e, 0xbc, 0xff, 0xff, 0x04, 0x00, 0x00, 0x00, 0x04,
  0x00, 0x00, 0x00, 0xe9, 0x6c, 0xc7, 0xb9, 0x6e, 0xbc, 0xff, 0xff, 0x04, 0x00,
  0x00, 0x00, 0x14, 0x00, 0x00, 0x00, 0x0c, 0x00, 0x21, 0xbd, 0x34, 0x6c, 0x64,
  0x3d, 0x21, 0xd8, 0x00, 0xbf, 0x9b, 0x50, 0x18, 0xbe, 0x38, 0xbf, 0x51, 0xbe,
  0x8e, 0xbc, 0xff, 0xff, 0x04, 0x00, 0x00, 0x00, 0x14, 0x00, 0x00, 0x00, 0x68,
  0xa1, 0x14, 0xbe, 0x91, 0x1c, 0x9d, 0x3d, 0x6a, 0x48, 0xfe, 0x3d, 0x57, 0x39,
  0x39, 0x3e, 0x5c, 0x5e, 0x41, 0x3d, 0xae, 0xbc, 0xff, 0xff, 0x04, 0x00, 0x00,
  0x00, 0x1c, 0x00, 0x00, 0x00, 0xb8, 0x35, 0x1a, 0xbf, 0x06, 0xce, 0x50, 0x3f,
  0xe2, 0xa6, 0x3b, 0xbd, 0xa5, 0xcd, 0x24, 0x3f, 0xfb, 0xe1, 0x4f, 0x3e, 0xde,
  0xe1, 0x7a, 0xbf, 0x95, 0xad, 0x6c, 0xbe, 0xd6, 0xbc, 0xff, 0xff, 0x04, 0x00,
  0x00, 0x00, 0x24, 0x00, 0x00, 0x00, 0x35, 0x90, 0xa5, 0x3e, 0x9c, 0x56, 0xad,
  0x3d, 0x1f, 0x36, 0x9d, 0xbf, 0xed, 0x3a, 0xef, 0xbe, 0x2f, 0xe6, 0x97, 0x3f,
  0xeb, 0x12, 0x10, 0xbe, 0xd0, 0xb1, 0xec, 0x3c, 0x33, 0x58, 0x79, 0xbd, 0x46,
  0x64, 0x04, 0xbf, 0x06, 0xbd, 0xff, 0xff, 0x04, 0x00, 0x00, 0x00, 0x30, 0x00,
  0x00, 0x00, 0xc7, 0x1a, 0x17, 0xbf, 0x03, 0x3a, 0x9d, 0xbf, 0x3f, 0xaa, 0x4f,
  0x3e, 0x43, 0xde, 0x67, 0x3f, 0x07, 0x1c, 0x87, 0x3f, 0x02, 0x0a, 0x72, 0x3f,
  0x74, 0xd5, 0x6b, 0x3e, 0x8d, 0xf8, 0xaa, 0x3d, 0xbe, 0x9f, 0x82, 0xbe, 0xfa,
  0x54, 0xef, 0xbc, 0x90, 0x36, 0xe4, 0xbb, 0x0b, 0x95, 0x26, 0xbe, 0x42, 0xbd,
  0xff, 0xff, 0x04, 0x00, 0x00, 0x00, 0x3c, 0x00, 0x00, 0x00, 0xd3, 0xaf, 0x9c,
  0x3e, 0x98, 0x5e, 0x67, 0xbd, 0x68, 0x3d, 0x64, 0x40, 0x65, 0x98, 0x2d, 0x3e,
  0x47, 0x83, 0x4c, 0x3f, 0x38, 0x37, 0xdb, 0xbf, 0xe6, 0x85, 0x97, 0xbe, 0xae,
  0xd3, 0xe0, 0xbc, 0xda, 0x0b, 0x82, 0x3d, 0xf2, 0x45, 0xd6, 0x3e, 0xde, 0x98,
  0x08, 0xbf, 0xf2, 0x9c, 0x34, 0xbd, 0xdf, 0x2d, 0xc5, 0x3e, 0xa6, 0x51, 0x5d,
  0xbe, 0xa9, 0x74, 0xa1, 0x3e, 0x8a, 0xbd, 0xff, 0xff, 0x04, 0x00, 0x00, 0x00,
  0x50, 0x00, 0x00, 0x00, 0xa2, 0x9d, 0xa8, 0xc0, 0x99, 0xa1, 0x7e, 0x40, 0x40,
  0x36, 0x19, 0xc1, 0x59, 0x1c, 0xfb, 0xbf, 0xf7, 0xde, 0xb4, 0x40, 0x5c, 0x81,
  0x1b, 0xc0, 0x5b, 0xad, 0xa0, 0x40, 0x8f, 0xa9, 0x16, 0x41, 0xdc, 0xbf, 0x5b,
  0x3f, 0x56, 0xdb, 0x07, 0xc1, 0x2a, 0x94, 0x20, 0x40, 0xdf, 0x02, 0x85, 0xc0,
  0x03, 0xb0, 0x6a, 0xc0, 0xd7, 0xfe, 0x94, 0x40, 0xe5, 0xd2, 0x10, 0xc0, 0xd3,
  0x26, 0xa9, 0xbf, 0x04, 0xb1, 0x82, 0xc0, 0xda, 0x7a, 0x81, 0xc1, 0x7e, 0xa4,
  0x7d, 0x40, 0xac, 0x19, 0x98, 0xc0, 0xe6, 0xbd, 0xff, 0xff, 0x04, 0x00, 0x00,
  0x00, 0x14, 0x00, 0x00, 0x00, 0x97, 0x5d, 0x2e, 0xbc, 0x8e, 0x57, 0x93, 0x3c,
  0x52, 0xdf, 0xa9, 0xbc, 0x1c, 0x34, 0x59, 0x3c, 0x2e, 0x0c, 0xbd, 0x3c, 0x06,
  0xbe, 0xff, 0xff, 0x04, 0x00, 0x00, 0x00, 0x04, 0x00, 0x00, 0x00, 0x00, 0x00,
  0x00, 0x00, 0x16, 0xbe, 0xff, 0xff, 0x04, 0x00, 0x00, 0x00, 0x8c, 0x00, 0x00,
  0x00, 0xfc, 0x12, 0xad, 0xbc, 0xa2, 0x84, 0x72, 0x3d, 0x1d, 0xef, 0x11, 0xbe,
  0x34, 0xa8, 0xab, 0xbd, 0x03, 0x32, 0x43, 0x3c, 0xcf, 0x59, 0xdc, 0xbd, 0x1a,
  0x34, 0x83, 0x3e, 0xcd, 0xd1, 0x94, 0x3d, 0xc7, 0xd2, 0x57, 0x3d, 0x4d, 0x39,
  0x2d, 0x3c, 0x09, 0x98, 0x84, 0x3e, 0xf7, 0x92, 0xd9, 0xbd, 0x51, 0x41, 0x88,
  0x3e, 0x22, 0x00, 0xbc, 0x3d, 0x03, 0x8f, 0xb8, 0xbe, 0xa6, 0xdb, 0xe8, 0x3d,
  0x18, 0x35, 0x20, 0x3e, 0x74, 0x48, 0xdf, 0xbe, 0xb8, 0x6a, 0x0c, 0x3e, 0x48,
  0xbe, 0xc4, 0xbc, 0x01, 0x03, 0xd7, 0xbc, 0x65, 0x36, 0xf5, 0x3d, 0x3a, 0xbd,
  0xad, 0x3d, 0x43, 0x7a, 0x94, 0xbc, 0xc8, 0x09, 0x28, 0xbc, 0xcc, 0xe2, 0x12,
  0xbe, 0xf3, 0x16, 0x2d, 0x3d, 0x21, 0x69, 0x6c, 0x3d, 0x94, 0x7c, 0x6d, 0xbd,
  0x0f, 0x5f, 0x46, 0x3b, 0x01, 0xa4, 0x83, 0x3d, 0x30, 0xd3, 0x51, 0x3d, 0x2b,
  0x67, 0x66, 0xbd, 0x5b, 0xea, 0x6c, 0xbc, 0x5c, 0x45, 0x24, 0xbb, 0xae, 0xbe,
  0xff, 0xff, 0x04, 0x00, 0x00, 0x00, 0x14, 0x00, 0x00, 0x00, 0x00, 0x00, 0x00,
  0x00, 0x00, 0x00, 0x00, 0x00, 0x00, 0x00, 0x00, 0x00, 0x00, 0x00, 0x00, 0x00,
  0x00, 0x00, 0x00, 0x00, 0xce, 0xbe, 0xff, 0xff, 0x04, 0x00, 0x00, 0x00, 0x8c,
  0x00, 0x00, 0x00, 0x7e, 0x8c, 0x12, 0x3d, 0x77, 0x69, 0x84, 0x3d, 0x4b, 0xd4,
  0xcb, 0xbc, 0xf1, 0xc7, 0x1a, 0xbe, 0xad, 0x31, 0xf4, 0xbc, 0x3a, 0x7f, 0x87,
  0xbd, 0xa7, 0x46, 0xbd, 0xbd, 0xed, 0x15, 0xe2, 0x3c, 0xff, 0xc5, 0x9d, 0xbd,
  0xba, 0xc6, 0x7c, 0x3b, 0xf7, 0xc6, 0xf0, 0xbd, 0x76, 0xe5, 0x11, 0x3e, 0x55,
  0xa6, 0x66, 0x3d, 0xf1, 0x5e, 0x0e, 0x3e, 0xfe, 0x53, 0x83, 0x3e, 0x41, 0xcc,
  0xa1, 0xbe, 0xa0, 0x9d, 0x47, 0xbd, 0xb0, 0x80, 0x88, 0x3e, 0xfd, 0xc9, 0x71,
  0x3e, 0x74, 0x6d, 0xe2, 0xbe, 0xbc, 0xdb, 0xbf, 0x3d, 0xab, 0x66, 0xe0, 0x3d,
  0x50, 0xc1, 0x5c, 0xbd, 0x08, 0x9b, 0xe1, 0x3d, 0x8d, 0xd7, 0x40, 0x3e, 0x85,
  0xfb, 0xbc, 0x3b, 0x84, 0xf0, 0x1c, 0x3d, 0x19, 0x32, 0x8a, 0x3c, 0xbe, 0xea,
  0x2e, 0x3c, 0xf9, 0xc6, 0x59, 0x3b, 0x0a, 0x8f, 0x23, 0x3d, 0x9d, 0x1d, 0x3e,
  0xbc, 0x63, 0x14, 0xc3, 0xb9, 0x21, 0x30, 0xc9, 0x3c, 0xed, 0xea, 0xca, 0xbc,
  0x66, 0xbf, 0xff, 0xff, 0x04, 0x00, 0x00, 0x00, 0x64, 0x00, 0x00, 0x00, 0xff,
  0x04, 0x7b, 0x3e, 0x52, 0xd3, 0x3e, 0xbf, 0xae, 0x3f, 0x37, 0xc0, 0x60, 0x11,
  0x70, 0x3c, 0x82, 0x25, 0x2f, 0xbf, 0xaf, 0xa2, 0x66, 0xbe, 0x88, 0x27, 0xd8,
  0x3e, 0x9e, 0x6c, 0xce, 0xbe, 0x8b, 0xee, 0x8e, 0x3f, 0x44, 0xe7, 0x2a, 0x3e,
  0x1e, 0xb3, 0x60, 0x3f, 0x26, 0x8a, 0x95, 0xbe, 0x64, 0xc7, 0x43, 0xbf, 0x0e,
  0x56, 0x9e, 0x3d, 0xaa, 0x8c, 0x2a, 0xbd, 0x99, 0x85, 0x49, 0xbd, 0xdc, 0xaf,
  0xc4, 0xbf, 0x5a, 0x26, 0xf7, 0xbe, 0xe2, 0x2a, 0xe7, 0x3d, 0x18, 0xdb, 0xa0,
  0xbf, 0xc8, 0x1e, 0x2e, 0xbd, 0x02, 0x29, 0x21, 0x3e, 0xdb, 0xf5, 0xef, 0x3d,
  0xf2, 0x2c, 0x95, 0xbf, 0x60, 0xaf, 0x2c, 0x3f, 0xd6, 0xbf, 0xff, 0xff, 0x04,
  0x00, 0x00, 0x00, 0x64, 0x00, 0x00, 0x00, 0xcf, 0x46, 0x57, 0xbf, 0x1a, 0x5d,
  0x1d, 0x3f, 0xb7, 0x1b, 0x1d, 0x3e, 0x85, 0x2e, 0x0a, 0xbf, 0x18, 0xe6, 0xc1,
  0xbd, 0x1c, 0x77, 0x97, 0x3e, 0x0c, 0xfa, 0xa7, 0x3f, 0x9d, 0xc3, 0xe3, 0xbf,
  0x67, 0xb9, 0x0d, 0x3f, 0xa3, 0x86, 0xb2, 0xbe, 0x86, 0x6b, 0xcd, 0xbe, 0x4c,
  0x83, 0x56, 0xbe, 0x66, 0x64, 0x83, 0xbe, 0xcf, 0x71, 0x06, 0xbf, 0xc6, 0xb0,
  0x1f, 0xbf, 0x2a, 0x96, 0x1e, 0x3e, 0x2d, 0xd8, 0xb5, 0x3e, 0x49, 0xca, 0x05,
  0xbf, 0x7f, 0xdd, 0x47, 0x3f, 0x35, 0x75, 0xf2, 0xbe, 0xeb, 0x02, 0xd3, 0x3e,
  0x56, 0x62, 0x28, 0x3f, 0x56, 0x40, 0x42, 0xbe, 0xa4, 0xbc, 0xb2, 0xbe, 0xe9,
  0xc3, 0xe0, 0xbd, 0x46, 0xc0, 0xff, 0xff, 0x04, 0x00, 0x00, 0x00, 0x64, 0x00,
  0x00, 0x00, 0x77, 0xd1, 0x8e, 0x3d, 0xf1, 0xce, 0x8e, 0xbd, 0xa5, 0x5a, 0x8f,
  0x3e, 0xdf, 0xaa, 0x03, 0xbe, 0x8c, 0xf8, 0xb3, 0x3e, 0xd3, 0x36, 0x39, 0xbd,
  0x7c, 0xc1, 0x11, 0x3e, 0xca, 0xc4, 0xff, 0x3d, 0xdb, 0xd6, 0xb9, 0xbe, 0x67,
  0xd8, 0xf7, 0xbe, 0xf2, 0xba, 0x8d, 0x3c, 0xed, 0x09, 0xb8, 0x3e, 0x22, 0x1f,
  0xec, 0xbe, 0x3e, 0x27, 0x23, 0xbf, 0xc3, 0xca, 0x00, 0x3f, 0x0a, 0x2b, 0x1c,
  0x3f, 0x2a, 0x6a, 0x47, 0xbf, 0xed, 0xa4, 0xc4, 0x3f, 0x3d, 0x45, 0x82, 0xbf,
  0x8b, 0x7f, 0xf6, 0xbe, 0xdc, 0x2c, 0xaa, 0x3e, 0xd7, 0xdd, 0xe8, 0x3e, 0xcc,
  0x67, 0xe2, 0x3e, 0x2c, 0xed, 0xbb, 0xbe, 0x2e, 0x07, 0xaa, 0x3e, 0xb6, 0xc0,
  0xff, 0xff, 0x04, 0x00, 0x00, 0x00, 0x64, 0x00, 0x00, 0x00, 0xed, 0x46, 0x5c,
  0x3f, 0xf5, 0x73, 0x70, 0x3f, 0xf9, 0x96, 0xc1, 0x3e, 0xe1, 0x43, 0xc6, 0x3d,
  0x6e, 0xf7, 0x83, 0xbf, 0x6b, 0x66, 0x5d, 0xbd, 0x19, 0x66, 0xac, 0x3e, 0x74,
  0xbf, 0x19, 0x3f, 0x5b, 0x5f, 0x0e, 0xbf, 0x26, 0xa2, 0x0e, 0xbe, 0xcd, 0x96,
  0x16, 0xbf, 0x0b, 0x96, 0x58, 0x3f, 0xe8, 0x30, 0x6b, 0xbd, 0xbc, 0xcf, 0xd2,
  0x3d, 0x96, 0x04, 0x6d, 0x3d, 0x7e, 0x79, 0x72, 0xbf, 0x96, 0x76, 0x37, 0xbf,
  0x2c, 0x59, 0xa4, 0x3e, 0xeb, 0xb4, 0x9f, 0x3e, 0xc4, 0xef, 0x9a, 0xbe, 0x48,
  0x5b, 0xdf, 0xbe, 0x55, 0x28, 0xfb, 0xbe, 0x0e, 0xcf, 0x62, 0xbf, 0xa6, 0x4c,
  0x8e, 0x3e, 0xe9, 0x61, 0x12, 0xbf, 0x26, 0xc1, 0xff, 0xff, 0x04, 0x00, 0x00,
  0x00, 0x64, 0x00, 0x00, 0x00, 0xa9, 0x4c, 0x60, 0x3e, 0x5e, 0x02, 0x59, 0x3f,
  0x94, 0xcd, 0x65, 0x3d, 0x6d, 0x53, 0x22, 0x3e, 0x90, 0xd2, 0x68, 0xbd, 0x15,
  0x9a, 0x2b, 0xbf, 0xa2, 0xf9, 0x8e, 0xbe, 0x0c, 0xab, 0x5a, 0x3e, 0x97, 0x5f,
  0xec, 0x3e, 0x41, 0xaf, 0x93, 0xbe, 0x47, 0x22, 0x8e, 0x3f, 0xab, 0xe0, 0x9d,
  0xbe, 0x63, 0x8e, 0x1b, 0x3f, 0x74, 0xec, 0x3a, 0x3e, 0xc9, 0x4b, 0x9d, 0xbe,
  0xdd, 0x49, 0x3a, 0xbf, 0xda, 0x19, 0xe8, 0xbb, 0x95, 0x96, 0x01, 0xbc, 0xcd,
  0x4c, 0xee, 0x3e, 0xc4, 0x52, 0xd5, 0xbe, 0x2f, 0x0d, 0x9c, 0x3e, 0x61, 0x40,
  0xec, 0x3e, 0x22, 0x2d, 0x42, 0x3e, 0xc1, 0x4e, 0xbd, 0x3e, 0xcb, 0x03, 0xff,
  0x3b, 0x96, 0xc1, 0xff, 0xff, 0x04, 0x00, 0x00, 0x00, 0x64, 0x00, 0x00, 0x00,
  0x26, 0x9f, 0x15, 0x3f, 0x86, 0xc7, 0xcc, 0x3e, 0x7c, 0x31, 0xaa, 0xbe, 0xb0,
  0xc2, 0xad, 0xbc, 0xce, 0xc9, 0x3a, 0x3e, 0xd1, 0xcf, 0x87, 0x3e, 0xd1, 0x0a,
  0x06, 0x3f, 0x75, 0xf7, 0x9c, 0x3c, 0x74, 0x1c, 0x3e, 0xbf, 0xcd, 0x98, 0xc6,
  0x3e, 0x92, 0x14, 0x0c, 0x3e, 0x6a, 0x5a, 0x20, 0x3e, 0xa8, 0xd7, 0x6d, 0xbf,
  0x44, 0x53, 0x36, 0xbf, 0xc8, 0x8d, 0xd0, 0x3e, 0x1c, 0xfd, 0xc2, 0xbc, 0xbf,
  0x88, 0x1b, 0x3e, 0x7a, 0x20, 0x9d, 0xbd, 0xfc, 0x0c, 0xc3, 0xbe, 0x0f, 0x0b,
  0x11, 0x3e, 0x59, 0x4c, 0xdb, 0x3b, 0x8c, 0x0d, 0x75, 0xbc, 0xf9, 0x39, 0x3f,
  0x3d, 0x01, 0x2a, 0xca, 0xbd, 0x8e, 0x95, 0xfd, 0x3d, 0x06, 0xc2, 0xff, 0xff,
  0x04, 0x00, 0x00, 0x00, 0x8c, 0x00, 0x00, 0x00, 0xec, 0x62, 0xe2, 0xbe, 0x13,
  0x5e, 0x1f, 0x3e, 0x2a, 0x76, 0x5d, 0x3d, 0x0a, 0x4a, 0x52, 0x3f, 0xb3, 0xf1,
  0xfc, 0xbd, 0x18, 0x91, 0x76, 0x3d, 0xdd, 0x27, 0xb2, 0x3e, 0x77, 0xf0, 0x8c,
  0x3e, 0x1a, 0xca, 0x14, 0x3d, 0x60, 0x8d, 0x5a, 0xbc, 0xdf, 0x80, 0x1a, 0xbe,
  0x2b, 0x6a, 0xb6, 0xbb, 0x47, 0xb6, 0xc5, 0xbd, 0x5a, 0xe3, 0xb6, 0x3b, 0x01,
  0xd4, 0x11, 0xbc, 0x96, 0xe1, 0x4d, 0xbe, 0x23, 0x71, 0xc8, 0x3d, 0x35, 0x30,
  0xb7, 0x3d, 0xf6, 0xc2, 0x5b, 0xbe, 0xa0, 0xdd, 0x2e, 0x3e, 0x45, 0x2d, 0x8f,
  0xbe, 0x7e, 0x13, 0xba, 0x3c, 0x1a, 0x80, 0xf5, 0x3c, 0xa7, 0xcb, 0x3b, 0xbe,
  0x25, 0x22, 0x77, 0xbc, 0xf4, 0xb3, 0xb2, 0x3c, 0x50, 0x28, 0x9b, 0x3e, 0x83,
  0x7a, 0xce, 0x3d, 0x3e, 0xb2, 0xc3, 0x3c, 0x1e, 0x67, 0x87, 0x3e, 0xdc, 0x6a,
  0x5c, 0xbe, 0x77, 0xb9, 0xae, 0xbc, 0x14, 0x23, 0xd4, 0x3e, 0x2e, 0xee, 0xb6,
  0xbe, 0xce, 0xbc, 0x14, 0xbe, 0x9e, 0xc2, 0xff, 0xff, 0x04, 0x00, 0x00, 0x00,
  0x8c, 0x00, 0x00, 0x00, 0x3e, 0xcc, 0xc8, 0x3d, 0x78, 0xa5, 0x2e, 0x3d, 0x21,
  0x76, 0xa8, 0xbc, 0x5a, 0x94, 0xb0, 0x3e, 0x3a, 0x88, 0x44, 0x3e, 0xaa, 0x38,
  0x51, 0xbd, 0xde, 0xbd, 0x01, 0xbe, 0x67, 0x16, 0x28, 0xbe, 0x07, 0x57, 0xb4,
  0x3e, 0x34, 0xf6, 0x30, 0xbe, 0x6b, 0x8f, 0x0d, 0x3f, 0x58, 0xcb, 0xb9, 0x3e,
  0x3b, 0x5e, 0x55, 0xbe, 0x31, 0x3d, 0x19, 0xbe, 0x8a, 0x5d, 0x4b, 0x3e, 0x75,
  0xc4, 0x04, 0x3f, 0x81, 0x68, 0xc1, 0xbe, 0xf1, 0x4f, 0x72, 0x3d, 0x73, 0x15,
  0x96, 0xbd, 0x16, 0x21, 0xa9, 0xbe, 0xf9, 0xbe, 0x6b, 0xbe, 0x74, 0x40, 0x97,
  0x3e, 0x71, 0x38, 0x87, 0xbe, 0x89, 0x39, 0x3c, 0x3e, 0xb0, 0x24, 0x1c, 0x3e,
  0x0b, 0xa8, 0xb2, 0x3d, 0xba, 0xf1, 0x4c, 0x3e, 0x51, 0xa2, 0x6a, 0xbe, 0x5d,
  0x0d, 0xa7, 0xbe, 0xaf, 0xf6, 0x18, 0x3d, 0x07, 0x4a, 0x9a, 0xbd, 0x0c, 0x6d,
  0xee, 0x3c, 0x26, 0xc2, 0xab, 0xbd, 0xf9, 0x5c, 0xad, 0xbc, 0xf9, 0x85, 0xbc,
  0x3d, 0x36, 0xc3, 0xff, 0xff, 0x04, 0x00, 0x00, 0x00, 0x1c, 0x00, 0x00, 0x00,
  0x00, 0x00, 0x00, 0x00, 0x00, 0x00, 0x00, 0x00, 0x00, 0x00, 0x00, 0x00, 0x00,
  0x00, 0x00, 0x00, 0x00, 0x00, 0x00, 0x00, 0x00, 0x00, 0x00, 0x00, 0x00, 0x00,
  0x00, 0x00, 0x5e, 0xc3, 0xff, 0xff, 0x04, 0x00, 0x00, 0x00, 0x8c, 0x00, 0x00,
  0x00, 0x96, 0x93, 0x98, 0xbc, 0xd4, 0x60, 0x54, 0x3e, 0x72, 0xab, 0x35, 0x3e,
  0xaf, 0x39, 0x0a, 0xbe, 0x9e, 0x71, 0x1c, 0xbe, 0x75, 0x1e, 0xb1, 0xbc, 0x22,
  0x06, 0x02, 0x3e, 0x8e, 0xa7, 0x62, 0xb8, 0x18, 0x2c, 0xf2, 0xbd, 0xfb, 0xc6,
  0xbf, 0xbe, 0x2d, 0x86, 0x84, 0x3d, 0xaa, 0x1d, 0x43, 0xbe, 0x1e, 0x34, 0x43,
  0x3e, 0x96, 0x10, 0x67, 0x3d, 0xd3, 0x37, 0x93, 0x3d, 0xdc, 0xc3, 0xf3, 0xbe,
  0x4e, 0xb6, 0xae, 0x3e, 0x48, 0x0d, 0x90, 0xbe, 0x14, 0x1c, 0xa8, 0xbe, 0x69,
  0x1e, 0xe5, 0x3e, 0xe7, 0x40, 0x91, 0xbe, 0xd5, 0x6f, 0xc0, 0xbe, 0x21, 0x99,
  0xfa, 0xbd, 0xf4, 0xad, 0xf0, 0x3d, 0x2e, 0x5a, 0x9e, 0xbe, 0x98, 0x62, 0x75,
  0xbe, 0x13, 0xf4, 0xad, 0x3e, 0x9d, 0x8c, 0x2a, 0xbe, 0xcd, 0x45, 0xb7, 0xbe,
  0xf9, 0x0a, 0xfd, 0x3d, 0x92, 0x41, 0xb9, 0xbd, 0xf6, 0xa0, 0x4d, 0xbc, 0x67,
  0x6c, 0xe0, 0xbd, 0x93, 0x0d, 0x68, 0x3d, 0x6f, 0x91, 0xa7, 0xbd, 0xf6, 0xc3,
  0xff, 0xff, 0x04, 0x00, 0x00, 0x00, 0x64, 0x00, 0x00, 0x00, 0xb0, 0xf0, 0xf3,
  0x3e, 0xa8, 0x42, 0x15, 0x3f, 0x83, 0xb9, 0xee, 0x3e, 0xef, 0xbc, 0x1f, 0xbe,
  0x5c, 0x5f, 0x36, 0xbf, 0xd9, 0x2f, 0x8b, 0x3e, 0x6f, 0x7c, 0x07, 0xbe, 0xd4,
  0xaa, 0xa0, 0x3e, 0x3d, 0x83, 0x0f, 0xbe, 0xcd, 0x3f, 0xc2, 0xbd, 0x72, 0xce,
  0xaf, 0xbe, 0xae, 0x3d, 0x64, 0xbd, 0x9a, 0x69, 0xd6, 0xbe, 0xdf, 0x69, 0x08,
  0x3e, 0xcd, 0xb1, 0xa2, 0x3e, 0x4e, 0xdc, 0xd0, 0xbe, 0x87, 0xdf, 0xe1, 0x3d,
  0xd9, 0x96, 0xf8, 0x3e, 0xdc, 0xfd, 0x8c, 0x3f, 0x03, 0x9a, 0x52, 0xbe, 0xd8,
  0x67, 0x49, 0xbe, 0x3a, 0x4b, 0x2d, 0x3e, 0xd8, 0xaa, 0x32, 0xbf, 0xdd, 0xd6,
  0x5f, 0x3e, 0xd3, 0x2d, 0x2d, 0x3f, 0x66, 0xc4, 0xff, 0xff, 0x04, 0x00, 0x00,
  0x00, 0x64, 0x00, 0x00, 0x00, 0x91, 0x06, 0x96, 0x3d, 0x39, 0x26, 0xb0, 0xbc,
  0xde, 0x9d, 0x02, 0x3e, 0x76, 0x74, 0xcd, 0x3c, 0x40, 0xf7, 0xe5, 0x3b, 0x76,
  0x17, 0xa4, 0xbe, 0xae, 0xf3, 0xdb, 0x3c, 0xec, 0x3b, 0x93, 0x3e, 0x12, 0xdf,
  0xfc, 0xbe, 0x9a, 0xb1, 0x74, 0x3e, 0x6c, 0x86, 0x92, 0xbd, 0xf0, 0x20, 0xac,
  0xbe, 0xcf, 0x21, 0x15, 0x3f, 0x18, 0x55, 0x0d, 0xbf, 0x22, 0x4a, 0xf3, 0x3e,
  0x78, 0x6d, 0xb7, 0xbe, 0x8d, 0x38, 0xf3, 0xbe, 0x33, 0x1f, 0x69, 0x3e, 0x26,
  0xa8, 0x6b, 0xbe, 0xf8, 0x01, 0x32, 0x3e, 0x0b, 0x60, 0x18, 0x3d, 0x8d, 0x83,
  0x92, 0xbd, 0xd4, 0xab, 0x39, 0x3d, 0x88, 0x18, 0xfe, 0xbc, 0x47, 0xce, 0xa3,
  0xbc, 0xd6, 0xc4, 0xff, 0xff, 0x04, 0x00, 0x00, 0x00, 0x64, 0x00, 0x00, 0x00,
  0x5f, 0x79, 0xf6, 0x3d, 0x62, 0xdf, 0x0f, 0xbe, 0x50, 0xb5, 0xe4, 0xbe, 0xc4,
  0xe5, 0x65, 0xbe, 0x6b, 0xb5, 0xd4, 0xbd, 0x47, 0x23, 0xb2, 0xbc, 0x06, 0x2b,
  0x48, 0x3e, 0x21, 0x3a, 0x06, 0x3f, 0x58, 0x79, 0x90, 0xbd, 0x62, 0x5b, 0xe2,
  0xbe, 0x43, 0x72, 0x07, 0xbe, 0xea, 0x9c, 0x2b, 0xbc, 0xf8, 0xb8, 0x94, 0xbe,
  0x52, 0x7d, 0x46, 0xbf, 0xff, 0xbd, 0x15, 0x3f, 0x54, 0x3c, 0x17, 0x3f, 0xe6,
  0xf3, 0x05, 0xbf, 0x6e, 0x81, 0x0a, 0x3f, 0xb0, 0x70, 0xbc, 0xbe, 0x00, 0x6c,
  0xbb, 0xbe, 0x11, 0xe5, 0x6d, 0x3c, 0x15, 0x6d, 0xb6, 0xbe, 0x3d, 0x3b, 0xdd,
  0xbe, 0xfa, 0xfb, 0xd8, 0xbd, 0x52, 0x62, 0xb2, 0xbd, 0x46, 0xc5, 0xff, 0xff,
  0x04, 0x00, 0x00, 0x00, 0x8c, 0x00, 0x00, 0x00, 0xa4, 0xbc, 0x20, 0x3f, 0x9a,
  0xc2, 0x34, 0x3d, 0xb5, 0x10, 0x1a, 0x3e, 0x36, 0x87, 0x09, 0xbf, 0xa4, 0xe1,
  0x4b, 0x3f, 0x12, 0xeb, 0x91, 0x3e, 0x8f, 0x08, 0xc3, 0x3e, 0x04, 0x82, 0x84,
  0x3d, 0x1c, 0xfe, 0x96, 0x3f, 0x23, 0x1b, 0xe9, 0xbd, 0x3a, 0x9d, 0x96, 0xbe,
  0x38, 0x88, 0x0e, 0x3f, 0x52, 0x0e, 0x96, 0xbe, 0x49, 0xe2, 0x08, 0x3e, 0x56,
  0xe1, 0x69, 0xbe, 0x9c, 0x27, 0x57, 0xbd, 0xca, 0xde, 0xa5, 0xbe, 0x9e, 0xdd,
  0xb9, 0x3e, 0x06, 0xac, 0x10, 0xbe, 0xe3, 0x9c, 0x32, 0x3e, 0x65, 0x4c, 0xd1,
  0xbe, 0x0e, 0xbb, 0xce, 0xbc, 0x93, 0xf5, 0x08, 0xbe, 0x55, 0xe0, 0xbe, 0x3e,
  0xd2, 0xb0, 0xcf, 0xbd, 0xdf, 0x0c, 0xf0, 0xbd, 0x46, 0xf7, 0xcf, 0xbe, 0x9b,
  0x43, 0x87, 0xbc, 0xf8, 0x2f, 0x6f, 0xbe, 0x4f, 0x70, 0x50, 0x3b, 0xb0, 0x92,
  0x06, 0xbf, 0xc9, 0x99, 0x4c, 0x3e, 0x0a, 0xb1, 0xb6, 0xbd, 0x9b, 0x9a, 0x9c,
  0x3e, 0x19, 0xe2, 0xc4, 0xbe, 0xde, 0xc5, 0xff, 0xff, 0x04, 0x00, 0x00, 0x00,
  0x8c, 0x00, 0x00, 0x00, 0x3e, 0xcf, 0x56, 0x3d, 0x7d, 0x36, 0x4b, 0x3f, 0xf0,
  0x90, 0x7d, 0x3e, 0xf0, 0x1f, 0x24, 0x3e, 0x5c, 0xb8, 0xaf, 0x3e, 0xac, 0x70,
  0x8b, 0x3e, 0x4a, 0xff, 0x67, 0x3e, 0x83, 0x21, 0xdd, 0xbe, 0xc0, 0x76, 0xe8,
  0x3e, 0xbe, 0x26, 0x52, 0x3e, 0x80, 0x85, 0x9a, 0x3e, 0xdb, 0xbf, 0xcb, 0x3e,
  0x2b, 0x8b, 0x6c, 0xbe, 0x16, 0x93, 0x00, 0x3f, 0x57, 0x1c, 0xcb, 0x3e, 0xb6,
  0x69, 0x7b, 0x3e, 0x48, 0x23, 0xbe, 0x3e, 0xbd, 0xdc, 0xcc, 0x3e, 0x4c, 0xe7,
  0xbe, 0x3d, 0x29, 0x43, 0x05, 0xbf, 0xa2, 0x28, 0x51, 0x3e, 0x3d, 0x4c, 0x95,
  0x3e, 0xd5, 0xc9, 0x2a, 0xbe, 0x39, 0x63, 0x84, 0xbd, 0xd9, 0x25, 0x2d, 0xbe,
  0x54, 0x5f, 0x6a, 0xbd, 0x17, 0x8b, 0x0a, 0x3f, 0x98, 0xc5, 0x04, 0xbb, 0x77,
  0x94, 0x7e, 0xbe, 0xbe, 0xba, 0x44, 0x3e, 0x91, 0xdb, 0x2c, 0x3e, 0xa9, 0x64,
  0xab, 0x3d, 0xfa, 0x5f, 0xdf, 0x3d, 0x97, 0xb7, 0x15, 0xbd, 0x07, 0x8f, 0xa1,
  0x3d, 0x76, 0xc6, 0xff, 0xff, 0x04, 0x00, 0x00, 0x00, 0x8c, 0x00, 0x00, 0x00,
  0x64, 0x45, 0x84, 0xbe, 0xfe, 0x3a, 0x48, 0x3e, 0xfb, 0x10, 0xd5, 0x3d, 0x4f,
  0x0e, 0x84, 0x3e, 0x8c, 0x2e, 0xfd, 0x3e, 0xa3, 0x14, 0x2a, 0xbe, 0x1a, 0x74,
  0x27, 0xbf, 0xed, 0x4c, 0x98, 0xbd, 0x9c, 0xd8, 0xd3, 0x3e, 0x08, 0xd7, 0x37,
  0x3e, 0x0f, 0xe1, 0xb2, 0x3e, 0x4a, 0xc1, 0xf6, 0xbd, 0x1c, 0xa2, 0x2e, 0x3f,
  0xce, 0x4b, 0x82, 0xbc, 0xdd, 0xcb, 0x11, 0xbf, 0x8a, 0x5c, 0xb6, 0x3d, 0x0e,
  0x69, 0x1b, 0x3f, 0xe9, 0xa5, 0x8c, 0xbc, 0xca, 0xff, 0x22, 0x3f, 0xf5, 0xd9,
  0x9b, 0x3d, 0xc5, 0x15, 0x96, 0xbe, 0xdc, 0x89, 0xfc, 0xbe, 0x71, 0x9a, 0xc9,
  0xbc, 0x69, 0xd3, 0x1d, 0x3f, 0x8d, 0x62, 0x1b, 0x3f, 0x06, 0x9b, 0x59, 0xbd,
  0x4e, 0xc9, 0x17, 0xbe, 0xd9, 0x02, 0x4c, 0xbe, 0x21, 0x5c, 0x33, 0xbe, 0x58,
  0x4a, 0xac, 0x3d, 0x3b, 0x29, 0x5d, 0x3e, 0xdc, 0xaa, 0x58, 0xbe, 0x7b, 0x8f,
  0x34, 0x3e, 0xad, 0xfc, 0x88, 0xbc, 0x17, 0xc3, 0x70, 0x3e, 0x0e, 0xc7, 0xff,
  0xff, 0x04, 0x00, 0x00, 0x00, 0xfc, 0x00, 0x00, 0x00, 0x97, 0x07, 0x16, 0xbd,
  0xcf, 0x44, 0x9f, 0xbd, 0xc6, 0x6f, 0xa7, 0x3f, 0xad, 0xd9, 0xd6, 0xbd, 0x41,
  0x30, 0x82, 0x3e, 0xdc, 0xba, 0xbc, 0x3e, 0x36, 0xbd, 0xf8, 0xbd, 0xa4, 0xa3,
  0xef, 0x3d, 0x53, 0x02, 0x25, 0xbd, 0xca, 0xa2, 0x75, 0xbf, 0x29, 0xb7, 0xce,
  0xbe, 0x68, 0xab, 0xca, 0x3c, 0xc4, 0xba, 0x2c, 0x3d, 0x50, 0xb3, 0x5f, 0x3e,
  0x69, 0x74, 0xbf, 0x3e, 0x9a, 0x01, 0x3f, 0xbe, 0xd7, 0x67, 0x52, 0x3e, 0xd8,
  0x39, 0x02, 0xbf, 0x7c, 0xcb, 0xad, 0xbd, 0x73, 0xab, 0x90, 0x3c, 0xed, 0xbb,
  0x3e, 0x3e, 0x81, 0xeb, 0x6e, 0x3f, 0x3f, 0x59, 0xb4, 0xbe, 0x96, 0x2f, 0x00,
  0x3b, 0xea, 0xf9, 0x7b, 0xbf, 0x47, 0x5a, 0x08, 0x3e, 0x30, 0xad, 0xe7, 0x3d,
  0xc7, 0xc3, 0x94, 0xbe, 0xc1, 0x08, 0x35, 0xbf, 0x9c, 0x48, 0x4e, 0x3e, 0x36,
  0x22, 0xb1, 0xbb, 0x85, 0x51, 0xa7, 0xbe, 0x40, 0x1b, 0x19, 0x3f, 0xc7, 0xdf,
  0x16, 0xbe, 0x22, 0xfd, 0x2e, 0xbe, 0x77, 0x77, 0x2a, 0xbf, 0x39, 0xe2, 0x3d,
  0x3f, 0x03, 0xfc, 0x8f, 0xbe, 0x99, 0x70, 0x3b, 0x3d, 0x39, 0x31, 0x4d, 0x3d,
  0x07, 0x18, 0x3d, 0xbe, 0x5d, 0xe0, 0xd6, 0x3d, 0x4e, 0x29, 0x74, 0x3e, 0x0c,
  0x72, 0x0d, 0x3e, 0xb1, 0x82, 0x9a, 0xbe, 0x92, 0x22, 0x56, 0xbe, 0x06, 0x1b,
  0x52, 0x3e, 0x41, 0xad, 0xf2, 0xbe, 0xcd, 0x33, 0x49, 0xbd, 0x6a, 0x10, 0xac,
  0x3e, 0x5c, 0x87, 0x11, 0x3f, 0x01, 0x71, 0xa9, 0xbc, 0x2c, 0xad, 0x3a, 0x3e,
  0xfa, 0xb0, 0x10, 0xbf, 0x50, 0x85, 0x92, 0x3e, 0x9b, 0x71, 0x98, 0xbb, 0x4e,
  0x6f, 0xe7, 0x3d, 0x32, 0x50, 0x0d, 0x3f, 0xa0, 0xc9, 0xb7, 0x3e, 0x19, 0x4e,
  0x96, 0xbe, 0xe1, 0x40, 0x82, 0xbe, 0xd1, 0x49, 0x12, 0x3f, 0x72, 0x54, 0x4a,
  0x3e, 0x16, 0xc8, 0xff, 0xff, 0x04, 0x00, 0x00, 0x00, 0xb4, 0x00, 0x00, 0x00,
  0xe4, 0x09, 0x08, 0xbe, 0xe8, 0x4e, 0x83, 0xbe, 0x65, 0x09, 0x0a, 0x3e, 0xd8,
  0xd0, 0x04, 0xbe, 0x2b, 0x04, 0x74, 0x3e, 0x7c, 0x11, 0x36, 0x3e, 0x3f, 0x96,
  0x14, 0xbe, 0x4c, 0x10, 0x75, 0x3e, 0xd4, 0xbf, 0x3c, 0xbe, 0x0c, 0xd8, 0xf5,
  0x3e, 0x2a, 0xc2, 0xfa, 0xbd, 0xb5, 0xaf, 0x29, 0x3f, 0x7c, 0xc1, 0x99, 0x3e,
  0xf7, 0x8f, 0x84, 0xbd, 0x61, 0x4d, 0x31, 0x3d, 0x75, 0x9f, 0x5d, 0x3e, 0x32,
  0x65, 0xc2, 0xbe, 0xf4, 0xfe, 0x42, 0xbe, 0xa1, 0x1c, 0x86, 0xbe, 0x9a, 0xb0,
  0x08, 0xbf, 0x37, 0xfe, 0x16, 0x3e, 0x81, 0xa0, 0xa8, 0xbe, 0x86, 0x28, 0x29,
  0x3d, 0xb3, 0xe9, 0x01, 0x3f, 0xff, 0x6f, 0x84, 0xbe, 0x98, 0xe7, 0x9a, 0xbe,
  0x43, 0x7f, 0xed, 0xbe, 0x26, 0xed, 0xd0, 0xbe, 0x39, 0x0a, 0x65, 0xbe, 0x01,
  0x51, 0x7f, 0x3e, 0x24, 0x2c, 0xf9, 0xbe, 0x53, 0x94, 0x5b, 0x3e, 0xdb, 0xc4,
  0x5a, 0x3e, 0x67, 0xd4, 0xe9, 0xbe, 0x3c, 0x34, 0x3b, 0xbd, 0xd6, 0x41, 0x13,
  0xbf, 0x36, 0x94, 0xb7, 0xbd, 0x75, 0x2e, 0xbe, 0x3d, 0x98, 0xaf, 0x19, 0xbd,
  0xa9, 0x67, 0x16, 0xbe, 0x24, 0x99, 0x92, 0x3e, 0x17, 0x43, 0xc3, 0x3e, 0x53,
  0xab, 0x41, 0xbe, 0x71, 0x69, 0xad, 0x3d, 0xb2, 0x66, 0x96, 0xbe, 0xd6, 0xc8,
  0xff, 0xff, 0x04, 0x00, 0x00, 0x00, 0x24, 0x00, 0x00, 0x00, 0x00, 0x00, 0x00,
  0x00, 0x00, 0x00, 0x00, 0x00, 0x00, 0x00, 0x00, 0x00, 0x00, 0x00, 0x00, 0x00,
  0x00, 0x00, 0x00, 0x00, 0x00, 0x00, 0x00, 0x00, 0x00, 0x00, 0x00, 0x00, 0x00,
  0x00, 0x00, 0x00, 0x00, 0x00, 0x00, 0x00, 0x06, 0xc9, 0xff, 0xff, 0x04, 0x00,
  0x00, 0x00, 0xb4, 0x00, 0x00, 0x00, 0xa8, 0xf1, 0x61, 0x3e, 0x65, 0x76, 0xe1,
  0x3d, 0xa5, 0x4c, 0x39, 0xbe, 0xdc, 0xb8, 0x59, 0x3e, 0xdd, 0xfb, 0xa2, 0xbd,
  0x78, 0x53, 0x9f, 0x3e, 0xc0, 0xaa, 0x45, 0xbe, 0x17, 0x40, 0x57, 0xbe, 0xc7,
  0x23, 0xad, 0xbe, 0x16, 0x1b, 0xfa, 0x3e, 0xc6, 0x18, 0xc0, 0x3e, 0x82, 0xd8,
  0x34, 0x3f, 0x75, 0xd0, 0x03, 0x3f, 0xe2, 0x17, 0x31, 0xbe, 0x79, 0xba, 0x1a,
  0x3f, 0x42, 0x98, 0xf1, 0xbe, 0x46, 0x77, 0x00, 0x3e, 0x12, 0xdf, 0x1d, 0xbf,
  0x33, 0xf5, 0x39, 0x3e, 0xee, 0x2d, 0xe7, 0x3c, 0xcf, 0xe5, 0x83, 0xbc, 0x68,
  0x78, 0x01, 0xbf, 0x2e, 0xf1, 0xb6, 0xbc, 0x3c, 0x8e, 0x2b, 0x3d, 0x57, 0xb6,
  0xff, 0x3e, 0xec, 0xd0, 0xce, 0x3e, 0xf1, 0x22, 0x72, 0x3c, 0xa9, 0x7c, 0x86,
  0x3c, 0x1d, 0xaa, 0xf5, 0x3c, 0xf7, 0x16, 0x9d, 0xbd, 0x28, 0x1b, 0xe9, 0x3d,
  0x25, 0x86, 0x3f, 0xbe, 0x58, 0xc3, 0xea, 0x3d, 0x3a, 0x36, 0x52, 0xbe, 0x86,
  0x96, 0x02, 0xbe, 0x03, 0x4f, 0x45, 0xbd, 0x35, 0x91, 0x84, 0xbc, 0xb6, 0x25,
  0x26, 0x3d, 0x4a, 0x30, 0xc9, 0x3d, 0xff, 0xef, 0x03, 0xbe, 0x2c, 0x22, 0x2d,
  0xbb, 0x5e, 0x37, 0x0d, 0x3d, 0xeb, 0x76, 0xc3, 0x3d, 0x22, 0xd8, 0x9d, 0x3e,
  0x78, 0x5a, 0xcd, 0xbc, 0xc6, 0xc9, 0xff, 0xff, 0x04, 0x00, 0x00, 0x00, 0xc4,
  0x00, 0x00, 0x00, 0x17, 0xff, 0x54, 0xbf, 0x65, 0x3d, 0xca, 0xbc, 0x27, 0xe7,
  0xe5, 0xbe, 0x21, 0x0e, 0xf6, 0x3e, 0x77, 0xd9, 0x5b, 0x3e, 0xde, 0xd0, 0x70,
  0x3d, 0x6f, 0x6b, 0x20, 0xbd, 0xed, 0xc0, 0xb1, 0x3d, 0x7b, 0x15, 0x2d, 0x3f,
  0x0b, 0xfb, 0x32, 0x3f, 0x2d, 0x48, 0x33, 0xbf, 0xa7, 0x93, 0x38, 0xbe, 0x1d,
  0xe2, 0x1c, 0x3f, 0x65, 0xd2, 0x90, 0xbd, 0x1f, 0x3b, 0xa1, 0x3c, 0x9e, 0x46,
  0x42, 0x3e, 0x0e, 0x4e, 0x7a, 0x3f, 0x80, 0xce, 0x02, 0x3e, 0x36, 0x47, 0x06,
  0x3f, 0xf9, 0x89, 0x4c, 0xbe, 0xd4, 0x93, 0x9f, 0xbf, 0x0b, 0x67, 0x27, 0x3e,
  0xae, 0x41, 0x6e, 0xba, 0x1e, 0xb2, 0x3f, 0xbf, 0x7e, 0xbe, 0xa1, 0xbd, 0x18,
  0xf8, 0x8b, 0xbe, 0xfe, 0xbc, 0xeb, 0xbe, 0xb9, 0x61, 0x25, 0x3e, 0x72, 0x4a,
  0x6a, 0xbe, 0x87, 0x51, 0x08, 0x3f, 0xc0, 0x31, 0x0b, 0x3f, 0x7e, 0x48, 0x07,
  0xbd, 0xf4, 0x08, 0xe5, 0xbe, 0x1f, 0xb6, 0x86, 0xbf, 0xe4, 0xd5, 0x03, 0x3e,
  0x81, 0xf6, 0xd1, 0xbe, 0xa2, 0x6f, 0x5c, 0x3f, 0x0b, 0x4a, 0x84, 0x3f, 0xcc,
  0x2c, 0x6b, 0xbe, 0x02, 0x0e, 0x72, 0xbf, 0x6a, 0x82, 0x2a, 0xbb, 0xb5, 0xcb,
  0xb5, 0x3e, 0x7c, 0x66, 0xff, 0xbe, 0xd3, 0xef, 0x0c, 0x3f, 0x07, 0x9f, 0xcd,
  0xbd, 0x19, 0x95, 0x94, 0xbf, 0x33, 0xe1, 0x84, 0xbf, 0x80, 0x50, 0xdf, 0x3e,
  0x0b, 0xa9, 0xb6, 0xbe, 0x96, 0xca, 0xff, 0xff, 0x04, 0x00, 0x00, 0x00, 0x8c,
  0x00, 0x00, 0x00, 0x51, 0xa9, 0x60, 0x3e, 0xec, 0x25, 0x46, 0x3b, 0x54, 0x8c,
  0x2e, 0xbe, 0x40, 0x54, 0xc5, 0x3a, 0x1e, 0x50, 0xb2, 0x3d, 0xc1, 0x7a, 0x35,
  0xbe, 0xb1, 0x3f, 0x54, 0xbe, 0x8a, 0x7c, 0x77, 0xbe, 0x32, 0x52, 0xcb, 0xb9,
  0xbb, 0xb5, 0xba, 0x3e, 0x52, 0x5e, 0x5e, 0xbe, 0x04, 0x9f, 0x4d, 0xbe, 0xd1,
  0x9c, 0xc1, 0x3c, 0xfe, 0xb8, 0xb5, 0xbd, 0x7e, 0x59, 0x20, 0x3d, 0x50, 0x1f,
  0xf1, 0xbc, 0x63, 0x66, 0x0b, 0xbf, 0xb6, 0x52, 0x1d, 0x3e, 0xf5, 0x11, 0x05,
  0x3e, 0xe8, 0xcb, 0xed, 0x3e, 0x7d, 0x9c, 0x0b, 0xbd, 0x54, 0xc4, 0xa9, 0x3e,
  0x4d, 0x5f, 0x44, 0xbf, 0x19, 0xd1, 0x85, 0x3f, 0xf6, 0x61, 0x21, 0xbf, 0xa4,
  0x89, 0xd1, 0x3e, 0x46, 0x95, 0x69, 0xbf, 0x41, 0xa8, 0x0b, 0xbf, 0x76, 0xbc,
  0x34, 0x3f, 0x58, 0x0b, 0x23, 0xbe, 0x7b, 0xa4, 0xff, 0x3e, 0x23, 0x95, 0x70,
  0xbe, 0xa4, 0x7b, 0x19, 0x3f, 0x8c, 0xb9, 0xbf, 0xbe, 0xef, 0x93, 0x03, 0xbf,
  0x2e, 0xcb, 0xff, 0xff, 0x04, 0x00, 0x00, 0x00, 0x8c, 0x00, 0x00, 0x00, 0xa6,
  0xaf, 0x43, 0xbf, 0x01, 0x5b, 0x9d, 0xbe, 0x93, 0x36, 0x18, 0xbe, 0x86, 0x73,
  0x9a, 0xbe, 0x17, 0xd3, 0x21, 0x3f, 0x44, 0x58, 0x00, 0xbd, 0x86, 0x2c, 0xe7,
  0xbe, 0xd3, 0x35, 0x8e, 0x3e, 0xe8, 0x70, 0x99, 0xbe, 0x80, 0x06, 0x62, 0x3f,
  0xa4, 0xcb, 0x52, 0xbf, 0x6a, 0x68, 0x50, 0xbe, 0x6d, 0xbc, 0x8b, 0x3e, 0x33,
  0x0a, 0x7a, 0xbf, 0xed, 0xaa, 0xb5, 0xbe, 0x49, 0x36, 0x05, 0x3f, 0x95, 0x27,
  0x20, 0xbf, 0x11, 0x1a, 0x5b, 0xbd, 0x18, 0x36, 0x4c, 0xbf, 0xc6, 0x1f, 0x06,
  0x3f, 0xcf, 0x4e, 0x60, 0x3c, 0xeb, 0xed, 0x83, 0x3e, 0x7a, 0xf9, 0x99, 0xbe,
  0x7a, 0x76, 0xad, 0x3e, 0x72, 0xff, 0x87, 0xbe, 0x85, 0xd2, 0x56, 0xbd, 0x8b,
  0xa8, 0xbe, 0xbe, 0x90, 0x7f, 0x28, 0xbe, 0xd7, 0x8a, 0x0e, 0xbe, 0x35, 0xe2,
  0x94, 0xbb, 0x21, 0xde, 0xbf, 0xbd, 0xb2, 0x43, 0x04, 0xbe, 0xeb, 0x3e, 0xe7,
  0xbd, 0x6c, 0x32, 0xf7, 0x3d, 0xb8, 0xb2, 0xc1, 0xbd, 0xc6, 0xcb, 0xff, 0xff,
  0x04, 0x00, 0x00, 0x00, 0xfc, 0x00, 0x00, 0x00, 0xd4, 0x86, 0xe1, 0x3e, 0x68,
  0x30, 0x8b, 0xbf, 0xe3, 0x4a, 0x22, 0x3f, 0x67, 0x38, 0xfd, 0x3e, 0x6c, 0xf1,
  0x47, 0x3f, 0x15, 0xc4, 0xed, 0x3d, 0x30, 0x15, 0x04, 0xbe, 0xf6, 0x0e, 0x91,
  0xbe, 0xa1, 0x08, 0x2b, 0x3f, 0x35, 0xe4, 0xdb, 0xbd, 0xdf, 0xe7, 0xe3, 0xbe,
  0x8f, 0x44, 0xb3, 0xbb, 0x1b, 0x1b, 0x9b, 0xbe, 0x82, 0x04, 0x83, 0xbe, 0xa2,
  0xad, 0xcd, 0x3d, 0xe8, 0x12, 0x0b, 0x3f, 0xfa, 0x11, 0xae, 0xbf, 0x40, 0x08,
  0x82, 0x3e, 0x6f, 0x7e, 0x38, 0x3e, 0x4a, 0x9c, 0x23, 0xbe, 0xc6, 0x6e, 0x8a,
  0xbe, 0xed, 0x86, 0xd1, 0x3e, 0x71, 0x57, 0x39, 0x3d, 0xd4, 0x59, 0x0e, 0x3e,
  0xac, 0x12, 0xfa, 0x3c, 0x77, 0x17, 0xc6, 0xbd, 0x38, 0x4d, 0x36, 0x3d, 0x8a,
  0x42, 0x7b, 0xbe, 0x3c, 0xe7, 0xff, 0xbd, 0xb3, 0x31, 0xa9, 0xbe, 0xb8, 0xbf,
  0xa7, 0xbe, 0xa8, 0x7e, 0xe7, 0x3d, 0x27, 0x73, 0x02, 0x3e, 0x4f, 0xe8, 0x06,
  0xbe, 0x19, 0xab, 0x8d, 0x3e, 0x77, 0x50, 0x0a, 0x3f, 0x6e, 0x3c, 0x63, 0x3e,
  0xf3, 0xf6, 0xc6, 0xbe, 0xe2, 0x98, 0x40, 0x3f, 0x2e, 0xe1, 0x8a, 0xbd, 0xa0,
  0x85, 0x43, 0xbe, 0x43, 0x84, 0xd6, 0xbd, 0x1c, 0x9c, 0x05, 0xbf, 0xd1, 0x33,
  0x9a, 0xbe, 0x5e, 0x8c, 0x02, 0xbd, 0x50, 0x6e, 0xb0, 0xbd, 0x8e, 0x48, 0xbf,
  0x3d, 0xd6, 0x04, 0xf6, 0x3e, 0x40, 0x03, 0x22, 0x3e, 0x84, 0xa4, 0xa0, 0xbf,
  0x10, 0x4d, 0x86, 0xbc, 0xa3, 0x10, 0xa8, 0x3e, 0xcb, 0x22, 0x02, 0xbe, 0xec,
  0x55, 0x2a, 0xbe, 0xb4, 0xc2, 0x0a, 0x3f, 0xe2, 0x99, 0x9c, 0x3e, 0xa1, 0x55,
  0x61, 0x3e, 0x11, 0xa4, 0xef, 0x3e, 0x0e, 0x76, 0xda, 0x3d, 0x3a, 0xab, 0x72,
  0xbf, 0x2e, 0xf7, 0x14, 0xbf, 0xb7, 0xa4, 0x9f, 0xbd, 0xdb, 0xf8, 0x5c, 0x3e,
  0xce, 0xcc, 0xff, 0xff, 0x04, 0x00, 0x00, 0x00, 0xb4, 0x00, 0x00, 0x00, 0xd5,
  0xe4, 0x14, 0x3e, 0x9d, 0xd5, 0x20, 0xbe, 0x00, 0x2b, 0x28, 0xbe, 0xd8, 0xf5,
  0xa5, 0x3c, 0xb1, 0xc7, 0xff, 0x3c, 0xf8, 0x2e, 0x0f, 0x3e, 0x48, 0x6c, 0xdb,
  0xbc, 0x8d, 0x19, 0x48, 0xbe, 0xd1, 0x39, 0x3c, 0x3b, 0x8f, 0x5d, 0x49, 0x3e,
  0x19, 0xcd, 0x87, 0xbe, 0x68, 0xa6, 0x41, 0xbe, 0x30, 0xa9, 0xb8, 0x3e, 0x44,
  0xb7, 0x3a, 0xbf, 0x5f, 0x7f, 0x1f, 0xbf, 0xf6, 0x0c, 0xce, 0x3e, 0x0c, 0x6b,
  0x3e, 0xbe, 0xf2, 0xb8, 0x2e, 0x3e, 0x96, 0xed, 0x4a, 0x3e, 0x79, 0x36, 0x96,
  0xbd, 0x70, 0x42, 0x76, 0xbe, 0xeb, 0x67, 0x92, 0x3d, 0x36, 0x80, 0x3f, 0x3d,
  0x47, 0x92, 0x41, 0xbd, 0x3a, 0xfa, 0xcf, 0x3e, 0x3e, 0x83, 0xc5, 0xbd, 0xcc,
  0xd2, 0x76, 0x3e, 0xb4, 0xbe, 0xc7, 0x3c, 0x83, 0x04, 0x53, 0xbd, 0xd5, 0x8d,
  0x12, 0xbe, 0xff, 0xa0, 0xaa, 0x3d, 0xc6, 0x9d, 0x40, 0x3e, 0x25, 0x67, 0x27,
  0xbe, 0xbd, 0x8c, 0x4a, 0x3d, 0x87, 0xef, 0x46, 0xbd, 0xc9, 0x44, 0xb1, 0x3d,
  0x89, 0x26, 0xb2, 0x3d, 0xfb, 0xcd, 0x9a, 0xbd, 0xb0, 0x74, 0x6d, 0x3d, 0xe6,
  0xa7, 0x29, 0x3d, 0xb1, 0xcd, 0x23, 0xbe, 0x06, 0x81, 0xed, 0x3c, 0xa5, 0x17,
  0xfe, 0xba, 0xc2, 0x75, 0x0e, 0xbd, 0xe9, 0xe0, 0x9f, 0xbc, 0x8e, 0xcd, 0xff,
  0xff, 0x04, 0x00, 0x00, 0x00, 0xb4, 0x00, 0x00, 0x00, 0xb2, 0x64, 0x6e, 0x3e,
  0xd7, 0xef, 0xb9, 0xbd, 0x08, 0xb8, 0x8c, 0xbd, 0x6e, 0x91, 0x87, 0xbe, 0xbb,
  0x83, 0x2b, 0xbd, 0xbe, 0xf7, 0x01, 0xbe, 0xbd, 0x33, 0xee, 0x3d, 0x01, 0x04,
  0xe1, 0x3d, 0x4a, 0x01, 0x4a, 0x3e, 0x5c, 0xd4, 0x8f, 0x3e, 0x49, 0xe9, 0x05,
  0x3d, 0x38, 0x88, 0xd6, 0xbd, 0xbd, 0x2e, 0xae, 0xbc, 0xf0, 0xa5, 0x8a, 0x3d,
  0x8c, 0xae, 0x77, 0x3e, 0x82, 0x4a, 0x73, 0xbe, 0xdb, 0x74, 0xee, 0x3d, 0x90,
  0x03, 0x4e, 0xbe, 0xf0, 0x47, 0xdf, 0xbe, 0xfb, 0xbc, 0x1d, 0x3f, 0xeb, 0x2f,
  0xef, 0x3d, 0x0f, 0x73, 0x30, 0x3d, 0xc7, 0x89, 0xcd, 0xbe, 0xa6, 0x33, 0x07,
  0xbe, 0x8c, 0x45, 0x0d, 0x3f, 0x37, 0x71, 0xb5, 0xbe, 0x2c, 0xae, 0x4a, 0xbe,
  0x6e, 0x1e, 0x1d, 0xbe, 0x45, 0x2d, 0xf3, 0xbe, 0x71, 0x59, 0xa0, 0x3e, 0x26,
  0x16, 0x24, 0x3f, 0x4c, 0x38, 0xf6, 0xbd, 0x0b, 0x3e, 0x0a, 0x3f, 0xfa, 0x80,
  0x65, 0xbe, 0x31, 0x9d, 0xfc, 0x3e, 0x86, 0xba, 0x6a, 0x3e, 0x2d, 0x7e, 0xb3,
  0x3e, 0xc1, 0xb3, 0x6d, 0xbe, 0xd1, 0xc3, 0x0b, 0x3f, 0x44, 0x55, 0xe5, 0xbe,
  0x29, 0x17, 0x5a, 0xbe, 0x74, 0x99, 0x3a, 0xbe, 0x86, 0x6b, 0x96, 0x3e, 0xdd,
  0xca, 0x10, 0x3f, 0x61, 0x6e, 0xae, 0xbe, 0x4e, 0xce, 0xff, 0xff, 0x04, 0x00,
  0x00, 0x00, 0xb0, 0x01, 0x00, 0x00, 0xba, 0xbe, 0x75, 0xbf, 0xa4, 0x31, 0x59,
  0x3f, 0x94, 0x52, 0x4c, 0xbf, 0x0d, 0x9b, 0x25, 0xbe, 0x58, 0xa0, 0x38, 0xbf,
  0xd6, 0x84, 0xf1, 0x3e, 0x73, 0x5b, 0x27, 0x3f, 0x5b, 0xd4, 0xe7, 0x3d, 0xcd,
  0x96, 0x06, 0xbe, 0xe6, 0xb3, 0xd8, 0x3d, 0x5d, 0x71, 0xe3, 0x3e, 0xed, 0xf2,
  0x52, 0xbf, 0x0b, 0xc2, 0x98, 0x3e, 0x9d, 0x14, 0x7d, 0xbe, 0x0f, 0xf6, 0xed,
  0xbd, 0xb8, 0x96, 0x95, 0x3f, 0x2e, 0x48, 0x6c, 0x3c, 0x49, 0x03, 0x86, 0xbe,
  0xa5, 0x70, 0x14, 0xbf, 0xc8, 0x54, 0x59, 0xbe, 0x8a, 0x99, 0x6c, 0x3f, 0xd3,
  0x4e, 0x0e, 0xbf, 0xeb, 0x8e, 0x38, 0xbe, 0x16, 0x18, 0x6f, 0x3f, 0x17, 0x39,
  0xe0, 0x3b, 0x0d, 0x88, 0xc2, 0xbd, 0xf7, 0x4b, 0x06, 0x3e, 0x11, 0xb0, 0x6e,
  0x3d, 0xa0, 0x66, 0x65, 0xbd, 0x25, 0x00, 0x03, 0xbf, 0x27, 0x17, 0xa1, 0xbd,
  0xaf, 0x4c, 0xcf, 0x3d, 0x61, 0x56, 0x11, 0x3c, 0x9e, 0x61, 0x9f, 0x3e, 0x48,
  0xf2, 0xca, 0xbc, 0x03, 0x3c, 0xf9, 0x3d, 0x33, 0x84, 0x23, 0xbf, 0xf1, 0xd0,
  0xc7, 0x3e, 0x12, 0xa5, 0x66, 0x3f, 0x33, 0x2a, 0xe3, 0xbe, 0xfa, 0xda, 0xcc,
  0x3c, 0x54, 0x7a, 0xd4, 0x3e, 0x85, 0x8c, 0xe4, 0xbd, 0xae, 0x11, 0x0e, 0xbf,
  0xae, 0xa0, 0xab, 0xbe, 0x05, 0xe4, 0xb8, 0x3d, 0xd6, 0x76, 0x3c, 0x3e, 0x49,
  0x0d, 0x41, 0x3e, 0x91, 0x47, 0xab, 0x3d, 0x4c, 0xdc, 0x9f, 0xbe, 0xd9, 0xf7,
  0xa3, 0xbe, 0x56, 0x31, 0x64, 0x3d, 0xc6, 0x13, 0x6d, 0x3f, 0xea, 0x67, 0x38,
  0x3f, 0xc0, 0xa0, 0x52, 0xbd, 0x92, 0x45, 0x18, 0xbf, 0x2a, 0x27, 0xdd, 0xbe,
  0xa5, 0x61, 0x28, 0x3d, 0x46, 0x31, 0x48, 0x3e, 0x7b, 0x83, 0x92, 0x3d, 0x4a,
  0x87, 0xde, 0x3e, 0x41, 0xba, 0x71, 0x3e, 0x63, 0x7f, 0xe4, 0xbe, 0xb1, 0xfa,
  0xdd, 0xbe, 0xb0, 0x0c, 0x45, 0xbe, 0xb0, 0x2d, 0x82, 0xbe, 0xc6, 0x57, 0x04,
  0xbf, 0x6e, 0x85, 0x03, 0xbe, 0x90, 0x40, 0x82, 0xbe, 0x97, 0x01, 0x41, 0xbf,
  0x4d, 0xe4, 0xac, 0xbe, 0x8b, 0x1a, 0x2b, 0x3e, 0xe1, 0xde, 0xec, 0xbe, 0x4e,
  0x69, 0x86, 0xbe, 0x34, 0xe6, 0x1b, 0xbf, 0xc8, 0xf1, 0xc6, 0xbe, 0xea, 0x04,
  0xfe, 0x3d, 0x45, 0x9f, 0x56, 0xbc, 0x24, 0xd6, 0xd4, 0x3d, 0x64, 0x1d, 0x84,
  0x3e, 0x88, 0x23, 0x04, 0x3f, 0x30, 0x61, 0xc0, 0xbd, 0xbd, 0x67, 0xd5, 0xbc,
  0xa5, 0x2a, 0xc5, 0xbe, 0x4a, 0x58, 0x62, 0x3e, 0x4a, 0xfa, 0x66, 0xbe, 0xd0,
  0xf6, 0x87, 0x3d, 0xbe, 0x70, 0xd9, 0x3e, 0x71, 0x80, 0xd4, 0x3e, 0xea, 0x56,
  0x50, 0xbe, 0xc6, 0x53, 0x0f, 0xbe, 0x7e, 0xe5, 0x78, 0x3f, 0xcc, 0x76, 0xf2,
  0x3e, 0xf4, 0xc4, 0xd4, 0x3e, 0x6b, 0x4f, 0xc1, 0x3e, 0xd2, 0x98, 0xa0, 0xbe,
  0x9c, 0xe3, 0x9d, 0x3e, 0xe7, 0x9e, 0x62, 0x3f, 0x44, 0xf9, 0x9e, 0x3d, 0xa1,
  0xcb, 0xd6, 0xbd, 0xd3, 0x69, 0x1f, 0xbe, 0xbd, 0x7c, 0x8d, 0x3e, 0xcd, 0x7f,
  0xc0, 0xbe, 0xac, 0x9a, 0xb4, 0xbe, 0x1f, 0xa3, 0x11, 0xbf, 0xbe, 0xab, 0x0a,
  0xbf, 0xa2, 0xc4, 0x88, 0x3f, 0x76, 0x03, 0x78, 0x3b, 0x0a, 0xd0, 0xff, 0xff,
  0x04, 0x00, 0x00, 0x00, 0xf0, 0x00, 0x00, 0x00, 0x09, 0xe9, 0x0c, 0x3e, 0xfd,
  0x0f, 0xc2, 0x3c, 0xdc, 0xe9, 0xdb, 0x3c, 0x68, 0xf8, 0xb0, 0x3d, 0x62, 0xd8,
  0xba, 0xbe, 0x08, 0x7b, 0x17, 0xbe, 0x10, 0x0e, 0xb7, 0x3d, 0x70, 0x48, 0x18,
  0x3c, 0x7c, 0x13, 0x9b, 0x3d, 0x49, 0xdf, 0xb6, 0x3e, 0x43, 0xfc, 0xc2, 0xbb,
  0x48, 0xfe, 0xab, 0x3e, 0x11, 0x02, 0x0b, 0x3f, 0xa2, 0xe0, 0xde, 0xbe, 0x30,
  0x96, 0x93, 0xbe, 0xbe, 0x87, 0x32, 0x3f, 0x76, 0x10, 0xb7, 0xbe, 0xfa, 0x84,
  0x51, 0x3a, 0x1a, 0x79, 0xc5, 0x3d, 0x6a, 0x8d, 0x52, 0xbe, 0x6c, 0x75, 0x10,
  0x3e, 0xdd, 0xbf, 0x24, 0x3e, 0x3b, 0xd1, 0xdd, 0xbe, 0x73, 0xae, 0x09, 0xbf,
  0xf5, 0xd4, 0x73, 0x3c, 0xe4, 0x4e, 0x8a, 0xbe, 0x36, 0xd8, 0xe6, 0xbe, 0x40,
  0x97, 0x5d, 0xbf, 0x5b, 0x7d, 0x04, 0xbf, 0xc7, 0x49, 0x0d, 0xbf, 0x60, 0x47,
  0x16, 0x3f, 0xea, 0x94, 0xb6, 0xbe, 0xcd, 0x2d, 0x1e, 0xbf, 0xd9, 0x88, 0xe7,
  0xbd, 0x1a, 0xf4, 0x20, 0x3f, 0x9b, 0x7d, 0x2f, 0x3f, 0x2a, 0xc5, 0x12, 0xbd,
  0x3a, 0x18, 0x98, 0x3e, 0xe6, 0xbf, 0x48, 0x3d, 0x76, 0x9b, 0xac, 0x3e, 0x0c,
  0xb8, 0x21, 0x3d, 0x02, 0x8c, 0xda, 0xbd, 0xc5, 0xa0, 0x9f, 0x3c, 0x60, 0x10,
  0x6c, 0xbe, 0xb8, 0x92, 0xac, 0xbd, 0x54, 0x5f, 0xde, 0x3d, 0xe5, 0x9a, 0xc9,
  0xbe, 0xde, 0x7b, 0x30, 0x3e, 0x87, 0x41, 0x23, 0xbc, 0xa8, 0xcf, 0x9c, 0x3e,
  0xaa, 0x58, 0x45, 0x3d, 0x88, 0x9c, 0x8d, 0xbd, 0x36, 0xf1, 0x0e, 0xbe, 0x5f,
  0x37, 0xc6, 0xbd, 0xdb, 0x8f, 0xe0, 0xbc, 0x90, 0xc0, 0x0a, 0xbe, 0x35, 0x05,
  0x1e, 0x3d, 0x93, 0x7f, 0x2b, 0x3e, 0xbd, 0x2b, 0xfc, 0x3d, 0xc1, 0x5f, 0xcf,
  0xbc, 0x06, 0xd1, 0xff, 0xff, 0x04, 0x00, 0x00, 0x00, 0x30, 0x00, 0x00, 0x00,
  0x00, 0x00, 0x00, 0x00, 0x00, 0x00, 0x00, 0x00, 0x00, 0x00, 0x00, 0x00, 0x00,
  0x00, 0x00, 0x00, 0x00, 0x00, 0x00, 0x00, 0x00, 0x00, 0x00, 0x00, 0x00, 0x00,
  0x00, 0x00, 0x00, 0x00, 0x00, 0x00, 0x00, 0x00, 0x00, 0x00, 0x00, 0x00, 0x00,
  0x00, 0x00, 0x00, 0x00, 0x00, 0x00, 0x00, 0x00, 0x00, 0x42, 0xd1, 0xff, 0xff,
  0x04, 0x00, 0x00, 0x00, 0xf0, 0x00, 0x00, 0x00, 0xce, 0x59, 0xe4, 0x3d, 0xf1,
  0x04, 0xbf, 0xbd, 0xee, 0xf4, 0xa3, 0xba, 0xdc, 0x37, 0x4a, 0xbb, 0x05, 0x6d,
  0x26, 0xbe, 0x5c, 0x69, 0xa0, 0xbd, 0xf5, 0x02, 0x33, 0x3d, 0x86, 0x54, 0x10,
  0x3e, 0x7f, 0x8a, 0x60, 0xbc, 0xc2, 0x96, 0xf5, 0xbd, 0x0b, 0x19, 0x19, 0x3e,
  0x48, 0xf5, 0xaa, 0xbd, 0x8e, 0x2a, 0xde, 0x3d, 0x16, 0x7d, 0x96, 0x3e, 0x26,
  0xbe, 0x27, 0xbe, 0xac, 0x16, 0x0f, 0x3c, 0x57, 0xd4, 0x8d, 0xbe, 0xb0, 0x0e,
  0x06, 0xbf, 0xde, 0x66, 0x31, 0xbe, 0xeb, 0xca, 0x07, 0x3f, 0x56, 0xac, 0x09,
  0xbe, 0x5d, 0x52, 0x5d, 0xbe, 0xe5, 0x19, 0x0c, 0xbe, 0x4f, 0x9a, 0x84, 0xbe,
  0xbe, 0x9a, 0x19, 0xbf, 0xd7, 0x75, 0xf7, 0xbe, 0x0a, 0xa7, 0xb9, 0x3e, 0xe7,
  0x96, 0x80, 0xbd, 0xdb, 0x6d, 0xc2, 0xbe, 0x73, 0x1e, 0x96, 0x3d, 0x38, 0x90,
  0xa8, 0xbe, 0xb7, 0xd3, 0xf7, 0x3d, 0xf2, 0x14, 0x22, 0xbf, 0xe1, 0xcc, 0xe3,
  0xbe, 0x81, 0x1d, 0xee, 0x3e, 0xcf, 0xb9, 0x8f, 0xbe, 0x8b, 0x2c, 0x2d, 0x3c,
  0xf0, 0xd0, 0x81, 0xbe, 0x2a, 0xfe, 0x13, 0xbf, 0x28, 0x84, 0xc8, 0xbe, 0xe8,
  0x27, 0x37, 0xbe, 0xc5, 0x66, 0xe9, 0xbd, 0xea, 0x9e, 0xc3, 0xbe, 0x70, 0x29,
  0x57, 0x3e, 0xd5, 0xb5, 0xa2, 0x3e, 0xf8, 0x72, 0xfc, 0x3d, 0x43, 0x05, 0x15,
  0x3e, 0x89, 0xb0, 0xa2, 0xbe, 0xb9, 0x3c, 0x4a, 0x3e, 0x1f, 0x8e, 0x5f, 0xbc,
  0xab, 0x7a, 0x83, 0xbc, 0xd4, 0xe5, 0xc6, 0xbd, 0x38, 0xb0, 0x57, 0xbd, 0xd7,
  0xb8, 0x5f, 0x3d, 0x5e, 0x7a, 0xe5, 0xbc, 0x50, 0x77, 0xac, 0xbc, 0x1e, 0x6a,
  0x8d, 0x3d, 0x0b, 0xb0, 0xc0, 0xbe, 0x14, 0xac, 0x34, 0xbc, 0xb6, 0x22, 0x82,
  0xbd, 0x3e, 0xd2, 0xff, 0xff, 0x04, 0x00, 0x00, 0x00, 0x44, 0x01, 0x00, 0x00,
  0x46, 0xbb, 0x59, 0x3f, 0x84, 0x8e, 0x0d, 0xbf, 0x0d, 0xa6, 0x1c, 0xbe, 0xdb,
  0xad, 0xd3, 0x3d, 0x06, 0x92, 0x9c, 0xbc, 0xac, 0x20, 0x86, 0xbe, 0x95, 0x9d,
  0x2f, 0x3e, 0x4c, 0x48, 0xa1, 0xbf, 0x85, 0x34, 0x23, 0x3e, 0xee, 0x83, 0x82,
  0x3e, 0x6d, 0xec, 0xb1, 0x3e, 0x75, 0xe7, 0x91, 0x3b, 0xd7, 0x9b, 0x26, 0xbe,
  0x93, 0x3e, 0x57, 0xbe, 0x7f, 0xb1, 0x0a, 0x3e, 0xab, 0xd8, 0x31, 0xbf, 0xa0,
  0xb4, 0x6f, 0xbf, 0x6a, 0x0b, 0x2a, 0xbf, 0xd0, 0x0f, 0xa9, 0xbe, 0xe7, 0xfc,
  0x5c, 0xbd, 0xd6, 0xf5, 0xca, 0x3e, 0x8a, 0x1e, 0x1d, 0x3f, 0x5f, 0x85, 0x02,
  0x3f, 0x5c, 0xff, 0x19, 0x3c, 0x14, 0xc7, 0x51, 0xbe, 0x80, 0x1f, 0x14, 0x3f,
  0xc6, 0x2d, 0xa2, 0x3e, 0x94, 0x4c, 0x4d, 0x3f, 0xca, 0x69, 0x32, 0xbf, 0x5d,
  0x06, 0x87, 0xbf, 0xc5, 0x63, 0x50, 0x3f, 0xa3, 0xe3, 0x66, 0xbe, 0x50, 0x45,
  0x07, 0xbf, 0x0c, 0xc2, 0xc5, 0xbe, 0x13, 0xaa, 0xec, 0xbe, 0x5a, 0x55, 0x9b,
  0x3e, 0x50, 0xf4, 0xb9, 0xbd, 0x3b, 0x48, 0x5f, 0x3d, 0xb5, 0x45, 0x5b, 0xbe,
  0x11, 0x93, 0xc5, 0xbf, 0xd2, 0x95, 0x82, 0xbf, 0x19, 0x34, 0x04, 0x3f, 0xa6,
  0xf2, 0x35, 0xbc, 0x0d, 0xac, 0x01, 0x3e, 0x6b, 0xa9, 0xd1, 0xbe, 0x77, 0xf0,
  0x8b, 0xbf, 0x34, 0x6e, 0x21, 0x3f, 0x7a, 0xd7, 0xa1, 0x3f, 0xf8, 0x3f, 0x88,
  0x3e, 0x1c, 0x0a, 0x13, 0x3f, 0x9c, 0x99, 0x17, 0x3f, 0xe9, 0xf1, 0xb5, 0xbe,
  0x55, 0x97, 0xbd, 0x3e, 0xb1, 0xf1, 0xde, 0xbe, 0x80, 0xa3, 0xdc, 0x3d, 0x39,
  0xb9, 0x3a, 0x3f, 0xc7, 0x76, 0x51, 0x3f, 0x9d, 0xea, 0x6b, 0xbf, 0xfa, 0xe1,
  0x8f, 0x3e, 0xfa, 0x48, 0x40, 0x3f, 0xdc, 0x43, 0xd5, 0x3e, 0xcb, 0x20, 0x63,
  0x3d, 0xa1, 0x63, 0x90, 0xbe, 0x41, 0x13, 0xb2, 0xbe, 0x90, 0xae, 0xb8, 0x3d,
  0xd6, 0x72, 0xdc, 0x3b, 0xfa, 0x6a, 0x01, 0x3f, 0x89, 0x32, 0x2b, 0x3f, 0x74,
  0xa7, 0x41, 0xbe, 0x05, 0xc4, 0x91, 0xbf, 0x7b, 0xb7, 0x80, 0xbe, 0x3b, 0x1c,
  0x34, 0xbf, 0xb1, 0xfb, 0x4a, 0xbe, 0xa0, 0xf2, 0x0f, 0x3f, 0xb9, 0xe4, 0x2b,
  0x3f, 0xcd, 0x5a, 0xdf, 0x3d, 0xef, 0x81, 0xac, 0x3e, 0xf3, 0x33, 0x34, 0x3f,
  0x84, 0x8d, 0x52, 0xbf, 0x41, 0x93, 0x3e, 0xbc, 0x76, 0x93, 0xd9, 0xbe, 0x8e,
  0xd3, 0xff, 0xff, 0x04, 0x00, 0x00, 0x00, 0xb4, 0x00, 0x00, 0x00, 0x9b, 0xbc,
  0x9f, 0x3d, 0xee, 0x1f, 0x81, 0x3d, 0xb2, 0xca, 0xdb, 0x39, 0x43, 0xf2, 0xa8,
  0xbe, 0x94, 0xa1, 0xdf, 0xbe, 0x76, 0xe1, 0x4f, 0xbd, 0x22, 0xfa, 0xec, 0xba,
  0x8e, 0xda, 0xd8, 0xbd, 0x4d, 0xb6, 0x2c, 0xbd, 0xbe, 0x36, 0x0f, 0x3e, 0x52,
  0x13, 0x2c, 0x3e, 0x67, 0x1e, 0xfe, 0x3e, 0x9e, 0xc7, 0x8d, 0xbe, 0x89, 0x1c,
  0x9b, 0xbd, 0x66, 0x38, 0x5c, 0x3d, 0xc0, 0x7c, 0xa5, 0xbd, 0x1a, 0xb3, 0x30,
  0xbe, 0xfb, 0x80, 0x0b, 0x3e, 0x98, 0x58, 0x03, 0x3f, 0x30, 0x5e, 0x27, 0x3f,
  0x69, 0xaa, 0xab, 0x3e, 0x43, 0x25, 0xdc, 0xbe, 0x0d, 0xeb, 0x82, 0x3e, 0xfe,
  0x2e, 0x28, 0xbf, 0xc3, 0xda, 0x05, 0xbf, 0xbe, 0x9b, 0xa4, 0xbe, 0xd7, 0x19,
  0x36, 0x3f, 0xfc, 0xbe, 0xa4, 0xbd, 0x93, 0x4f, 0x20, 0xbe, 0x80, 0x95, 0x00,
  0x3e, 0xf2, 0x52, 0x43, 0xbe, 0xe9, 0x89, 0x60, 0xbe, 0x6a, 0x6d, 0x84, 0x3e,
  0x63, 0xee, 0xb4, 0xbe, 0x79, 0xd9, 0xed, 0xbd, 0xe3, 0x6b, 0x74, 0xbe, 0x19,
  0x7f, 0x3a, 0xbd, 0x84, 0x9c, 0x5a, 0xbd, 0x17, 0x77, 0x05, 0xbe, 0xfe, 0xc0,
  0x97, 0xbd, 0x81, 0x82, 0xc0, 0xbd, 0xb6, 0xc9, 0xa2, 0xbd, 0xa4, 0x1f, 0x74,
  0x3e, 0x0c, 0x8b, 0x78, 0x3d, 0x54, 0x59, 0xd8, 0xbd, 0x4e, 0xd4, 0xff, 0xff,
  0x04, 0x00, 0x00, 0x00, 0xb4, 0x00, 0x00, 0x00, 0x94, 0xbb, 0x3b, 0x3e, 0x6e,
  0x68, 0x84, 0x3d, 0xa6, 0xb1, 0xa3, 0xbc, 0xe4, 0xa8, 0xf5, 0x3e, 0xa5, 0xff,
  0xbf, 0xbe, 0x74, 0xbe, 0xc7, 0x3e, 0xb7, 0x80, 0x6a, 0xbe, 0x9c, 0xce, 0xbb,
  0xbe, 0x4c, 0x6d, 0x06, 0x3f, 0xbe, 0x70, 0x0a, 0xbf, 0x4d, 0x86, 0x5e, 0xbd,
  0xf8, 0xee, 0xdf, 0x3e, 0xfc, 0xd2, 0x04, 0x3f, 0xaa, 0xaa, 0xba, 0xbe, 0xcd,
  0x71, 0xf5, 0xbe, 0x22, 0x92, 0x3b, 0x3f, 0xdc, 0xe3, 0x01, 0xbf, 0x07, 0xdf,
  0x88, 0x3e, 0xe7, 0x5f, 0x4c, 0xbc, 0xee, 0x7f, 0xa9, 0xbe, 0xd2, 0xbe, 0x41,
  0x3f, 0xcc, 0x8e, 0x4f, 0x3e, 0xe4, 0xc5, 0x72, 0x3e, 0xa6, 0x09, 0x2e, 0xbf,
  0x88, 0x59, 0x51, 0xbe, 0xaa, 0x39, 0xdd, 0x3e, 0x25, 0x7a, 0xc2, 0xbe, 0x8b,
  0xc3, 0xf1, 0x3e, 0xfe, 0xa1, 0x29, 0xbf, 0x0b, 0xb7, 0x91, 0x3e, 0x5a, 0xe8,
  0x76, 0x3e, 0xfb, 0x52, 0xa4, 0x3d, 0xac, 0x0d, 0xfb, 0x3e, 0x17, 0x65, 0xee,
  0x3d, 0x05, 0x07, 0x21, 0x3e, 0xca, 0x3d, 0x08, 0x3d, 0x89, 0x7a, 0x65, 0xbe,
  0xea, 0xd5, 0xf9, 0x3e, 0xfe, 0x14, 0xbf, 0xbe, 0x80, 0x6a, 0x27, 0xbd, 0x4c,
  0x21, 0xbe, 0xbd, 0x55, 0x50, 0x58, 0x3d, 0xf7, 0x9c, 0xdd, 0xbe, 0xac, 0x80,
  0x2d, 0xbe, 0x8f, 0x20, 0xfd, 0xbd, 0x0e, 0xd5, 0xff, 0xff, 0x04, 0x00, 0x00,
  0x00, 0xb0, 0x01, 0x00, 0x00, 0xad, 0x12, 0x03, 0x3f, 0x1c, 0x99, 0x0d, 0x3f,
  0x45, 0xec, 0xc0, 0x3d, 0xe6, 0x04, 0x88, 0xbe, 0x74, 0x69, 0x86, 0x3c, 0xd4,
  0xa4, 0x11, 0xbe, 0x1c, 0xa9, 0x22, 0xbf, 0x13, 0x6a, 0xa6, 0x3e, 0x6e, 0x67,
  0x95, 0xbd, 0x0a, 0x0d, 0xc6, 0x3e, 0xcc, 0x91, 0x2b, 0xbe, 0x42, 0x2f, 0x09,
  0xbf, 0x93, 0x9f, 0xbd, 0x3e, 0x38, 0xc0, 0xdd, 0x3e, 0xf7, 0xac, 0x2a, 0x3f,
  0x74, 0x92, 0xe3, 0x3e, 0xf1, 0x4d, 0xb3, 0xbd, 0x3c, 0x39, 0x08, 0x3f, 0x38,
  0xe7, 0x52, 0xbf, 0x43, 0xbb, 0x1e, 0xbe, 0xc7, 0x60, 0x3e, 0xbf, 0x79, 0xa4,
  0x39, 0x3e, 0xe7, 0x03, 0x51, 0xbe, 0xa0, 0xc2, 0x74, 0xbf, 0xb2, 0x1a, 0x5e,
  0x3e, 0xa9, 0xd5, 0x23, 0xbe, 0x96, 0x37, 0x9a, 0xbf, 0x99, 0x35, 0x54, 0x3f,
  0x8b, 0x0a, 0x2f, 0x3f, 0xa8, 0x22, 0x83, 0x3d, 0xb3, 0x83, 0xc6, 0xbd, 0xbf,
  0xbb, 0x64, 0xbf, 0x9f, 0xc7, 0x8a, 0x3d, 0x8d, 0x89, 0x65, 0xbf, 0x43, 0xb9,
  0x58, 0x3f, 0xbf, 0x45, 0xd6, 0xbd, 0x23, 0x5d, 0xeb, 0x3e, 0x79, 0xd6, 0x99,
  0xbe, 0xe8, 0x2e, 0x22, 0xbf, 0xe3, 0x93, 0x4f, 0xbf, 0xa5, 0x0d, 0x86, 0x3e,
  0x1d, 0x8e, 0x2f, 0x3f, 0x60, 0x4f, 0x17, 0xbf, 0x8e, 0x76, 0x2e, 0x3d, 0x1a,
  0xca, 0x5a, 0x3f, 0x9a, 0xb9, 0x0b, 0x3d, 0x8a, 0x6a, 0x81, 0xbf, 0xba, 0x1b,
  0x86, 0x3f, 0xf5, 0x72, 0xc7, 0x3e, 0x00, 0xe9, 0xbe, 0x3e, 0xa9, 0xc5, 0xdc,
  0x3e, 0x79, 0xa3, 0x21, 0x3e, 0x61, 0x80, 0x2d, 0x3f, 0xe9, 0x70, 0x25, 0x3e,
  0xe9, 0x15, 0xb0, 0x3e, 0x91, 0xc4, 0x22, 0xbf, 0x30, 0xd3, 0xba, 0x3d, 0xed,
  0x8c, 0x73, 0x3f, 0x9b, 0xfc, 0xfb, 0xbd, 0x5e, 0x12, 0x15, 0x3f, 0x0b, 0x58,
  0x1a, 0x3e, 0x54, 0x77, 0x52, 0x3f, 0x7f, 0xd6, 0x38, 0x3f, 0x95, 0x21, 0xba,
  0xbe, 0x69, 0x4f, 0x58, 0x3e, 0x90, 0xdf, 0x65, 0x3d, 0xa8, 0x0c, 0x23, 0xbf,
  0x84, 0xc3, 0x15, 0x3f, 0xf6, 0x7d, 0x71, 0xbe, 0xb7, 0x44, 0x3a, 0x3f, 0x5c,
  0xb1, 0xb6, 0xbe, 0xa6, 0x87, 0x23, 0xbf, 0x48, 0x48, 0x38, 0xbe, 0x2c, 0xa8,
  0x89, 0x3e, 0x27, 0xb7, 0xa0, 0x3e, 0x41, 0x9b, 0x3a, 0xbe, 0x2c, 0xb5, 0x37,
  0x3d, 0x28, 0x6c, 0x4a, 0xbe, 0xdc, 0xf0, 0xb2, 0xbe, 0x4a, 0x45, 0x92, 0xbe,
  0x76, 0xf4, 0x5b, 0xbe, 0x91, 0x1f, 0x06, 0xbc, 0xcf, 0x64, 0x91, 0xbe, 0x5b,
  0x3c, 0x19, 0xbe, 0x70, 0x24, 0xf9, 0xbe, 0x13, 0x49, 0x80, 0xbe, 0xc6, 0x45,
  0xe9, 0xbe, 0x05, 0xad, 0x33, 0x3e, 0x05, 0x7b, 0x64, 0x3e, 0x35, 0x47, 0x4c,
  0xbf, 0x51, 0xd2, 0x34, 0x3f, 0x50, 0xe2, 0x93, 0x3e, 0x71, 0x65, 0x6d, 0x3f,
  0xe5, 0x71, 0x90, 0xbe, 0xf9, 0xf6, 0x05, 0xbf, 0x9e, 0x4a, 0x80, 0x3f, 0x64,
  0xcf, 0xf2, 0xbe, 0x35, 0xa0, 0x4c, 0xbf, 0xf9, 0x09, 0x40, 0xbd, 0x02, 0x86,
  0x48, 0xbe, 0xd2, 0x92, 0x88, 0x3f, 0x32, 0x9d, 0x00, 0xbf, 0x64, 0xfe, 0x9b,
  0xbf, 0x1b, 0xbc, 0xf2, 0x3e, 0x94, 0xed, 0x99, 0xbe, 0x79, 0x55, 0x0a, 0xbf,
  0x82, 0x31, 0x95, 0xbe, 0x9f, 0x66, 0xc9, 0xbe, 0xca, 0xd6, 0xff, 0xff, 0x04,
  0x00, 0x00, 0x00, 0xf0, 0x00, 0x00, 0x00, 0x6a, 0x38, 0x30, 0x3e, 0xeb, 0x16,
  0x14, 0x3e, 0x21, 0xfd, 0xcc, 0xbd, 0xa0, 0x5e, 0x24, 0xbd, 0x49, 0x1c, 0x68,
  0xbe, 0x19, 0x89, 0x1d, 0x3e, 0x4c, 0xb1, 0x88, 0x3d, 0xe5, 0x87, 0xe8, 0x3d,
  0xd7, 0xa2, 0xdd, 0x3d, 0x0b, 0xd3, 0xc0, 0x3e, 0x2a, 0x87, 0x25, 0xbb, 0xa0,
  0x04, 0x21, 0x3d, 0xc5, 0x24, 0x0c, 0x3e, 0x6b, 0x27, 0x07, 0xbe, 0x71, 0xb1,
  0xcc, 0xbe, 0x58, 0x1c, 0x14, 0x3f, 0x8e, 0x1d, 0xf1, 0xbe, 0x2b, 0x32, 0x15,
  0x3e, 0x14, 0x63, 0x15, 0x3f, 0xa6, 0x3b, 0xfa, 0xbe, 0xa6, 0x5e, 0xf8, 0x3e,
  0x22, 0x66, 0x68, 0x3e, 0x5c, 0x28, 0xb4, 0xbe, 0x4e, 0xfd, 0xf9, 0xbe, 0xbf,
  0x07, 0xf6, 0x3e, 0x30, 0xcd, 0x38, 0xbf, 0x67, 0xf2, 0xa6, 0xbe, 0x07, 0xcf,
  0x90, 0x3e, 0x8c, 0x99, 0x05, 0x3f, 0x78, 0xf6, 0x3d, 0x3f, 0xdf, 0x1e, 0xd3,
  0x3e, 0x45, 0x91, 0xc1, 0xbe, 0x0c, 0x95, 0xf4, 0x3e, 0xe4, 0x3d, 0x01, 0x3f,
  0x18, 0xe4, 0x90, 0xbe, 0x89, 0xd1, 0x01, 0xbf, 0x03, 0xaa, 0xb9, 0x3d, 0x90,
  0x92, 0x07, 0xbe, 0x10, 0x46, 0xbd, 0xbd, 0xf0, 0x4e, 0x02, 0xbe, 0xf8, 0x85,
  0x07, 0xbe, 0xcd, 0x94, 0x82, 0xbe, 0x56, 0xcf, 0xc0, 0x3d, 0x4a, 0x79, 0x98,
  0xbd, 0x67, 0xb7, 0x08, 0x3e, 0xcd, 0x96, 0x4f, 0x3e, 0xd0, 0x4e, 0xdc, 0xbd,
  0x36, 0x99, 0xc8, 0xbd, 0x36, 0x5e, 0x97, 0x3d, 0xfe, 0x2a, 0x81, 0xbd, 0xa6,
  0x49, 0x24, 0xbe, 0x49, 0xc8, 0xc7, 0x3d, 0xb2, 0x2e, 0x8c, 0xbd, 0xe4, 0x3a,
  0x59, 0x3d, 0x00, 0x52, 0xa4, 0x3d, 0x37, 0xea, 0x3b, 0xbe, 0x75, 0xca, 0x4d,
  0x3c, 0x94, 0xab, 0x92, 0x3d, 0x52, 0xd7, 0xaa, 0xbd, 0x03, 0x2a, 0x9a, 0xba,
  0xc6, 0xd7, 0xff, 0xff, 0x04, 0x00, 0x00, 0x00, 0xf0, 0x00, 0x00, 0x00, 0x6d,
  0xda, 0xb9, 0xbe, 0x4e, 0x78, 0x6f, 0x3e, 0xae, 0xeb, 0x06, 0x3f, 0x8a, 0x91,
  0xaa, 0x3e, 0x9a, 0x29, 0x7b, 0x3d, 0x34, 0xee, 0x81, 0xbd, 0x21, 0x9d, 0x51,
  0xbe, 0xba, 0xd8, 0xf6, 0xbd, 0x2a, 0xf8, 0xc5, 0x3e, 0xd1, 0x00, 0xe4, 0x3d,
  0x1c, 0xf4, 0xd3, 0x3d, 0x8b, 0xb1, 0x46, 0xbd, 0x4b, 0x6d, 0x82, 0xbe, 0x29,
  0x12, 0x0a, 0xbe, 0x94, 0xc4, 0xbd, 0xbe, 0x1f, 0x23, 0x97, 0xbe, 0x35, 0x12,
  0x1a, 0xbe, 0x27, 0xe3, 0xae, 0xbe, 0x1c, 0x75, 0x7c, 0x3e, 0x29, 0xc8, 0x29,
  0xbe, 0x53, 0x92, 0x1e, 0xbe, 0x4e, 0x53, 0x4f, 0x3a, 0x38, 0xf6, 0x52, 0xbe,
  0x27, 0x3b, 0x50, 0xbf, 0x1d, 0x06, 0xa7, 0xbe, 0x33, 0x96, 0xaa, 0xbe, 0x80,
  0x75, 0xeb, 0xbe, 0xdb, 0x05, 0x37, 0x3f, 0x9e, 0x7a, 0x16, 0xbf, 0xf8, 0xd2,
  0x78, 0x3f, 0x9c, 0xbe, 0x2d, 0xbf, 0x28, 0x17, 0xd1, 0xbe, 0xfe, 0xe7, 0xab,
  0x3e, 0x0c, 0x7a, 0xb7, 0x3e, 0x67, 0x64, 0x7c, 0xbd, 0x86, 0xe9, 0xb6, 0xbe,
  0x86, 0x55, 0x6c, 0xbd, 0x7b, 0x21, 0x5b, 0x3f, 0x17, 0x1e, 0x9f, 0xbe, 0x76,
  0x3a, 0x85, 0x3e, 0x9a, 0x2e, 0x55, 0x3e, 0x18, 0xcd, 0xe5, 0x3d, 0x97, 0xc5,
  0xdc, 0xbd, 0x26, 0x00, 0x85, 0x3f, 0x2e, 0x12, 0x26, 0x3f, 0x6b, 0x9d, 0x0a,
  0x3f, 0xea, 0x85, 0x28, 0x3f, 0xd7, 0x98, 0x04, 0xbe, 0x1d, 0xac, 0x6d, 0xbe,
  0x1f, 0x36, 0x3f, 0xbe, 0x9a, 0x68, 0x51, 0xbe, 0x49, 0x6d, 0xdc, 0xbe, 0x32,
  0x4e, 0xf3, 0x3e, 0x44, 0xa7, 0x1a, 0xbe, 0x6a, 0xb6, 0x35, 0xbe, 0x9a, 0xf0,
  0x9c, 0x3e, 0xb4, 0xba, 0x9f, 0xbe, 0xd5, 0x14, 0xf2, 0x3e, 0xa0, 0x66, 0xa5,
  0x3e, 0x45, 0xc6, 0xae, 0x3d, 0xc2, 0xd8, 0xff, 0xff, 0x04, 0x00, 0x00, 0x00,
  0xd0, 0x02, 0x00, 0x00, 0x5b, 0x8f, 0x23, 0x3e, 0x40, 0x68, 0x22, 0x3f, 0x31,
  0x42, 0x2e, 0x3f, 0xb1, 0x82, 0x2b, 0x3f, 0x1c, 0x8d, 0x77, 0xbe, 0x2b, 0x62,
  0x0b, 0xbf, 0x8c, 0x71, 0x1b, 0xbf, 0xd2, 0xc0, 0xab, 0x3f, 0x5e, 0x20, 0xde,
  0x3d, 0x87, 0x08, 0xaa, 0x3e, 0x45, 0x1a, 0x3d, 0x3f, 0x93, 0x02, 0x86, 0x3e,
  0x46, 0xc0, 0x5c, 0xbe, 0xda, 0x48, 0xe5, 0x3e, 0xe1, 0xe0, 0x44, 0x3f, 0xa4,
  0xc6, 0x8d, 0xbe, 0x89, 0x97, 0x18, 0xbf, 0x30, 0x26, 0xe3, 0x3e, 0x87, 0xbd,
  0x0f, 0x3f, 0xe6, 0x5c, 0x0f, 0x3f, 0x72, 0x05, 0xe8, 0x3d, 0x4d, 0x1a, 0x9d,
  0x3e, 0xba, 0x58, 0xf7, 0x3e, 0x1b, 0x6e, 0x23, 0x3b, 0x5f, 0xc9, 0x88, 0x3e,
  0xc3, 0x99, 0xdc, 0xbd, 0x9c, 0xfe, 0x63, 0xbf, 0xf4, 0x62, 0x31, 0xbf, 0x11,
  0x24, 0x1c, 0x3f, 0x40, 0x30, 0xd3, 0x3e, 0x1d, 0x81, 0x0e, 0xbe, 0x35, 0x2b,
  0x94, 0x3f, 0x39, 0xfd, 0x5e, 0xbf, 0x77, 0x0e, 0x9f, 0xbe, 0x78, 0x4c, 0x80,
  0xbe, 0x50, 0x93, 0x8c, 0x3e, 0x9f, 0xe6, 0x0b, 0xbc, 0x93, 0x44, 0x2f, 0x3e,
  0xe6, 0x7d, 0x18, 0x3e, 0x9c, 0x34, 0x9a, 0x3f, 0x9b, 0xba, 0x4e, 0xbe, 0xd2,
  0x2d, 0x11, 0x3e, 0x3f, 0x60, 0x9e, 0x3e, 0x30, 0xf1, 0xdf, 0x3d, 0x88, 0xf5,
  0x8d, 0x3f, 0x54, 0x25, 0x38, 0xbf, 0xbe, 0xfa, 0x03, 0x3d, 0xc8, 0x40, 0x7e,
  0x3f, 0x30, 0x6d, 0xaf, 0x3f, 0xaf, 0x23, 0x56, 0x3c, 0xc2, 0x75, 0xed, 0xbe,
  0x1a, 0x07, 0x8d, 0x3e, 0xa0, 0xae, 0xbc, 0xbe, 0xb9, 0x69, 0xa8, 0x3e, 0x6a,
  0x14, 0x4e, 0x3e, 0x7c, 0x94, 0x20, 0xbf, 0x91, 0xb4, 0x04, 0x3f, 0x47, 0x66,
  0xf8, 0x3e, 0x34, 0xf5, 0xcc, 0xbd, 0x86, 0xf3, 0x3e, 0x3e, 0x1c, 0x49, 0x5b,
  0xbd, 0xa4, 0xb8, 0xe3, 0x3b, 0xec, 0x88, 0x9d, 0x3e, 0x96, 0xf4, 0x1b, 0x3f,
  0xf8, 0xf2, 0x40, 0xbe, 0xda, 0x85, 0xe0, 0xbd, 0xcb, 0xd1, 0x07, 0xbf, 0x65,
  0x48, 0xa6, 0x3e, 0x83, 0x2c, 0x9d, 0x3e, 0x35, 0x7e, 0x54, 0x3f, 0xff, 0x54,
  0x44, 0x3f, 0xdf, 0x9c, 0x92, 0xbe, 0x6d, 0x49, 0x88, 0xbf, 0x9c, 0x41, 0x22,
  0xbf, 0x96, 0xba, 0xc6, 0xbe, 0xf0, 0x5b, 0x47, 0x3e, 0x61, 0xd8, 0xc6, 0xbe,
  0x4e, 0x5f, 0x38, 0xbf, 0xa3, 0x75, 0x63, 0xbf, 0x53, 0x53, 0x5e, 0x3f, 0x78,
  0x8b, 0xb7, 0x3e, 0x2a, 0x35, 0x12, 0x3f, 0x54, 0xa8, 0x9e, 0xbd, 0xe8, 0x30,
  0xcd, 0x3a, 0x72, 0x7b, 0xd4, 0x3e, 0xc7, 0xe8, 0x5c, 0x3f, 0xdb, 0xcf, 0x4b,
  0x3d, 0x7e, 0x62, 0xc7, 0xbe, 0x89, 0x16, 0x1f, 0x3e, 0xc6, 0x39, 0x07, 0xbe,
  0x6e, 0x75, 0xfc, 0xbe, 0x5e, 0x26, 0xa8, 0x3b, 0x8b, 0x45, 0x43, 0x3e, 0x8a,
  0x96, 0x07, 0x3d, 0x40, 0xef, 0x9f, 0x3f, 0xcf, 0x07, 0x71, 0xbf, 0x33, 0xa6,
  0x29, 0x3e, 0x5e, 0x63, 0x1d, 0x3f, 0x2b, 0x34, 0x79, 0x3e, 0xba, 0x1a, 0x1a,
  0x3e, 0x67, 0x78, 0x1a, 0x3f, 0x0e, 0x6c, 0xce, 0x3e, 0xd6, 0x02, 0x4a, 0xbf,
  0xee, 0x64, 0x05, 0x3f, 0x15, 0xb7, 0x0a, 0x3d, 0x3b, 0x2b, 0x59, 0x3f, 0x06,
  0x54, 0xb3, 0xbf, 0x00, 0x34, 0xd9, 0xbe, 0x05, 0x0f, 0x42, 0xbd, 0x34, 0xec,
  0xe7, 0xbe, 0xa3, 0xc3, 0x4c, 0xbf, 0xc2, 0x92, 0x7f, 0xbe, 0x2b, 0xd1, 0x46,
  0xbf, 0xec, 0x35, 0x53, 0xbf, 0x4d, 0xf9, 0x44, 0xbe, 0x44, 0x9a, 0x4b, 0xbf,
  0xc8, 0xf1, 0x0d, 0x3e, 0xb7, 0xce, 0x87, 0x3f, 0x79, 0xc2, 0x04, 0x3f, 0x8c,
  0xac, 0x42, 0xbe, 0xcb, 0xc0, 0x40, 0x3f, 0x5a, 0x0a, 0x4d, 0xbe, 0x07, 0xe2,
  0xe2, 0x3c, 0x74, 0x56, 0x9d, 0x3d, 0xf9, 0x5d, 0x78, 0x3e, 0x69, 0x49, 0x4b,
  0xbf, 0x81, 0x2c, 0x8f, 0x3d, 0xdf, 0x54, 0x1f, 0xbf, 0x9f, 0x78, 0xd1, 0xbe,
  0x0d, 0x85, 0x44, 0xbe, 0x51, 0x9d, 0xeb, 0x3d, 0x5b, 0x18, 0xa8, 0x3f, 0xa6,
  0x33, 0x3c, 0x3f, 0x80, 0x3b, 0xa9, 0x3e, 0x30, 0x21, 0xe5, 0x3e, 0x9a, 0x92,
  0x4b, 0xbf, 0xbb, 0x24, 0xdd, 0x3e, 0xce, 0x7b, 0xa5, 0x3e, 0x2e, 0x5a, 0x25,
  0x3f, 0x9a, 0xae, 0x60, 0x3d, 0x08, 0x47, 0x32, 0x3e, 0xe9, 0xa7, 0xa9, 0x3e,
  0x3e, 0x45, 0x72, 0x3f, 0x02, 0x0d, 0xfa, 0x3f, 0xd5, 0xff, 0xbe, 0x3e, 0x4a,
  0xf8, 0xee, 0x3e, 0xfe, 0xcc, 0xca, 0xbe, 0xdb, 0xcb, 0x6c, 0xbf, 0x36, 0x75,
  0x8b, 0xbd, 0x80, 0x3a, 0x2a, 0xbf, 0x85, 0x25, 0x50, 0xbd, 0xe0, 0x17, 0x09,
  0xbe, 0xad, 0x6e, 0xb6, 0x3f, 0xa5, 0x01, 0x11, 0x3f, 0xbb, 0x78, 0x66, 0xbe,
  0x6e, 0x50, 0xb0, 0x3e, 0x5c, 0x26, 0x53, 0xbc, 0x03, 0xdb, 0xd2, 0xbe, 0xaa,
  0x8c, 0x49, 0x3b, 0x43, 0x22, 0x71, 0xbe, 0x77, 0x28, 0xaa, 0xbf, 0xfd, 0xb1,
  0x3e, 0xbf, 0x4c, 0xd1, 0x32, 0x3f, 0x8f, 0x4a, 0x6c, 0x3f, 0x39, 0xde, 0x55,
  0x3d, 0x5e, 0x30, 0x66, 0x3f, 0xd3, 0x67, 0x25, 0xbf, 0xfc, 0x9f, 0x9c, 0xbe,
  0xf5, 0xb2, 0x8f, 0x3e, 0xe9, 0x75, 0xdc, 0xbd, 0xeb, 0x0c, 0x8e, 0xbe, 0xc1,
  0xd2, 0xb8, 0xbf, 0x69, 0x92, 0xa5, 0xbe, 0xb9, 0x04, 0x1e, 0xbe, 0x87, 0x8e,
  0x68, 0xbe, 0x89, 0x3f, 0x04, 0x3f, 0x9f, 0x81, 0x96, 0xbd, 0x41, 0xfe, 0x82,
  0xbe, 0xce, 0x3b, 0x59, 0x3f, 0xcc, 0xc0, 0x13, 0xbc, 0x9e, 0xdb, 0xff, 0xff,
  0x04, 0x00, 0x00, 0x00, 0x2c, 0x01, 0x00, 0x00, 0x95, 0xa6, 0xb6, 0x3d, 0x55,
  0xc4, 0x74, 0xbe, 0x14, 0xa2, 0x6e, 0xbd, 0x96, 0x0a, 0x81, 0x3d, 0x72, 0xd0,
  0x56, 0xbe, 0xfd, 0x5c, 0x27, 0xbd, 0xb1, 0x6a, 0x10, 0x3d, 0xd7, 0x5e, 0x6e,
  0xbd, 0x17, 0x8c, 0xa6, 0x3d, 0xc7, 0xd2, 0x1c, 0xbe, 0x26, 0xd6, 0x9d, 0x3c,
  0xb6, 0xfd, 0x64, 0xbe, 0x8f, 0x23, 0x16, 0x3e, 0x9e, 0xe6, 0x06, 0xbe, 0xa2,
  0xda, 0xc2, 0x3e, 0x03, 0x61, 0x80, 0x3e, 0xac, 0x58, 0xd5, 0x3e, 0x00, 0x98,
  0x7c, 0x3f, 0xc0, 0x2c, 0x00, 0x3f, 0xba, 0xac, 0x85, 0xbe, 0xef, 0x01, 0x3d,
  0xbc, 0xe1, 0x1f, 0x3d, 0x3d, 0x03, 0x7e, 0x7a, 0x3e, 0x5d, 0x1c, 0x67, 0x3e,
  0x93, 0x72, 0xb6, 0xbe, 0xb2, 0x59, 0xfe, 0x3d, 0x41, 0x40, 0x1a, 0x3f, 0x53,
  0x24, 0x27, 0x3e, 0x04, 0x9f, 0xbd, 0xbe, 0x82, 0x05, 0xe8, 0xbe, 0xe6, 0x94,
  0x2c, 0x3f, 0xaf, 0x4e, 0xf1, 0x3e, 0x9a, 0x56, 0x53, 0x3e, 0x3d, 0x97, 0x12,
  0x3f, 0x87, 0xe4, 0x29, 0xbf, 0x01, 0x3a, 0x3b, 0xbf, 0x0a, 0x89, 0x3d, 0xbf,
  0x5e, 0x92, 0x61, 0xbf, 0xc0, 0x7c, 0x9c, 0x3e, 0xf7, 0x77, 0xd6, 0xbe, 0xce,
  0xba, 0x1e, 0x3f, 0xac, 0xdb, 0x85, 0xbd, 0xa8, 0xb4, 0xcb, 0x3e, 0xdd, 0xed,
  0x0b, 0xbf, 0xff, 0x0c, 0x1d, 0x3f, 0xfa, 0xe8, 0x01, 0x3e, 0x46, 0x67, 0x64,
  0x3e, 0x5c, 0x86, 0x71, 0xbd, 0x66, 0xa3, 0x5c, 0x3c, 0x6d, 0x18, 0x73, 0xbe,
  0xe1, 0x5f, 0x64, 0xbe, 0x62, 0xfe, 0x93, 0x3e, 0xa9, 0x37, 0x84, 0x3e, 0x83,
  0x00, 0xb1, 0x3e, 0x27, 0x55, 0x35, 0xbd, 0x7c, 0x42, 0x3b, 0x3c, 0x8c, 0x6a,
  0x2e, 0x3f, 0x1c, 0xcd, 0xa2, 0xbe, 0x14, 0xa9, 0x16, 0xbe, 0xd4, 0xcf, 0x16,
  0x3e, 0xa0, 0x6a, 0x3c, 0xbd, 0x2a, 0xeb, 0x48, 0xbe, 0xe0, 0x88, 0x9c, 0xbd,
  0x5f, 0x6a, 0x83, 0x3d, 0x92, 0xe7, 0x48, 0x3e, 0x74, 0xe2, 0x45, 0x3e, 0xe6,
  0x52, 0xd7, 0xbd, 0xb5, 0x1f, 0x7c, 0xbe, 0x19, 0x4b, 0x2c, 0x3d, 0xf2, 0xa8,
  0x73, 0xbe, 0x78, 0x90, 0x45, 0x3e, 0x41, 0x13, 0xd2, 0x3c, 0x5d, 0x92, 0x7b,
  0x3f, 0x99, 0xd7, 0x2c, 0x3e, 0xe7, 0xb2, 0xd5, 0x3d, 0xd6, 0xdc, 0xff, 0xff,
  0x04, 0x00, 0x00, 0x00, 0x3c, 0x00, 0x00, 0x00, 0x00, 0x00, 0x00, 0x00, 0x00,
  0x00, 0x00, 0x00, 0x00, 0x00, 0x00, 0x00, 0x00, 0x00, 0x00, 0x00, 0x00, 0x00,
  0x00, 0x00, 0x00, 0x00, 0x00, 0x00, 0x00, 0x00, 0x00, 0x00, 0x00, 0x00, 0x00,
  0x00, 0x00, 0x00, 0x00, 0x00, 0x00, 0x00, 0x00, 0x00, 0x00, 0x00, 0x00, 0x00,
  0x00, 0x00, 0x00, 0x00, 0x00, 0x00, 0x00, 0x00, 0x00, 0x00, 0x00, 0x00, 0x00,
  0x00, 0x00, 0x00, 0x1e, 0xdd, 0xff, 0xff, 0x04, 0x00, 0x00, 0x00, 0x2c, 0x01,
  0x00, 0x00, 0x15, 0x55, 0xa2, 0x3e, 0xa4, 0x82, 0xa4, 0x3d, 0xed, 0xe5, 0xe0,
  0x3c, 0x7a, 0x64, 0xb0, 0x3e, 0xd6, 0xfd, 0x7c, 0xbe, 0xcb, 0x0e, 0x11, 0xbf,
  0xbc, 0xa1, 0x5b, 0x3e, 0x1f, 0xf5, 0x14, 0x3f, 0x4e, 0x05, 0x40, 0x3f, 0xaf,
  0xfa, 0x75, 0xbe, 0x53, 0xdb, 0x02, 0x3e, 0x68, 0xfd, 0x4b, 0xbe, 0xff, 0x65,
  0x52, 0xbd, 0xbe, 0x61, 0xcd, 0x3d, 0x5c, 0xe4, 0x03, 0x3e, 0x37, 0xd4, 0x42,
  0xbf, 0xb5, 0xa9, 0xe9, 0xbe, 0x1d, 0x5c, 0x4b, 0xbe, 0xe8, 0xdb, 0xa3, 0x3e,
  0x1a, 0xa5, 0x34, 0xbf, 0xad, 0xa6, 0x04, 0x3f, 0xd0, 0xb8, 0x28, 0x3e, 0x10,
  0x03, 0x5b, 0xbf, 0x1d, 0xcc, 0x8d, 0xbe, 0xfd, 0x6e, 0x6f, 0xbe, 0xaf, 0xa1,
  0x03, 0xbe, 0x7a, 0x00, 0x25, 0x3f, 0x82, 0x44, 0xe3, 0xbe, 0x7d, 0x18, 0x15,
  0xbe, 0x63, 0xea, 0x07, 0xbf, 0xc1, 0xd1, 0x36, 0x3e, 0x24, 0xac, 0xd4, 0xbe,
  0x5c, 0x8d, 0xb8, 0x3c, 0x0f, 0x52, 0x6d, 0x3e, 0x36, 0x2c, 0x79, 0xbc, 0xa9,
  0xf6, 0x59, 0x3e, 0x2e, 0xde, 0x28, 0xbf, 0x60, 0x6c, 0x76, 0xbd, 0xdd, 0x88,
  0x27, 0xbe, 0xce, 0x4b, 0x16, 0xbf, 0xc4, 0x26, 0xb5, 0xbe, 0x59, 0x47, 0x0a,
  0x3f, 0xad, 0x08, 0x0c, 0xbf, 0x84, 0xec, 0xbb, 0x3e, 0x40, 0x14, 0x16, 0xbf,
  0x10, 0x45, 0x40, 0xbe, 0x3e, 0x36, 0x07, 0xbf, 0x86, 0xa3, 0x27, 0xbf, 0xa7,
  0xb4, 0xcc, 0xbc, 0x19, 0xb4, 0x80, 0x3d, 0x04, 0x3e, 0xb3, 0xbc, 0xba, 0xf2,
  0xa9, 0x3e, 0x00, 0x9f, 0x0f, 0xbd, 0xac, 0x8c, 0x97, 0x3e, 0x45, 0xbd, 0x7a,
  0xbe, 0xd3, 0x0a, 0x3e, 0xbf, 0x23, 0xcc, 0xa4, 0x3e, 0x6c, 0xac, 0xab, 0xbe,
  0x4c, 0xd8, 0xa6, 0xbe, 0xcd, 0x5f, 0xc6, 0xbb, 0x30, 0x7a, 0x71, 0xbe, 0xb3,
  0xe4, 0xa2, 0x3e, 0x51, 0x1c, 0x0d, 0x3f, 0xe0, 0x26, 0x70, 0xbe, 0x25, 0x9c,
  0x0b, 0x3d, 0xeb, 0xf9, 0x13, 0xbd, 0x10, 0xe3, 0x18, 0xbe, 0xa7, 0x66, 0xbb,
  0xbd, 0xef, 0xcf, 0x01, 0xbe, 0xe6, 0x48, 0x16, 0x3e, 0xd8, 0x86, 0xdb, 0xbe,
  0x5a, 0xa8, 0x75, 0xbc, 0x66, 0x8a, 0x6f, 0xbd, 0x2a, 0xe4, 0xc9, 0xbe, 0xe2,
  0xf5, 0x39, 0xbe, 0x56, 0xde, 0xff, 0xff, 0x04, 0x00, 0x00, 0x00, 0x40, 0x02,
  0x00, 0x00, 0x5a, 0xb6, 0x5b, 0x3e, 0x1d, 0xb8, 0xb6, 0x3d, 0x6b, 0x6c, 0x96,
  0xbf, 0x9b, 0x2e, 0xb9, 0xbe, 0x5c, 0xaa, 0x3c, 0xbe, 0xa3, 0x48, 0x6a, 0x3d,
  0xda, 0xd2, 0x2a, 0x3d, 0xae, 0xa0, 0x8b, 0x3e, 0x84, 0xdf, 0x79, 0x3f, 0xc5,
  0x2a, 0x22, 0xbf, 0xb6, 0xaa, 0x5b, 0x3e, 0xe0, 0xbb, 0xa2, 0x3f, 0xce, 0xd2,
  0x90, 0xbf, 0xce, 0xa6, 0x37, 0x3d, 0xee, 0x49, 0x77, 0x3f, 0x23, 0xe6, 0x87,
  0xbe, 0x66, 0xb3, 0x24, 0xbf, 0x36, 0x22, 0x9c, 0x3f, 0x54, 0x0f, 0x89, 0xbf,
  0x95, 0x5d, 0x89, 0x3f, 0x9e, 0x18, 0xd0, 0x3c, 0x08, 0x0b, 0x88, 0x3c, 0xf6,
  0x6e, 0x1e, 0xbf, 0x64, 0xa8, 0x48, 0xbd, 0xa7, 0x78, 0x83, 0x3e, 0x8e, 0x9b,
  0x71, 0xbe, 0xd1, 0x6e, 0x87, 0xbf, 0x08, 0xd6, 0xb2, 0xbf, 0x98, 0xc2, 0x04,
  0xbe, 0x96, 0xdb, 0x01, 0x3e, 0xa5, 0x01, 0x03, 0x3f, 0xc8, 0x45, 0xa4, 0xbe,
  0x43, 0x0b, 0x0c, 0xbf, 0x2b, 0x62, 0xcf, 0xbe, 0x85, 0x4d, 0x87, 0xbb, 0xf2,
  0xd7, 0x20, 0x3f, 0xbf, 0x14, 0x65, 0x3f, 0xf8, 0x74, 0xb6, 0xbe, 0x79, 0x8c,
  0x3d, 0x40, 0xac, 0x4a, 0x02, 0x3e, 0xad, 0x98, 0xb4, 0x3e, 0x31, 0x60, 0x93,
  0x3d, 0x1f, 0x30, 0x3c, 0x3f, 0xc7, 0xbb, 0x0c, 0xbe, 0x6b, 0x0e, 0x17, 0x3f,
  0xc0, 0xe1, 0x78, 0xbd, 0x68, 0xa9, 0xc3, 0x3e, 0x56, 0xee, 0x98, 0xbf, 0x6d,
  0xeb, 0xc8, 0xbe, 0x4a, 0xa5, 0xac, 0xbf, 0x02, 0xc8, 0x35, 0xbd, 0x9d, 0x9b,
  0x0c, 0x3f, 0x3e, 0x2f, 0x51, 0xbc, 0xbe, 0xea, 0x19, 0x3e, 0xbd, 0x1a, 0xf6,
  0xbe, 0x9a, 0x83, 0x72, 0x3e, 0x33, 0xff, 0x8f, 0xbe, 0xe5, 0x6e, 0xff, 0xbe,
  0xb9, 0xe7, 0x34, 0xbd, 0xcd, 0x09, 0x90, 0x3f, 0x0f, 0x35, 0x13, 0x3f, 0x34,
  0x1a, 0x91, 0xbe, 0xea, 0x38, 0x00, 0xbf, 0x10, 0x58, 0x33, 0xbf, 0xc8, 0xa8,
  0xe4, 0xbe, 0x70, 0x09, 0xa0, 0x3f, 0xec, 0xea, 0xdb, 0x3e, 0x5d, 0x99, 0x8d,
  0x3f, 0x55, 0x09, 0xca, 0x3d, 0xaf, 0x1e, 0x5a, 0x3d, 0x6a, 0x7d, 0x14, 0xbf,
  0x14, 0x85, 0x17, 0xbf, 0x60, 0x76, 0x4c, 0xbf, 0x12, 0x79, 0x51, 0x3e, 0x10,
  0xb4, 0xb3, 0x3e, 0x31, 0xa6, 0xa1, 0x3f, 0x67, 0xa4, 0x32, 0x3f, 0x00, 0x72,
  0x4d, 0x3e, 0x32, 0x43, 0x4a, 0xbf, 0xcf, 0x1b, 0xcc, 0x3d, 0x35, 0xc6, 0x9f,
  0x3f, 0xf5, 0x89, 0x70, 0x3e, 0xe2, 0x73, 0x9e, 0x3f, 0x02, 0x89, 0x0f, 0xbe,
  0x4a, 0x3f, 0xfe, 0xbd, 0xd9, 0xcd, 0x34, 0xbf, 0x8c, 0x0f, 0x32, 0x3f, 0x2f,
  0x0c, 0x3e, 0x3e, 0xf0, 0xbf, 0xd4, 0xbb, 0xbb, 0x78, 0x8e, 0x3e, 0xc5, 0xef,
  0x9e, 0xbd, 0xa0, 0xee, 0xb4, 0xbd, 0x38, 0x8a, 0x15, 0xbe, 0xcd, 0x72, 0x8c,
  0x3e, 0xe5, 0xf4, 0x99, 0xbd, 0x0d, 0x62, 0x37, 0xbf, 0x43, 0x41, 0x61, 0x3f,
  0xb4, 0x66, 0x71, 0xbf, 0x11, 0x70, 0x64, 0xbf, 0x45, 0x6e, 0x9e, 0x3f, 0x43,
  0xaf, 0x71, 0xbf, 0x76, 0x0e, 0xf1, 0x3e, 0xe2, 0xa6, 0x60, 0x3f, 0xcb, 0xcf,
  0x64, 0x3d, 0x19, 0x9a, 0x4c, 0x3f, 0x99, 0x20, 0xc5, 0x3d, 0xd9, 0x94, 0x8a,
  0xbf, 0xbd, 0xa4, 0x01, 0xbf, 0x70, 0x2a, 0x3e, 0xbe, 0xe5, 0xae, 0x59, 0x3e,
  0x9e, 0x8c, 0xe6, 0x3e, 0x41, 0xe5, 0xc0, 0x3f, 0x02, 0xc7, 0x31, 0xbe, 0x29,
  0xc7, 0xa0, 0xbc, 0x44, 0xb6, 0xa5, 0xbe, 0xef, 0xf5, 0xe6, 0x3d, 0x70, 0x46,
  0x20, 0x3f, 0x51, 0x95, 0xc0, 0xbe, 0x3b, 0x84, 0xc1, 0xbe, 0x63, 0xd6, 0x9a,
  0x3f, 0x03, 0x57, 0x79, 0xbc, 0x33, 0x42, 0xb9, 0x3d, 0x04, 0x52, 0x03, 0xbe,
  0x6c, 0x5a, 0x6b, 0xbf, 0x64, 0x5e, 0xfa, 0xbd, 0xd5, 0x3d, 0xb8, 0x3f, 0x67,
  0x3e, 0xbc, 0x3d, 0x7d, 0x22, 0xbe, 0x3f, 0x05, 0x09, 0x61, 0xbf, 0xd4, 0x30,
  0xaf, 0x3e, 0xed, 0x24, 0x72, 0x3d, 0x4d, 0xdf, 0xcc, 0xbe, 0x1b, 0xb1, 0x5e,
  0xbf, 0x11, 0x8b, 0xf6, 0x3e, 0x1e, 0x86, 0xac, 0x3f, 0xeb, 0x96, 0x68, 0xbd,
  0x74, 0xf8, 0x4c, 0x3f, 0xe6, 0x17, 0x81, 0xbe, 0x89, 0x7c, 0x5c, 0xbf, 0x19,
  0xd9, 0xf2, 0xbd, 0xe1, 0x4d, 0xc7, 0xbe, 0x20, 0x52, 0xa8, 0x3f, 0xfb, 0xae,
  0x46, 0x3f, 0xa3, 0x4e, 0x8e, 0xbf, 0xa2, 0xe0, 0xff, 0xff, 0x04, 0x00, 0x00,
  0x00, 0xf0, 0x00, 0x00, 0x00, 0x3d, 0x2c, 0x84, 0xbe, 0x11, 0xba, 0x6e, 0x3e,
  0x35, 0x3e, 0xc3, 0xbd, 0x7d, 0xf6, 0x9f, 0xbe, 0x85, 0x20, 0x00, 0x3e, 0x17,
  0xf5, 0x56, 0xbe, 0x0a, 0x9a, 0x73, 0x3e, 0xa9, 0x64, 0xeb, 0xbd, 0x25, 0x7c,
  0x68, 0x3c, 0x0d, 0xaa, 0x2b, 0xbe, 0xed, 0xbd, 0x2b, 0x3e, 0xb1, 0x08, 0x61,
  0xbe, 0x51, 0x14, 0xcb, 0xbe, 0xad, 0x8a, 0xd5, 0x3e, 0xcf, 0x9f, 0xb7, 0x3e,
  0x56, 0x71, 0x77, 0x3f, 0x59, 0x66, 0x5a, 0x3e, 0xdc, 0x82, 0x7e, 0x3f, 0x34,
  0x56, 0xde, 0x3e, 0xf8, 0x12, 0x33, 0x3f, 0x00, 0x03, 0x47, 0x3e, 0xc8, 0x98,
  0x0b, 0xbf, 0xed, 0x50, 0x81, 0x3e, 0xc1, 0x7c, 0x3f, 0x3f, 0x8e, 0x7c, 0x0f,
  0x3d, 0x03, 0x66, 0x05, 0x3f, 0x3f, 0xd9, 0xa0, 0x3e, 0x4c, 0xd4, 0x72, 0xbf,
  0xff, 0x20, 0x47, 0x3f, 0x1a, 0x0a, 0xbf, 0xbd, 0x7e, 0x16, 0x53, 0xbd, 0x7e,
  0xfd, 0xe7, 0xbe, 0x53, 0x1b, 0x7e, 0x3d, 0x21, 0xeb, 0xf8, 0xbe, 0x30, 0xf3,
  0x6b, 0x3f, 0x40, 0xee, 0x7b, 0xbf, 0xae, 0x08, 0x27, 0x3f, 0x3d, 0x47, 0xad,
  0x3e, 0x2f, 0x83, 0xa7, 0x3f, 0x6c, 0x50, 0x70, 0x3f, 0x6d, 0x5f, 0x3c, 0x3f,
  0xae, 0x4f, 0xff, 0xbe, 0x4d, 0x1c, 0x21, 0xbf, 0xda, 0x62, 0x86, 0xbe, 0x73,
  0x9c, 0xa6, 0x3f, 0x8f, 0x45, 0x3c, 0xbe, 0x57, 0xe6, 0xf3, 0x3e, 0xfb, 0x50,
  0xa9, 0x3f, 0x3d, 0xad, 0xcf, 0x3e, 0x2b, 0x4f, 0xbb, 0x3e, 0x88, 0xf3, 0x51,
  0x3f, 0x8d, 0xae, 0x80, 0x3d, 0xff, 0x37, 0xcc, 0xbe, 0x31, 0xae, 0xd9, 0x3d,
  0x2f, 0xab, 0xe0, 0xbe, 0x56, 0x6d, 0x51, 0x3e, 0xcc, 0xe2, 0x9d, 0xbc, 0xd1,
  0xd7, 0x21, 0xbe, 0x89, 0x62, 0x55, 0xbe, 0x09, 0xa0, 0x48, 0xbe, 0x9e, 0xe1,
  0xff, 0xff, 0x04, 0x00, 0x00, 0x00, 0xf0, 0x00, 0x00, 0x00, 0xf6, 0x07, 0xa9,
  0x3d, 0x2e, 0xe8, 0x95, 0x3e, 0x6a, 0x02, 0x83, 0xbe, 0xb6, 0xed, 0x21, 0xbf,
  0x5c, 0xc7, 0x05, 0xbe, 0x6f, 0x6b, 0x7e, 0xbd, 0xe7, 0xd1, 0xbd, 0x3d, 0x1e,
  0xe6, 0xa0, 0x3d, 0x6d, 0x62, 0x40, 0xbe, 0x34, 0xb6, 0x82, 0x3b, 0x3e, 0x95,
  0x85, 0x3c, 0xac, 0xb2, 0x5a, 0xbd, 0x7d, 0xda, 0x00, 0xbe, 0x5c, 0x7f, 0x9a,
  0x3d, 0x2f, 0x7c, 0x45, 0xbf, 0x70, 0x0c, 0x83, 0x3f, 0x12, 0xf4, 0xc4, 0xbc,
  0x2e, 0x25, 0x15, 0x3e, 0xea, 0x8d, 0xcc, 0xbd, 0x5c, 0x91, 0x7e, 0xbe, 0xe8,
  0xc2, 0x05, 0x3f, 0x99, 0xa1, 0x8f, 0x3c, 0x0c, 0xff, 0xf4, 0x3d, 0x76, 0x7b,
  0x2f, 0x3e, 0x61, 0x7f, 0x32, 0x3e, 0x74, 0x05, 0xb5, 0x3e, 0xfb, 0xd9, 0x9b,
  0xbf, 0xb7, 0xf8, 0xea, 0x3e, 0x1b, 0x75, 0x6a, 0xbf, 0x90, 0x7b, 0x01, 0xbf,
  0x26, 0xa0, 0x37, 0x3e, 0x2d, 0x40, 0x1b, 0x3f, 0x61, 0xcf, 0x16, 0xbf, 0xc3,
  0x07, 0x55, 0x3c, 0xfd, 0xd5, 0x35, 0x3f, 0x26, 0x04, 0x8c, 0x3e, 0x9d, 0xda,
  0x54, 0x3f, 0x85, 0x1a, 0xa1, 0x3e, 0x3f, 0x4a, 0x35, 0xbf, 0xcb, 0xfa, 0x6c,
  0x3e, 0xe4, 0x48, 0x15, 0xbf, 0x9a, 0x65, 0x00, 0xbf, 0x0d, 0x94, 0x40, 0x3f,
  0x01, 0x79, 0x19, 0x3f, 0x79, 0xd4, 0x3a, 0xbf, 0x55, 0x9b, 0x1d, 0xbf, 0x50,
  0x64, 0x13, 0x3f, 0x31, 0x0a, 0xd4, 0xbf, 0xa2, 0xca, 0x1e, 0x3e, 0x9f, 0xc7,
  0xbc, 0x3e, 0xf5, 0x7f, 0xde, 0xbe, 0x1e, 0xa7, 0xfb, 0x3d, 0x7b, 0x12, 0x15,
  0xbe, 0x3c, 0xa2, 0xec, 0xbd, 0xa0, 0x53, 0x2c, 0x3e, 0xd8, 0x2f, 0x2f, 0x3d,
  0x2d, 0xb9, 0x85, 0xbe, 0x7f, 0xde, 0xf5, 0xbe, 0xd9, 0xda, 0x0d, 0x3e, 0x74,
  0xe7, 0x22, 0x3e, 0x9a, 0xe2, 0xff, 0xff, 0x04, 0x00, 0x00, 0x00, 0xd0, 0x02,
  0x00, 0x00, 0x82, 0x55, 0x31, 0x3f, 0x1f, 0x33, 0x01, 0x3d, 0x13, 0x97, 0x1c,
  0x3e, 0x10, 0x16, 0x95, 0x3f, 0x1a, 0x5b, 0xa0, 0x3e, 0xb3, 0x68, 0xaf, 0xbf,
  0x93, 0x5b, 0x02, 0xbf, 0x35, 0x0e, 0xcd, 0xbe, 0x37, 0x7d, 0x41, 0xbe, 0x2b,
  0xb4, 0x22, 0xbe, 0x6a, 0x0a, 0xa3, 0x3f, 0xb9, 0xcb, 0x23, 0x3f, 0xd8, 0x76,
  0x37, 0xbe, 0x49, 0xe7, 0x33, 0x3f, 0xf6, 0x88, 0x10, 0xbf, 0x61, 0x17, 0x74,
  0xbd, 0x07, 0x6b, 0xd8, 0xbe, 0x02, 0x4a, 0x57, 0x3e, 0xcb, 0xa1, 0xeb, 0x3e,
  0x29, 0x39, 0x1f, 0xbf, 0x4c, 0x96, 0xc5, 0x3e, 0x7a, 0x2c, 0x00, 0xbf, 0x92,
  0x13, 0x40, 0x3f, 0x52, 0x3a, 0x65, 0xbf, 0xaa, 0xbe, 0x0f, 0x3f, 0x93, 0xf6,
  0x9a, 0x3e, 0x9d, 0x35, 0x26, 0xbf, 0x54, 0x35, 0xbd, 0xbf, 0xc6, 0xe3, 0x8a,
  0x3e, 0xee, 0x51, 0x75, 0xbe, 0x88, 0x58, 0x66, 0xbe, 0x78, 0x8b, 0x8e, 0xbd,
  0x6b, 0x7f, 0xbe, 0x3d, 0x31, 0xf5, 0x11, 0xbe, 0x0b, 0xb0, 0x3c, 0x3f, 0xd0,
  0x43, 0x6a, 0xbd, 0xad, 0x7d, 0x2c, 0xbe, 0x85, 0xa8, 0x3c, 0xbe, 0x1e, 0x43,
  0xf1, 0xbe, 0xce, 0xd0, 0x41, 0x3d, 0x14, 0x90, 0x59, 0x3e, 0x27, 0x7f, 0x71,
  0xbd, 0xab, 0x4f, 0x6a, 0x3d, 0x65, 0x43, 0x00, 0xbe, 0xc5, 0x19, 0x32, 0xbe,
  0x1b, 0x85, 0xbd, 0xbd, 0x68, 0xde, 0xf1, 0x3d, 0x0d, 0x8d, 0xc7, 0xbf, 0x5b,
  0xd0, 0xcd, 0x3e, 0x16, 0x00, 0x88, 0x3c, 0x03, 0x78, 0x95, 0x3e, 0x50, 0xd4,
  0xb5, 0xbe, 0xe9, 0x8b, 0xe2, 0x3d, 0xd8, 0x1a, 0x69, 0xbc, 0xa2, 0x7f, 0x70,
  0x3d, 0xc6, 0x17, 0x54, 0x3f, 0xc7, 0xca, 0xcd, 0xbe, 0x66, 0x93, 0x7e, 0xbd,
  0x49, 0xeb, 0x9d, 0xbd, 0x4b, 0x66, 0x56, 0xbe, 0x38, 0x96, 0x0c, 0xbf, 0x4d,
  0x47, 0x64, 0xbe, 0x31, 0x6e, 0xc2, 0xbe, 0xaf, 0x3d, 0x4b, 0xbf, 0xee, 0x40,
  0x33, 0xbf, 0x14, 0xf1, 0x28, 0xbf, 0x9f, 0x4f, 0xcb, 0x3e, 0x8a, 0x4e, 0x4e,
  0x3e, 0x60, 0x85, 0x18, 0x3d, 0x7c, 0x14, 0x27, 0x3e, 0xa1, 0xef, 0xb9, 0xbd,
  0xb4, 0x4c, 0x95, 0xbf, 0x00, 0xfa, 0x5f, 0x3e, 0xbf, 0x26, 0xc4, 0xbe, 0x80,
  0x92, 0xf0, 0xbe, 0x0c, 0xc1, 0x23, 0xbf, 0xf5, 0x59, 0xa4, 0xbe, 0x25, 0x68,
  0xd5, 0xbd, 0xf7, 0x96, 0x3f, 0x3f, 0xc4, 0x66, 0x08, 0x3f, 0x90, 0x31, 0xc3,
  0x3d, 0xbc, 0x59, 0xb8, 0xbf, 0x1e, 0xa9, 0x90, 0x3e, 0xc3, 0xaa, 0x10, 0xbf,
  0x8b, 0x0f, 0x0e, 0x3f, 0xbd, 0xa6, 0x77, 0xbd, 0x90, 0xbf, 0xba, 0xbe, 0x1e,
  0xb0, 0xc6, 0xbf, 0xb5, 0x60, 0x9b, 0x3e, 0xcc, 0xe0, 0x80, 0xbf, 0xd0, 0x41,
  0x73, 0x3f, 0x21, 0xc3, 0xc1, 0x3e, 0x18, 0xe6, 0xa8, 0x3d, 0xa5, 0xfd, 0x9a,
  0x3f, 0x62, 0x93, 0xb7, 0x3e, 0x7c, 0xc1, 0xc3, 0xbf, 0x7e, 0xb1, 0xee, 0x3c,
  0xe9, 0xc5, 0xa6, 0xbe, 0x65, 0xf3, 0x75, 0xbc, 0xd9, 0x53, 0x3c, 0xbe, 0x36,
  0x48, 0x94, 0x3f, 0x38, 0x11, 0x0e, 0x3f, 0xfa, 0x88, 0xf3, 0xbc, 0x9d, 0xb2,
  0x34, 0x3f, 0x2d, 0x22, 0x25, 0x3f, 0xa6, 0xc8, 0x9c, 0x3e, 0x2c, 0xa0, 0xbb,
  0x3d, 0xc0, 0x15, 0x17, 0x3f, 0xe7, 0xe8, 0x3a, 0x3f, 0x9c, 0xe5, 0x06, 0xbf,
  0x57, 0x72, 0xbb, 0xbe, 0xfb, 0xc1, 0x19, 0x3f, 0xa1, 0x26, 0x3f, 0xbf, 0x9f,
  0xa6, 0x36, 0x3e, 0x8b, 0xaa, 0x11, 0xbf, 0x24, 0xd8, 0x71, 0xbf, 0xf5, 0xad,
  0x1b, 0x3f, 0x90, 0xa3, 0x7d, 0xbf, 0x2f, 0x4a, 0x18, 0x3f, 0xfb, 0x7c, 0x0d,
  0x3f, 0x99, 0x63, 0x2e, 0x3e, 0xac, 0x6f, 0x84, 0x3f, 0x9c, 0x35, 0x21, 0x3f,
  0x51, 0xde, 0xad, 0x3e, 0x0c, 0xef, 0x09, 0xbd, 0x53, 0x2d, 0xab, 0xbe, 0x9d,
  0x05, 0xa4, 0x3e, 0x7c, 0x3d, 0xae, 0x3f, 0x48, 0xee, 0x2f, 0x3f, 0x8a, 0x6e,
  0x13, 0xbf, 0xdf, 0xec, 0xe0, 0x3c, 0x11, 0x33, 0x60, 0x3f, 0xe8, 0x37, 0xf0,
  0xbe, 0xdc, 0xc2, 0x91, 0x3e, 0x08, 0x44, 0x9a, 0xbd, 0x31, 0x72, 0x00, 0x3e,
  0xea, 0x9c, 0x31, 0xbe, 0x32, 0x49, 0x0f, 0xbe, 0x97, 0xbe, 0x0b, 0xbe, 0x71,
  0x2f, 0xdb, 0x3e, 0x22, 0x88, 0x9e, 0x3d, 0xe5, 0x21, 0xea, 0x3e, 0x9a, 0x00,
  0xec, 0xbd, 0xae, 0x5d, 0x12, 0x3f, 0x00, 0xa6, 0x8b, 0x3f, 0xac, 0xd0, 0x97,
  0xbe, 0xc7, 0x2e, 0xd7, 0x3e, 0x6a, 0x5b, 0x41, 0xbf, 0x11, 0xa5, 0x84, 0xbe,
  0x0b, 0x96, 0x65, 0xbe, 0xc9, 0x31, 0xa0, 0xbf, 0xe3, 0x37, 0x36, 0xbe, 0xe4,
  0xb5, 0xbd, 0xbe, 0xc1, 0x75, 0x48, 0xbf, 0xdb, 0xe3, 0xb1, 0xbe, 0xfa, 0xb6,
  0x47, 0xbf, 0x67, 0xf1, 0xad, 0xbe, 0x70, 0x40, 0x11, 0x3f, 0x23, 0x92, 0x5e,
  0x3d, 0xdb, 0x08, 0xc3, 0x3e, 0x33, 0x9c, 0x63, 0x3e, 0x0f, 0xf5, 0x84, 0xbf,
  0xc1, 0x53, 0x0f, 0x3f, 0xf1, 0xc1, 0x5b, 0xbf, 0x0c, 0x43, 0x7c, 0x3e, 0x35,
  0xb6, 0x5b, 0xbe, 0xf1, 0x53, 0x9c, 0xbe, 0x30, 0xf5, 0x5d, 0x3d, 0xae, 0x8c,
  0x88, 0xbe, 0x31, 0x8d, 0x88, 0x3e, 0xea, 0x7c, 0x85, 0xbc, 0xe8, 0x55, 0x82,
  0xbe, 0xb4, 0x40, 0x85, 0xbd, 0x82, 0xd3, 0x0e, 0xbf, 0x5e, 0xd0, 0x60, 0x3e,
  0x2f, 0xbd, 0xf8, 0x3e, 0xaa, 0x50, 0x1e, 0xbe, 0x5d, 0x9f, 0x8c, 0xbc, 0xad,
  0x54, 0xad, 0xbf, 0xfd, 0x95, 0x42, 0xbf, 0x76, 0xe5, 0xff, 0xff, 0x04, 0x00,
  0x00, 0x00, 0x2c, 0x01, 0x00, 0x00, 0x79, 0x21, 0x64, 0x3d, 0x9b, 0xfb, 0x14,
  0xbe, 0x3f, 0x6d, 0x18, 0x3f, 0x37, 0x5c, 0x1d, 0x3f, 0xc2, 0x92, 0x94, 0x3d,
  0x25, 0x31, 0x30, 0x3f, 0x36, 0xc3, 0x8b, 0xbe, 0x85, 0x10, 0x84, 0x3d, 0xb6,
  0xbf, 0xa9, 0xbd, 0x30, 0xab, 0x83, 0xbe, 0x64, 0x21, 0x85, 0xbe, 0x80, 0xa1,
  0x0b, 0xbd, 0x52, 0xc2, 0x0e, 0x3e, 0xc3, 0x81, 0x50, 0xbe, 0xa7, 0x1d, 0x9a,
  0xbd, 0x8e, 0x42, 0x55, 0x3e, 0x56, 0xff, 0x03, 0xbe, 0x5f, 0xa3, 0xad, 0x3e,
  0x4e, 0x73, 0x95, 0x3e, 0x50, 0x4e, 0x55, 0xbe, 0xc6, 0x90, 0x55, 0xbe, 0x56,
  0x69, 0x98, 0x3e, 0x74, 0x65, 0xc5, 0x3e, 0xb8, 0xaa, 0x18, 0xbe, 0x0d, 0x83,
  0x15, 0x3f, 0xa5, 0x0c, 0x83, 0xbe, 0xc5, 0x46, 0xb6, 0xbe, 0x69, 0xcd, 0x75,
  0xbe, 0x2e, 0xc4, 0x0d, 0xbc, 0x7e, 0xfc, 0x00, 0xbf, 0x29, 0x1d, 0x43, 0x3e,
  0x0c, 0xce, 0x29, 0xbe, 0xac, 0xfa, 0x82, 0x3c, 0x2a, 0x75, 0x0b, 0xbe, 0x59,
  0x6a, 0xdd, 0xbe, 0xe6, 0xee, 0x98, 0xbe, 0x96, 0x7c, 0xb9, 0x3d, 0x07, 0x24,
  0x94, 0x3e, 0x0e, 0x23, 0xe6, 0xbe, 0x9d, 0x79, 0x5d, 0x3e, 0x1f, 0x03, 0x69,
  0x3f, 0xff, 0x6d, 0x43, 0xbe, 0x02, 0x3c, 0x69, 0x3d, 0xe8, 0x2a, 0xed, 0x3c,
  0x7d, 0xbd, 0x84, 0x3d, 0x3a, 0xc9, 0x93, 0xbe, 0x53, 0x70, 0x35, 0xbd, 0xc5,
  0x6b, 0xe9, 0xbd, 0x57, 0xb8, 0x91, 0xbe, 0xcc, 0xef, 0x5a, 0x3d, 0x3e, 0xd1,
  0x83, 0xbe, 0xbf, 0x48, 0xb6, 0x3e, 0xe4, 0xdd, 0xcf, 0x3d, 0x9b, 0x97, 0xf9,
  0xbd, 0xa2, 0x67, 0xf5, 0x3d, 0xb1, 0x13, 0xa9, 0xbe, 0x8e, 0xda, 0x43, 0x3b,
  0xd5, 0xd1, 0x33, 0x3f, 0xae, 0x28, 0x2b, 0x3f, 0x2f, 0x0d, 0xd8, 0xbe, 0x57,
  0xb3, 0x71, 0xbe, 0x95, 0x44, 0xf8, 0xbd, 0x6c, 0x84, 0x0f, 0xbe, 0x8f, 0x70,
  0xe3, 0xbd, 0x30, 0x90, 0x06, 0xbe, 0x68, 0xf3, 0x14, 0xbd, 0x65, 0xb9, 0x87,
  0x3e, 0x9e, 0x50, 0x08, 0x3d, 0xa6, 0x6b, 0xcf, 0x3b, 0x39, 0x7d, 0x4f, 0x3c,
  0xf2, 0x17, 0x27, 0xbe, 0xda, 0x4c, 0xf4, 0x3d, 0xa1, 0x48, 0x10, 0xbf, 0x61,
  0x45, 0x5d, 0x3e, 0x52, 0x6c, 0x0b, 0xbe, 0xae, 0xe6, 0xff, 0xff, 0x04, 0x00,
  0x00, 0x00, 0x2c, 0x01, 0x00, 0x00, 0x73, 0x00, 0x72, 0x3e, 0x70, 0xad, 0x80,
  0x3e, 0x7d, 0xf2, 0xdf, 0xbd, 0xfe, 0x9f, 0x58, 0xbe, 0x9a, 0x1f, 0xe6, 0xbd,
  0x16, 0xae, 0xe9, 0xbc, 0xeb, 0xd4, 0x18, 0xbe, 0xf0, 0xab, 0x93, 0xbe, 0xd9,
  0xd4, 0x50, 0x3e, 0x95, 0x8e, 0x8d, 0x3e, 0x30, 0x27, 0x7d, 0x3d, 0x8e, 0x53,
  0x46, 0x3d, 0xb4, 0xdd, 0x70, 0x3d, 0x48, 0x39, 0xa1, 0xbd, 0x43, 0xd2, 0x60,
  0x3e, 0x4e, 0xf4, 0x94, 0x3e, 0x88, 0x29, 0x39, 0x3e, 0xe2, 0xcd, 0xc5, 0x3d,
  0xd7, 0x9d, 0xd6, 0xbe, 0x00, 0x4b, 0xe1, 0x3d, 0xe9, 0xd9, 0xba, 0x3e, 0x65,
  0xbd, 0xa7, 0xbe, 0xeb, 0xaa, 0x8a, 0xbe, 0xa9, 0x5a, 0xda, 0x3e, 0x0d, 0xc7,
  0x08, 0x3f, 0x48, 0xbf, 0xc9, 0x3e, 0xfc, 0x68, 0x65, 0x3e, 0x99, 0xfa, 0x1e,
  0x3f, 0x3b, 0xcc, 0x42, 0xbe, 0xb4, 0x7b, 0x84, 0x3e, 0x43, 0x98, 0x8f, 0xbe,
  0xed, 0x7e, 0x37, 0xbe, 0xf5, 0x8e, 0xc5, 0x3e, 0x1e, 0x24, 0x32, 0xbe, 0xeb,
  0x32, 0x46, 0xbf, 0x4a, 0x4c, 0x0c, 0x3f, 0x4e, 0x1f, 0x21, 0xbe, 0xc5, 0x17,
  0xd7, 0xbd, 0x27, 0x6b, 0xca, 0xbe, 0xa4, 0x69, 0xd7, 0x3c, 0xd7, 0xe7, 0xc1,
  0x3e, 0x2d, 0x13, 0x0f, 0xbf, 0x0f, 0x6e, 0x8d, 0xbb, 0x0a, 0x39, 0xa7, 0xbc,
  0x52, 0x25, 0x61, 0x3e, 0x87, 0x5b, 0xc7, 0xbd, 0x2b, 0xa3, 0x48, 0x3e, 0x25,
  0xb1, 0x3f, 0x3e, 0x79, 0xd8, 0xf9, 0x3c, 0x60, 0x6e, 0x9f, 0x3d, 0xd8, 0x13,
  0x16, 0x3e, 0x3f, 0x70, 0x86, 0xbd, 0x85, 0x9c, 0x98, 0xbd, 0x3e, 0x02, 0xe8,
  0x39, 0x8c, 0xc8, 0x69, 0x3c, 0xf5, 0xf2, 0xec, 0x3d, 0xf1, 0x1d, 0xee, 0xbc,
  0xfc, 0x9c, 0xa4, 0x3d, 0x48, 0x29, 0xef, 0xbd, 0x2f, 0x89, 0x07, 0x3e, 0xfa,
  0x9c, 0x7c, 0xbd, 0xf3, 0x38, 0x28, 0x3e, 0x76, 0x67, 0x57, 0xbd, 0x86, 0xd9,
  0x0e, 0x3d, 0x69, 0x35, 0xe0, 0x3d, 0x47, 0x04, 0x35, 0x3e, 0x30, 0x27, 0x0d,
  0xbb, 0x72, 0xc3, 0x9e, 0xbc, 0x03, 0x48, 0x5e, 0x3e, 0x10, 0x51, 0x01, 0x3d,
  0x91, 0xab, 0xb8, 0x3d, 0x6b, 0xf6, 0xec, 0xbd, 0x40, 0x37, 0xa7, 0x3c, 0x97,
  0x69, 0x29, 0xbd, 0xc3, 0xf4, 0x28, 0x3d, 0xe6, 0xe7, 0xff, 0xff, 0x04, 0x00,
  0x00, 0x00, 0xb0, 0x04, 0x00, 0x00, 0x09, 0x13, 0x7c, 0x3f, 0x68, 0x7d, 0x50,
  0xbe, 0x21, 0x71, 0x94, 0xbe, 0xaf, 0x0d, 0xcc, 0x3f, 0xf2, 0x80, 0x18, 0xbf,
  0x0e, 0x46, 0xbd, 0xbe, 0x75, 0x28, 0x95, 0x3f, 0x17, 0x6d, 0x88, 0x3e, 0x63,
  0x8a, 0xe9, 0xbf, 0xec, 0x3f, 0x11, 0xbc, 0x50, 0xbf, 0x79, 0x3f, 0x9a, 0xcc,
  0xa0, 0xbe, 0x21, 0x06, 0x05, 0x3f, 0x06, 0x9a, 0x2f, 0x3f, 0x19, 0xdb, 0x5b,
  0xbf, 0x8e, 0x51, 0x43, 0xbd, 0x53, 0xcd, 0x38, 0xbf, 0x16, 0x9b, 0xed, 0xbe,
  0xcf, 0xab, 0x19, 0x3e, 0xd9, 0x7e, 0x1e, 0x3f, 0xa1, 0x6a, 0x03, 0x3f, 0xe3,
  0x71, 0x17, 0x3d, 0xf3, 0x55, 0xb4, 0x3d, 0xc9, 0x7d, 0x78, 0x3e, 0x90, 0x18,
  0x1a, 0x3f, 0xc5, 0xa0, 0x8e, 0x3d, 0xcd, 0x9f, 0x14, 0x3e, 0x66, 0x8a, 0x6f,
  0xbf, 0xfa, 0x1e, 0xc3, 0xbd, 0x91, 0xb5, 0xb8, 0xbe, 0x93, 0xa5, 0x79, 0x3e,
  0xcb, 0x41, 0xda, 0x3e, 0x0b, 0xbd, 0x05, 0x3f, 0xda, 0xec, 0x09, 0x3f, 0x76,
  0xdb, 0x94, 0x3a, 0xf6, 0xb3, 0x9a, 0xbe, 0x86, 0x6d, 0xc9, 0x3d, 0x26, 0x1c,
  0xbf, 0xbe, 0xfc, 0xc4, 0x03, 0x3f, 0xab, 0x30, 0x6d, 0xbf, 0x1e, 0x67, 0x0a,
  0xbf, 0x29, 0xfe, 0x0f, 0x3e, 0x62, 0x7e, 0x15, 0x3d, 0xac, 0xad, 0x9e, 0xbf,
  0x02, 0x53, 0x0e, 0xc0, 0xd0, 0x48, 0x15, 0xbc, 0x44, 0x93, 0xa5, 0xbf, 0x27,
  0xfa, 0xd0, 0x3e, 0x4c, 0x55, 0x87, 0x3f, 0x32, 0xb4, 0x65, 0x3f, 0x09, 0xeb,
  0xc5, 0xbd, 0x7e, 0xff, 0x8c, 0x3e, 0x4e, 0x23, 0xa7, 0xbf, 0x7f, 0x05, 0x42,
  0xbe, 0xf8, 0x0e, 0xa8, 0xbd, 0x91, 0x3b, 0x03, 0x3f, 0xd8, 0xa9, 0xce, 0xbe,
  0x47, 0x38, 0xa9, 0x3e, 0x3f, 0x38, 0x14, 0xba, 0x05, 0xd5, 0x4a, 0xbf, 0x90,
  0x4c, 0xb5, 0x3e, 0xdf, 0x7e, 0xb5, 0xbd, 0x8c, 0x04, 0x91, 0xbe, 0x33, 0xa6,
  0x73, 0x3f, 0xfd, 0x7d, 0xf4, 0xbd, 0x52, 0xc8, 0x12, 0x3c, 0x7f, 0xd1, 0x27,
  0xbf, 0xc7, 0xd1, 0x15, 0xbd, 0xa0, 0xb2, 0x6c, 0x3f, 0x5d, 0x33, 0x50, 0xbe,
  0xb4, 0xd6, 0xaa, 0x3f, 0x3c, 0x5b, 0x85, 0xbf, 0xc7, 0x0b, 0x84, 0xbf, 0xf8,
  0x76, 0x16, 0xbf, 0x04, 0x96, 0x8c, 0xbe, 0x69, 0x69, 0x31, 0xbe, 0x5f, 0x57,
  0x9f, 0xbe, 0x80, 0x19, 0xc2, 0xbe, 0xb6, 0x9a, 0x19, 0xbf, 0xa5, 0x22, 0x8e,
  0x3e, 0xc3, 0x84, 0x4b, 0xbe, 0xb2, 0xd2, 0xb6, 0xbd, 0x30, 0x38, 0xd4, 0x3d,
  0x06, 0xdd, 0x14, 0x40, 0x44, 0xaa, 0xff, 0x3e, 0xbf, 0xc8, 0xc7, 0x3e, 0xe6,
  0xf8, 0x7c, 0x3f, 0x42, 0x60, 0xb3, 0xbc, 0x19, 0xcd, 0x9b, 0xbf, 0x93, 0x12,
  0x55, 0xbe, 0x0d, 0xa6, 0x94, 0x3e, 0xa7, 0xc8, 0x5c, 0x3e, 0xcd, 0xb7, 0xd4,
  0x3e, 0xf5, 0xef, 0x83, 0xbe, 0x93, 0xc9, 0x03, 0x40, 0x34, 0xb0, 0xeb, 0xbd,
  0x94, 0x0f, 0x37, 0xbf, 0xf5, 0x70, 0x3d, 0x3e, 0xbe, 0x68, 0x18, 0x3e, 0xfa,
  0x16, 0xaf, 0x3e, 0x8e, 0xcd, 0x14, 0x3e, 0xe9, 0x55, 0xaa, 0xbc, 0xab, 0x39,
  0x7f, 0xbd, 0x68, 0x5e, 0x41, 0x3f, 0x61, 0x39, 0x6c, 0xbf, 0x73, 0x4e, 0xdc,
  0x3d, 0xb0, 0x09, 0x2b, 0xbf, 0xef, 0x08, 0xb6, 0x3d, 0x14, 0x0d, 0x00, 0xbe,
  0x6c, 0x5f, 0xad, 0x3f, 0x28, 0xe4, 0xff, 0x3c, 0x0f, 0xd4, 0x9b, 0xbd, 0x3e,
  0xc4, 0x0a, 0xbf, 0x39, 0x25, 0xfe, 0x3e, 0xf6, 0xde, 0x22, 0x3f, 0x5d, 0x4d,
  0xaa, 0x3f, 0xf5, 0xf8, 0xc9, 0x3e, 0xc2, 0x8b, 0x9c, 0xbe, 0x48, 0x99, 0xc0,
  0xbe, 0x3d, 0x73, 0xdc, 0xbe, 0x8a, 0x87, 0x80, 0xbe, 0x78, 0x9e, 0xdf, 0x3d,
  0x26, 0x95, 0x74, 0x3f, 0x37, 0x34, 0x75, 0x3e, 0x74, 0x35, 0x4b, 0x3e, 0xeb,
  0xa0, 0xae, 0x3c, 0x71, 0xf0, 0x47, 0xbf, 0x4d, 0x9f, 0x8c, 0xbe, 0xd4, 0x77,
  0x17, 0x3e, 0xb3, 0x6f, 0x1d, 0xbf, 0xdc, 0xb8, 0xa0, 0xbf, 0xbb, 0xcc, 0xb6,
  0xbf, 0x4e, 0x99, 0x56, 0x3f, 0x1c, 0xfe, 0x8c, 0x3f, 0x7d, 0xbf, 0xd8, 0x3d,
  0x87, 0x94, 0xaf, 0x3d, 0x08, 0x35, 0x2b, 0x3f, 0xe8, 0xef, 0x8a, 0xbf, 0x95,
  0x14, 0x8f, 0x3d, 0xb5, 0x28, 0x09, 0xbf, 0x1b, 0x8d, 0x15, 0x3e, 0x81, 0xe9,
  0x41, 0xbf, 0x3b, 0xe1, 0xa3, 0x3d, 0xba, 0xaf, 0xa2, 0x3f, 0x1f, 0x99, 0xf7,
  0x3e, 0x03, 0x9d, 0x20, 0xbe, 0x3b, 0xdd, 0x3f, 0xc0, 0x2c, 0x21, 0x37, 0xbf,
  0x60, 0xff, 0x95, 0x3d, 0xe6, 0xb6, 0xdb, 0x3e, 0x5f, 0xdf, 0xcc, 0xbd, 0xb5,
  0x72, 0x5f, 0xbf, 0x93, 0x8d, 0x5c, 0x3d, 0x74, 0xaa, 0x01, 0x3f, 0x07, 0x54,
  0x76, 0x3f, 0xbb, 0x5c, 0x21, 0x3d, 0x79, 0x4e, 0xbc, 0x3e, 0x5e, 0x47, 0x95,
  0xbe, 0xbe, 0xe6, 0x5c, 0x3f, 0x2e, 0x06, 0xd9, 0xbd, 0xd1, 0x1c, 0xd3, 0xbe,
  0xec, 0x96, 0x68, 0xbd, 0xd0, 0x96, 0xf8, 0x3d, 0xa9, 0xb0, 0x84, 0x3e, 0x75,
  0x37, 0x9b, 0x3f, 0xc1, 0xea, 0x1b, 0x3f, 0x5e, 0x9e, 0x32, 0x3e, 0xc8, 0x98,
  0xcb, 0x3e, 0x7d, 0x10, 0x12, 0xbf, 0x14, 0x7e, 0x33, 0xbe, 0xfa, 0xb9, 0x0c,
  0x3e, 0x04, 0x86, 0x76, 0x3e, 0x04, 0x0c, 0x3c, 0xbe, 0x5e, 0x1e, 0x58, 0x3c,
  0x07, 0xbc, 0xbd, 0x3e, 0x71, 0x1a, 0x84, 0xbf, 0x68, 0xfe, 0xaf, 0xbd, 0x81,
  0x68, 0x3f, 0x3d, 0xcb, 0x5a, 0xe8, 0xbf, 0x77, 0x9a, 0xec, 0x3d, 0xf1, 0x67,
  0x92, 0x3e, 0x26, 0x6a, 0x66, 0x3d, 0x44, 0x62, 0x65, 0xbe, 0x62, 0x8e, 0x6c,
  0xbe, 0x9d, 0x7c, 0x9e, 0xbd, 0xcd, 0xa4, 0x60, 0x3d, 0xa2, 0xd9, 0x9c, 0xbf,
  0x9b, 0x9d, 0xd7, 0xbc, 0xc7, 0x12, 0x06, 0xbe, 0x83, 0x70, 0x2b, 0x3f, 0x06,
  0xab, 0x88, 0x3f, 0x4a, 0x33, 0x83, 0xbe, 0x43, 0xc5, 0x51, 0xbf, 0x6c, 0xa5,
  0x19, 0xbe, 0x28, 0x52, 0x8b, 0x3f, 0x96, 0x41, 0xed, 0x3e, 0x86, 0x4b, 0xb6,
  0x3e, 0xc3, 0x9d, 0x1d, 0x3e, 0xa9, 0xf5, 0x92, 0x3e, 0xa7, 0x39, 0xcd, 0x3d,
  0x3d, 0xed, 0x82, 0x3c, 0x25, 0x7b, 0x0a, 0xbe, 0xa7, 0xd6, 0x8c, 0x3d, 0x93,
  0xd1, 0xaa, 0x3e, 0x5e, 0x94, 0xcc, 0xbf, 0x9a, 0x6b, 0xf4, 0xbb, 0x47, 0xe1,
  0x97, 0xbf, 0xe6, 0xac, 0x43, 0xbf, 0xa0, 0xff, 0x79, 0xbe, 0xfe, 0xf3, 0x15,
  0xbd, 0xcf, 0xab, 0xc9, 0x3d, 0x22, 0xeb, 0x29, 0x3f, 0xb1, 0xda, 0x5e, 0x3e,
  0x5e, 0xfe, 0xab, 0xbb, 0x19, 0xb6, 0xcd, 0x3e, 0xd8, 0x45, 0xc5, 0x3e, 0x86,
  0x21, 0x8e, 0x3f, 0xd3, 0x68, 0x05, 0xbd, 0xdc, 0xae, 0xa8, 0x3d, 0xc1, 0x0c,
  0x8b, 0x3e, 0xcc, 0x2c, 0x12, 0x3d, 0x7b, 0xae, 0x95, 0xbd, 0x03, 0x3e, 0x10,
  0xbe, 0x7b, 0xd4, 0x9e, 0xbf, 0xbc, 0xec, 0x8e, 0x3d, 0x51, 0xfa, 0x09, 0xbc,
  0x6e, 0xc5, 0x82, 0x3e, 0xea, 0x0e, 0xc3, 0xbe, 0x05, 0x1d, 0x52, 0xbf, 0x51,
  0x93, 0x10, 0xbd, 0xe0, 0x5d, 0xae, 0xbf, 0xd2, 0x17, 0x60, 0x3f, 0xf4, 0x36,
  0xd4, 0xbe, 0x8b, 0xc4, 0x50, 0x3e, 0x69, 0xc0, 0x0d, 0xbe, 0xf3, 0xc3, 0x98,
  0x3e, 0x5f, 0xbb, 0x7c, 0x3e, 0xad, 0xdc, 0x8f, 0xbe, 0xbe, 0xb6, 0xe7, 0xbe,
  0x84, 0xb7, 0xf8, 0xbe, 0x09, 0x4b, 0xe1, 0x3d, 0x38, 0x58, 0xa0, 0xbd, 0x97,
  0x54, 0x1d, 0xbd, 0x32, 0xf8, 0xee, 0xbe, 0x18, 0x40, 0x3d, 0xbf, 0x46, 0x52,
  0xea, 0xbe, 0x57, 0x6d, 0x86, 0xbe, 0x7f, 0xe1, 0xdd, 0xbe, 0x9f, 0xef, 0x08,
  0xbf, 0x85, 0x76, 0x61, 0x3d, 0xad, 0x2a, 0xde, 0xbf, 0x6e, 0x8b, 0xc8, 0x3e,
  0x6c, 0x4f, 0x49, 0xbe, 0xa8, 0xe1, 0xd5, 0xbe, 0x35, 0x1c, 0x9d, 0xbf, 0x4c,
  0x22, 0x8e, 0xbd, 0x6e, 0x7a, 0x1a, 0x3f, 0xec, 0x5d, 0x26, 0x3e, 0xc0, 0xdd,
  0xb4, 0xbe, 0xd0, 0xc0, 0x3b, 0xbf, 0xeb, 0x58, 0xc0, 0x3c, 0xfa, 0x9f, 0x0f,
  0x3d, 0x60, 0x82, 0xb1, 0x3d, 0xe1, 0x9d, 0xe0, 0x3f, 0x01, 0x36, 0x8e, 0xbe,
  0x70, 0x1a, 0x96, 0xbe, 0x46, 0xa4, 0x9b, 0xbe, 0x53, 0x7d, 0x5d, 0xbd, 0xf5,
  0xee, 0x48, 0xbf, 0xd4, 0x19, 0x0a, 0xbf, 0xbf, 0xac, 0x87, 0xbf, 0x1e, 0xdf,
  0x81, 0xbf, 0xe5, 0xb8, 0x84, 0x3f, 0xb7, 0x6b, 0xb3, 0xbe, 0xa4, 0xe5, 0xc7,
  0xbf, 0x97, 0xc7, 0xfd, 0xbe, 0x3f, 0xa8, 0xe8, 0x3e, 0x1d, 0xaf, 0x8c, 0xbd,
  0x57, 0xdc, 0x7b, 0x3f, 0xe4, 0x3b, 0xb5, 0x3f, 0x65, 0x51, 0x78, 0x3d, 0xb6,
  0x0d, 0xd6, 0xbe, 0xa0, 0x14, 0x65, 0x3d, 0xc3, 0xd4, 0x02, 0x3e, 0x58, 0x32,
  0x3c, 0x3f, 0x57, 0xc2, 0x78, 0xbe, 0x8d, 0x88, 0x09, 0xc0, 0x0f, 0x65, 0x3a,
  0xbf, 0x76, 0x30, 0x2a, 0x3e, 0x82, 0x1d, 0x2d, 0x3f, 0x57, 0x71, 0xef, 0xbe,
  0x83, 0x8a, 0xbe, 0x3f, 0x20, 0x20, 0xa1, 0xbf, 0x89, 0x06, 0x2a, 0xbf, 0x1f,
  0x11, 0x28, 0x3f, 0x53, 0x5f, 0x42, 0xbc, 0xa1, 0x80, 0x87, 0x3e, 0xb5, 0x08,
  0xbd, 0x3e, 0x3a, 0x3d, 0xc3, 0xbf, 0xa0, 0x85, 0xa7, 0x3d, 0xa2, 0xec, 0xff,
  0xff, 0x04, 0x00, 0x00, 0x00, 0x90, 0x01, 0x00, 0x00, 0x97, 0xaa, 0xbc, 0x3d,
  0x79, 0x25, 0x01, 0xbd, 0x4f, 0x33, 0x1c, 0x3e, 0xf5, 0x07, 0xb1, 0x3e, 0xff,
  0x0a, 0xf9, 0xbd, 0x92, 0xfb, 0x4c, 0x3e, 0x95, 0x46, 0x86, 0x3d, 0x8e, 0xd3,
  0x51, 0x3e, 0xaa, 0xdb, 0x25, 0xbf, 0xdf, 0x43, 0x72, 0xbe, 0x59, 0xfe, 0xf5,
  0x3e, 0x57, 0x64, 0x88, 0xbd, 0x28, 0xe6, 0xd2, 0xbe, 0x45, 0x0f, 0x0b, 0xbf,
  0x0f, 0x7d, 0x46, 0xbf, 0xa3, 0x13, 0x8a, 0x3e, 0xf0, 0xe6, 0xb6, 0x3d, 0xd5,
  0xcc, 0x94, 0xbc, 0x80, 0x9b, 0x3d, 0x3c, 0xb8, 0x59, 0x31, 0xbe, 0x6c, 0x0b,
  0xc8, 0xbd, 0x29, 0x4d, 0xcd, 0x3d, 0x02, 0x2c, 0xd3, 0x3d, 0x77, 0x6e, 0x93,
  0x3e, 0xec, 0x86, 0x8a, 0x3f, 0x0d, 0x56, 0xfe, 0xbe, 0x5f, 0x3c, 0x64, 0x3e,
  0x8e, 0x00, 0x77, 0xbe, 0x7f, 0xb8, 0x53, 0x3e, 0x60, 0x0c, 0x35, 0xbe, 0xf1,
  0x32, 0x94, 0x3f, 0x9e, 0x9f, 0xf6, 0x3e, 0x7e, 0x79, 0x49, 0x3f, 0x48, 0x33,
  0x37, 0x3c, 0xca, 0x76, 0x8f, 0x3f, 0xe0, 0x89, 0xf1, 0xbe, 0xf2, 0xf1, 0xf2,
  0xbe, 0x87, 0x31, 0x34, 0xbe, 0x77, 0x7e, 0x0e, 0x3f, 0xb9, 0xb1, 0x13, 0x3e,
  0xf4, 0x1c, 0xdf, 0x3e, 0xbe, 0xc5, 0x74, 0x3e, 0xd6, 0x1d, 0x20, 0xbf, 0x83,
  0xa7, 0x3b, 0x3f, 0x03, 0xa2, 0x5f, 0xbf, 0x33, 0x5b, 0x0d, 0x3f, 0x85, 0x79,
  0x71, 0x3e, 0xd4, 0xfd, 0x5f, 0xbe, 0x16, 0x4f, 0x67, 0x3e, 0xc1, 0x12, 0xce,
  0xbe, 0x76, 0x24, 0x85, 0xbf, 0xc9, 0x06, 0xd2, 0xbd, 0x1f, 0xdf, 0xd9, 0x3e,
  0xbc, 0xb6, 0x0b, 0xbe, 0x56, 0x65, 0x01, 0x3e, 0x95, 0x83, 0xaf, 0xbe, 0x29,
  0xeb, 0xfe, 0xbe, 0x56, 0x2d, 0x94, 0xbe, 0x6c, 0x84, 0x6a, 0x3f, 0x26, 0x62,
  0x3f, 0xbf, 0x99, 0xb5, 0x34, 0xbf, 0x3f, 0x83, 0x2c, 0xbf, 0x7b, 0xcd, 0xe0,
  0xbe, 0x9f, 0x6e, 0x54, 0x3d, 0xfd, 0x68, 0xd7, 0x3d, 0x06, 0xae, 0x9f, 0xbe,
  0xcc, 0x4e, 0x95, 0xbf, 0x14, 0x50, 0xbe, 0xbe, 0xdd, 0xf1, 0x62, 0x3e, 0x73,
  0x95, 0x0d, 0xbe, 0x49, 0xa7, 0x47, 0xbf, 0xe3, 0x43, 0x3b, 0x3f, 0x43, 0xcc,
  0x04, 0x3f, 0xf7, 0x87, 0xdc, 0xbe, 0xa3, 0xe9, 0x14, 0xbf, 0xb5, 0x88, 0xd0,
  0x3d, 0xb3, 0x22, 0x5d, 0xbe, 0x27, 0xc9, 0x22, 0xbe, 0x80, 0x0b, 0x2b, 0xbf,
  0xba, 0x0d, 0x2b, 0xbe, 0xd2, 0x64, 0x7e, 0x3e, 0x32, 0x66, 0xc1, 0x3e, 0x77,
  0x56, 0x4e, 0x3f, 0x6f, 0x4a, 0xd0, 0xbf, 0xff, 0xb3, 0xc1, 0xbe, 0xdf, 0x75,
  0x72, 0x3d, 0x32, 0xfc, 0xdd, 0x3e, 0xb8, 0x20, 0xc3, 0x3e, 0x00, 0x9c, 0x85,
  0x3d, 0xcb, 0x2f, 0x1f, 0x3f, 0x6d, 0x8a, 0x5c, 0x3b, 0x80, 0x99, 0x5d, 0x3e,
  0x90, 0xe3, 0x70, 0x3f, 0xcc, 0x3c, 0x06, 0x3f, 0x74, 0x25, 0x40, 0x3e, 0xbb,
  0x37, 0x2b, 0xbe, 0x4c, 0x0c, 0x24, 0x3d, 0x6e, 0x7b, 0x2a, 0x3f, 0x5a, 0xd7,
  0x9f, 0x3e, 0xbc, 0x8f, 0x73, 0xbe, 0x3e, 0xee, 0xff, 0xff, 0x04, 0x00, 0x00,
  0x00, 0x50, 0x00, 0x00, 0x00, 0x00, 0x00, 0x00, 0x00, 0x00, 0x00, 0x00, 0x00,
  0x00, 0x00, 0x00, 0x00, 0x00, 0x00, 0x00, 0x00, 0x00, 0x00, 0x00, 0x00, 0x00,
  0x00, 0x00, 0x00, 0x00, 0x00, 0x00, 0x00, 0x00, 0x00, 0x00, 0x00, 0x00, 0x00,
  0x00, 0x00, 0x00, 0x00, 0x00, 0x00, 0x00, 0x00, 0x00, 0x00, 0x00, 0x00, 0x00,
  0x00, 0x00, 0x00, 0x00, 0x00, 0x00, 0x00, 0x00, 0x00, 0x00, 0x00, 0x00, 0x00,
  0x00, 0x00, 0x00, 0x00, 0x00, 0x00, 0x00, 0x00, 0x00, 0x00, 0x00, 0x00, 0x00,
  0x00, 0x00, 0x00, 0x00, 0x00, 0x00, 0x00, 0x9a, 0xee, 0xff, 0xff, 0x04, 0x00,
  0x00, 0x00, 0x90, 0x01, 0x00, 0x00, 0x6d, 0x22, 0x00, 0xbf, 0xf3, 0x36, 0xb8,
  0x3c, 0x16, 0xda, 0xc7, 0xbd, 0xf9, 0x39, 0x4b, 0x3d, 0x05, 0x99, 0xbd, 0x3e,
  0x65, 0x90, 0x5e, 0xbe, 0x2a, 0x74, 0x83, 0x3e, 0xb4, 0x8c, 0xf6, 0xbe, 0x21,
  0xdb, 0xd1, 0xbe, 0x47, 0xe3, 0x94, 0x3e, 0x15, 0x0e, 0xc6, 0xbe, 0x3e, 0xf1,
  0xa4, 0xbd, 0x55, 0x80, 0x31, 0x3f, 0x6e, 0x70, 0xd1, 0xbc, 0x33, 0xc4, 0xc4,
  0xbf, 0xdc, 0x83, 0x47, 0xbd, 0x99, 0x84, 0x25, 0x3f, 0x11, 0x21, 0x48, 0x3c,
  0x53, 0xaa, 0x5e, 0xbf, 0x3c, 0x96, 0xb9, 0x3e, 0x6d, 0xd0, 0x81, 0xbf, 0x4c,
  0xb0, 0x6d, 0xbe, 0x6b, 0x6c, 0x06, 0x3f, 0x37, 0x67, 0xcc, 0xbf, 0x79, 0x91,
  0x52, 0x3e, 0x7e, 0x45, 0x67, 0xbe, 0x42, 0x24, 0x62, 0x3f, 0x68, 0x8f, 0xb7,
  0x3e, 0x24, 0xc1, 0x87, 0x3f, 0xac, 0xf7, 0x01, 0x3f, 0x92, 0x4b, 0x1d, 0x3f,
  0xbb, 0xb1, 0x08, 0xbf, 0x0c, 0xfb, 0x65, 0xbe, 0x10, 0x5c, 0xde, 0xbe, 0x13,
  0x38, 0x91, 0x3e, 0xcd, 0xaa, 0xbc, 0x3e, 0xe7, 0x9c, 0x71, 0xbd, 0x3b, 0x51,
  0xc0, 0x3e, 0xbf, 0x3d, 0xbd, 0x3e, 0x24, 0x0d, 0x46, 0xbf, 0x74, 0x11, 0x97,
  0x3e, 0x30, 0xf8, 0xa4, 0xbe, 0x36, 0x74, 0x27, 0xbf, 0x2c, 0xc4, 0x9a, 0x3e,
  0x20, 0x27, 0x16, 0xbf, 0x4d, 0xa3, 0xba, 0x3f, 0xce, 0x94, 0x23, 0xbf, 0x7b,
  0xdf, 0xe5, 0x3e, 0xfe, 0x74, 0x68, 0xbd, 0xfb, 0x3e, 0x06, 0xbf, 0x4d, 0x5e,
  0x35, 0x40, 0xeb, 0x16, 0x6d, 0x3d, 0xda, 0x03, 0x18, 0xbf, 0xe4, 0xd2, 0xe9,
  0x3e, 0x1e, 0xdb, 0x4a, 0x3b, 0x4c, 0x1e, 0xa3, 0xbe, 0x74, 0x6e, 0x8d, 0x3b,
  0x3f, 0x97, 0x94, 0xbe, 0x22, 0xbf, 0x9e, 0x3e, 0xf6, 0xaf, 0xe2, 0x3e, 0x2b,
  0x5b, 0x3a, 0xbf, 0xa8, 0xf7, 0x46, 0xbf, 0x1a, 0x3d, 0xcf, 0x3e, 0xfd, 0xd8,
  0x11, 0xbf, 0xad, 0x69, 0xc0, 0x3f, 0x78, 0x6f, 0xbc, 0x3e, 0x61, 0x10, 0xb3,
  0xbf, 0x1a, 0x91, 0x65, 0xbe, 0x72, 0xb7, 0x95, 0x3d, 0x50, 0x3a, 0x13, 0xbe,
  0x88, 0xe2, 0x22, 0x3c, 0x55, 0xd3, 0xbc, 0xbe, 0x26, 0xda, 0xc5, 0x3e, 0xd9,
  0x66, 0xe7, 0xbe, 0x9c, 0x45, 0x75, 0xbe, 0x43, 0xf6, 0x9c, 0x3e, 0x1a, 0x7e,
  0x34, 0xbf, 0xde, 0x87, 0x61, 0xbf, 0xef, 0x96, 0xe0, 0x3d, 0x48, 0x0d, 0x4a,
  0x3e, 0x6a, 0x9b, 0xea, 0xbe, 0x64, 0xb8, 0x56, 0x3f, 0xbc, 0xd3, 0xcf, 0xbd,
  0x1f, 0xe3, 0x0c, 0xc0, 0x90, 0xfb, 0xef, 0xbe, 0xc4, 0x05, 0xb1, 0xbe, 0x85,
  0xfc, 0x6e, 0x3e, 0xd4, 0xd1, 0xb7, 0xbd, 0xca, 0x77, 0xa0, 0xbe, 0x5b, 0xf3,
  0x62, 0x3c, 0x35, 0xe7, 0xe9, 0xbe, 0x2f, 0x7c, 0x5c, 0x3f, 0xa9, 0x01, 0x18,
  0xbe, 0x3f, 0xe7, 0xe2, 0x3e, 0xb1, 0xd0, 0x98, 0xbf, 0x10, 0x1e, 0x25, 0x3e,
  0x7b, 0xc7, 0x78, 0x3e, 0x8a, 0xc4, 0x3e, 0x3e, 0x5e, 0x6b, 0xab, 0x3e, 0x0c,
  0xad, 0x0d, 0xbe, 0x36, 0xf0, 0xff, 0xff, 0x04, 0x00, 0x00, 0x00, 0x84, 0x03,
  0x00, 0x00, 0x75, 0xe7, 0x83, 0xbe, 0x68, 0x8e, 0x02, 0xbf, 0xe4, 0x2f, 0xa6,
  0xbe, 0xc9, 0x48, 0xa9, 0x3d, 0x6d, 0xa6, 0x4a, 0x3e, 0x80, 0x2f, 0x0d, 0x3f,
  0x40, 0x8d, 0x30, 0x3f, 0xbc, 0x7f, 0xf9, 0xbe, 0xd2, 0xad, 0xba, 0x3e, 0xcb,
  0x2b, 0x3b, 0xbf, 0x30, 0x77, 0x68, 0x3e, 0x40, 0xb3, 0xe2, 0xbf, 0x2e, 0x05,
  0x2a, 0xbf, 0xdc, 0x13, 0x01, 0x3f, 0xd6, 0x3f, 0x09, 0xbf, 0x89, 0xc4, 0x0e,
  0x3e, 0x78, 0xa6, 0xe0, 0x3e, 0x5b, 0x15, 0x1c, 0x3e, 0xaa, 0xdc, 0x46, 0x3f,
  0x90, 0x75, 0x77, 0xbf, 0x63, 0xf3, 0xbe, 0xbe, 0x27, 0x36, 0xf2, 0x3e, 0x0b,
  0xee, 0x46, 0xbf, 0x2e, 0x22, 0x15, 0xbf, 0xd7, 0x5e, 0xa3, 0x3d, 0xe5, 0x8a,
  0x0f, 0xbe, 0x48, 0xc7, 0xf8, 0xbe, 0x64, 0x6d, 0xbb, 0x3d, 0x01, 0xa0, 0x29,
  0xbf, 0xed, 0x5b, 0x30, 0xbe, 0x94, 0xe1, 0x78, 0xbd, 0x58, 0xa5, 0xc6, 0xbe,
  0x19, 0x72, 0x0a, 0x3f, 0xeb, 0xd9, 0x5b, 0x3e, 0x86, 0x99, 0xdc, 0x3e, 0x18,
  0xd2, 0x2a, 0xbf, 0xd6, 0xda, 0x48, 0xbe, 0x9d, 0xed, 0xb7, 0xbf, 0xbb, 0x36,
  0x8b, 0xbe, 0x4b, 0x1d, 0x00, 0x3f, 0xf1, 0x68, 0x3a, 0x3f, 0x95, 0x12, 0xc7,
  0x3e, 0xcb, 0x47, 0x21, 0xc0, 0xd4, 0x06, 0x3a, 0x3f, 0x68, 0x4c, 0x07, 0xbf,
  0x2a, 0x29, 0x0c, 0x3d, 0x53, 0x4e, 0xe0, 0x3e, 0x46, 0x93, 0xee, 0xbd, 0x96,
  0xc1, 0xae, 0x3e, 0xb9, 0xa2, 0x74, 0xbd, 0x23, 0x19, 0xa1, 0xbf, 0xe7, 0x70,
  0x54, 0x3e, 0xc1, 0x44, 0x21, 0x3f, 0xd1, 0x96, 0x94, 0xbd, 0x12, 0xa1, 0x73,
  0x3f, 0x0f, 0x48, 0xcf, 0xbe, 0x37, 0x86, 0xf1, 0xbe, 0x20, 0xed, 0x69, 0xc0,
  0x51, 0x8c, 0xbd, 0xbe, 0x08, 0xfc, 0x10, 0x3f, 0xea, 0x1d, 0xf2, 0x3e, 0x91,
  0xb9, 0xf5, 0xbd, 0x43, 0x5c, 0xd7, 0xbe, 0x2a, 0x08, 0xe6, 0xbe, 0x15, 0xd4,
  0x24, 0x3e, 0xe1, 0xf9, 0x43, 0xbf, 0x37, 0xca, 0x89, 0xbb, 0x6e, 0x45, 0x3f,
  0x3f, 0x89, 0x37, 0x52, 0x3f, 0x51, 0xb3, 0x86, 0x3f, 0x9b, 0x4b, 0xa8, 0x3e,
  0xad, 0x50, 0x4e, 0xbe, 0x69, 0xf6, 0x61, 0x3e, 0x9d, 0xae, 0x15, 0xbe, 0xe3,
  0xae, 0x8a, 0xbe, 0x08, 0xb0, 0x95, 0x3e, 0x2b, 0xba, 0xa0, 0x3f, 0x63, 0x84,
  0xbd, 0x3e, 0x46, 0x32, 0x5b, 0x3e, 0x24, 0xea, 0x1d, 0x3f, 0x09, 0x68, 0x1b,
  0xbf, 0x70, 0x21, 0x13, 0x3d, 0xd8, 0xa0, 0x4b, 0x3b, 0x16, 0x82, 0x6b, 0xbf,
  0x3d, 0x3e, 0xd5, 0x3e, 0x88, 0xa0, 0xf2, 0xbc, 0xf7, 0xe2, 0x20, 0xbe, 0xb1,
  0xe7, 0x00, 0xc0, 0x3a, 0x9f, 0xd0, 0x3e, 0xb7, 0x45, 0xb5, 0xbe, 0x8d, 0xc7,
  0x08, 0x3f, 0xe4, 0xf3, 0x92, 0xbe, 0xd1, 0xcc, 0xf7, 0x3d, 0x9b, 0xbd, 0x19,
  0xbf, 0x07, 0x58, 0x3c, 0xbe, 0x51, 0xdb, 0x78, 0x3e, 0x96, 0x0c, 0xf7, 0x3e,
  0xf0, 0x0a, 0x9d, 0xbc, 0xc9, 0x97, 0xd7, 0x3c, 0x4a, 0x34, 0x76, 0x3e, 0x33,
  0xe1, 0xd7, 0xbe, 0xdd, 0xb6, 0xb1, 0x3f, 0x9d, 0x91, 0x84, 0x3d, 0x50, 0x89,
  0xcb, 0x3d, 0x5d, 0xa2, 0xbd, 0x3d, 0x35, 0x49, 0x56, 0xbf, 0xc4, 0xad, 0x6d,
  0x3e, 0xb3, 0x2b, 0x40, 0xbf, 0x4d, 0x39, 0xcd, 0xbe, 0xb5, 0x21, 0x05, 0xbf,
  0xcb, 0x1e, 0xde, 0xbd, 0x59, 0xae, 0x83, 0xbe, 0x9f, 0xe8, 0x95, 0xbd, 0x57,
  0xf7, 0xbd, 0xbc, 0xaa, 0xb6, 0x98, 0x3d, 0xc6, 0x85, 0xa5, 0xbf, 0x98, 0x5d,
  0xfd, 0x3d, 0x04, 0x82, 0xf9, 0xbd, 0x02, 0xe4, 0x3a, 0xbf, 0x4b, 0x85, 0x44,
  0x3f, 0xab, 0x05, 0xbf, 0x3e, 0xcb, 0xb1, 0x05, 0xbf, 0x6c, 0xca, 0x05, 0x3f,
  0x77, 0x41, 0x88, 0xbe, 0xa2, 0x99, 0xf7, 0xbe, 0xa1, 0xd5, 0xa7, 0xbe, 0xf4,
  0xa2, 0x5a, 0x3f, 0x4b, 0xb3, 0xee, 0xbe, 0xa3, 0x7a, 0x20, 0x3f, 0x1e, 0x25,
  0x04, 0x3f, 0x62, 0x4e, 0x83, 0xbf, 0x31, 0xeb, 0x17, 0xbf, 0x0c, 0x8b, 0x8d,
  0x3f, 0x3e, 0x12, 0xf0, 0x3e, 0xe3, 0x52, 0xb2, 0xbe, 0x80, 0x09, 0xc7, 0xbe,
  0xa0, 0x85, 0x31, 0x3f, 0xb9, 0x64, 0x28, 0xbf, 0xb8, 0x4b, 0xa8, 0xbf, 0x5b,
  0x82, 0xe2, 0x3f, 0x39, 0x2d, 0x74, 0x3d, 0xfd, 0xd8, 0x30, 0xbf, 0x43, 0x7c,
  0x18, 0x3f, 0x42, 0x7a, 0xd8, 0xbe, 0x5c, 0x25, 0xb4, 0x3e, 0x73, 0x58, 0x81,
  0xbe, 0x6b, 0x8b, 0x35, 0xbf, 0x28, 0xa2, 0x1e, 0xbf, 0x47, 0xd3, 0x63, 0x3e,
  0x40, 0x9b, 0x00, 0xbf, 0x2d, 0x64, 0x05, 0xbf, 0x19, 0x80, 0x89, 0x3f, 0x79,
  0x4c, 0x7e, 0xbf, 0xa5, 0x47, 0x9f, 0xbf, 0x46, 0x5e, 0x24, 0x3f, 0xb8, 0xd4,
  0x19, 0x3f, 0x55, 0xca, 0xe2, 0xbf, 0x44, 0xe9, 0x91, 0xbd, 0xf2, 0x08, 0x03,
  0xbf, 0xb7, 0x3a, 0xaa, 0xbe, 0xf4, 0xc9, 0xc2, 0x3d, 0x12, 0x5f, 0x0d, 0x3f,
  0x8c, 0xbc, 0x15, 0xbe, 0x52, 0x98, 0x6d, 0x3e, 0x9d, 0x5e, 0x27, 0xbf, 0x45,
  0x43, 0x69, 0x3e, 0x41, 0x63, 0x2a, 0x3e, 0xe2, 0xea, 0x95, 0x3e, 0xcd, 0x86,
  0x32, 0x3d, 0x7c, 0x25, 0xce, 0x3d, 0x40, 0x87, 0xa7, 0x3f, 0x2f, 0x03, 0x7c,
  0x3e, 0xa6, 0x50, 0x27, 0xbf, 0xb5, 0xbe, 0x6e, 0xbe, 0x69, 0xe9, 0xa2, 0xbf,
  0x81, 0x34, 0xc6, 0x3e, 0xc9, 0x5f, 0xe7, 0xbd, 0xc0, 0xc0, 0x97, 0x3f, 0xfc,
  0x77, 0xd8, 0xbe, 0x55, 0xaa, 0xf0, 0x3e, 0xcb, 0x2d, 0x9c, 0x3d, 0x5c, 0x89,
  0xa0, 0xbe, 0x96, 0xb1, 0x77, 0x3e, 0x73, 0x00, 0xbc, 0x3e, 0x8a, 0x4c, 0x38,
  0x3e, 0x72, 0x16, 0xfb, 0x3e, 0x20, 0xc7, 0x29, 0xbf, 0xd6, 0x4a, 0x21, 0xbf,
  0x75, 0x72, 0x6c, 0xbf, 0x2e, 0x9e, 0xee, 0xbe, 0x82, 0xff, 0x7f, 0x3e, 0x6f,
  0x65, 0xb7, 0x3e, 0xde, 0x7c, 0x80, 0x3b, 0x36, 0x41, 0x7e, 0x3f, 0x4f, 0x99,
  0x91, 0xbf, 0x09, 0x28, 0xc0, 0x3e, 0x82, 0x15, 0xab, 0xbe, 0x31, 0x3e, 0x63,
  0xbd, 0xd1, 0x46, 0x30, 0xbd, 0x69, 0xef, 0x87, 0xbe, 0x6a, 0x58, 0xe0, 0xbd,
  0xcd, 0x47, 0x6a, 0xbf, 0x74, 0x10, 0xaf, 0xbf, 0x03, 0x7f, 0x2a, 0x3f, 0x14,
  0xde, 0xd3, 0x3d, 0x0a, 0x00, 0x65, 0x3f, 0x37, 0xdb, 0xa3, 0xbe, 0x5f, 0x61,
  0x5a, 0xbf, 0xf0, 0xbf, 0xd6, 0xbe, 0xf7, 0x5c, 0x89, 0x3f, 0x2d, 0xf0, 0x5f,
  0xbf, 0xb1, 0xcb, 0xbb, 0xbe, 0xaa, 0xca, 0x96, 0x3f, 0x9b, 0x78, 0x25, 0xbf,
  0x6a, 0xd1, 0xd3, 0x3e, 0xf0, 0x72, 0x9a, 0x3e, 0xd1, 0xb1, 0xca, 0x3c, 0xf3,
  0xc4, 0x6d, 0xbc, 0x0c, 0xa4, 0x04, 0x3e, 0x4c, 0xba, 0x47, 0xbe, 0x76, 0x33,
  0xd9, 0x3e, 0xbe, 0x09, 0x7a, 0xbc, 0x7d, 0xb6, 0x63, 0x3d, 0xd1, 0xe6, 0xef,
  0x3d, 0xad, 0xd6, 0x7b, 0xbe, 0xc6, 0xf3, 0xff, 0xff, 0x04, 0x00, 0x00, 0x00,
  0x2c, 0x01, 0x00, 0x00, 0x99, 0x22, 0xc9, 0xbd, 0x62, 0xc5, 0x45, 0x3e, 0xa9,
  0xe0, 0x58, 0x3e, 0xbd, 0xfd, 0xd0, 0xbc, 0xfb, 0xe8, 0x5b, 0x3d, 0x01, 0x79,
  0x0d, 0x3e, 0x45, 0x46, 0xa5, 0xbe, 0xd6, 0x0f, 0xad, 0x3d, 0xdb, 0x7e, 0xc3,
  0x3c, 0x79, 0x00, 0x67, 0xbe, 0x4b, 0xdf, 0x4e, 0x3f, 0x38, 0x7a, 0x0a, 0xbe,
  0xcf, 0x79, 0xdc, 0xbc, 0x45, 0x5d, 0x46, 0x3e, 0xc3, 0xb0, 0x06, 0xbe, 0x39,
  0xe8, 0xd6, 0xbe, 0x91, 0xa5, 0x26, 0x3f, 0xc9, 0xdc, 0x2c, 0x3f, 0x0e, 0x01,
  0x02, 0xbf, 0xd0, 0xec, 0xa7, 0x3d, 0xbb, 0x11, 0xfa, 0x3e, 0x7d, 0x17, 0x4f,
  0x3f, 0x24, 0xf6, 0x45, 0xbe, 0x4d, 0x01, 0xd9, 0xbe, 0x2b, 0xe7, 0x51, 0xbf,
  0x90, 0x6c, 0xa2, 0x3e, 0xbd, 0x1a, 0xdd, 0xbe, 0x72, 0x3f, 0xe3, 0xbe, 0x58,
  0x73, 0xc5, 0x3e, 0xe6, 0x11, 0x5c, 0xbe, 0xa9, 0x02, 0x0e, 0xbf, 0x96, 0x17,
  0x70, 0x3f, 0x4a, 0xe0, 0x75, 0x3e, 0x1d, 0xe8, 0x16, 0xbf, 0x7a, 0x69, 0xcf,
  0x3e, 0x33, 0xe5, 0x4f, 0x3d, 0xde, 0x95, 0x3d, 0x3e, 0x70, 0x5d, 0x42, 0x3c,
  0xc4, 0x93, 0x09, 0xbf, 0x49, 0x79, 0x8b, 0xbd, 0x36, 0x49, 0x4c, 0xbe, 0x73,
  0x06, 0x49, 0xbf, 0x0d, 0x99, 0x41, 0x40, 0x9f, 0xc9, 0x22, 0x3f, 0xf0, 0x28,
  0xfb, 0xbe, 0xbd, 0xfe, 0x42, 0xbe, 0x5a, 0x23, 0xad, 0x3e, 0x03, 0xad, 0x3b,
  0x3d, 0xfc, 0xda, 0x18, 0x3e, 0x1c, 0xca, 0xda, 0x3e, 0xf3, 0x9e, 0x32, 0xbf,
  0x14, 0x9c, 0x8f, 0x3e, 0x69, 0x46, 0x63, 0xbf, 0xa5, 0x25, 0xb3, 0xbe, 0x1e,
  0xf6, 0x3f, 0x3f, 0x71, 0x8f, 0xd7, 0x3e, 0xf0, 0x6b, 0x4e, 0xbe, 0x15, 0xa7,
  0x3f, 0xbf, 0x74, 0x45, 0xae, 0x3e, 0x41, 0x77, 0x57, 0xbe, 0x5d, 0xb8, 0xe2,
  0xbd, 0x9e, 0x45, 0x1e, 0x3e, 0x2c, 0xdd, 0x84, 0x3d, 0x61, 0x1c, 0xdb, 0x3d,
  0x9d, 0x2c, 0x91, 0xbd, 0x99, 0xf0, 0xf8, 0xbd, 0x78, 0x65, 0x27, 0xbe, 0xee,
  0xa2, 0x86, 0xbc, 0x68, 0x68, 0x57, 0x3d, 0xba, 0xb7, 0xe0, 0x3d, 0x4d, 0xb4,
  0xc8, 0xbe, 0x0c, 0x01, 0x1c, 0x3e, 0xff, 0x9b, 0x83, 0x3e, 0xdc, 0xdd, 0x84,
  0x3e, 0xa7, 0x67, 0x86, 0xbe, 0xfe, 0xf4, 0xff, 0xff, 0x04, 0x00, 0x00, 0x00,
  0x2c, 0x01, 0x00, 0x00, 0x65, 0xa0, 0x8b, 0x3e, 0x7b, 0x7b, 0x64, 0xbe, 0xe3,
  0x7f, 0x24, 0xbd, 0x59, 0xc8, 0x29, 0x3e, 0x2a, 0xc9, 0x3e, 0xbe, 0x03, 0x13,
  0xdc, 0x3d, 0x44, 0x69, 0x01, 0x3f, 0x44, 0x84, 0x01, 0xbe, 0x8e, 0xc6, 0xf3,
  0x3e, 0xde, 0xd6, 0x15, 0xbe, 0xa9, 0xf2, 0xa8, 0xbd, 0xc0, 0xdf, 0x7e, 0xbc,
  0xeb, 0x92, 0x2f, 0x3f, 0x31, 0x16, 0x15, 0x3f, 0xf2, 0x3b, 0x55, 0xbf, 0x66,
  0x3f, 0xd5, 0x3e, 0xca, 0xc6, 0x57, 0x3f, 0xbf, 0xac, 0x0e, 0xbe, 0xe9, 0xdc,
  0x50, 0xbe, 0x41, 0x16, 0x27, 0x3f, 0x69, 0x23, 0xfe, 0xbd, 0xac, 0x3d, 0xbd,
  0xbe, 0x6c, 0xd1, 0x62, 0x3f, 0x90, 0x20, 0x37, 0x3e, 0x62, 0x0f, 0xf0, 0x3d,
  0xa3, 0xf2, 0x48, 0xbe, 0x93, 0xba, 0xd1, 0xbd, 0x20, 0x0c, 0x20, 0xc0, 0x45,
  0x6e, 0x1c, 0x3f, 0x24, 0x90, 0xe9, 0xbe, 0x2e, 0xb1, 0x59, 0x3f, 0xc6, 0x8e,
  0x77, 0x3e, 0x49, 0xf0, 0x06, 0xbf, 0x16, 0xf7, 0x2f, 0xbf, 0xd5, 0xf6, 0x57,
  0x3f, 0x10, 0x01, 0x5b, 0x3f, 0x93, 0xa4, 0x6e, 0x3f, 0x29, 0xe7, 0x4f, 0x3d,
  0x2b, 0x63, 0x26, 0xbf, 0x94, 0x44, 0x4b, 0xbf, 0xec, 0x37, 0x03, 0xbf, 0x82,
  0xaa, 0x09, 0xbf, 0x75, 0x3e, 0x83, 0xbf, 0xc3, 0x84, 0xe3, 0x3e, 0x4e, 0xb8,
  0x94, 0xbe, 0xf9, 0x0d, 0x0b, 0x3f, 0x90, 0x57, 0x11, 0xbf, 0x19, 0x4b, 0x1d,
  0xbf, 0x94, 0x05, 0x8d, 0x3e, 0xd8, 0x92, 0x49, 0xbe, 0x10, 0x6e, 0x89, 0x3e,
  0x13, 0xf2, 0xcb, 0xbe, 0x50, 0xf3, 0x59, 0x3d, 0x86, 0x13, 0x35, 0xbf, 0xb7,
  0x8a, 0x87, 0xbe, 0x24, 0x88, 0xc9, 0xbe, 0x10, 0x77, 0xa9, 0xbe, 0x0b, 0xac,
  0xd6, 0xbd, 0xfa, 0x7a, 0x93, 0x3e, 0xe0, 0xf3, 0x31, 0xbe, 0x0c, 0xd2, 0xaa,
  0x3d, 0xf3, 0x76, 0x96, 0x3e, 0xd3, 0x99, 0xc3, 0xbd, 0x18, 0x44, 0xf9, 0x3d,
  0xe3, 0xc7, 0xb7, 0xbd, 0xfe, 0x25, 0xab, 0xbd, 0x87, 0x8e, 0x91, 0x3e, 0x2c,
  0xba, 0x5b, 0x3c, 0x46, 0x96, 0x04, 0x3e, 0xa6, 0x01, 0x8a, 0x3d, 0x2d, 0x02,
  0x34, 0x3e, 0x75, 0xcc, 0x87, 0x3c, 0x35, 0xec, 0x1c, 0xbd, 0xea, 0xd2, 0xb5,
  0x3d, 0x9c, 0xd7, 0x93, 0xbd, 0x36, 0xf6, 0xff, 0xff, 0x04, 0x00, 0x00, 0x00,
  0xb0, 0x04, 0x00, 0x00, 0x37, 0x44, 0x5a, 0x3d, 0x50, 0xf4, 0xb3, 0x3e, 0x37,
  0x78, 0xfb, 0xbe, 0xfa, 0xb1, 0x0c, 0xbd, 0x13, 0xc5, 0x00, 0x40, 0x26, 0x8f,
  0x4e, 0xbf, 0xe6, 0x5c, 0xd8, 0x3f, 0xf2, 0x13, 0x93, 0x3d, 0x92, 0x86, 0xcb,
  0x3e, 0xa0, 0x89, 0xd7, 0xbe, 0x02, 0x80, 0x5a, 0x3e, 0x2a, 0xf0, 0xc0, 0xbe,
  0x99, 0x57, 0x9d, 0xbf, 0xbe, 0x84, 0x5e, 0x3f, 0x32, 0xb8, 0x28, 0xbe, 0x42,
  0x95, 0x7f, 0xbf, 0x0c, 0xc5, 0x88, 0xbe, 0xd7, 0x58, 0xc8, 0x3e, 0x09, 0xba,
  0x21, 0x3f, 0x41, 0xd5, 0xed, 0xbd, 0xb0, 0x52, 0x8d, 0xbe, 0x76, 0x7d, 0x1b,
  0xbe, 0x2b, 0x34, 0x5b, 0xbd, 0x56, 0xc4, 0xf4, 0xbe, 0x0b, 0x22, 0x60, 0xbf,
  0xa7, 0xc4, 0xb2, 0x3e, 0x51, 0xa8, 0xf5, 0xbe, 0xad, 0x7b, 0xb9, 0xbc, 0xb5,
  0xf2, 0x8a, 0x3e, 0x04, 0xc6, 0xcd, 0x3d, 0xc1, 0xc8, 0x16, 0x3f, 0xff, 0x88,
  0xf8, 0xbe, 0x22, 0xeb, 0x83, 0xbe, 0xfd, 0x0b, 0x0f, 0xbe, 0x22, 0x03, 0x59,
  0xbd, 0x84, 0x1d, 0x17, 0xbe, 0xab, 0x17, 0x37, 0xbf, 0x0d, 0xc1, 0x24, 0x3f,
  0x3e, 0xad, 0x84, 0xbf, 0x0a, 0x73, 0xfa, 0x3e, 0x39, 0xf3, 0xf8, 0x3c, 0x45,
  0x23, 0xb0, 0x3d, 0x18, 0xbc, 0xd7, 0x3e, 0x7e, 0xf7, 0xb3, 0x3e, 0x75, 0x17,
  0x0e, 0x3f, 0xf5, 0xd5, 0x77, 0x3d, 0x5c, 0x96, 0x86, 0xbd, 0x50, 0xce, 0x41,
  0x3d, 0x29, 0xb7, 0x32, 0xbd, 0xcb, 0xe1, 0x37, 0xbd, 0x58, 0x7a, 0xd5, 0xbd,
  0x15, 0xe9, 0xdf, 0x3f, 0x08, 0xeb, 0x90, 0xbe, 0xa2, 0x15, 0x73, 0xbe, 0x3a,
  0x0f, 0xd7, 0x3f, 0xe3, 0xc5, 0xc9, 0x3e, 0x82, 0x73, 0x69, 0x3f, 0x04, 0x08,
  0x5c, 0xbe, 0x4b, 0xef, 0xad, 0xbf, 0x0c, 0x6f, 0xdc, 0x3c, 0xeb, 0xd2, 0x82,
  0xbf, 0x86, 0xe1, 0xd3, 0xbe, 0xc4, 0x79, 0x4d, 0xbe, 0x26, 0x8e, 0xad, 0x3f,
  0x74, 0xd2, 0x1b, 0x3f, 0x50, 0x1b, 0x91, 0x3a, 0x85, 0x43, 0xce, 0xbf, 0xcb,
  0xe5, 0xc3, 0xbe, 0x75, 0xe7, 0x8d, 0xbe, 0xf3, 0x37, 0x2b, 0xbf, 0x91, 0xaa,
  0xe9, 0x3d, 0xa4, 0x61, 0x1b, 0x3f, 0x2f, 0x7e, 0xae, 0x3e, 0x8b, 0xe7, 0x4d,
  0x3f, 0x6c, 0x04, 0x79, 0xbe, 0xb2, 0xfa, 0xc8, 0x3f, 0x34, 0xa7, 0x15, 0x3f,
  0x3b, 0x08, 0xbc, 0xbf, 0x63, 0x3d, 0x04, 0xbf, 0x2a, 0xf3, 0x5e, 0xbf, 0xb2,
