const unsigned char sr4by3_2_tflite[] = {
  0x1c, 0x00, 0x00, 0x00, 0x54, 0x46, 0x4c, 0x33, 0x14, 0x00, 0x20, 0x00, 0x04,
  0x00, 0x08, 0x00, 0x0c, 0x00, 0x10, 0x00, 0x14, 0x00, 0x00, 0x00, 0x18, 0x00,
  0x1c, 0x00, 0x14, 0x00, 0x00, 0x00, 0x03, 0x00, 0x00, 0x00, 0x7c, 0x02, 0x00,
  0x00, 0x70, 0x02, 0x00, 0x00, 0x60, 0x03, 0x00, 0x00, 0x0c, 0x00, 0x00, 0x00,
  0x08, 0x03, 0x00, 0x00, 0x7c, 0x02, 0x00, 0x00, 0x96, 0x00, 0x00, 0x00, 0xdc,
  0x8a, 0x00, 0x00, 0xd8, 0x8a, 0x00, 0x00, 0xc8, 0x89, 0x00, 0x00, 0x50, 0x89,
  0x00, 0x00, 0xf8, 0x88, 0x00, 0x00, 0xa8, 0x88, 0x00, 0x00, 0x50, 0x88, 0x00,
  0x00, 0xe4, 0x87, 0x00, 0x00, 0x70, 0x87, 0x00, 0x00, 0x08, 0x87, 0x00, 0x00,
  0xa0, 0x86, 0x00, 0x00, 0x08, 0x86, 0x00, 0x00, 0x2c, 0x84, 0x00, 0x00, 0x50,
  0x82, 0x00, 0x00, 0x94, 0x7e, 0x00, 0x00, 0x6c, 0x7d, 0x00, 0x00, 0x44, 0x7c,
  0x00, 0x00, 0x14, 0x7a, 0x00, 0x00, 0x38, 0x78, 0x00, 0x00, 0x5c, 0x76, 0x00,
  0x00, 0xa0, 0x72, 0x00, 0x00, 0x78, 0x71, 0x00, 0x00, 0x50, 0x70, 0x00, 0x00,
  0xfc, 0x6e, 0x00, 0x00, 0x34, 0x6e, 0x00, 0x00, 0x6c, 0x6d, 0x00, 0x00, 0x90,
  0x6c, 0x00, 0x00, 0x64, 0x6b, 0x00, 0x00, 0x38, 0x6a, 0x00, 0x00, 0xe4, 0x68,
  0x00, 0x00, 0x1c, 0x68, 0x00, 0x00, 0x54, 0x67, 0x00, 0x00, 0xa8, 0x66, 0x00,
  0x00, 0x08, 0x66, 0x00, 0x00, 0x68, 0x65, 0x00, 0x00, 0xdc, 0x64, 0x00, 0x00,
  0x14, 0x64, 0x00, 0x00, 0x4c, 0x63, 0x00, 0x00, 0xa0, 0x62, 0x00, 0x00, 0x00,
  0x62, 0x00, 0x00, 0x60, 0x61, 0x00, 0x00, 0xb4, 0x60, 0x00, 0x00, 0xec, 0x5f,
  0x00, 0x00, 0x24, 0x5f, 0x00, 0x00, 0x48, 0x5e, 0x00, 0x00, 0xa8, 0x5d, 0x00,
  0x00, 0x54, 0x5d, 0x00, 0x00, 0xb4, 0x5c, 0x00, 0x00, 0x08, 0x5c, 0x00, 0x00,
  0x40, 0x5b, 0x00, 0x00, 0x78, 0x5a, 0x00, 0x00, 0x24, 0x59, 0x00, 0x00, 0xf8,
  0x57, 0x00, 0x00, 0xcc, 0x56, 0x00, 0x00, 0x9c, 0x54, 0x00, 0x00, 0xd4, 0x53,
  0x00, 0x00, 0x78, 0x53, 0x00, 0x00, 0xb0, 0x52, 0x00, 0x00, 0x5c, 0x51, 0x00,
  0x00, 0x30, 0x50, 0x00, 0x00, 0x04, 0x4f, 0x00, 0x00, 0x48, 0x4b, 0x00, 0x00,
  0x68, 0x49, 0x00, 0x00, 0x88, 0x47, 0x00, 0x00, 0xfc, 0x40, 0x00, 0x00, 0xd0,
  0x3f, 0x00, 0x00, 0x60, 0x3f, 0x00, 0x00, 0x34, 0x3e, 0x00, 0x00, 0x78, 0x3a,
  0x00, 0x00, 0xf8, 0x37, 0x00, 0x00, 0x64, 0x37, 0x00, 0x00, 0xe4, 0x34, 0x00,
  0x00, 0xa0, 0x34, 0x00, 0x00, 0x04, 0x34, 0x00, 0x00, 0x58, 0x33, 0x00, 0x00,
  0xcc, 0x32, 0x00, 0x00, 0x54, 0x32, 0x00, 0x00, 0xe4, 0x31, 0x00, 0x00, 0x68,
  0x31, 0x00, 0x00, 0xd8, 0x30, 0x00, 0x00, 0x24, 0x30, 0x00, 0x00, 0xcc, 0x2f,
  0x00, 0x00, 0x94, 0x89, 0x00, 0x00, 0x90, 0x89, 0x00, 0x00, 0x8c, 0x89, 0x00,
  0x00, 0x88, 0x89, 0x00, 0x00, 0x84, 0x89, 0x00, 0x00, 0x80, 0x89, 0x00, 0x00,
  0x7c, 0x89, 0x00, 0x00, 0x78, 0x89, 0x00, 0x00, 0x74, 0x89, 0x00, 0x00, 0x70,
  0x89, 0x00, 0x00, 0x6c, 0x89, 0x00, 0x00, 0x68, 0x89, 0x00, 0x00, 0x64, 0x89,
  0x00, 0x00, 0x60, 0x89, 0x00, 0x00, 0x5c, 0x89, 0x00, 0x00, 0x58, 0x89, 0x00,
  0x00, 0x54, 0x89, 0x00, 0x00, 0x50, 0x89, 0x00, 0x00, 0x4c, 0x89, 0x00, 0x00,
  0x48, 0x89, 0x00, 0x00, 0x44, 0x89, 0x00, 0x00, 0x40, 0x89, 0x00, 0x00, 0x3c,
  0x89, 0x00, 0x00, 0x38, 0x89, 0x00, 0x00, 0x34, 0x89, 0x00, 0x00, 0x30, 0x89,
  0x00, 0x00, 0x2c, 0x89, 0x00, 0x00, 0x28, 0x89, 0x00, 0x00, 0x24, 0x89, 0x00,
  0x00, 0x20, 0x89, 0x00, 0x00, 0x1c, 0x89, 0x00, 0x00, 0x18, 0x89, 0x00, 0x00,
  0x14, 0x89, 0x00, 0x00, 0x10, 0x89, 0x00, 0x00, 0x0c, 0x89, 0x00, 0x00, 0x08,
  0x89, 0x00, 0x00, 0x04, 0x89, 0x00, 0x00, 0x00, 0x89, 0x00, 0x00, 0xfc, 0x88,
  0x00, 0x00, 0xf8, 0x88, 0x00, 0x00, 0xf4, 0x88, 0x00, 0x00, 0xf0, 0x88, 0x00,
  0x00, 0xec, 0x88, 0x00, 0x00, 0xe8, 0x88, 0x00, 0x00, 0xe4, 0x88, 0x00, 0x00,
  0xe0, 0x88, 0x00, 0x00, 0xdc, 0x88, 0x00, 0x00, 0xd8, 0x88, 0x00, 0x00, 0xd4,
  0x88, 0x00, 0x00, 0xd0, 0x88, 0x00, 0x00, 0xcc, 0x88, 0x00, 0x00, 0xc8, 0x88,
  0x00, 0x00, 0xc4, 0x88, 0x00, 0x00, 0xc0, 0x88, 0x00, 0x00, 0xbc, 0x88, 0x00,
  0x00, 0xb8, 0x88, 0x00, 0x00, 0xb4, 0x88, 0x00, 0x00, 0xb0, 0x88, 0x00, 0x00,
  0xac, 0x88, 0x00, 0x00, 0xa8, 0x88, 0x00, 0x00, 0xa4, 0x88, 0x00, 0x00, 0xa0,
  0x88, 0x00, 0x00, 0x9c, 0x88, 0x00, 0x00, 0x98, 0x88, 0x00, 0x00, 0x94, 0x88,
  0x00, 0x00, 0x90, 0x88, 0x00, 0x00, 0x8c, 0x88, 0x00, 0x00, 0xdc, 0x00, 0x00,
  0x00, 0x01, 0x00, 0x00, 0x00, 0x14, 0x01, 0x00, 0x00, 0x04, 0x00, 0x00, 0x00,
  0x48, 0x2e, 0x00, 0x00, 0x8c, 0x2d, 0x00, 0x00, 0x14, 0x2c, 0x00, 0x00, 0xb0,
  0x25, 0x00, 0x00, 0x01, 0x00, 0x00, 0x00, 0x10, 0x00, 0x00, 0x00, 0x0c, 0x00,
  0x14, 0x00, 0x10, 0x00, 0x0c, 0x00, 0x08, 0x00, 0x04, 0x00, 0x0c, 0x00, 0x00,
  0x00, 0x10, 0x00, 0x00, 0x00, 0x18, 0x00, 0x00, 0x00, 0x28, 0x00, 0x00, 0x00,
  0x2c, 0x00, 0x00, 0x00, 0x05, 0x00, 0x00, 0x00, 0x73, 0x65, 0x72, 0x76, 0x65,
  0x00, 0x00, 0x00, 0x0f, 0x00, 0x00, 0x00, 0x73, 0x65, 0x72, 0x76, 0x69, 0x6e,
  0x67, 0x5f, 0x64, 0x65, 0x66, 0x61, 0x75, 0x6c, 0x74, 0x00, 0x01, 0x00, 0x00,
  0x00, 0x14, 0x00, 0x00, 0x00, 0x01, 0x00, 0x00, 0x00, 0x24, 0x00, 0x00, 0x00,
  0x08, 0x00, 0x0c, 0x00, 0x08, 0x00, 0x04, 0x00, 0x08, 0x00, 0x00, 0x00, 0x93,
  0x00, 0x00, 0x00, 0x04, 0x00, 0x00, 0x00, 0x06, 0x00, 0x00, 0x00, 0x6f, 0x75,
  0x74, 0x70, 0x75, 0x74, 0x00, 0x00, 0x22, 0x79, 0xff, 0xff, 0x04, 0x00, 0x00,
  0x00, 0x03, 0x00, 0x00, 0x00, 0x69, 0x6d, 0x67, 0x00, 0x01, 0x00, 0x00, 0x00,
  0x0c, 0x00, 0x00, 0x00, 0x08, 0x00, 0x0c, 0x00, 0x04, 0x00, 0x08, 0x00, 0x08,
  0x00, 0x00, 0x00, 0x08, 0x00, 0x00, 0x00, 0x95, 0x00, 0x00, 0x00, 0x13, 0x00,
  0x00, 0x00, 0x6d, 0x69, 0x6e, 0x5f, 0x72, 0x75, 0x6e, 0x74, 0x69, 0x6d, 0x65,
  0x5f, 0x76, 0x65, 0x72, 0x73, 0x69, 0x6f, 0x6e, 0x00, 0x66, 0x79, 0xff, 0xff,
  0x04, 0x00, 0x00, 0x00, 0x10, 0x00, 0x00, 0x00, 0x31, 0x2e, 0x31, 0x33, 0x2e,
  0x31, 0x00, 0x00, 0x00, 0x00, 0x00, 0x00, 0x00, 0x00, 0x00, 0x00, 0x0f, 0x00,
  0x00, 0x00, 0x4d, 0x4c, 0x49, 0x52, 0x20, 0x43, 0x6f, 0x6e, 0x76, 0x65, 0x72,
  0x74, 0x65, 0x64, 0x2e, 0x00, 0x00, 0x00, 0x0e, 0x00, 0x18, 0x00, 0x04, 0x00,
  0x08, 0x00, 0x0c, 0x00, 0x10, 0x00, 0x14, 0x00, 0x0e, 0x00, 0x00, 0x00, 0x40,
  0x01, 0x00, 0x00, 0x34, 0x01, 0x00, 0x00, 0x28, 0x01, 0x00, 0x00, 0x14, 0x00,
  0x00, 0x00, 0x04, 0x00, 0x00, 0x00, 0x04, 0x00, 0x00, 0x00, 0x6d, 0x61, 0x69,
  0x6e, 0x00, 0x00, 0x00, 0x00, 0x43, 0x00, 0x00, 0x00, 0xd0, 0x2c, 0x00, 0x00,
  0x0c, 0x2c, 0x00, 0x00, 0x60, 0x2b, 0x00, 0x00, 0x94, 0x2a, 0x00, 0x00, 0xe8,
  0x29, 0x00, 0x00, 0x4c, 0x29, 0x00, 0x00, 0x84, 0x28, 0x00, 0x00, 0xe8, 0x27,
  0x00, 0x00, 0x4c, 0x27, 0x00, 0x00, 0x98, 0x26, 0x00, 0x00, 0xfc, 0x25, 0x00,
  0x00, 0x60, 0x25, 0x00, 0x00, 0xac, 0x24, 0x00, 0x00, 0x18, 0x24, 0x00, 0x00,
  0x7c, 0x23, 0x00, 0x00, 0xe0, 0x22, 0x00, 0x00, 0x20, 0x22, 0x00, 0x00, 0x84,
  0x21, 0x00, 0x00, 0xe8, 0x20, 0x00, 0x00, 0x34, 0x20, 0x00, 0x00, 0x98, 0x1f,
  0x00, 0x00, 0xfc, 0x1e, 0x00, 0x00, 0x48, 0x1e, 0x00, 0x00, 0xc4, 0x1d, 0x00,
  0x00, 0x28, 0x1d, 0x00, 0x00, 0x8c, 0x1c, 0x00, 0x00, 0xcc, 0x1b, 0x00, 0x00,
  0x30, 0x1b, 0x00, 0x00, 0x94, 0x1a, 0x00, 0x00, 0xe0, 0x19, 0x00, 0x00, 0x44,
  0x19, 0x00, 0x00, 0xa8, 0x18, 0x00, 0x00, 0xf4, 0x17, 0x00, 0x00, 0x70, 0x17,
  0x00, 0x00, 0xd4, 0x16, 0x00, 0x00, 0x38, 0x16, 0x00, 0x00, 0x78, 0x15, 0x00,
  0x00, 0xdc, 0x14, 0x00, 0x00, 0x40, 0x14, 0x00, 0x00, 0x88, 0x13, 0x00, 0x00,
  0xec, 0x12, 0x00, 0x00, 0x50, 0x12, 0x00, 0x00, 0x98, 0x11, 0x00, 0x00, 0x14,
  0x11, 0x00, 0x00, 0x78, 0x10, 0x00, 0x00, 0xdc, 0x0f, 0x00, 0x00, 0x1c, 0x0f,
  0x00, 0x00, 0x80, 0x0e, 0x00, 0x00, 0xe4, 0x0d, 0x00, 0x00, 0x2c, 0x0d, 0x00,
  0x00, 0x90, 0x0c, 0x00, 0x00, 0xf4, 0x0b, 0x00, 0x00, 0x3c, 0x0b, 0x00, 0x00,
  0xb8, 0x0a, 0x00, 0x00, 0x1c, 0x0a, 0x00, 0x00, 0x80, 0x09, 0x00, 0x00, 0xc0,
  0x08, 0x00, 0x00, 0x24, 0x08, 0x00, 0x00, 0x88, 0x07, 0x00, 0x00, 0xd0, 0x06,
  0x00, 0x00, 0x34, 0x06, 0x00, 0x00, 0x98, 0x05, 0x00, 0x00, 0xe0, 0x04, 0x00,
  0x00, 0x5c, 0x04, 0x00, 0x00, 0xb0, 0x03, 0x00, 0x00, 0x10, 0x03, 0x00, 0x00,
  0x68, 0x02, 0x00, 0x00, 0x01, 0x00, 0x00, 0x00, 0x93, 0x00, 0x00, 0x00, 0x01,
  0x00, 0x00, 0x00, 0x00, 0x00, 0x00, 0x00, 0x94, 0x00, 0x00, 0x00, 0xc8, 0x85,
  0x00, 0x00, 0x80, 0x85, 0x00, 0x00, 0xd4, 0x84, 0x00, 0x00, 0x68, 0x84, 0x00,
  0x00, 0x10, 0x84, 0x00, 0x00, 0xc0, 0x83, 0x00, 0x00, 0x68, 0x83, 0x00, 0x00,
  0xf8, 0x82, 0x00, 0x00, 0x7c, 0x82, 0x00, 0x00, 0x14, 0x82, 0x00, 0x00, 0xb0,
  0x81, 0x00, 0x00, 0x14, 0x81, 0x00, 0x00, 0x38, 0x7f, 0x00, 0x00, 0x5c, 0x7d,
  0x00, 0x00, 0xa0, 0x79, 0x00, 0x00, 0x78, 0x78, 0x00, 0x00, 0x50, 0x77, 0x00,
  0x00, 0x20, 0x75, 0x00, 0x00, 0x44, 0x73, 0x00, 0x00, 0x68, 0x71, 0x00, 0x00,
  0xac, 0x6d, 0x00, 0x00, 0x84, 0x6c, 0x00, 0x00, 0x5c, 0x6b, 0x00, 0x00, 0x04,
  0x6a, 0x00, 0x00, 0x3c, 0x69, 0x00, 0x00, 0x78, 0x68, 0x00, 0x00, 0x98, 0x67,
  0x00, 0x00, 0x6c, 0x66, 0x00, 0x00, 0x44, 0x65, 0x00, 0x00, 0xec, 0x63, 0x00,
  0x00, 0x24, 0x63, 0x00, 0x00, 0x60, 0x62, 0x00, 0x00, 0xb0, 0x61, 0x00, 0x00,
  0x10, 0x61, 0x00, 0x00, 0x74, 0x60, 0x00, 0x00, 0xe4, 0x5f, 0x00, 0x00, 0x1c,
  0x5f, 0x00, 0x00, 0x58, 0x5e, 0x00, 0x00, 0xa8, 0x5d, 0x00, 0x00, 0x08, 0x5d,
  0x00, 0x00, 0x6c, 0x5c, 0x00, 0x00, 0xbc, 0x5b, 0x00, 0x00, 0xf4, 0x5a, 0x00,
  0x00, 0x30, 0x5a, 0x00, 0x00, 0x50, 0x59, 0x00, 0x00, 0xbc, 0x58, 0x00, 0x00,
  0x5c, 0x58, 0x00, 0x00, 0xc0, 0x57, 0x00, 0x00, 0x10, 0x57, 0x00, 0x00, 0x48,
  0x56, 0x00, 0x00, 0x84, 0x55, 0x00, 0x00, 0x2c, 0x54, 0x00, 0x00, 0x00, 0x53,
  0x00, 0x00, 0xd8, 0x51, 0x00, 0x00, 0xa4, 0x4f, 0x00, 0x00, 0xe8, 0x4e, 0x00,
  0x00, 0x80, 0x4e, 0x00, 0x00, 0xbc, 0x4d, 0x00, 0x00, 0x64, 0x4c, 0x00, 0x00,
  0x38, 0x4b, 0x00, 0x00, 0x10, 0x4a, 0x00, 0x00, 0x50, 0x46, 0x00, 0x00, 0x70,
  0x44, 0x00, 0x00, 0x94, 0x42, 0x00, 0x00, 0x04, 0x3c, 0x00, 0x00, 0xe4, 0x3a,
  0x00, 0x00, 0x68, 0x3a, 0x00, 0x00, 0x40, 0x39, 0x00, 0x00, 0x80, 0x35, 0x00,
  0x00, 0x0c, 0x33, 0x00, 0x00, 0x6c, 0x32, 0x00, 0x00, 0xfc, 0x2f, 0x00, 0x00,
  0xac, 0x2f, 0x00, 0x00, 0x00, 0x2f, 0x00, 0x00, 0x50, 0x2e, 0x00, 0x00, 0xc4,
  0x2d, 0x00, 0x00, 0x4c, 0x2d, 0x00, 0x00, 0xd8, 0x2c, 0x00, 0x00, 0x5c, 0x2c,
  0x00, 0x00, 0xcc, 0x2b, 0x00, 0x00, 0x28, 0x2b, 0x00, 0x00, 0xc0, 0x2a, 0x00,
  0x00, 0x04, 0x2a, 0x00, 0x00, 0x3c, 0x29, 0x00, 0x00, 0x88, 0x28, 0x00, 0x00,
  0xc4, 0x27, 0x00, 0x00, 0x28, 0x27, 0x00, 0x00, 0x6c, 0x26, 0x00, 0x00, 0xc4,
  0x25, 0x00, 0x00, 0x28, 0x25, 0x00, 0x00, 0x70, 0x24, 0x00, 0x00, 0xd8, 0x23,
  0x00, 0x00, 0x3c, 0x23, 0x00, 0x00, 0x84, 0x22, 0x00, 0x00, 0xf8, 0x21, 0x00,
  0x00, 0x58, 0x21, 0x00, 0x00, 0xbc, 0x20, 0x00, 0x00, 0xfc, 0x1f, 0x00, 0x00,
  0x60, 0x1f, 0x00, 0x00, 0xc4, 0x1e, 0x00, 0x00, 0x0c, 0x1e, 0x00, 0x00, 0x74,
  0x1d, 0x00, 0x00, 0xd8, 0x1c, 0x00, 0x00, 0x20, 0x1c, 0x00, 0x00, 0x90, 0x1b,
  0x00, 0x00, 0x04, 0x1b, 0x00, 0x00, 0x68, 0x1a, 0x00, 0x00, 0xa8, 0x19, 0x00,
  0x00, 0x0c, 0x19, 0x00, 0x00, 0x70, 0x18, 0x00, 0x00, 0xb8, 0x17, 0x00, 0x00,
  0x20, 0x17, 0x00, 0x00, 0x84, 0x16, 0x00, 0x00, 0xcc, 0x15, 0x00, 0x00, 0x3c,
  0x15, 0x00, 0x00, 0xb0, 0x14, 0x00, 0x00, 0x14, 0x14, 0x00, 0x00, 0x54, 0x13,
  0x00, 0x00, 0xb8, 0x12, 0x00, 0x00, 0x1c, 0x12, 0x00, 0x00, 0x60, 0x11, 0x00,
  0x00, 0xc8, 0x10, 0x00, 0x00, 0x2c, 0x10, 0x00, 0x00, 0x70, 0x0f, 0x00, 0x00,
  0xe0, 0x0e, 0x00, 0x00, 0x54, 0x0e, 0x00, 0x00, 0xb8, 0x0d, 0x00, 0x00, 0xf8,
  0x0c, 0x00, 0x00, 0x5c, 0x0c, 0x00, 0x00, 0xc0, 0x0b, 0x00, 0x00, 0x04, 0x0b,
  0x00, 0x00, 0x6c, 0x0a, 0x00, 0x00, 0xd0, 0x09, 0x00, 0x00, 0x14, 0x09, 0x00,
  0x00, 0x84, 0x08, 0x00, 0x00, 0xf8, 0x07, 0x00, 0x00, 0x5c, 0x07, 0x00, 0x00,
  0x9c, 0x06, 0x00, 0x00, 0x00, 0x06, 0x00, 0x00, 0x64, 0x05, 0x00, 0x00, 0xa8,
  0x04, 0x00, 0x00, 0x10, 0x04, 0x00, 0x00, 0x74, 0x03, 0x00, 0x00, 0xb8, 0x02,
  0x00, 0x00, 0x28, 0x02, 0x00, 0x00, 0x9c, 0x01, 0x00, 0x00, 0xf0, 0x00, 0x00,
  0x00, 0x50, 0x00, 0x00, 0x00, 0xde, 0xd8, 0xff, 0xff, 0x00, 0x00, 0x00, 0x01,
  0x02, 0x00, 0x00, 0x00, 0x30, 0x00, 0x00, 0x00, 0x24, 0x00, 0x00, 0x00, 0x10,
  0x00, 0x00, 0x00, 0x00, 0x00, 0x0a, 0x00, 0x10, 0x00, 0x0f, 0x00, 0x04, 0x00,
  0x08, 0x00, 0x0a, 0x00, 0x00, 0x00, 0x01, 0x00, 0x00, 0x00, 0x01, 0x00, 0x00,
  0x00, 0x00, 0x00, 0x00, 0x01, 0x01, 0x00, 0x00, 0x00, 0x93, 0x00, 0x00, 0x00,
  0x03, 0x00, 0x00, 0x00, 0x92, 0x00, 0x00, 0x00, 0x48, 0x00, 0x00, 0x00, 0x50,
  0x00, 0x00, 0x00, 0xe8, 0x7c, 0xff, 0xff, 0x3c, 0x00, 0x00, 0x00, 0x94, 0x00,
  0x00, 0x00, 0x20, 0x00, 0x00, 0x00, 0x44, 0x00, 0x00, 0x00, 0x04, 0x00, 0x00,
  0x00, 0x04, 0x00, 0x00, 0x00, 0x01, 0x00, 0x00, 0x00, 0xff, 0xff, 0xff, 0xff,
  0xff, 0xff, 0xff, 0xff, 0x01, 0x00, 0x00, 0x00, 0x0c, 0x00, 0x00, 0x00, 0x42,
  0x69, 0x61, 0x73, 0x41, 0x64, 0x64, 0x5f, 0x31, 0x39, 0x3a, 0x30, 0x00, 0x00,
  0x00, 0x00, 0x04, 0x00, 0x00, 0x00, 0x01, 0x00, 0x00, 0x00, 0x01, 0x00, 0x00,
  0x00, 0x01, 0x00, 0x00, 0x00, 0x01, 0x00, 0x00, 0x00, 0xd0, 0x7c, 0xff, 0xff,
  0x12, 0xd8, 0xff, 0xff, 0x00, 0x00, 0x00, 0x02, 0x01, 0x00, 0x00, 0x00, 0x28,
  0x00, 0x00, 0x00, 0x1c, 0x00, 0x00, 0x00, 0x04, 0x00, 0x00, 0x00, 0x64, 0xff,
  0xff, 0xff, 0x01, 0x00, 0x00, 0x00, 0x01, 0x00, 0x00, 0x00, 0x01, 0x00, 0x00,
  0x00, 0x00, 0x00, 0x00, 0x01, 0x01, 0x00, 0x00, 0x00, 0x92, 0x00, 0x00, 0x00,
  0x03, 0x00, 0x00, 0x00, 0x91, 0x00, 0x00, 0x00, 0x46, 0x00, 0x00, 0x00, 0x45,
  0x00, 0x00, 0x00, 0x84, 0x7d, 0xff, 0xff, 0x3c, 0x00, 0x00, 0x00, 0x93, 0x00,
  0x00, 0x00, 0x20, 0x00, 0x00, 0x00, 0x44, 0x00, 0x00, 0x00, 0x04, 0x00, 0x00,
  0x00, 0x04, 0x00, 0x00, 0x00, 0x01, 0x00, 0x00, 0x00, 0xff, 0xff, 0xff, 0xff,
  0xff, 0xff, 0xff, 0xff, 0x14, 0x00, 0x00, 0x00, 0x0d, 0x00, 0x00, 0x00, 0x64,
  0x65, 0x70, 0x74, 0x68, 0x77, 0x69, 0x73, 0x65, 0x5f, 0x33, 0x39, 0x32, 0x00,
  0x00, 0x00, 0x04, 0x00, 0x00, 0x00, 0x01, 0x00, 0x00, 0x00, 0x01, 0x00, 0x00,
  0x00, 0x01, 0x00, 0x00, 0x00, 0x14, 0x00, 0x00, 0x00, 0x6c, 0x7d, 0xff, 0xff,
  0xae, 0xd8, 0xff, 0xff, 0x00, 0x00, 0x00, 0x02, 0x01, 0x00, 0x00, 0x00, 0x34,
  0x00, 0x00, 0x00, 0x28, 0x00, 0x00, 0x00, 0x10, 0x00, 0x00, 0x00, 0x0c, 0x00,
  0x14, 0x00, 0x13, 0x00, 0x08, 0x00, 0x0c, 0x00, 0x04, 0x00, 0x0c, 0x00, 0x00,
  0x00, 0x01, 0x00, 0x00, 0x00, 0x01, 0x00, 0x00, 0x00, 0x01, 0x00, 0x00, 0x00,
  0x00, 0x00, 0x00, 0x01, 0x01, 0x00, 0x00, 0x00, 0x91, 0x00, 0x00, 0x00, 0x03,
  0x00, 0x00, 0x00, 0x90, 0x00, 0x00, 0x00, 0x44, 0x00, 0x00, 0x00, 0x45, 0x00,
  0x00, 0x00, 0x2c, 0x7e, 0xff, 0xff, 0x3c, 0x00, 0x00, 0x00, 0x92, 0x00, 0x00,
  0x00, 0x20, 0x00, 0x00, 0x00, 0x44, 0x00, 0x00, 0x00, 0x04, 0x00, 0x00, 0x00,
  0x04, 0x00, 0x00, 0x00, 0x01, 0x00, 0x00, 0x00, 0xff, 0xff, 0xff, 0xff, 0xff,
  0xff, 0xff, 0xff, 0x14, 0x00, 0x00, 0x00, 0x0d, 0x00, 0x00, 0x00, 0x64, 0x65,
  0x70, 0x74, 0x68, 0x77, 0x69, 0x73, 0x65, 0x5f, 0x33, 0x38, 0x31, 0x00, 0x00,
  0x00, 0x04, 0x00, 0x00, 0x00, 0x01, 0x00, 0x00, 0x00, 0x01, 0x00, 0x00, 0x00,
  0x01, 0x00, 0x00, 0x00, 0x14, 0x00, 0x00, 0x00, 0x14, 0x7e, 0xff, 0xff, 0x56,
  0xd9, 0xff, 0xff, 0x00, 0x00, 0x00, 0x0b, 0x03, 0x00, 0x00, 0x00, 0x18, 0x00,
  0x00, 0x00, 0x0c, 0x00, 0x00, 0x00, 0x04, 0x00, 0x00, 0x00, 0x30, 0x7e, 0xff,
  0xff, 0x01, 0x00, 0x00, 0x00, 0x90, 0x00, 0x00, 0x00, 0x02, 0x00, 0x00, 0x00,
  0x8f, 0x00, 0x00, 0x00, 0x8c, 0x00, 0x00, 0x00, 0xb4, 0x7e, 0xff, 0xff, 0x34,
  0x00, 0x00, 0x00, 0x91, 0x00, 0x00, 0x00, 0x20, 0x00, 0x00, 0x00, 0x3c, 0x00,
  0x00, 0x00, 0x04, 0x00, 0x00, 0x00, 0x04, 0x00, 0x00, 0x00, 0x01, 0x00, 0x00,
  0x00, 0xff, 0xff, 0xff, 0xff, 0xff, 0xff, 0xff, 0xff, 0x14, 0x00, 0x00, 0x00,
  0x05, 0x00, 0x00, 0x00, 0x41, 0x64, 0x64, 0x5f, 0x35, 0x00, 0x00, 0x00, 0x04,
  0x00, 0x00, 0x00, 0x01, 0x00, 0x00, 0x00, 0x01, 0x00, 0x00, 0x00, 0x01, 0x00,
  0x00, 0x00, 0x14, 0x00, 0x00, 0x00, 0x94, 0x7e, 0xff, 0xff, 0xd6, 0xd9, 0xff,
  0xff, 0x00, 0x00, 0x00, 0x01, 0x02, 0x00, 0x00, 0x00, 0x20, 0x00, 0x00, 0x00,
  0x14, 0x00, 0x00, 0x00, 0x04, 0x00, 0x00, 0x00, 0x36, 0xdb, 0xff, 0xff, 0x01,
  0x00, 0x00, 0x00, 0x01, 0x00, 0x00, 0x00, 0x01, 0x00, 0x00, 0x00, 0x8f, 0x00,
  0x00, 0x00, 0x03, 0x00, 0x00, 0x00, 0x8e, 0x00, 0x00, 0x00, 0x43, 0x00, 0x00,
  0x00, 0x4f, 0x00, 0x00, 0x00, 0x40, 0x7f, 0xff, 0xff, 0x5c, 0x00, 0x00, 0x00,
  0x90, 0x00, 0x00, 0x00, 0x20, 0x00, 0x00, 0x00, 0x64, 0x00, 0x00, 0x00, 0x04,
  0x00, 0x00, 0x00, 0x04, 0x00, 0x00, 0x00, 0x01, 0x00, 0x00, 0x00, 0xff, 0xff,
  0xff, 0xff, 0xff, 0xff, 0xff, 0xff, 0x14, 0x00, 0x00, 0x00, 0x2d, 0x00, 0x00,
  0x00, 0x42, 0x69, 0x61, 0x73, 0x41, 0x64, 0x64, 0x5f, 0x31, 0x38, 0x3b, 0x64,
  0x65, 0x70, 0x74, 0x68, 0x77, 0x69, 0x73, 0x65, 0x5f, 0x33, 0x39, 0x3b, 0x43,
  0x6f, 0x6e, 0x76, 0x32, 0x44, 0x5f, 0x31, 0x38, 0x3b, 0x63, 0x6f, 0x6e, 0x76,
  0x5f, 0x36, 0x5f, 0x31, 0x5f, 0x62, 0x31, 0x00, 0x00, 0x00, 0x04, 0x00, 0x00,
  0x00, 0x01, 0x00, 0x00, 0x00, 0x01, 0x00, 0x00, 0x00, 0x01, 0x00, 0x00, 0x00,
  0x14, 0x00, 0x00, 0x00, 0x48, 0x7f, 0xff, 0xff, 0x8a, 0xda, 0xff, 0xff, 0x00,
  0x00, 0x00, 0x02, 0x01, 0x00, 0x00, 0x00, 0x24, 0x00, 0x00, 0x00, 0x18, 0x00,
  0x00, 0x00, 0x04, 0x00, 0x00, 0x00, 0x7c, 0xda, 0xff, 0xff, 0x01, 0x00, 0x00,
  0x00, 0x01, 0x00, 0x00, 0x00, 0x01, 0x00, 0x00, 0x00, 0x01, 0x00, 0x00, 0x00,
  0x8e, 0x00, 0x00, 0x00, 0x03, 0x00, 0x00, 0x00, 0x8d, 0x00, 0x00, 0x00, 0x42,
  0x00, 0x00, 0x00, 0x41, 0x00, 0x00, 0x00, 0xf8, 0x7f, 0xff, 0xff, 0x3c, 0x00,
  0x00, 0x00, 0x8f, 0x00, 0x00, 0x00, 0x20, 0x00, 0x00, 0x00, 0x44, 0x00, 0x00,
  0x00, 0x04, 0x00, 0x00, 0x00, 0x04, 0x00, 0x00, 0x00, 0x01, 0x00, 0x00, 0x00,
  0xff, 0xff, 0xff, 0xff, 0xff, 0xff, 0xff, 0xff, 0x0b, 0x00, 0x00, 0x00, 0x0d,
  0x00, 0x00, 0x00, 0x64, 0x65, 0x70, 0x74, 0x68, 0x77, 0x69, 0x73, 0x65, 0x5f,
  0x33, 0x37, 0x32, 0x00, 0x00, 0x00, 0x04, 0x00, 0x00, 0x00, 0x01, 0x00, 0x00,
  0x00, 0x01, 0x00, 0x00, 0x00, 0x01, 0x00, 0x00, 0x00, 0x0b, 0x00, 0x00, 0x00,
  0xe0, 0x7f, 0xff, 0xff, 0x22, 0xdb, 0xff, 0xff, 0x00, 0x00, 0x00, 0x02, 0x01,
  0x00, 0x00, 0x00, 0x24, 0x00, 0x00, 0x00, 0x18, 0x00, 0x00, 0x00, 0x04, 0x00,
  0x00, 0x00, 0x14, 0xdb, 0xff, 0xff, 0x01, 0x00, 0x00, 0x00, 0x01, 0x00, 0x00,
  0x00, 0x01, 0x00, 0x00, 0x00, 0x01, 0x00, 0x00, 0x00, 0x8d, 0x00, 0x00, 0x00,
  0x03, 0x00, 0x00, 0x00, 0x86, 0x00, 0x00, 0x00, 0x40, 0x00, 0x00, 0x00, 0x41,
  0x00, 0x00, 0x00, 0x90, 0x80, 0xff, 0xff, 0x3c, 0x00, 0x00, 0x00, 0x8e, 0x00,
  0x00, 0x00, 0x20, 0x00, 0x00, 0x00, 0x44, 0x00, 0x00, 0x00, 0x04, 0x00, 0x00,
  0x00, 0x04, 0x00, 0x00, 0x00, 0x01, 0x00, 0x00, 0x00, 0xff, 0xff, 0xff, 0xff,
  0xff, 0xff, 0xff, 0xff, 0x0b, 0x00, 0x00, 0x00, 0x0d, 0x00, 0x00, 0x00, 0x64,
  0x65, 0x70, 0x74, 0x68, 0x77, 0x69, 0x73, 0x65, 0x5f, 0x33, 0x36, 0x31, 0x00,
  0x00, 0x00, 0x04, 0x00, 0x00, 0x00, 0x01, 0x00, 0x00, 0x00, 0x01, 0x00, 0x00,
  0x00, 0x01, 0x00, 0x00, 0x00, 0x0b, 0x00, 0x00, 0x00, 0x78, 0x80, 0xff, 0xff,
  0xba, 0xdb, 0xff, 0xff, 0x00, 0x00, 0x00, 0x01, 0x02, 0x00, 0x00, 0x00, 0x20,
  0x00, 0x00, 0x00, 0x14, 0x00, 0x00, 0x00, 0x04, 0x00, 0x00, 0x00, 0x1a, 0xdd,
  0xff, 0xff, 0x01, 0x00, 0x00, 0x00, 0x01, 0x00, 0x00, 0x00, 0x01, 0x00, 0x00,
  0x00, 0x8c, 0x00, 0x00, 0x00, 0x03, 0x00, 0x00, 0x00, 0x8b, 0x00, 0x00, 0x00,
  0x3f, 0x00, 0x00, 0x00, 0x4f, 0x00, 0x00, 0x00, 0x24, 0x81, 0xff, 0xff, 0x5c,
  0x00, 0x00, 0x00, 0x8d, 0x00, 0x00, 0x00, 0x20, 0x00, 0x00, 0x00, 0x64, 0x00,
  0x00, 0x00, 0x04, 0x00, 0x00, 0x00, 0x04, 0x00, 0x00, 0x00, 0x01, 0x00, 0x00,
  0x00, 0xff, 0xff, 0xff, 0xff, 0xff, 0xff, 0xff, 0xff, 0x14, 0x00, 0x00, 0x00,
  0x2c, 0x00, 0x00, 0x00, 0x42, 0x69, 0x61, 0x73, 0x41, 0x64, 0x64, 0x5f, 0x31,
  0x37, 0x3b, 0x64, 0x65, 0x70, 0x74, 0x68, 0x77, 0x69, 0x73, 0x65, 0x5f, 0x33,
  0x39, 0x3b, 0x43, 0x6f, 0x6e, 0x76, 0x32, 0x44, 0x5f, 0x31, 0x37, 0x3b, 0x63,
  0x6f, 0x6e, 0x76, 0x5f, 0x36, 0x5f, 0x31, 0x5f, 0x62, 0x00, 0x00, 0x00, 0x00,
  0x04, 0x00, 0x00, 0x00, 0x01, 0x00, 0x00, 0x00, 0x01, 0x00, 0x00, 0x00, 0x01,
  0x00, 0x00, 0x00, 0x14, 0x00, 0x00, 0x00, 0x2c, 0x81, 0xff, 0xff, 0x6e, 0xdc,
  0xff, 0xff, 0x00, 0x00, 0x00, 0x02, 0x01, 0x00, 0x00, 0x00, 0x24, 0x00, 0x00,
  0x00, 0x18, 0x00, 0x00, 0x00, 0x04, 0x00, 0x00, 0x00, 0x60, 0xdc, 0xff, 0xff,
  0x01, 0x00, 0x00, 0x00, 0x01, 0x00, 0x00, 0x00, 0x01, 0x00, 0x00, 0x00, 0x01,
  0x00, 0x00, 0x00, 0x8b, 0x00, 0x00, 0x00, 0x03, 0x00, 0x00, 0x00, 0x8a, 0x00,
  0x00, 0x00, 0x3e, 0x00, 0x00, 0x00, 0x45, 0x00, 0x00, 0x00, 0xdc, 0x81, 0xff,
  0xff, 0x3c, 0x00, 0x00, 0x00, 0x8c, 0x00, 0x00, 0x00, 0x20, 0x00, 0x00, 0x00,
  0x44, 0x00, 0x00, 0x00, 0x04, 0x00, 0x00, 0x00, 0x04, 0x00, 0x00, 0x00, 0x01,
  0x00, 0x00, 0x00, 0xff, 0xff, 0xff, 0xff, 0xff, 0xff, 0xff, 0xff, 0x14, 0x00,
  0x00, 0x00, 0x0d, 0x00, 0x00, 0x00, 0x64, 0x65, 0x70, 0x74, 0x68, 0x77, 0x69,
  0x73, 0x65, 0x5f, 0x33, 0x35, 0x31, 0x00, 0x00, 0x00, 0x04, 0x00, 0x00, 0x00,
  0x01, 0x00, 0x00, 0x00, 0x01, 0x00, 0x00, 0x00, 0x01, 0x00, 0x00, 0x00, 0x14,
  0x00, 0x00, 0x00, 0xc4, 0x81, 0xff, 0xff, 0x06, 0xdd, 0xff, 0xff, 0x00, 0x00,
  0x00, 0x02, 0x01, 0x00, 0x00, 0x00, 0x24, 0x00, 0x00, 0x00, 0x18, 0x00, 0x00,
  0x00, 0x04, 0x00, 0x00, 0x00, 0xf8, 0xdc, 0xff, 0xff, 0x01, 0x00, 0x00, 0x00,
  0x01, 0x00, 0x00, 0x00, 0x01, 0x00, 0x00, 0x00, 0x01, 0x00, 0x00, 0x00, 0x8a,
  0x00, 0x00, 0x00, 0x03, 0x00, 0x00, 0x00, 0x89, 0x00, 0x00, 0x00, 0x3d, 0x00,
  0x00, 0x00, 0x45, 0x00, 0x00, 0x00, 0x74, 0x82, 0xff, 0xff, 0x3c, 0x00, 0x00,
  0x00, 0x8b, 0x00, 0x00, 0x00, 0x20, 0x00, 0x00, 0x00, 0x44, 0x00, 0x00, 0x00,
  0x04, 0x00, 0x00, 0x00, 0x04, 0x00, 0x00, 0x00, 0x01, 0x00, 0x00, 0x00, 0xff,
  0xff, 0xff, 0xff, 0xff, 0xff, 0xff, 0xff, 0x14, 0x00, 0x00, 0x00, 0x0d, 0x00,
  0x00, 0x00, 0x64, 0x65, 0x70, 0x74, 0x68, 0x77, 0x69, 0x73, 0x65, 0x5f, 0x33,
  0x34, 0x31, 0x00, 0x00, 0x00, 0x04, 0x00, 0x00, 0x00, 0x01, 0x00, 0x00, 0x00,
  0x01, 0x00, 0x00, 0x00, 0x01, 0x00, 0x00, 0x00, 0x14, 0x00, 0x00, 0x00, 0x5c,
  0x82, 0xff, 0xff, 0x9e, 0xdd, 0xff, 0xff, 0x00, 0x00, 0x00, 0x01, 0x02, 0x00,
  0x00, 0x00, 0x24, 0x00, 0x00, 0x00, 0x18, 0x00, 0x00, 0x00, 0x04, 0x00, 0x00,
  0x00, 0x04, 0xe1, 0xff, 0xff, 0x01, 0x00, 0x00, 0x00, 0x01, 0x00, 0x00, 0x00,
  0x00, 0x00, 0x00, 0x01, 0x01, 0x00, 0x00, 0x00, 0x89, 0x00, 0x00, 0x00, 0x03,
  0x00, 0x00, 0x00, 0x88, 0x00, 0x00, 0x00, 0x3c, 0x00, 0x00, 0x00, 0x01, 0x00,
  0x00, 0x00, 0x0c, 0x83, 0xff, 0xff, 0x60, 0x00, 0x00, 0x00, 0x8a, 0x00, 0x00,
  0x00, 0x20, 0x00, 0x00, 0x00, 0x68, 0x00, 0x00, 0x00, 0x04, 0x00, 0x00, 0x00,
  0x04, 0x00, 0x00, 0x00, 0x01, 0x00, 0x00, 0x00, 0xff, 0xff, 0xff, 0xff, 0xff,
  0xff, 0xff, 0xff, 0x14, 0x00, 0x00, 0x00, 0x33, 0x00, 0x00, 0x00, 0x52, 0x65,
  0x6c, 0x75, 0x5f, 0x35, 0x3b, 0x42, 0x69, 0x61, 0x73, 0x41, 0x64, 0x64, 0x5f,
  0x31, 0x36, 0x3b, 0x64, 0x65, 0x70, 0x74, 0x68, 0x77, 0x69, 0x73, 0x65, 0x5f,
  0x33, 0x39, 0x3b, 0x43, 0x6f, 0x6e, 0x76, 0x32, 0x44, 0x5f, 0x31, 0x36, 0x3b,
  0x63, 0x6f, 0x6e, 0x76, 0x5f, 0x36, 0x5f, 0x30, 0x5f, 0x62, 0x00, 0x04, 0x00,
  0x00, 0x00, 0x01, 0x00, 0x00, 0x00, 0x01, 0x00, 0x00, 0x00, 0x01, 0x00, 0x00,
  0x00, 0x14, 0x00, 0x00, 0x00, 0x18, 0x83, 0xff, 0xff, 0x5a, 0xde, 0xff, 0xff,
  0x00, 0x00, 0x00, 0x02, 0x01, 0x00, 0x00, 0x00, 0x24, 0x00, 0x00, 0x00, 0x18,
  0x00, 0x00, 0x00, 0x04, 0x00, 0x00, 0x00, 0x4c, 0xde, 0xff, 0xff, 0x01, 0x00,
  0x00, 0x00, 0x01, 0x00, 0x00, 0x00, 0x01, 0x00, 0x00, 0x00, 0x01, 0x00, 0x00,
  0x00, 0x88, 0x00, 0x00, 0x00, 0x03, 0x00, 0x00, 0x00, 0x87, 0x00, 0x00, 0x00,
  0x3b, 0x00, 0x00, 0x00, 0x41, 0x00, 0x00, 0x00, 0xc8, 0x83, 0xff, 0xff, 0x3c,
  0x00, 0x00, 0x00, 0x89, 0x00, 0x00, 0x00, 0x20, 0x00, 0x00, 0x00, 0x44, 0x00,
  0x00, 0x00, 0x04, 0x00, 0x00, 0x00, 0x04, 0x00, 0x00, 0x00, 0x01, 0x00, 0x00,
  0x00, 0xff, 0xff, 0xff, 0xff, 0xff, 0xff, 0xff, 0xff, 0x0b, 0x00, 0x00, 0x00,
  0x0d, 0x00, 0x00, 0x00, 0x64, 0x65, 0x70, 0x74, 0x68, 0x77, 0x69, 0x73, 0x65,
  0x5f, 0x33, 0x33, 0x31, 0x00, 0x00, 0x00, 0x04, 0x00, 0x00, 0x00, 0x01, 0x00,
  0x00, 0x00, 0x01, 0x00, 0x00, 0x00, 0x01, 0x00, 0x00, 0x00, 0x0b, 0x00, 0x00,
  0x00, 0xb0, 0x83, 0xff, 0xff, 0xf2, 0xde, 0xff, 0xff, 0x00, 0x00, 0x00, 0x02,
  0x01, 0x00, 0x00, 0x00, 0x24, 0x00, 0x00, 0x00, 0x18, 0x00, 0x00, 0x00, 0x04,
  0x00, 0x00, 0x00, 0xe4, 0xde, 0xff, 0xff, 0x01, 0x00, 0x00, 0x00, 0x01, 0x00,
  0x00, 0x00, 0x01, 0x00, 0x00, 0x00, 0x01, 0x00, 0x00, 0x00, 0x87, 0x00, 0x00,
  0x00, 0x03, 0x00, 0x00, 0x00, 0x86, 0x00, 0x00, 0x00, 0x3a, 0x00, 0x00, 0x00,
  0x41, 0x00, 0x00, 0x00, 0x60, 0x84, 0xff, 0xff, 0x3c, 0x00, 0x00, 0x00, 0x88,
  0x00, 0x00, 0x00, 0x20, 0x00, 0x00, 0x00, 0x44, 0x00, 0x00, 0x00, 0x04, 0x00,
  0x00, 0x00, 0x04, 0x00, 0x00, 0x00, 0x01, 0x00, 0x00, 0x00, 0xff, 0xff, 0xff,
  0xff, 0xff, 0xff, 0xff, 0xff, 0x0b, 0x00, 0x00, 0x00, 0x0d, 0x00, 0x00, 0x00,
  0x64, 0x65, 0x70, 0x74, 0x68, 0x77, 0x69, 0x73, 0x65, 0x5f, 0x33, 0x32, 0x31,
  0x00, 0x00, 0x00, 0x04, 0x00, 0x00, 0x00, 0x01, 0x00, 0x00, 0x00, 0x01, 0x00,
  0x00, 0x00, 0x01, 0x00, 0x00, 0x00, 0x0b, 0x00, 0x00, 0x00, 0x48, 0x84, 0xff,
  0xff, 0x8a, 0xdf, 0xff, 0xff, 0x00, 0x00, 0x00, 0x0b, 0x03, 0x00, 0x00, 0x00,
  0x18, 0x00, 0x00, 0x00, 0x0c, 0x00, 0x00, 0x00, 0x04, 0x00, 0x00, 0x00, 0x64,
  0x84, 0xff, 0xff, 0x01, 0x00, 0x00, 0x00, 0x86, 0x00, 0x00, 0x00, 0x02, 0x00,
  0x00, 0x00, 0x85, 0x00, 0x00, 0x00, 0x82, 0x00, 0x00, 0x00, 0xe8, 0x84, 0xff,
  0xff, 0x34, 0x00, 0x00, 0x00, 0x87, 0x00, 0x00, 0x00, 0x20, 0x00, 0x00, 0x00,
  0x3c, 0x00, 0x00, 0x00, 0x04, 0x00, 0x00, 0x00, 0x04, 0x00, 0x00, 0x00, 0x01,
  0x00, 0x00, 0x00, 0xff, 0xff, 0xff, 0xff, 0xff, 0xff, 0xff, 0xff, 0x0b, 0x00,
  0x00, 0x00, 0x05, 0x00, 0x00, 0x00, 0x41, 0x64, 0x64, 0x5f, 0x34, 0x00, 0x00,
  0x00, 0x04, 0x00, 0x00, 0x00, 0x01, 0x00, 0x00, 0x00, 0x01, 0x00, 0x00, 0x00,
  0x01, 0x00, 0x00, 0x00, 0x0b, 0x00, 0x00, 0x00, 0xc8, 0x84, 0xff, 0xff, 0x0a,
  0xe0, 0xff, 0xff, 0x00, 0x00, 0x00, 0x01, 0x02, 0x00, 0x00, 0x00, 0x20, 0x00,
  0x00, 0x00, 0x14, 0x00, 0x00, 0x00, 0x04, 0x00, 0x00, 0x00, 0x6a, 0xe1, 0xff,
  0xff, 0x01, 0x00, 0x00, 0x00, 0x01, 0x00, 0x00, 0x00, 0x01, 0x00, 0x00, 0x00,
  0x85, 0x00, 0x00, 0x00, 0x03, 0x00, 0x00, 0x00, 0x84, 0x00, 0x00, 0x00, 0x39,
  0x00, 0x00, 0x00, 0x4e, 0x00, 0x00, 0x00, 0x74, 0x85, 0xff, 0xff, 0x5c, 0x00,
  0x00, 0x00, 0x86, 0x00, 0x00, 0x00, 0x20, 0x00, 0x00, 0x00, 0x64, 0x00, 0x00,
  0x00, 0x04, 0x00, 0x00, 0x00, 0x04, 0x00, 0x00, 0x00, 0x01, 0x00, 0x00, 0x00,
  0xff, 0xff, 0xff, 0xff, 0xff, 0xff, 0xff, 0xff, 0x0b, 0x00, 0x00, 0x00, 0x2d,
  0x00, 0x00, 0x00, 0x42, 0x69, 0x61, 0x73, 0x41, 0x64, 0x64, 0x5f, 0x31, 0x35,
  0x3b, 0x64, 0x65, 0x70, 0x74, 0x68, 0x77, 0x69, 0x73, 0x65, 0x5f, 0x33, 0x37,
  0x3b, 0x43, 0x6f, 0x6e, 0x76, 0x32, 0x44, 0x5f, 0x31, 0x35, 0x3b, 0x63, 0x6f,
  0x6e, 0x76, 0x5f, 0x35, 0x5f, 0x31, 0x5f, 0x62, 0x31, 0x00, 0x00, 0x00, 0x04,
  0x00, 0x00, 0x00, 0x01, 0x00, 0x00, 0x00, 0x01, 0x00, 0x00, 0x00, 0x01, 0x00,
  0x00, 0x00, 0x0b, 0x00, 0x00, 0x00, 0x7c, 0x85, 0xff, 0xff, 0xbe, 0xe0, 0xff,
  0xff, 0x00, 0x00, 0x00, 0x02, 0x01, 0x00, 0x00, 0x00, 0x24, 0x00, 0x00, 0x00,
  0x18, 0x00, 0x00, 0x00, 0x04, 0x00, 0x00, 0x00, 0xb0, 0xe0, 0xff, 0xff, 0x01,
  0x00, 0x00, 0x00, 0x01, 0x00, 0x00, 0x00, 0x01, 0x00, 0x00, 0x00, 0x01, 0x00,
  0x00, 0x00, 0x84, 0x00, 0x00, 0x00, 0x03, 0x00, 0x00, 0x00, 0x83, 0x00, 0x00,
  0x00, 0x38, 0x00, 0x00, 0x00, 0x37, 0x00, 0x00, 0x00, 0x2c, 0x86, 0xff, 0xff,
  0x3c, 0x00, 0x00, 0x00, 0x85, 0x00, 0x00, 0x00, 0x20, 0x00, 0x00, 0x00, 0x44,
  0x00, 0x00, 0x00, 0x04, 0x00, 0x00, 0x00, 0x04, 0x00, 0x00, 0x00, 0x01, 0x00,
  0x00, 0x00, 0xff, 0xff, 0xff, 0xff, 0xff, 0xff, 0xff, 0xff, 0x06, 0x00, 0x00,
  0x00, 0x0d, 0x00, 0x00, 0x00, 0x64, 0x65, 0x70, 0x74, 0x68, 0x77, 0x69, 0x73,
  0x65, 0x5f, 0x33, 0x31, 0x32, 0x00, 0x00, 0x00, 0x04, 0x00, 0x00, 0x00, 0x01,
  0x00, 0x00, 0x00, 0x01, 0x00, 0x00, 0x00, 0x01, 0x00, 0x00, 0x00, 0x06, 0x00,
  0x00, 0x00, 0x14, 0x86, 0xff, 0xff, 0x56, 0xe1, 0xff, 0xff, 0x00, 0x00, 0x00,
  0x02, 0x01, 0x00, 0x00, 0x00, 0x24, 0x00, 0x00, 0x00, 0x18, 0x00, 0x00, 0x00,
  0x04, 0x00, 0x00, 0x00, 0x48, 0xe1, 0xff, 0xff, 0x01, 0x00, 0x00, 0x00, 0x01,
  0x00, 0x00, 0x00, 0x01, 0x00, 0x00, 0x00, 0x01, 0x00, 0x00, 0x00, 0x83, 0x00,
  0x00, 0x00, 0x03, 0x00, 0x00, 0x00, 0x7c, 0x00, 0x00, 0x00, 0x36, 0x00, 0x00,
  0x00, 0x37, 0x00, 0x00, 0x00, 0xc4, 0x86, 0xff, 0xff, 0x3c, 0x00, 0x00, 0x00,
  0x84, 0x00, 0x00, 0x00, 0x20, 0x00, 0x00, 0x00, 0x44, 0x00, 0x00, 0x00, 0x04,
  0x00, 0x00, 0x00, 0x04, 0x00, 0x00, 0x00, 0x01, 0x00, 0x00, 0x00, 0xff, 0xff,
  0xff, 0xff, 0xff, 0xff, 0xff, 0xff, 0x06, 0x00, 0x00, 0x00, 0x0d, 0x00, 0x00,
  0x00, 0x64, 0x65, 0x70, 0x74, 0x68, 0x77, 0x69, 0x73, 0x65, 0x5f, 0x33, 0x30,
  0x31, 0x00, 0x00, 0x00, 0x04, 0x00, 0x00, 0x00, 0x01, 0x00, 0x00, 0x00, 0x01,
  0x00, 0x00, 0x00, 0x01, 0x00, 0x00, 0x00, 0x06, 0x00, 0x00, 0x00, 0xac, 0x86,
  0xff, 0xff, 0xee, 0xe1, 0xff, 0xff, 0x00, 0x00, 0x00, 0x01, 0x02, 0x00, 0x00,
  0x00, 0x20, 0x00, 0x00, 0x00, 0x14, 0x00, 0x00, 0x00, 0x04, 0x00, 0x00, 0x00,
  0x4e, 0xe3, 0xff, 0xff, 0x01, 0x00, 0x00, 0x00, 0x01, 0x00, 0x00, 0x00, 0x01,
  0x00, 0x00, 0x00, 0x82, 0x00, 0x00, 0x00, 0x03, 0x00, 0x00, 0x00, 0x81, 0x00,
  0x00, 0x00, 0x35, 0x00, 0x00, 0x00, 0x4e, 0x00, 0x00, 0x00, 0x58, 0x87, 0xff,
  0xff, 0x5c, 0x00, 0x00, 0x00, 0x83, 0x00, 0x00, 0x00, 0x20, 0x00, 0x00, 0x00,
  0x64, 0x00, 0x00, 0x00, 0x04, 0x00, 0x00, 0x00, 0x04, 0x00, 0x00, 0x00, 0x01,
  0x00, 0x00, 0x00, 0xff, 0xff, 0xff, 0xff, 0xff, 0xff, 0xff, 0xff, 0x0b, 0x00,
  0x00, 0x00, 0x2c, 0x00, 0x00, 0x00, 0x42, 0x69, 0x61, 0x73, 0x41, 0x64, 0x64,
  0x5f, 0x31, 0x34, 0x3b, 0x64, 0x65, 0x70, 0x74, 0x68, 0x77, 0x69, 0x73, 0x65,
  0x5f, 0x33, 0x37, 0x3b, 0x43, 0x6f, 0x6e, 0x76, 0x32, 0x44, 0x5f, 0x31, 0x34,
  0x3b, 0x63, 0x6f, 0x6e, 0x76, 0x5f, 0x35, 0x5f, 0x31, 0x5f, 0x62, 0x00, 0x00,
  0x00, 0x00, 0x04, 0x00, 0x00, 0x00, 0x01, 0x00, 0x00, 0x00, 0x01, 0x00, 0x00,
  0x00, 0x01, 0x00, 0x00, 0x00, 0x0b, 0x00, 0x00, 0x00, 0x60, 0x87, 0xff, 0xff,
  0xa2, 0xe2, 0xff, 0xff, 0x00, 0x00, 0x00, 0x02, 0x01, 0x00, 0x00, 0x00, 0x24,
  0x00, 0x00, 0x00, 0x18, 0x00, 0x00, 0x00, 0x04, 0x00, 0x00, 0x00, 0x94, 0xe2,
  0xff, 0xff, 0x01, 0x00, 0x00, 0x00, 0x01, 0x00, 0x00, 0x00, 0x01, 0x00, 0x00,
  0x00, 0x01, 0x00, 0x00, 0x00, 0x81, 0x00, 0x00, 0x00, 0x03, 0x00, 0x00, 0x00,
  0x80, 0x00, 0x00, 0x00, 0x34, 0x00, 0x00, 0x00, 0x41, 0x00, 0x00, 0x00, 0x10,
  0x88, 0xff, 0xff, 0x3c, 0x00, 0x00, 0x00, 0x82, 0x00, 0x00, 0x00, 0x20, 0x00,
  0x00, 0x00, 0x44, 0x00, 0x00, 0x00, 0x04, 0x00, 0x00, 0x00, 0x04, 0x00, 0x00,
  0x00, 0x01, 0x00, 0x00, 0x00, 0xff, 0xff, 0xff, 0xff, 0xff, 0xff, 0xff, 0xff,
  0x0b, 0x00, 0x00, 0x00, 0x0d, 0x00, 0x00, 0x00, 0x64, 0x65, 0x70, 0x74, 0x68,
  0x77, 0x69, 0x73, 0x65, 0x5f, 0x32, 0x39, 0x31, 0x00, 0x00, 0x00, 0x04, 0x00,
  0x00, 0x00, 0x01, 0x00, 0x00, 0x00, 0x01, 0x00, 0x00, 0x00, 0x01, 0x00, 0x00,
  0x00, 0x0b, 0x00, 0x00, 0x00, 0xf8, 0x87, 0xff, 0xff, 0x3a, 0xe3, 0xff, 0xff,
  0x00, 0x00, 0x00, 0x02, 0x01, 0x00, 0x00, 0x00, 0x24, 0x00, 0x00, 0x00, 0x18,
  0x00, 0x00, 0x00, 0x04, 0x00, 0x00, 0x00, 0x2c, 0xe3, 0xff, 0xff, 0x01, 0x00,
  0x00, 0x00, 0x01, 0x00, 0x00, 0x00, 0x01, 0x00, 0x00, 0x00, 0x01, 0x00, 0x00,
  0x00, 0x80, 0x00, 0x00, 0x00, 0x03, 0x00, 0x00, 0x00, 0x7f, 0x00, 0x00, 0x00,
  0x33, 0x00, 0x00, 0x00, 0x41, 0x00, 0x00, 0x00, 0xa8, 0x88, 0xff, 0xff, 0x3c,
  0x00, 0x00, 0x00, 0x81, 0x00, 0x00, 0x00, 0x20, 0x00, 0x00, 0x00, 0x44, 0x00,
  0x00, 0x00, 0x04, 0x00, 0x00, 0x00, 0x04, 0x00, 0x00, 0x00, 0x01, 0x00, 0x00,
  0x00, 0xff, 0xff, 0xff, 0xff, 0xff, 0xff, 0xff, 0xff, 0x0b, 0x00, 0x00, 0x00,
  0x0d, 0x00, 0x00, 0x00, 0x64, 0x65, 0x70, 0x74, 0x68, 0x77, 0x69, 0x73, 0x65,
  0x5f, 0x32, 0x38, 0x31, 0x00, 0x00, 0x00, 0x04, 0x00, 0x00, 0x00, 0x01, 0x00,
  0x00, 0x00, 0x01, 0x00, 0x00, 0x00, 0x01, 0x00, 0x00, 0x00, 0x0b, 0x00, 0x00,
  0x00, 0x90, 0x88, 0xff, 0xff, 0xd2, 0xe3, 0xff, 0xff, 0x00, 0x00, 0x00, 0x01,
  0x02, 0x00, 0x00, 0x00, 0x24, 0x00, 0x00, 0x00, 0x18, 0x00, 0x00, 0x00, 0x04,
  0x00, 0x00, 0x00, 0x38, 0xe7, 0xff, 0xff, 0x01, 0x00, 0x00, 0x00, 0x01, 0x00,
  0x00, 0x00, 0x00, 0x00, 0x00, 0x01, 0x01, 0x00, 0x00, 0x00, 0x7f, 0x00, 0x00,
  0x00, 0x03, 0x00, 0x00, 0x00, 0x7e, 0x00, 0x00, 0x00, 0x32, 0x00, 0x00, 0x00,
  0x02, 0x00, 0x00, 0x00, 0x40, 0x89, 0xff, 0xff, 0x60, 0x00, 0x00, 0x00, 0x80,
  0x00, 0x00, 0x00, 0x20, 0x00, 0x00, 0x00, 0x68, 0x00, 0x00, 0x00, 0x04, 0x00,
  0x00, 0x00, 0x04, 0x00, 0x00, 0x00, 0x01, 0x00, 0x00, 0x00, 0xff, 0xff, 0xff,
  0xff, 0xff, 0xff, 0xff, 0xff, 0x0b, 0x00, 0x00, 0x00, 0x33, 0x00, 0x00, 0x00,
  0x52, 0x65, 0x6c, 0x75, 0x5f, 0x34, 0x3b, 0x42, 0x69, 0x61, 0x73, 0x41, 0x64,
  0x64, 0x5f, 0x31, 0x33, 0x3b, 0x64, 0x65, 0x70, 0x74, 0x68, 0x77, 0x69, 0x73,
  0x65, 0x5f, 0x33, 0x37, 0x3b, 0x43, 0x6f, 0x6e, 0x76, 0x32, 0x44, 0x5f, 0x31,
  0x33, 0x3b, 0x63, 0x6f, 0x6e, 0x76, 0x5f, 0x35, 0x5f, 0x30, 0x5f, 0x62, 0x00,
  0x04, 0x00, 0x00, 0x00, 0x01, 0x00, 0x00, 0x00, 0x01, 0x00, 0x00, 0x00, 0x01,
  0x00, 0x00, 0x00, 0x0b, 0x00, 0x00, 0x00, 0x4c, 0x89, 0xff, 0xff, 0x8e, 0xe4,
  0xff, 0xff, 0x00, 0x00, 0x00, 0x02, 0x01, 0x00, 0x00, 0x00, 0x24, 0x00, 0x00,
  0x00, 0x18, 0x00, 0x00, 0x00, 0x04, 0x00, 0x00, 0x00, 0x80, 0xe4, 0xff, 0xff,
  0x01, 0x00, 0x00, 0x00, 0x01, 0x00, 0x00, 0x00, 0x01, 0x00, 0x00, 0x00, 0x01,
  0x00, 0x00, 0x00, 0x7e, 0x00, 0x00, 0x00, 0x03, 0x00, 0x00, 0x00, 0x7d, 0x00,
  0x00, 0x00, 0x31, 0x00, 0x00, 0x00, 0x37, 0x00, 0x00, 0x00, 0xfc, 0x89, 0xff,
  0xff, 0x3c, 0x00, 0x00, 0x00, 0x7f, 0x00, 0x00, 0x00, 0x20, 0x00, 0x00, 0x00,
  0x44, 0x00, 0x00, 0x00, 0x04, 0x00, 0x00, 0x00, 0x04, 0x00, 0x00, 0x00, 0x01,
  0x00, 0x00, 0x00, 0xff, 0xff, 0xff, 0xff, 0xff, 0xff, 0xff, 0xff, 0x06, 0x00,
  0x00, 0x00, 0x0d, 0x00, 0x00, 0x00, 0x64, 0x65, 0x70, 0x74, 0x68, 0x77, 0x69,
  0x73, 0x65, 0x5f, 0x32, 0x37, 0x31, 0x00, 0x00, 0x00, 0x04, 0x00, 0x00, 0x00,
  0x01, 0x00, 0x00, 0x00, 0x01, 0x00, 0x00, 0x00, 0x01, 0x00, 0x00, 0x00, 0x06,
  0x00, 0x00, 0x00, 0xe4, 0x89, 0xff, 0xff, 0x26, 0xe5, 0xff, 0xff, 0x00, 0x00,
  0x00, 0x02, 0x01, 0x00, 0x00, 0x00, 0x24, 0x00, 0x00, 0x00, 0x18, 0x00, 0x00,
  0x00, 0x04, 0x00, 0x00, 0x00, 0x18, 0xe5, 0xff, 0xff, 0x01, 0x00, 0x00, 0x00,
  0x01, 0x00, 0x00, 0x00, 0x01, 0x00, 0x00, 0x00, 0x01, 0x00, 0x00, 0x00, 0x7d,
  0x00, 0x00, 0x00, 0x03, 0x00, 0x00, 0x00, 0x7c, 0x00, 0x00, 0x00, 0x30, 0x00,
  0x00, 0x00, 0x37, 0x00, 0x00, 0x00, 0x94, 0x8a, 0xff, 0xff, 0x3c, 0x00, 0x00,
  0x00, 0x7e, 0x00, 0x00, 0x00, 0x20, 0x00, 0x00, 0x00, 0x44, 0x00, 0x00, 0x00,
  0x04, 0x00, 0x00, 0x00, 0x04, 0x00, 0x00, 0x00, 0x01, 0x00, 0x00, 0x00, 0xff,
  0xff, 0xff, 0xff, 0xff, 0xff, 0xff, 0xff, 0x06, 0x00, 0x00, 0x00, 0x0d, 0x00,
  0x00, 0x00, 0x64, 0x65, 0x70, 0x74, 0x68, 0x77, 0x69, 0x73, 0x65, 0x5f, 0x32,
  0x36, 0x31, 0x00, 0x00, 0x00, 0x04, 0x00, 0x00, 0x00, 0x01, 0x00, 0x00, 0x00,
  0x01, 0x00, 0x00, 0x00, 0x01, 0x00, 0x00, 0x00, 0x06, 0x00, 0x00, 0x00, 0x7c,
  0x8a, 0xff, 0xff, 0xbe, 0xe5, 0xff, 0xff, 0x00, 0x00, 0x00, 0x0b, 0x03, 0x00,
  0x00, 0x00, 0x18, 0x00, 0x00, 0x00, 0x0c, 0x00, 0x00, 0x00, 0x04, 0x00, 0x00,
  0x00, 0x98, 0x8a, 0xff, 0xff, 0x01, 0x00, 0x00, 0x00, 0x7c, 0x00, 0x00, 0x00,
  0x02, 0x00, 0x00, 0x00, 0x7b, 0x00, 0x00, 0x00, 0x78, 0x00, 0x00, 0x00, 0x1c,
  0x8b, 0xff, 0xff, 0x34, 0x00, 0x00, 0x00, 0x7d, 0x00, 0x00, 0x00, 0x20, 0x00,
  0x00, 0x00, 0x3c, 0x00, 0x00, 0x00, 0x04, 0x00, 0x00, 0x00, 0x04, 0x00, 0x00,
  0x00, 0x01, 0x00, 0x00, 0x00, 0xff, 0xff, 0xff, 0xff, 0xff, 0xff, 0xff, 0xff,
  0x06, 0x00, 0x00, 0x00, 0x05, 0x00, 0x00, 0x00, 0x41, 0x64, 0x64, 0x5f, 0x33,
  0x00, 0x00, 0x00, 0x04, 0x00, 0x00, 0x00, 0x01, 0x00, 0x00, 0x00, 0x01, 0x00,
  0x00, 0x00, 0x01, 0x00, 0x00, 0x00, 0x06, 0x00, 0x00, 0x00, 0xfc, 0x8a, 0xff,
  0xff, 0x3e, 0xe6, 0xff, 0xff, 0x00, 0x00, 0x00, 0x01, 0x02, 0x00, 0x00, 0x00,
  0x20, 0x00, 0x00, 0x00, 0x14, 0x00, 0x00, 0x00, 0x04, 0x00, 0x00, 0x00, 0x9e,
  0xe7, 0xff, 0xff, 0x01, 0x00, 0x00, 0x00, 0x01, 0x00, 0x00, 0x00, 0x01, 0x00,
  0x00, 0x00, 0x7b, 0x00, 0x00, 0x00, 0x03, 0x00, 0x00, 0x00, 0x7a, 0x00, 0x00,
  0x00, 0x2f, 0x00, 0x00, 0x00, 0x4d, 0x00, 0x00, 0x00, 0xa8, 0x8b, 0xff, 0xff,
  0x5c, 0x00, 0x00, 0x00, 0x7c, 0x00, 0x00, 0x00, 0x20, 0x00, 0x00, 0x00, 0x64,
  0x00, 0x00, 0x00, 0x04, 0x00, 0x00, 0x00, 0x04, 0x00, 0x00, 0x00, 0x01, 0x00,
  0x00, 0x00, 0xff, 0xff, 0xff, 0xff, 0xff, 0xff, 0xff, 0xff, 0x06, 0x00, 0x00,
  0x00, 0x2d, 0x00, 0x00, 0x00, 0x42, 0x69, 0x61, 0x73, 0x41, 0x64, 0x64, 0x5f,
  0x31, 0x32, 0x3b, 0x64, 0x65, 0x70, 0x74, 0x68, 0x77, 0x69, 0x73, 0x65, 0x5f,
  0x33, 0x31, 0x3b, 0x43, 0x6f, 0x6e, 0x76, 0x32, 0x44, 0x5f, 0x31, 0x32, 0x3b,
  0x63, 0x6f, 0x6e, 0x76, 0x5f, 0x34, 0x5f, 0x31, 0x5f, 0x62, 0x31, 0x00, 0x00,
  0x00, 0x04, 0x00, 0x00, 0x00, 0x01, 0x00, 0x00, 0x00, 0x01, 0x00, 0x00, 0x00,
  0x01, 0x00, 0x00, 0x00, 0x06, 0x00, 0x00, 0x00, 0xb0, 0x8b, 0xff, 0xff, 0xf2,
  0xe6, 0xff, 0xff, 0x00, 0x00, 0x00, 0x02, 0x01, 0x00, 0x00, 0x00, 0x24, 0x00,
  0x00, 0x00, 0x18, 0x00, 0x00, 0x00, 0x04, 0x00, 0x00, 0x00, 0xe4, 0xe6, 0xff,
  0xff, 0x01, 0x00, 0x00, 0x00, 0x01, 0x00, 0x00, 0x00, 0x01, 0x00, 0x00, 0x00,
  0x01, 0x00, 0x00, 0x00, 0x7a, 0x00, 0x00, 0x00, 0x03, 0x00, 0x00, 0x00, 0x79,
  0x00, 0x00, 0x00, 0x2e, 0x00, 0x00, 0x00, 0x2d, 0x00, 0x00, 0x00, 0x60, 0x8c,
  0xff, 0xff, 0x3c, 0x00, 0x00, 0x00, 0x7b, 0x00, 0x00, 0x00, 0x20, 0x00, 0x00,
  0x00, 0x44, 0x00, 0x00, 0x00, 0x04, 0x00, 0x00, 0x00, 0x04, 0x00, 0x00, 0x00,
  0x01, 0x00, 0x00, 0x00, 0xff, 0xff, 0xff, 0xff, 0xff, 0xff, 0xff, 0xff, 0x04,
  0x00, 0x00, 0x00, 0x0d, 0x00, 0x00, 0x00, 0x64, 0x65, 0x70, 0x74, 0x68, 0x77,
  0x69, 0x73, 0x65, 0x5f, 0x32, 0x35, 0x32, 0x00, 0x00, 0x00, 0x04, 0x00, 0x00,
  0x00, 0x01, 0x00, 0x00, 0x00, 0x01, 0x00, 0x00, 0x00, 0x01, 0x00, 0x00, 0x00,
  0x04, 0x00, 0x00, 0x00, 0x48, 0x8c, 0xff, 0xff, 0x8a, 0xe7, 0xff, 0xff, 0x00,
  0x00, 0x00, 0x02, 0x01, 0x00, 0x00, 0x00, 0x24, 0x00, 0x00, 0x00, 0x18, 0x00,
  0x00, 0x00, 0x04, 0x00, 0x00, 0x00, 0x7c, 0xe7, 0xff, 0xff, 0x01, 0x00, 0x00,
  0x00, 0x01, 0x00, 0x00, 0x00, 0x01, 0x00, 0x00, 0x00, 0x01, 0x00, 0x00, 0x00,
  0x79, 0x00, 0x00, 0x00, 0x03, 0x00, 0x00, 0x00, 0x72, 0x00, 0x00, 0x00, 0x2c,
  0x00, 0x00, 0x00, 0x2d, 0x00, 0x00, 0x00, 0xf8, 0x8c, 0xff, 0xff, 0x3c, 0x00,
  0x00, 0x00, 0x7a, 0x00, 0x00, 0x00, 0x20, 0x00, 0x00, 0x00, 0x44, 0x00, 0x00,
  0x00, 0x04, 0x00, 0x00, 0x00, 0x04, 0x00, 0x00, 0x00, 0x01, 0x00, 0x00, 0x00,
  0xff, 0xff, 0xff, 0xff, 0xff, 0xff, 0xff, 0xff, 0x04, 0x00, 0x00, 0x00, 0x0d,
  0x00, 0x00, 0x00, 0x64, 0x65, 0x70, 0x74, 0x68, 0x77, 0x69, 0x73, 0x65, 0x5f,
  0x32, 0x34, 0x31, 0x00, 0x00, 0x00, 0x04, 0x00, 0x00, 0x00, 0x01, 0x00, 0x00,
  0x00, 0x01, 0x00, 0x00, 0x00, 0x01, 0x00, 0x00, 0x00, 0x04, 0x00, 0x00, 0x00,
  0xe0, 0x8c, 0xff, 0xff, 0x22, 0xe8, 0xff, 0xff, 0x00, 0x00, 0x00, 0x01, 0x02,
  0x00, 0x00, 0x00, 0x20, 0x00, 0x00, 0x00, 0x14, 0x00, 0x00, 0x00, 0x04, 0x00,
  0x00, 0x00, 0x82, 0xe9, 0xff, 0xff, 0x01, 0x00, 0x00, 0x00, 0x01, 0x00, 0x00,
  0x00, 0x01, 0x00, 0x00, 0x00, 0x78, 0x00, 0x00, 0x00, 0x03, 0x00, 0x00, 0x00,
  0x77, 0x00, 0x00, 0x00, 0x2b, 0x00, 0x00, 0x00, 0x4d, 0x00, 0x00, 0x00, 0x8c,
  0x8d, 0xff, 0xff, 0x5c, 0x00, 0x00, 0x00, 0x79, 0x00, 0x00, 0x00, 0x20, 0x00,
  0x00, 0x00, 0x64, 0x00, 0x00, 0x00, 0x04, 0x00, 0x00, 0x00, 0x04, 0x00, 0x00,
  0x00, 0x01, 0x00, 0x00, 0x00, 0xff, 0xff, 0xff, 0xff, 0xff, 0xff, 0xff, 0xff,
  0x06, 0x00, 0x00, 0x00, 0x2c, 0x00, 0x00, 0x00, 0x42, 0x69, 0x61, 0x73, 0x41,
  0x64, 0x64, 0x5f, 0x31, 0x31, 0x3b, 0x64, 0x65, 0x70, 0x74, 0x68, 0x77, 0x69,
  0x73, 0x65, 0x5f, 0x33, 0x31, 0x3b, 0x43, 0x6f, 0x6e, 0x76, 0x32, 0x44, 0x5f,
  0x31, 0x31, 0x3b, 0x63, 0x6f, 0x6e, 0x76, 0x5f, 0x34, 0x5f, 0x31, 0x5f, 0x62,
  0x00, 0x00, 0x00, 0x00, 0x04, 0x00, 0x00, 0x00, 0x01, 0x00, 0x00, 0x00, 0x01,
  0x00, 0x00, 0x00, 0x01, 0x00, 0x00, 0x00, 0x06, 0x00, 0x00, 0x00, 0x94, 0x8d,
  0xff, 0xff, 0xd6, 0xe8, 0xff, 0xff, 0x00, 0x00, 0x00, 0x02, 0x01, 0x00, 0x00,
  0x00, 0x24, 0x00, 0x00, 0x00, 0x18, 0x00, 0x00, 0x00, 0x04, 0x00, 0x00, 0x00,
  0xc8, 0xe8, 0xff, 0xff, 0x01, 0x00, 0x00, 0x00, 0x01, 0x00, 0x00, 0x00, 0x01,
  0x00, 0x00, 0x00, 0x01, 0x00, 0x00, 0x00, 0x77, 0x00, 0x00, 0x00, 0x03, 0x00,
  0x00, 0x00, 0x76, 0x00, 0x00, 0x00, 0x2a, 0x00, 0x00, 0x00, 0x37, 0x00, 0x00,
  0x00, 0x44, 0x8e, 0xff, 0xff, 0x3c, 0x00, 0x00, 0x00, 0x78, 0x00, 0x00, 0x00,
  0x20, 0x00, 0x00, 0x00, 0x44, 0x00, 0x00, 0x00, 0x04, 0x00, 0x00, 0x00, 0x04,
  0x00, 0x00, 0x00, 0x01, 0x00, 0x00, 0x00, 0xff, 0xff, 0xff, 0xff, 0xff, 0xff,
  0xff, 0xff, 0x06, 0x00, 0x00, 0x00, 0x0d, 0x00, 0x00, 0x00, 0x64, 0x65, 0x70,
  0x74, 0x68, 0x77, 0x69, 0x73, 0x65, 0x5f, 0x32, 0x33, 0x31, 0x00, 0x00, 0x00,
  0x04, 0x00, 0x00, 0x00, 0x01, 0x00, 0x00, 0x00, 0x01, 0x00, 0x00, 0x00, 0x01,
  0x00, 0x00, 0x00, 0x06, 0x00, 0x00, 0x00, 0x2c, 0x8e, 0xff, 0xff, 0x6e, 0xe9,
  0xff, 0xff, 0x00, 0x00, 0x00, 0x02, 0x01, 0x00, 0x00, 0x00, 0x24, 0x00, 0x00,
  0x00, 0x18, 0x00, 0x00, 0x00, 0x04, 0x00, 0x00, 0x00, 0x60, 0xe9, 0xff, 0xff,
  0x01, 0x00, 0x00, 0x00, 0x01, 0x00, 0x00, 0x00, 0x01, 0x00, 0x00, 0x00, 0x01,
  0x00, 0x00, 0x00, 0x76, 0x00, 0x00, 0x00, 0x03, 0x00, 0x00, 0x00, 0x75, 0x00,
  0x00, 0x00, 0x29, 0x00, 0x00, 0x00, 0x37, 0x00, 0x00, 0x00, 0xdc, 0x8e, 0xff,
  0xff, 0x3c, 0x00, 0x00, 0x00, 0x77, 0x00, 0x00, 0x00, 0x20, 0x00, 0x00, 0x00,
  0x44, 0x00, 0x00, 0x00, 0x04, 0x00, 0x00, 0x00, 0x04, 0x00, 0x00, 0x00, 0x01,
  0x00, 0x00, 0x00, 0xff, 0xff, 0xff, 0xff, 0xff, 0xff, 0xff, 0xff, 0x06, 0x00,
  0x00, 0x00, 0x0d, 0x00, 0x00, 0x00, 0x64, 0x65, 0x70, 0x74, 0x68, 0x77, 0x69,
  0x73, 0x65, 0x5f, 0x32, 0x32, 0x31, 0x00, 0x00, 0x00, 0x04, 0x00, 0x00, 0x00,
  0x01, 0x00, 0x00, 0x00, 0x01, 0x00, 0x00, 0x00, 0x01, 0x00, 0x00, 0x00, 0x06,
  0x00, 0x00, 0x00, 0xc4, 0x8e, 0xff, 0xff, 0x06, 0xea, 0xff, 0xff, 0x00, 0x00,
  0x00, 0x01, 0x02, 0x00, 0x00, 0x00, 0x24, 0x00, 0x00, 0x00, 0x18, 0x00, 0x00,
  0x00, 0x04, 0x00, 0x00, 0x00, 0x6c, 0xed, 0xff, 0xff, 0x01, 0x00, 0x00, 0x00,
  0x01, 0x00, 0x00, 0x00, 0x00, 0x00, 0x00, 0x01, 0x01, 0x00, 0x00, 0x00, 0x75,
  0x00, 0x00, 0x00, 0x03, 0x00, 0x00, 0x00, 0x74, 0x00, 0x00, 0x00, 0x28, 0x00,
  0x00, 0x00, 0x03, 0x00, 0x00, 0x00, 0x74, 0x8f, 0xff, 0xff, 0x60, 0x00, 0x00,
  0x00, 0x76, 0x00, 0x00, 0x00, 0x20, 0x00, 0x00, 0x00, 0x68, 0x00, 0x00, 0x00,
  0x04, 0x00, 0x00, 0x00, 0x04, 0x00, 0x00, 0x00, 0x01, 0x00, 0x00, 0x00, 0xff,
  0xff, 0xff, 0xff, 0xff, 0xff, 0xff, 0xff, 0x06, 0x00, 0x00, 0x00, 0x33, 0x00,
  0x00, 0x00, 0x52, 0x65, 0x6c, 0x75, 0x5f, 0x33, 0x3b, 0x42, 0x69, 0x61, 0x73,
  0x41, 0x64, 0x64, 0x5f, 0x31, 0x30, 0x3b, 0x64, 0x65, 0x70, 0x74, 0x68, 0x77,
  0x69, 0x73, 0x65, 0x5f, 0x33, 0x31, 0x3b, 0x43, 0x6f, 0x6e, 0x76, 0x32, 0x44,
  0x5f, 0x31, 0x30, 0x3b, 0x63, 0x6f, 0x6e, 0x76, 0x5f, 0x34, 0x5f, 0x30, 0x5f,
  0x62, 0x00, 0x04, 0x00, 0x00, 0x00, 0x01, 0x00, 0x00, 0x00, 0x01, 0x00, 0x00,
  0x00, 0x01, 0x00, 0x00, 0x00, 0x06, 0x00, 0x00, 0x00, 0x80, 0x8f, 0xff, 0xff,
  0xc2, 0xea, 0xff, 0xff, 0x00, 0x00, 0x00, 0x02, 0x01, 0x00, 0x00, 0x00, 0x24,
  0x00, 0x00, 0x00, 0x18, 0x00, 0x00, 0x00, 0x04, 0x00, 0x00, 0x00, 0xb4, 0xea,
  0xff, 0xff, 0x01, 0x00, 0x00, 0x00, 0x01, 0x00, 0x00, 0x00, 0x01, 0x00, 0x00,
  0x00, 0x01, 0x00, 0x00, 0x00, 0x74, 0x00, 0x00, 0x00, 0x03, 0x00, 0x00, 0x00,
  0x73, 0x00, 0x00, 0x00, 0x27, 0x00, 0x00, 0x00, 0x2d, 0x00, 0x00, 0x00, 0x30,
  0x90, 0xff, 0xff, 0x3c, 0x00, 0x00, 0x00, 0x75, 0x00, 0x00, 0x00, 0x20, 0x00,
  0x00, 0x00, 0x44, 0x00, 0x00, 0x00, 0x04, 0x00, 0x00, 0x00, 0x04, 0x00, 0x00,
  0x00, 0x01, 0x00, 0x00, 0x00, 0xff, 0xff, 0xff, 0xff, 0xff, 0xff, 0xff, 0xff,
  0x04, 0x00, 0x00, 0x00, 0x0d, 0x00, 0x00, 0x00, 0x64, 0x65, 0x70, 0x74, 0x68,
  0x77, 0x69, 0x73, 0x65, 0x5f, 0x32, 0x31, 0x31, 0x00, 0x00, 0x00, 0x04, 0x00,
  0x00, 0x00, 0x01, 0x00, 0x00, 0x00, 0x01, 0x00, 0x00, 0x00, 0x01, 0x00, 0x00,
  0x00, 0x04, 0x00, 0x00, 0x00, 0x18, 0x90, 0xff, 0xff, 0x5a, 0xeb, 0xff, 0xff,
  0x00, 0x00, 0x00, 0x02, 0x01, 0x00, 0x00, 0x00, 0x24, 0x00, 0x00, 0x00, 0x18,
  0x00, 0x00, 0x00, 0x04, 0x00, 0x00, 0x00, 0x4c, 0xeb, 0xff, 0xff, 0x01, 0x00,
  0x00, 0x00, 0x01, 0x00, 0x00, 0x00, 0x01, 0x00, 0x00, 0x00, 0x01, 0x00, 0x00,
  0x00, 0x73, 0x00, 0x00, 0x00, 0x03, 0x00, 0x00, 0x00, 0x72, 0x00, 0x00, 0x00,
  0x26, 0x00, 0x00, 0x00, 0x2d, 0x00, 0x00, 0x00, 0xc8, 0x90, 0xff, 0xff, 0x3c,
  0x00, 0x00, 0x00, 0x74, 0x00, 0x00, 0x00, 0x20, 0x00, 0x00, 0x00, 0x44, 0x00,
  0x00, 0x00, 0x04, 0x00, 0x00, 0x00, 0x04, 0x00, 0x00, 0x00, 0x01, 0x00, 0x00,
  0x00, 0xff, 0xff, 0xff, 0xff, 0xff, 0xff, 0xff, 0xff, 0x04, 0x00, 0x00, 0x00,
  0x0d, 0x00, 0x00, 0x00, 0x64, 0x65, 0x70, 0x74, 0x68, 0x77, 0x69, 0x73, 0x65,
  0x5f, 0x32, 0x30, 0x31, 0x00, 0x00, 0x00, 0x04, 0x00, 0x00, 0x00, 0x01, 0x00,
  0x00, 0x00, 0x01, 0x00, 0x00, 0x00, 0x01, 0x00, 0x00, 0x00, 0x04, 0x00, 0x00,
  0x00, 0xb0, 0x90, 0xff, 0xff, 0xf2, 0xeb, 0xff, 0xff, 0x00, 0x00, 0x00, 0x0b,
  0x03, 0x00, 0x00, 0x00, 0x18, 0x00, 0x00, 0x00, 0x0c, 0x00, 0x00, 0x00, 0x04,
  0x00, 0x00, 0x00, 0xcc, 0x90, 0xff, 0xff, 0x01, 0x00, 0x00, 0x00, 0x72, 0x00,
  0x00, 0x00, 0x02, 0x00, 0x00, 0x00, 0x71, 0x00, 0x00, 0x00, 0x6e, 0x00, 0x00,
  0x00, 0x50, 0x91, 0xff, 0xff, 0x34, 0x00, 0x00, 0x00, 0x73, 0x00, 0x00, 0x00,
  0x20, 0x00, 0x00, 0x00, 0x3c, 0x00, 0x00, 0x00, 0x04, 0x00, 0x00, 0x00, 0x04,
  0x00, 0x00, 0x00, 0x01, 0x00, 0x00, 0x00, 0xff, 0xff, 0xff, 0xff, 0xff, 0xff,
  0xff, 0xff, 0x04, 0x00, 0x00, 0x00, 0x05, 0x00, 0x00, 0x00, 0x41, 0x64, 0x64,
  0x5f, 0x32, 0x00, 0x00, 0x00, 0x04, 0x00, 0x00, 0x00, 0x01, 0x00, 0x00, 0x00,
  0x01, 0x00, 0x00, 0x00, 0x01, 0x00, 0x00, 0x00, 0x04, 0x00, 0x00, 0x00, 0x30,
  0x91, 0xff, 0xff, 0x72, 0xec, 0xff, 0xff, 0x00, 0x00, 0x00, 0x01, 0x02, 0x00,
  0x00, 0x00, 0x20, 0x00, 0x00, 0x00, 0x14, 0x00, 0x00, 0x00, 0x04, 0x00, 0x00,
  0x00, 0xd2, 0xed, 0xff, 0xff, 0x01, 0x00, 0x00, 0x00, 0x01, 0x00, 0x00, 0x00,
  0x01, 0x00, 0x00, 0x00, 0x71, 0x00, 0x00, 0x00, 0x03, 0x00, 0x00, 0x00, 0x70,
  0x00, 0x00, 0x00, 0x25, 0x00, 0x00, 0x00, 0x4c, 0x00, 0x00, 0x00, 0xdc, 0x91,
  0xff, 0xff, 0x58, 0x00, 0x00, 0x00, 0x72, 0x00, 0x00, 0x00, 0x20, 0x00, 0x00,
  0x00, 0x60, 0x00, 0x00, 0x00, 0x04, 0x00, 0x00, 0x00, 0x04, 0x00, 0x00, 0x00,
  0x01, 0x00, 0x00, 0x00, 0xff, 0xff, 0xff, 0xff, 0xff, 0xff, 0xff, 0xff, 0x04,
  0x00, 0x00, 0x00, 0x2b, 0x00, 0x00, 0x00, 0x42, 0x69, 0x61, 0x73, 0x41, 0x64,
  0x64, 0x5f, 0x39, 0x3b, 0x64, 0x65, 0x70, 0x74, 0x68, 0x77, 0x69, 0x73, 0x65,
  0x5f, 0x32, 0x35, 0x3b, 0x43, 0x6f, 0x6e, 0x76, 0x32, 0x44, 0x5f, 0x39, 0x3b,
  0x63, 0x6f, 0x6e, 0x76, 0x5f, 0x33, 0x5f, 0x31, 0x5f, 0x62, 0x31, 0x00, 0x04,
  0x00, 0x00, 0x00, 0x01, 0x00, 0x00, 0x00, 0x01, 0x00, 0x00, 0x00, 0x01, 0x00,
  0x00, 0x00, 0x04, 0x00, 0x00, 0x00, 0xe0, 0x91, 0xff, 0xff, 0x22, 0xed, 0xff,
  0xff, 0x00, 0x00, 0x00, 0x02, 0x01, 0x00, 0x00, 0x00, 0x24, 0x00, 0x00, 0x00,
  0x18, 0x00, 0x00, 0x00, 0x04, 0x00, 0x00, 0x00, 0x14, 0xed, 0xff, 0xff, 0x01,
  0x00, 0x00, 0x00, 0x01, 0x00, 0x00, 0x00, 0x01, 0x00, 0x00, 0x00, 0x01, 0x00,
  0x00, 0x00, 0x70, 0x00, 0x00, 0x00, 0x03, 0x00, 0x00, 0x00, 0x6f, 0x00, 0x00,
  0x00, 0x24, 0x00, 0x00, 0x00, 0x37, 0x00, 0x00, 0x00, 0x90, 0x92, 0xff, 0xff,
  0x3c, 0x00, 0x00, 0x00, 0x71, 0x00, 0x00, 0x00, 0x20, 0x00, 0x00, 0x00, 0x44,
  0x00, 0x00, 0x00, 0x04, 0x00, 0x00, 0x00, 0x04, 0x00, 0x00, 0x00, 0x01, 0x00,
  0x00, 0x00, 0xff, 0xff, 0xff, 0xff, 0xff, 0xff, 0xff, 0xff, 0x06, 0x00, 0x00,
  0x00, 0x0d, 0x00, 0x00, 0x00, 0x64, 0x65, 0x70, 0x74, 0x68, 0x77, 0x69, 0x73,
  0x65, 0x5f, 0x31, 0x39, 0x31, 0x00, 0x00, 0x00, 0x04, 0x00, 0x00, 0x00, 0x01,
  0x00, 0x00, 0x00, 0x01, 0x00, 0x00, 0x00, 0x01, 0x00, 0x00, 0x00, 0x06, 0x00,
  0x00, 0x00, 0x78, 0x92, 0xff, 0xff, 0xba, 0xed, 0xff, 0xff, 0x00, 0x00, 0x00,
  0x02, 0x01, 0x00, 0x00, 0x00, 0x24, 0x00, 0x00, 0x00, 0x18, 0x00, 0x00, 0x00,
  0x04, 0x00, 0x00, 0x00, 0xac, 0xed, 0xff, 0xff, 0x01, 0x00, 0x00, 0x00, 0x01,
  0x00, 0x00, 0x00, 0x01, 0x00, 0x00, 0x00, 0x01, 0x00, 0x00, 0x00, 0x6f, 0x00,
  0x00, 0x00, 0x03, 0x00, 0x00, 0x00, 0x68, 0x00, 0x00, 0x00, 0x23, 0x00, 0x00,
  0x00, 0x37, 0x00, 0x00, 0x00, 0x28, 0x93, 0xff, 0xff, 0x3c, 0x00, 0x00, 0x00,
  0x70, 0x00, 0x00, 0x00, 0x20, 0x00, 0x00, 0x00, 0x44, 0x00, 0x00, 0x00, 0x04,
  0x00, 0x00, 0x00, 0x04, 0x00, 0x00, 0x00, 0x01, 0x00, 0x00, 0x00, 0xff, 0xff,
  0xff, 0xff, 0xff, 0xff, 0xff, 0xff, 0x06, 0x00, 0x00, 0x00, 0x0d, 0x00, 0x00,
  0x00, 0x64, 0x65, 0x70, 0x74, 0x68, 0x77, 0x69, 0x73, 0x65, 0x5f, 0x31, 0x38,
  0x31, 0x00, 0x00, 0x00, 0x04, 0x00, 0x00, 0x00, 0x01, 0x00, 0x00, 0x00, 0x01,
  0x00, 0x00, 0x00, 0x01, 0x00, 0x00, 0x00, 0x06, 0x00, 0x00, 0x00, 0x10, 0x93,
  0xff, 0xff, 0x52, 0xee, 0xff, 0xff, 0x00, 0x00, 0x00, 0x01, 0x02, 0x00, 0x00,
  0x00, 0x20, 0x00, 0x00, 0x00, 0x14, 0x00, 0x00, 0x00, 0x04, 0x00, 0x00, 0x00,
  0xb2, 0xef, 0xff, 0xff, 0x01, 0x00, 0x00, 0x00, 0x01, 0x00, 0x00, 0x00, 0x01,
  0x00, 0x00, 0x00, 0x6e, 0x00, 0x00, 0x00, 0x03, 0x00, 0x00, 0x00, 0x6d, 0x00,
  0x00, 0x00, 0x22, 0x00, 0x00, 0x00, 0x4c, 0x00, 0x00, 0x00, 0xbc, 0x93, 0xff,
  0xff, 0x58, 0x00, 0x00, 0x00, 0x6f, 0x00, 0x00, 0x00, 0x20, 0x00, 0x00, 0x00,
  0x60, 0x00, 0x00, 0x00, 0x04, 0x00, 0x00, 0x00, 0x04, 0x00, 0x00, 0x00, 0x01,
  0x00, 0x00, 0x00, 0xff, 0xff, 0xff, 0xff, 0xff, 0xff, 0xff, 0xff, 0x04, 0x00,
  0x00, 0x00, 0x2a, 0x00, 0x00, 0x00, 0x42, 0x69, 0x61, 0x73, 0x41, 0x64, 0x64,
  0x5f, 0x38, 0x3b, 0x64, 0x65, 0x70, 0x74, 0x68, 0x77, 0x69, 0x73, 0x65, 0x5f,
  0x32, 0x35, 0x3b, 0x43, 0x6f, 0x6e, 0x76, 0x32, 0x44, 0x5f, 0x38, 0x3b, 0x63,
  0x6f, 0x6e, 0x76, 0x5f, 0x33, 0x5f, 0x31, 0x5f, 0x62, 0x00, 0x00, 0x04, 0x00,
  0x00, 0x00, 0x01, 0x00, 0x00, 0x00, 0x01, 0x00, 0x00, 0x00, 0x01, 0x00, 0x00,
  0x00, 0x04, 0x00, 0x00, 0x00, 0xc0, 0x93, 0xff, 0xff, 0x02, 0xef, 0xff, 0xff,
  0x00, 0x00, 0x00, 0x02, 0x01, 0x00, 0x00, 0x00, 0x24, 0x00, 0x00, 0x00, 0x18,
  0x00, 0x00, 0x00, 0x04, 0x00, 0x00, 0x00, 0xf4, 0xee, 0xff, 0xff, 0x01, 0x00,
  0x00, 0x00, 0x01, 0x00, 0x00, 0x00, 0x01, 0x00, 0x00, 0x00, 0x01, 0x00, 0x00,
  0x00, 0x6d, 0x00, 0x00, 0x00, 0x03, 0x00, 0x00, 0x00, 0x6c, 0x00, 0x00, 0x00,
  0x21, 0x00, 0x00, 0x00, 0x2d, 0x00, 0x00, 0x00, 0x70, 0x94, 0xff, 0xff, 0x3c,
  0x00, 0x00, 0x00, 0x6e, 0x00, 0x00, 0x00, 0x20, 0x00, 0x00, 0x00, 0x44, 0x00,
  0x00, 0x00, 0x04, 0x00, 0x00, 0x00, 0x04, 0x00, 0x00, 0x00, 0x01, 0x00, 0x00,
  0x00, 0xff, 0xff, 0xff, 0xff, 0xff, 0xff, 0xff, 0xff, 0x04, 0x00, 0x00, 0x00,
  0x0d, 0x00, 0x00, 0x00, 0x64, 0x65, 0x70, 0x74, 0x68, 0x77, 0x69, 0x73, 0x65,
  0x5f, 0x31, 0x37, 0x31, 0x00, 0x00, 0x00, 0x04, 0x00, 0x00, 0x00, 0x01, 0x00,
  0x00, 0x00, 0x01, 0x00, 0x00, 0x00, 0x01, 0x00, 0x00, 0x00, 0x04, 0x00, 0x00,
  0x00, 0x58, 0x94, 0xff, 0xff, 0x9a, 0xef, 0xff, 0xff, 0x00, 0x00, 0x00, 0x02,
  0x01, 0x00, 0x00, 0x00, 0x24, 0x00, 0x00, 0x00, 0x18, 0x00, 0x00, 0x00, 0x04,
  0x00, 0x00, 0x00, 0x8c, 0xef, 0xff, 0xff, 0x01, 0x00, 0x00, 0x00, 0x01, 0x00,
  0x00, 0x00, 0x01, 0x00, 0x00, 0x00, 0x01, 0x00, 0x00, 0x00, 0x6c, 0x00, 0x00,
  0x00, 0x03, 0x00, 0x00, 0x00, 0x6b, 0x00, 0x00, 0x00, 0x20, 0x00, 0x00, 0x00,
  0x2d, 0x00, 0x00, 0x00, 0x08, 0x95, 0xff, 0xff, 0x3c, 0x00, 0x00, 0x00, 0x6d,
  0x00, 0x00, 0x00, 0x20, 0x00, 0x00, 0x00, 0x44, 0x00, 0x00, 0x00, 0x04, 0x00,
  0x00, 0x00, 0x04, 0x00, 0x00, 0x00, 0x01, 0x00, 0x00, 0x00, 0xff, 0xff, 0xff,
  0xff, 0xff, 0xff, 0xff, 0xff, 0x04, 0x00, 0x00, 0x00, 0x0d, 0x00, 0x00, 0x00,
  0x64, 0x65, 0x70, 0x74, 0x68, 0x77, 0x69, 0x73, 0x65, 0x5f, 0x31, 0x36, 0x31,
  0x00, 0x00, 0x00, 0x04, 0x00, 0x00, 0x00, 0x01, 0x00, 0x00, 0x00, 0x01, 0x00,
  0x00, 0x00, 0x01, 0x00, 0x00, 0x00, 0x04, 0x00, 0x00, 0x00, 0xf0, 0x94, 0xff,
  0xff, 0x32, 0xf0, 0xff, 0xff, 0x00, 0x00, 0x00, 0x01, 0x02, 0x00, 0x00, 0x00,
  0x24, 0x00, 0x00, 0x00, 0x18, 0x00, 0x00, 0x00, 0x04, 0x00, 0x00, 0x00, 0x98,
  0xf3, 0xff, 0xff, 0x01, 0x00, 0x00, 0x00, 0x01, 0x00, 0x00, 0x00, 0x00, 0x00,
  0x00, 0x01, 0x01, 0x00, 0x00, 0x00, 0x6b, 0x00, 0x00, 0x00, 0x03, 0x00, 0x00,
  0x00, 0x6a, 0x00, 0x00, 0x00, 0x1f, 0x00, 0x00, 0x00, 0x04, 0x00, 0x00, 0x00,
  0xa0, 0x95, 0xff, 0xff, 0x60, 0x00, 0x00, 0x00, 0x6c, 0x00, 0x00, 0x00, 0x20,
  0x00, 0x00, 0x00, 0x68, 0x00, 0x00, 0x00, 0x04, 0x00, 0x00, 0x00, 0x04, 0x00,
  0x00, 0x00, 0x01, 0x00, 0x00, 0x00, 0xff, 0xff, 0xff, 0xff, 0xff, 0xff, 0xff,
  0xff, 0x04, 0x00, 0x00, 0x00, 0x31, 0x00, 0x00, 0x00, 0x52, 0x65, 0x6c, 0x75,
  0x5f, 0x32, 0x3b, 0x42, 0x69, 0x61, 0x73, 0x41, 0x64, 0x64, 0x5f, 0x37, 0x3b,
  0x64, 0x65, 0x70, 0x74, 0x68, 0x77, 0x69, 0x73, 0x65, 0x5f, 0x32, 0x35, 0x3b,
  0x43, 0x6f, 0x6e, 0x76, 0x32, 0x44, 0x5f, 0x37, 0x3b, 0x63, 0x6f, 0x6e, 0x76,
  0x5f, 0x33, 0x5f, 0x30, 0x5f, 0x62, 0x00, 0x00, 0x00, 0x04, 0x00, 0x00, 0x00,
  0x01, 0x00, 0x00, 0x00, 0x01, 0x00, 0x00, 0x00, 0x01, 0x00, 0x00, 0x00, 0x04,
  0x00, 0x00, 0x00, 0xac, 0x95, 0xff, 0xff, 0xee, 0xf0, 0xff, 0xff, 0x00, 0x00,
  0x00, 0x02, 0x01, 0x00, 0x00, 0x00, 0x24, 0x00, 0x00, 0x00, 0x18, 0x00, 0x00,
  0x00, 0x04, 0x00, 0x00, 0x00, 0xe0, 0xf0, 0xff, 0xff, 0x01, 0x00, 0x00, 0x00,
  0x01, 0x00, 0x00, 0x00, 0x01, 0x00, 0x00, 0x00, 0x01, 0x00, 0x00, 0x00, 0x6a,
  0x00, 0x00, 0x00, 0x03, 0x00, 0x00, 0x00, 0x69, 0x00, 0x00, 0x00, 0x1e, 0x00,
  0x00, 0x00, 0x37, 0x00, 0x00, 0x00, 0x5c, 0x96, 0xff, 0xff, 0x3c, 0x00, 0x00,
  0x00, 0x6b, 0x00, 0x00, 0x00, 0x20, 0x00, 0x00, 0x00, 0x44, 0x00, 0x00, 0x00,
  0x04, 0x00, 0x00, 0x00, 0x04, 0x00, 0x00, 0x00, 0x01, 0x00, 0x00, 0x00, 0xff,
  0xff, 0xff, 0xff, 0xff, 0xff, 0xff, 0xff, 0x06, 0x00, 0x00, 0x00, 0x0d, 0x00,
  0x00, 0x00, 0x64, 0x65, 0x70, 0x74, 0x68, 0x77, 0x69, 0x73, 0x65, 0x5f, 0x31,
  0x35, 0x31, 0x00, 0x00, 0x00, 0x04, 0x00, 0x00, 0x00, 0x01, 0x00, 0x00, 0x00,
  0x01, 0x00, 0x00, 0x00, 0x01, 0x00, 0x00, 0x00, 0x06, 0x00, 0x00, 0x00, 0x44,
  0x96, 0xff, 0xff, 0x86, 0xf1, 0xff, 0xff, 0x00, 0x00, 0x00, 0x02, 0x01, 0x00,
  0x00, 0x00, 0x24, 0x00, 0x00, 0x00, 0x18, 0x00, 0x00, 0x00, 0x04, 0x00, 0x00,
  0x00, 0x78, 0xf1, 0xff, 0xff, 0x01, 0x00, 0x00, 0x00, 0x01, 0x00, 0x00, 0x00,
  0x01, 0x00, 0x00, 0x00, 0x01, 0x00, 0x00, 0x00, 0x69, 0x00, 0x00, 0x00, 0x03,
  0x00, 0x00, 0x00, 0x68, 0x00, 0x00, 0x00, 0x1d, 0x00, 0x00, 0x00, 0x37, 0x00,
  0x00, 0x00, 0xf4, 0x96, 0xff, 0xff, 0x3c, 0x00, 0x00, 0x00, 0x6a, 0x00, 0x00,
  0x00, 0x20, 0x00, 0x00, 0x00, 0x44, 0x00, 0x00, 0x00, 0x04, 0x00, 0x00, 0x00,
  0x04, 0x00, 0x00, 0x00, 0x01, 0x00, 0x00, 0x00, 0xff, 0xff, 0xff, 0xff, 0xff,
  0xff, 0xff, 0xff, 0x06, 0x00, 0x00, 0x00, 0x0d, 0x00, 0x00, 0x00, 0x64, 0x65,
  0x70, 0x74, 0x68, 0x77, 0x69, 0x73, 0x65, 0x5f, 0x31, 0x34, 0x31, 0x00, 0x00,
  0x00, 0x04, 0x00, 0x00, 0x00, 0x01, 0x00, 0x00, 0x00, 0x01, 0x00, 0x00, 0x00,
  0x01, 0x00, 0x00, 0x00, 0x06, 0x00, 0x00, 0x00, 0xdc, 0x96, 0xff, 0xff, 0x1e,
  0xf2, 0xff, 0xff, 0x00, 0x00, 0x00, 0x0b, 0x03, 0x00, 0x00, 0x00, 0x18, 0x00,
  0x00, 0x00, 0x0c, 0x00, 0x00, 0x00, 0x04, 0x00, 0x00, 0x00, 0xf8, 0x96, 0xff,
  0xff, 0x01, 0x00, 0x00, 0x00, 0x68, 0x00, 0x00, 0x00, 0x02, 0x00, 0x00, 0x00,
  0x67, 0x00, 0x00, 0x00, 0x64, 0x00, 0x00, 0x00, 0x7c, 0x97, 0xff, 0xff, 0x34,
  0x00, 0x00, 0x00, 0x69, 0x00, 0x00, 0x00, 0x20, 0x00, 0x00, 0x00, 0x3c, 0x00,
  0x00, 0x00, 0x04, 0x00, 0x00, 0x00, 0x04, 0x00, 0x00, 0x00, 0x01, 0x00, 0x00,
  0x00, 0xff, 0xff, 0xff, 0xff, 0xff, 0xff, 0xff, 0xff, 0x06, 0x00, 0x00, 0x00,
  0x05, 0x00, 0x00, 0x00, 0x41, 0x64, 0x64, 0x5f, 0x31, 0x00, 0x00, 0x00, 0x04,
  0x00, 0x00, 0x00, 0x01, 0x00, 0x00, 0x00, 0x01, 0x00, 0x00, 0x00, 0x01, 0x00,
  0x00, 0x00, 0x06, 0x00, 0x00, 0x00, 0x5c, 0x97, 0xff, 0xff, 0x9e, 0xf2, 0xff,
  0xff, 0x00, 0x00, 0x00, 0x01, 0x02, 0x00, 0x00, 0x00, 0x20, 0x00, 0x00, 0x00,
  0x14, 0x00, 0x00, 0x00, 0x04, 0x00, 0x00, 0x00, 0xfe, 0xf3, 0xff, 0xff, 0x01,
  0x00, 0x00, 0x00, 0x01, 0x00, 0x00, 0x00, 0x01, 0x00, 0x00, 0x00, 0x67, 0x00,
  0x00, 0x00, 0x03, 0x00, 0x00, 0x00, 0x66, 0x00, 0x00, 0x00, 0x1c, 0x00, 0x00,
  0x00, 0x4b, 0x00, 0x00, 0x00, 0x08, 0x98, 0xff, 0xff, 0x58, 0x00, 0x00, 0x00,
  0x68, 0x00, 0x00, 0x00, 0x20, 0x00, 0x00, 0x00, 0x60, 0x00, 0x00, 0x00, 0x04,
  0x00, 0x00, 0x00, 0x04, 0x00, 0x00, 0x00, 0x01, 0x00, 0x00, 0x00, 0xff, 0xff,
  0xff, 0xff, 0xff, 0xff, 0xff, 0xff, 0x06, 0x00, 0x00, 0x00, 0x2b, 0x00, 0x00,
  0x00, 0x42, 0x69, 0x61, 0x73, 0x41, 0x64, 0x64, 0x5f, 0x36, 0x3b, 0x64, 0x65,
  0x70, 0x74, 0x68, 0x77, 0x69, 0x73, 0x65, 0x5f, 0x33, 0x31, 0x3b, 0x43, 0x6f,
  0x6e, 0x76, 0x32, 0x44, 0x5f, 0x36, 0x3b, 0x63, 0x6f, 0x6e, 0x76, 0x5f, 0x32,
  0x5f, 0x31, 0x5f, 0x62, 0x31, 0x00, 0x04, 0x00, 0x00, 0x00, 0x01, 0x00, 0x00,
  0x00, 0x01, 0x00, 0x00, 0x00, 0x01, 0x00, 0x00, 0x00, 0x06, 0x00, 0x00, 0x00,
  0x0c, 0x98, 0xff, 0xff, 0x4e, 0xf3, 0xff, 0xff, 0x00, 0x00, 0x00, 0x02, 0x01,
  0x00, 0x00, 0x00, 0x24, 0x00, 0x00, 0x00, 0x18, 0x00, 0x00, 0x00, 0x04, 0x00,
  0x00, 0x00, 0x40, 0xf3, 0xff, 0xff, 0x01, 0x00, 0x00, 0x00, 0x01, 0x00, 0x00,
  0x00, 0x01, 0x00, 0x00, 0x00, 0x01, 0x00, 0x00, 0x00, 0x66, 0x00, 0x00, 0x00,
  0x03, 0x00, 0x00, 0x00, 0x65, 0x00, 0x00, 0x00, 0x1b, 0x00, 0x00, 0x00, 0x41,
  0x00, 0x00, 0x00, 0xbc, 0x98, 0xff, 0xff, 0x3c, 0x00, 0x00, 0x00, 0x67, 0x00,
  0x00, 0x00, 0x20, 0x00, 0x00, 0x00, 0x44, 0x00, 0x00, 0x00, 0x04, 0x00, 0x00,
  0x00, 0x04, 0x00, 0x00, 0x00, 0x01, 0x00, 0x00, 0x00, 0xff, 0xff, 0xff, 0xff,
  0xff, 0xff, 0xff, 0xff, 0x0b, 0x00, 0x00, 0x00, 0x0d, 0x00, 0x00, 0x00, 0x64,
  0x65, 0x70, 0x74, 0x68, 0x77, 0x69, 0x73, 0x65, 0x5f, 0x31, 0x33, 0x31, 0x00,
  0x00, 0x00, 0x04, 0x00, 0x00, 0x00, 0x01, 0x00, 0x00, 0x00, 0x01, 0x00, 0x00,
  0x00, 0x01, 0x00, 0x00, 0x00, 0x0b, 0x00, 0x00, 0x00, 0xa4, 0x98, 0xff, 0xff,
  0xe6, 0xf3, 0xff, 0xff, 0x00, 0x00, 0x00, 0x02, 0x01, 0x00, 0x00, 0x00, 0x24,
  0x00, 0x00, 0x00, 0x18, 0x00, 0x00, 0x00, 0x04, 0x00, 0x00, 0x00, 0xd8, 0xf3,
  0xff, 0xff, 0x01, 0x00, 0x00, 0x00, 0x01, 0x00, 0x00, 0x00, 0x01, 0x00, 0x00,
  0x00, 0x01, 0x00, 0x00, 0x00, 0x65, 0x00, 0x00, 0x00, 0x03, 0x00, 0x00, 0x00,
  0x5e, 0x00, 0x00, 0x00, 0x1a, 0x00, 0x00, 0x00, 0x41, 0x00, 0x00, 0x00, 0x54,
  0x99, 0xff, 0xff, 0x3c, 0x00, 0x00, 0x00, 0x66, 0x00, 0x00, 0x00, 0x20, 0x00,
  0x00, 0x00, 0x44, 0x00, 0x00, 0x00, 0x04, 0x00, 0x00, 0x00, 0x04, 0x00, 0x00,
  0x00, 0x01, 0x00, 0x00, 0x00, 0xff, 0xff, 0xff, 0xff, 0xff, 0xff, 0xff, 0xff,
  0x0b, 0x00, 0x00, 0x00, 0x0d, 0x00, 0x00, 0x00, 0x64, 0x65, 0x70, 0x74, 0x68,
  0x77, 0x69, 0x73, 0x65, 0x5f, 0x31, 0x32, 0x31, 0x00, 0x00, 0x00, 0x04, 0x00,
  0x00, 0x00, 0x01, 0x00, 0x00, 0x00, 0x01, 0x00, 0x00, 0x00, 0x01, 0x00, 0x00,
  0x00, 0x0b, 0x00, 0x00, 0x00, 0x3c, 0x99, 0xff, 0xff, 0x7e, 0xf4, 0xff, 0xff,
  0x00, 0x00, 0x00, 0x01, 0x02, 0x00, 0x00, 0x00, 0x20, 0x00, 0x00, 0x00, 0x14,
  0x00, 0x00, 0x00, 0x04, 0x00, 0x00, 0x00, 0xde, 0xf5, 0xff, 0xff, 0x01, 0x00,
  0x00, 0x00, 0x01, 0x00, 0x00, 0x00, 0x01, 0x00, 0x00, 0x00, 0x64, 0x00, 0x00,
  0x00, 0x03, 0x00, 0x00, 0x00, 0x63, 0x00, 0x00, 0x00, 0x19, 0x00, 0x00, 0x00,
  0x4b, 0x00, 0x00, 0x00, 0xe8, 0x99, 0xff, 0xff, 0x58, 0x00, 0x00, 0x00, 0x65,
  0x00, 0x00, 0x00, 0x20, 0x00, 0x00, 0x00, 0x60, 0x00, 0x00, 0x00, 0x04, 0x00,
  0x00, 0x00, 0x04, 0x00, 0x00, 0x00, 0x01, 0x00, 0x00, 0x00, 0xff, 0xff, 0xff,
  0xff, 0xff, 0xff, 0xff, 0xff, 0x06, 0x00, 0x00, 0x00, 0x2a, 0x00, 0x00, 0x00,
  0x42, 0x69, 0x61, 0x73, 0x41, 0x64, 0x64, 0x5f, 0x35, 0x3b, 0x64, 0x65, 0x70,
  0x74, 0x68, 0x77, 0x69, 0x73, 0x65, 0x5f, 0x33, 0x31, 0x3b, 0x43, 0x6f, 0x6e,
  0x76, 0x32, 0x44, 0x5f, 0x35, 0x3b, 0x63, 0x6f, 0x6e, 0x76, 0x5f, 0x32, 0x5f,
  0x31, 0x5f, 0x62, 0x00, 0x00, 0x04, 0x00, 0x00, 0x00, 0x01, 0x00, 0x00, 0x00,
  0x01, 0x00, 0x00, 0x00, 0x01, 0x00, 0x00, 0x00, 0x06, 0x00, 0x00, 0x00, 0xec,
  0x99, 0xff, 0xff, 0x2e, 0xf5, 0xff, 0xff, 0x00, 0x00, 0x00, 0x02, 0x01, 0x00,
  0x00, 0x00, 0x24, 0x00, 0x00, 0x00, 0x18, 0x00, 0x00, 0x00, 0x04, 0x00, 0x00,
  0x00, 0x20, 0xf5, 0xff, 0xff, 0x01, 0x00, 0x00, 0x00, 0x01, 0x00, 0x00, 0x00,
  0x01, 0x00, 0x00, 0x00, 0x01, 0x00, 0x00, 0x00, 0x63, 0x00, 0x00, 0x00, 0x03,
  0x00, 0x00, 0x00, 0x62, 0x00, 0x00, 0x00, 0x18, 0x00, 0x00, 0x00, 0x37, 0x00,
  0x00, 0x00, 0x9c, 0x9a, 0xff, 0xff, 0x3c, 0x00, 0x00, 0x00, 0x64, 0x00, 0x00,
  0x00, 0x20, 0x00, 0x00, 0x00, 0x44, 0x00, 0x00, 0x00, 0x04, 0x00, 0x00, 0x00,
  0x04, 0x00, 0x00, 0x00, 0x01, 0x00, 0x00, 0x00, 0xff, 0xff, 0xff, 0xff, 0xff,
  0xff, 0xff, 0xff, 0x06, 0x00, 0x00, 0x00, 0x0d, 0x00, 0x00, 0x00, 0x64, 0x65,
  0x70, 0x74, 0x68, 0x77, 0x69, 0x73, 0x65, 0x5f, 0x31, 0x31, 0x31, 0x00, 0x00,
  0x00, 0x04, 0x00, 0x00, 0x00, 0x01, 0x00, 0x00, 0x00, 0x01, 0x00, 0x00, 0x00,
  0x01, 0x00, 0x00, 0x00, 0x06, 0x00, 0x00, 0x00, 0x84, 0x9a, 0xff, 0xff, 0xc6,
  0xf5, 0xff, 0xff, 0x00, 0x00, 0x00, 0x02, 0x01, 0x00, 0x00, 0x00, 0x24, 0x00,
  0x00, 0x00, 0x18, 0x00, 0x00, 0x00, 0x04, 0x00, 0x00, 0x00, 0xb8, 0xf5, 0xff,
  0xff, 0x01, 0x00, 0x00, 0x00, 0x01, 0x00, 0x00, 0x00, 0x01, 0x00, 0x00, 0x00,
  0x01, 0x00, 0x00, 0x00, 0x62, 0x00, 0x00, 0x00, 0x03, 0x00, 0x00, 0x00, 0x61,
  0x00, 0x00, 0x00, 0x17, 0x00, 0x00, 0x00, 0x37, 0x00, 0x00, 0x00, 0x34, 0x9b,
  0xff, 0xff, 0x3c, 0x00, 0x00, 0x00, 0x63, 0x00, 0x00, 0x00, 0x20, 0x00, 0x00,
  0x00, 0x44, 0x00, 0x00, 0x00, 0x04, 0x00, 0x00, 0x00, 0x04, 0x00, 0x00, 0x00,
  0x01, 0x00, 0x00, 0x00, 0xff, 0xff, 0xff, 0xff, 0xff, 0xff, 0xff, 0xff, 0x06,
  0x00, 0x00, 0x00, 0x0d, 0x00, 0x00, 0x00, 0x64, 0x65, 0x70, 0x74, 0x68, 0x77,
  0x69, 0x73, 0x65, 0x5f, 0x31, 0x30, 0x31, 0x00, 0x00, 0x00, 0x04, 0x00, 0x00,
  0x00, 0x01, 0x00, 0x00, 0x00, 0x01, 0x00, 0x00, 0x00, 0x01, 0x00, 0x00, 0x00,
  0x06, 0x00, 0x00, 0x00, 0x1c, 0x9b, 0xff, 0xff, 0x5e, 0xf6, 0xff, 0xff, 0x00,
  0x00, 0x00, 0x01, 0x02, 0x00, 0x00, 0x00, 0x24, 0x00, 0x00, 0x00, 0x18, 0x00,
  0x00, 0x00, 0x04, 0x00, 0x00, 0x00, 0xc4, 0xf9, 0xff, 0xff, 0x01, 0x00, 0x00,
  0x00, 0x01, 0x00, 0x00, 0x00, 0x00, 0x00, 0x00, 0x01, 0x01, 0x00, 0x00, 0x00,
  0x61, 0x00, 0x00, 0x00, 0x03, 0x00, 0x00, 0x00, 0x60, 0x00, 0x00, 0x00, 0x16,
  0x00, 0x00, 0x00, 0x05, 0x00, 0x00, 0x00, 0xcc, 0x9b, 0xff, 0xff, 0x60, 0x00,
  0x00, 0x00, 0x62, 0x00, 0x00, 0x00, 0x20, 0x00, 0x00, 0x00, 0x68, 0x00, 0x00,
  0x00, 0x04, 0x00, 0x00, 0x00, 0x04, 0x00, 0x00, 0x00, 0x01, 0x00, 0x00, 0x00,
  0xff, 0xff, 0xff, 0xff, 0xff, 0xff, 0xff, 0xff, 0x06, 0x00, 0x00, 0x00, 0x31,
  0x00, 0x00, 0x00, 0x52, 0x65, 0x6c, 0x75, 0x5f, 0x31, 0x3b, 0x42, 0x69, 0x61,
  0x73, 0x41, 0x64, 0x64, 0x5f, 0x34, 0x3b, 0x64, 0x65, 0x70, 0x74, 0x68, 0x77,
  0x69, 0x73, 0x65, 0x5f, 0x33, 0x31, 0x3b, 0x43, 0x6f, 0x6e, 0x76, 0x32, 0x44,
  0x5f, 0x34, 0x3b, 0x63, 0x6f, 0x6e, 0x76, 0x5f, 0x32, 0x5f, 0x30, 0x5f, 0x62,
  0x00, 0x00, 0x00, 0x04, 0x00, 0x00, 0x00, 0x01, 0x00, 0x00, 0x00, 0x01, 0x00,
  0x00, 0x00, 0x01, 0x00, 0x00, 0x00, 0x06, 0x00, 0x00, 0x00, 0xd8, 0x9b, 0xff,
  0xff, 0x1a, 0xf7, 0xff, 0xff, 0x00, 0x00, 0x00, 0x02, 0x01, 0x00, 0x00, 0x00,
  0x24, 0x00, 0x00, 0x00, 0x18, 0x00, 0x00, 0x00, 0x04, 0x00, 0x00, 0x00, 0x0c,
  0xf7, 0xff, 0xff, 0x01, 0x00, 0x00, 0x00, 0x01, 0x00, 0x00, 0x00, 0x01, 0x00,
  0x00, 0x00, 0x01, 0x00, 0x00, 0x00, 0x60, 0x00, 0x00, 0x00, 0x03, 0x00, 0x00,
  0x00, 0x5f, 0x00, 0x00, 0x00, 0x15, 0x00, 0x00, 0x00, 0x41, 0x00, 0x00, 0x00,
  0x88, 0x9c, 0xff, 0xff, 0x3c, 0x00, 0x00, 0x00, 0x61, 0x00, 0x00, 0x00, 0x20,
  0x00, 0x00, 0x00, 0x44, 0x00, 0x00, 0x00, 0x04, 0x00, 0x00, 0x00, 0x04, 0x00,
  0x00, 0x00, 0x01, 0x00, 0x00, 0x00, 0xff, 0xff, 0xff, 0xff, 0xff, 0xff, 0xff,
  0xff, 0x0b, 0x00, 0x00, 0x00, 0x0c, 0x00, 0x00, 0x00, 0x64, 0x65, 0x70, 0x74,
  0x68, 0x77, 0x69, 0x73, 0x65, 0x5f, 0x39, 0x31, 0x00, 0x00, 0x00, 0x00, 0x04,
  0x00, 0x00, 0x00, 0x01, 0x00, 0x00, 0x00, 0x01, 0x00, 0x00, 0x00, 0x01, 0x00,
  0x00, 0x00, 0x0b, 0x00, 0x00, 0x00, 0x70, 0x9c, 0xff, 0xff, 0xb2, 0xf7, 0xff,
  0xff, 0x00, 0x00, 0x00, 0x02, 0x01, 0x00, 0x00, 0x00, 0x24, 0x00, 0x00, 0x00,
  0x18, 0x00, 0x00, 0x00, 0x04, 0x00, 0x00, 0x00, 0xa4, 0xf7, 0xff, 0xff, 0x01,
  0x00, 0x00, 0x00, 0x01, 0x00, 0x00, 0x00, 0x01, 0x00, 0x00, 0x00, 0x01, 0x00,
  0x00, 0x00, 0x5f, 0x00, 0x00, 0x00, 0x03, 0x00, 0x00, 0x00, 0x5e, 0x00, 0x00,
  0x00, 0x14, 0x00, 0x00, 0x00, 0x41, 0x00, 0x00, 0x00, 0x20, 0x9d, 0xff, 0xff,
  0x3c, 0x00, 0x00, 0x00, 0x60, 0x00, 0x00, 0x00, 0x20, 0x00, 0x00, 0x00, 0x44,
  0x00, 0x00, 0x00, 0x04, 0x00, 0x00, 0x00, 0x04, 0x00, 0x00, 0x00, 0x01, 0x00,
  0x00, 0x00, 0xff, 0xff, 0xff, 0xff, 0xff, 0xff, 0xff, 0xff, 0x0b, 0x00, 0x00,
  0x00, 0x0c, 0x00, 0x00, 0x00, 0x64, 0x65, 0x70, 0x74, 0x68, 0x77, 0x69, 0x73,
  0x65, 0x5f, 0x38, 0x31, 0x00, 0x00, 0x00, 0x00, 0x04, 0x00, 0x00, 0x00, 0x01,
  0x00, 0x00, 0x00, 0x01, 0x00, 0x00, 0x00, 0x01, 0x00, 0x00, 0x00, 0x0b, 0x00,
  0x00, 0x00, 0x08, 0x9d, 0xff, 0xff, 0x4a, 0xf8, 0xff, 0xff, 0x00, 0x00, 0x00,
  0x0b, 0x03, 0x00, 0x00, 0x00, 0x18, 0x00, 0x00, 0x00, 0x0c, 0x00, 0x00, 0x00,
  0x04, 0x00, 0x00, 0x00, 0x24, 0x9d, 0xff, 0xff, 0x01, 0x00, 0x00, 0x00, 0x5e,
  0x00, 0x00, 0x00, 0x02, 0x00, 0x00, 0x00, 0x5d, 0x00, 0x00, 0x00, 0x5a, 0x00,
  0x00, 0x00, 0x00, 0x00, 0x0a, 0x00, 0x08, 0x00, 0x00, 0x00, 0x00, 0x00, 0x04,
  0x00, 0x0a, 0x00, 0x00, 0x00, 0x01, 0x00, 0x00, 0x00, 0xbc, 0x9d, 0xff, 0xff,
  0x30, 0x00, 0x00, 0x00, 0x5f, 0x00, 0x00, 0x00, 0x20, 0x00, 0x00, 0x00, 0x38,
  0x00, 0x00, 0x00, 0x04, 0x00, 0x00, 0x00, 0x04, 0x00, 0x00, 0x00, 0x01, 0x00,
  0x00, 0x00, 0xff, 0xff, 0xff, 0xff, 0xff, 0xff, 0xff, 0xff, 0x0b, 0x00, 0x00,
  0x00, 0x03, 0x00, 0x00, 0x00, 0x41, 0x64, 0x64, 0x00, 0x04, 0x00, 0x00, 0x00,
  0x01, 0x00, 0x00, 0x00, 0x01, 0x00, 0x00, 0x00, 0x01, 0x00, 0x00, 0x00, 0x0b,
  0x00, 0x00, 0x00, 0x98, 0x9d, 0xff, 0xff, 0xda, 0xf8, 0xff, 0xff, 0x00, 0x00,
  0x00, 0x01, 0x02, 0x00, 0x00, 0x00, 0x20, 0x00, 0x00, 0x00, 0x14, 0x00, 0x00,
  0x00, 0x04, 0x00, 0x00, 0x00, 0x3a, 0xfa, 0xff, 0xff, 0x01, 0x00, 0x00, 0x00,
  0x01, 0x00, 0x00, 0x00, 0x01, 0x00, 0x00, 0x00, 0x5d, 0x00, 0x00, 0x00, 0x03,
  0x00, 0x00, 0x00, 0x5c, 0x00, 0x00, 0x00, 0x13, 0x00, 0x00, 0x00, 0x4a, 0x00,
  0x00, 0x00, 0x44, 0x9e, 0xff, 0xff, 0x58, 0x00, 0x00, 0x00, 0x5e, 0x00, 0x00,
  0x00, 0x20, 0x00, 0x00, 0x00, 0x60, 0x00, 0x00, 0x00, 0x04, 0x00, 0x00, 0x00,
  0x04, 0x00, 0x00, 0x00, 0x01, 0x00, 0x00, 0x00, 0xff, 0xff, 0xff, 0xff, 0xff,
  0xff, 0xff, 0xff, 0x0b, 0x00, 0x00, 0x00, 0x2b, 0x00, 0x00, 0x00, 0x42, 0x69,
  0x61, 0x73, 0x41, 0x64, 0x64, 0x5f, 0x33, 0x3b, 0x64, 0x65, 0x70, 0x74, 0x68,
  0x77, 0x69, 0x73, 0x65, 0x5f, 0x33, 0x37, 0x3b, 0x43, 0x6f, 0x6e, 0x76, 0x32,
  0x44, 0x5f, 0x33, 0x3b, 0x63, 0x6f, 0x6e, 0x76, 0x5f, 0x31, 0x5f, 0x31, 0x5f,
  0x62, 0x31, 0x00, 0x04, 0x00, 0x00, 0x00, 0x01, 0x00, 0x00, 0x00, 0x01, 0x00,
  0x00, 0x00, 0x01, 0x00, 0x00, 0x00, 0x0b, 0x00, 0x00, 0x00, 0x48, 0x9e, 0xff,
  0xff, 0x8a, 0xf9, 0xff, 0xff, 0x00, 0x00, 0x00, 0x02, 0x01, 0x00, 0x00, 0x00,
  0x24, 0x00, 0x00, 0x00, 0x18, 0x00, 0x00, 0x00, 0x04, 0x00, 0x00, 0x00, 0x7c,
  0xf9, 0xff, 0xff, 0x01, 0x00, 0x00, 0x00, 0x01, 0x00, 0x00, 0x00, 0x01, 0x00,
  0x00, 0x00, 0x01, 0x00, 0x00, 0x00, 0x5c, 0x00, 0x00, 0x00, 0x03, 0x00, 0x00,
  0x00, 0x5b, 0x00, 0x00, 0x00, 0x12, 0x00, 0x00, 0x00, 0x45, 0x00, 0x00, 0x00,
  0xf8, 0x9e, 0xff, 0xff, 0x3c, 0x00, 0x00, 0x00, 0x5d, 0x00, 0x00, 0x00, 0x20,
  0x00, 0x00, 0x00, 0x44, 0x00, 0x00, 0x00, 0x04, 0x00, 0x00, 0x00, 0x04, 0x00,
  0x00, 0x00, 0x01, 0x00, 0x00, 0x00, 0xff, 0xff, 0xff, 0xff, 0xff, 0xff, 0xff,
  0xff, 0x14, 0x00, 0x00, 0x00, 0x0c, 0x00, 0x00, 0x00, 0x64, 0x65, 0x70, 0x74,
  0x68, 0x77, 0x69, 0x73, 0x65, 0x5f, 0x37, 0x31, 0x00, 0x00, 0x00, 0x00, 0x04,
  0x00, 0x00, 0x00, 0x01, 0x00, 0x00, 0x00, 0x01, 0x00, 0x00, 0x00, 0x01, 0x00,
  0x00, 0x00, 0x14, 0x00, 0x00, 0x00, 0xe0, 0x9e, 0xff, 0xff, 0x22, 0xfa, 0xff,
  0xff, 0x00, 0x00, 0x00, 0x02, 0x01, 0x00, 0x00, 0x00, 0x24, 0x00, 0x00, 0x00,
  0x18, 0x00, 0x00, 0x00, 0x04, 0x00, 0x00, 0x00, 0x14, 0xfa, 0xff, 0xff, 0x01,
  0x00, 0x00, 0x00, 0x01, 0x00, 0x00, 0x00, 0x01, 0x00, 0x00, 0x00, 0x01, 0x00,
  0x00, 0x00, 0x5b, 0x00, 0x00, 0x00, 0x03, 0x00, 0x00, 0x00, 0x54, 0x00, 0x00,
  0x00, 0x11, 0x00, 0x00, 0x00, 0x45, 0x00, 0x00, 0x00, 0x90, 0x9f, 0xff, 0xff,
  0x3c, 0x00, 0x00, 0x00, 0x5c, 0x00, 0x00, 0x00, 0x20, 0x00, 0x00, 0x00, 0x44,
  0x00, 0x00, 0x00, 0x04, 0x00, 0x00, 0x00, 0x04, 0x00, 0x00, 0x00, 0x01, 0x00,
  0x00, 0x00, 0xff, 0xff, 0xff, 0xff, 0xff, 0xff, 0xff, 0xff, 0x14, 0x00, 0x00,
  0x00, 0x0c, 0x00, 0x00, 0x00, 0x64, 0x65, 0x70, 0x74, 0x68, 0x77, 0x69, 0x73,
  0x65, 0x5f, 0x36, 0x31, 0x00, 0x00, 0x00, 0x00, 0x04, 0x00, 0x00, 0x00, 0x01,
  0x00, 0x00, 0x00, 0x01, 0x00, 0x00, 0x00, 0x01, 0x00, 0x00, 0x00, 0x14, 0x00,
  0x00, 0x00, 0x78, 0x9f, 0xff, 0xff, 0xba, 0xfa, 0xff, 0xff, 0x00, 0x00, 0x00,
  0x01, 0x02, 0x00, 0x00, 0x00, 0x20, 0x00, 0x00, 0x00, 0x14, 0x00, 0x00, 0x00,
  0x04, 0x00, 0x00, 0x00, 0x1a, 0xfc, 0xff, 0xff, 0x01, 0x00, 0x00, 0x00, 0x01,
  0x00, 0x00, 0x00, 0x01, 0x00, 0x00, 0x00, 0x5a, 0x00, 0x00, 0x00, 0x03, 0x00,
  0x00, 0x00, 0x59, 0x00, 0x00, 0x00, 0x10, 0x00, 0x00, 0x00, 0x4a, 0x00, 0x00,
  0x00, 0x24, 0xa0, 0xff, 0xff, 0x58, 0x00, 0x00, 0x00, 0x5b, 0x00, 0x00, 0x00,
  0x20, 0x00, 0x00, 0x00, 0x60, 0x00, 0x00, 0x00, 0x04, 0x00, 0x00, 0x00, 0x04,
  0x00, 0x00, 0x00, 0x01, 0x00, 0x00, 0x00, 0xff, 0xff, 0xff, 0xff, 0xff, 0xff,
  0xff, 0xff, 0x0b, 0x00, 0x00, 0x00, 0x2a, 0x00, 0x00, 0x00, 0x42, 0x69, 0x61,
  0x73, 0x41, 0x64, 0x64, 0x5f, 0x32, 0x3b, 0x64, 0x65, 0x70, 0x74, 0x68, 0x77,
  0x69, 0x73, 0x65, 0x5f, 0x33, 0x37, 0x3b, 0x43, 0x6f, 0x6e, 0x76, 0x32, 0x44,
  0x5f, 0x32, 0x3b, 0x63, 0x6f, 0x6e, 0x76, 0x5f, 0x31, 0x5f, 0x31, 0x5f, 0x62,
  0x00, 0x00, 0x04, 0x00, 0x00, 0x00, 0x01, 0x00, 0x00, 0x00, 0x01, 0x00, 0x00,
  0x00, 0x01, 0x00, 0x00, 0x00, 0x0b, 0x00, 0x00, 0x00, 0x28, 0xa0, 0xff, 0xff,
  0x6a, 0xfb, 0xff, 0xff, 0x00, 0x00, 0x00, 0x02, 0x01, 0x00, 0x00, 0x00, 0x24,
  0x00, 0x00, 0x00, 0x18, 0x00, 0x00, 0x00, 0x04, 0x00, 0x00, 0x00, 0x5c, 0xfb,
  0xff, 0xff, 0x01, 0x00, 0x00, 0x00, 0x01, 0x00, 0x00, 0x00, 0x01, 0x00, 0x00,
  0x00, 0x01, 0x00, 0x00, 0x00, 0x59, 0x00, 0x00, 0x00, 0x03, 0x00, 0x00, 0x00,
  0x58, 0x00, 0x00, 0x00, 0x0f, 0x00, 0x00, 0x00, 0x41, 0x00, 0x00, 0x00, 0xd8,
  0xa0, 0xff, 0xff, 0x3c, 0x00, 0x00, 0x00, 0x5a, 0x00, 0x00, 0x00, 0x20, 0x00,
  0x00, 0x00, 0x44, 0x00, 0x00, 0x00, 0x04, 0x00, 0x00, 0x00, 0x04, 0x00, 0x00,
  0x00, 0x01, 0x00, 0x00, 0x00, 0xff, 0xff, 0xff, 0xff, 0xff, 0xff, 0xff, 0xff,
  0x0b, 0x00, 0x00, 0x00, 0x0c, 0x00, 0x00, 0x00, 0x64, 0x65, 0x70, 0x74, 0x68,
  0x77, 0x69, 0x73, 0x65, 0x5f, 0x35, 0x31, 0x00, 0x00, 0x00, 0x00, 0x04, 0x00,
  0x00, 0x00, 0x01, 0x00, 0x00, 0x00, 0x01, 0x00, 0x00, 0x00, 0x01, 0x00, 0x00,
  0x00, 0x0b, 0x00, 0x00, 0x00, 0xc0, 0xa0, 0xff, 0xff, 0x02, 0xfc, 0xff, 0xff,
  0x00, 0x00, 0x00, 0x02, 0x01, 0x00, 0x00, 0x00, 0x24, 0x00, 0x00, 0x00, 0x18,
  0x00, 0x00, 0x00, 0x04, 0x00, 0x00, 0x00, 0xf4, 0xfb, 0xff, 0xff, 0x01, 0x00,
  0x00, 0x00, 0x01, 0x00, 0x00, 0x00, 0x01, 0x00, 0x00, 0x00, 0x01, 0x00, 0x00,
  0x00, 0x58, 0x00, 0x00, 0x00, 0x03, 0x00, 0x00, 0x00, 0x57, 0x00, 0x00, 0x00,
  0x0e, 0x00, 0x00, 0x00, 0x41, 0x00, 0x00, 0x00, 0x70, 0xa1, 0xff, 0xff, 0x3c,
  0x00, 0x00, 0x00, 0x59, 0x00, 0x00, 0x00, 0x20, 0x00, 0x00, 0x00, 0x44, 0x00,
  0x00, 0x00, 0x04, 0x00, 0x00, 0x00, 0x04, 0x00, 0x00, 0x00, 0x01, 0x00, 0x00,
  0x00, 0xff, 0xff, 0xff, 0xff, 0xff, 0xff, 0xff, 0xff, 0x0b, 0x00, 0x00, 0x00,
  0x0c, 0x00, 0x00, 0x00, 0x64, 0x65, 0x70, 0x74, 0x68, 0x77, 0x69, 0x73, 0x65,
  0x5f, 0x34, 0x31, 0x00, 0x00, 0x00, 0x00, 0x04, 0x00, 0x00, 0x00, 0x01, 0x00,
  0x00, 0x00, 0x01, 0x00, 0x00, 0x00, 0x01, 0x00, 0x00, 0x00, 0x0b, 0x00, 0x00,
  0x00, 0x58, 0xa1, 0xff, 0xff, 0x9a, 0xfc, 0xff, 0xff, 0x00, 0x00, 0x00, 0x01,
  0x02, 0x00, 0x00, 0x00, 0x30, 0x00, 0x00, 0x00, 0x24, 0x00, 0x00, 0x00, 0x10,
  0x00, 0x00, 0x00, 0x0c, 0x00, 0x10, 0x00, 0x00, 0x00, 0x04, 0x00, 0x08, 0x00,
  0x0f, 0x00, 0x0c, 0x00, 0x00, 0x00, 0x01, 0x00, 0x00, 0x00, 0x01, 0x00, 0x00,
  0x00, 0x00, 0x00, 0x00, 0x01, 0x01, 0x00, 0x00, 0x00, 0x57, 0x00, 0x00, 0x00,
  0x03, 0x00, 0x00, 0x00, 0x56, 0x00, 0x00, 0x00, 0x0d, 0x00, 0x00, 0x00, 0x06,
  0x00, 0x00, 0x00, 0x14, 0xa2, 0xff, 0xff, 0x5c, 0x00, 0x00, 0x00, 0x58, 0x00,
  0x00, 0x00, 0x20, 0x00, 0x00, 0x00, 0x64, 0x00, 0x00, 0x00, 0x04, 0x00, 0x00,
  0x00, 0x04, 0x00, 0x00, 0x00, 0x01, 0x00, 0x00, 0x00, 0xff, 0xff, 0xff, 0xff,
  0xff, 0xff, 0xff, 0xff, 0x0b, 0x00, 0x00, 0x00, 0x2f, 0x00, 0x00, 0x00, 0x52,
  0x65, 0x6c, 0x75, 0x3b, 0x42, 0x69, 0x61, 0x73, 0x41, 0x64, 0x64, 0x5f, 0x31,
  0x3b, 0x64, 0x65, 0x70, 0x74, 0x68, 0x77, 0x69, 0x73, 0x65, 0x5f, 0x33, 0x37,
  0x3b, 0x43, 0x6f, 0x6e, 0x76, 0x32, 0x44, 0x5f, 0x31, 0x3b, 0x63, 0x6f, 0x6e,
  0x76, 0x5f, 0x31, 0x5f, 0x30, 0x5f, 0x62, 0x00, 0x04, 0x00, 0x00, 0x00, 0x01,
  0x00, 0x00, 0x00, 0x01, 0x00, 0x00, 0x00, 0x01, 0x00, 0x00, 0x00, 0x0b, 0x00,
  0x00, 0x00, 0x1c, 0xa2, 0xff, 0xff, 0x5e, 0xfd, 0xff, 0xff, 0x00, 0x00, 0x00,
  0x02, 0x01, 0x00, 0x00, 0x00, 0x24, 0x00, 0x00, 0x00, 0x18, 0x00, 0x00, 0x00,
  0x04, 0x00, 0x00, 0x00, 0x50, 0xfd, 0xff, 0xff, 0x01, 0x00, 0x00, 0x00, 0x01,
  0x00, 0x00, 0x00, 0x01, 0x00, 0x00, 0x00, 0x01, 0x00, 0x00, 0x00, 0x56, 0x00,
  0x00, 0x00, 0x03, 0x00, 0x00, 0x00, 0x55, 0x00, 0x00, 0x00, 0x0c, 0x00, 0x00,
  0x00, 0x45, 0x00, 0x00, 0x00, 0xcc, 0xa2, 0xff, 0xff, 0x3c, 0x00, 0x00, 0x00,
  0x57, 0x00, 0x00, 0x00, 0x20, 0x00, 0x00, 0x00, 0x44, 0x00, 0x00, 0x00, 0x04,
  0x00, 0x00, 0x00, 0x04, 0x00, 0x00, 0x00, 0x01, 0x00, 0x00, 0x00, 0xff, 0xff,
  0xff, 0xff, 0xff, 0xff, 0xff, 0xff, 0x14, 0x00, 0x00, 0x00, 0x0d, 0x00, 0x00,
  0x00, 0x64, 0x65, 0x70, 0x74, 0x68, 0x77, 0x69, 0x73, 0x65, 0x5f, 0x33, 0x31,
  0x30, 0x00, 0x00, 0x00, 0x04, 0x00, 0x00, 0x00, 0x01, 0x00, 0x00, 0x00, 0x01,
  0x00, 0x00, 0x00, 0x01, 0x00, 0x00, 0x00, 0x14, 0x00, 0x00, 0x00, 0xb4, 0xa2,
  0xff, 0xff, 0xf6, 0xfd, 0xff, 0xff, 0x00, 0x00, 0x00, 0x02, 0x01, 0x00, 0x00,
  0x00, 0x24, 0x00, 0x00, 0x00, 0x18, 0x00, 0x00, 0x00, 0x04, 0x00, 0x00, 0x00,
  0xe8, 0xfd, 0xff, 0xff, 0x01, 0x00, 0x00, 0x00, 0x01, 0x00, 0x00, 0x00, 0x01,
  0x00, 0x00, 0x00, 0x01, 0x00, 0x00, 0x00, 0x55, 0x00, 0x00, 0x00, 0x03, 0x00,
  0x00, 0x00, 0x54, 0x00, 0x00, 0x00, 0x0b, 0x00, 0x00, 0x00, 0x45, 0x00, 0x00,
  0x00, 0x64, 0xa3, 0xff, 0xff, 0x3c, 0x00, 0x00, 0x00, 0x56, 0x00, 0x00, 0x00,
  0x20, 0x00, 0x00, 0x00, 0x44, 0x00, 0x00, 0x00, 0x04, 0x00, 0x00, 0x00, 0x04,
  0x00, 0x00, 0x00, 0x01, 0x00, 0x00, 0x00, 0xff, 0xff, 0xff, 0xff, 0xff, 0xff,
  0xff, 0xff, 0x14, 0x00, 0x00, 0x00, 0x0d, 0x00, 0x00, 0x00, 0x64, 0x65, 0x70,
  0x74, 0x68, 0x77, 0x69, 0x73, 0x65, 0x5f, 0x32, 0x31, 0x30, 0x00, 0x00, 0x00,
  0x04, 0x00, 0x00, 0x00, 0x01, 0x00, 0x00, 0x00, 0x01, 0x00, 0x00, 0x00, 0x01,
  0x00, 0x00, 0x00, 0x14, 0x00, 0x00, 0x00, 0x64, 0xa4, 0xff, 0xff, 0x00, 0x00,
  0x0e, 0x00, 0x1a, 0x00, 0x08, 0x00, 0x0c, 0x00, 0x10, 0x00, 0x07, 0x00, 0x14,
  0x00, 0x0e, 0x00, 0x00, 0x00, 0x00, 0x00, 0x00, 0x01, 0x02, 0x00, 0x00, 0x00,
  0x2c, 0x00, 0x00, 0x00, 0x20, 0x00, 0x00, 0x00, 0x10, 0x00, 0x00, 0x00, 0x00,
  0x00, 0x0a, 0x00, 0x0c, 0x00, 0x00, 0x00, 0x04, 0x00, 0x08, 0x00, 0x0a, 0x00,
  0x00, 0x00, 0x01, 0x00, 0x00, 0x00, 0x01, 0x00, 0x00, 0x00, 0x01, 0x00, 0x00,
  0x00, 0x54, 0x00, 0x00, 0x00, 0x03, 0x00, 0x00, 0x00, 0x53, 0x00, 0x00, 0x00,
  0x0a, 0x00, 0x00, 0x00, 0x49, 0x00, 0x00, 0x00, 0xe0, 0xfd, 0xff, 0xff, 0x03,
  0x00, 0x00, 0x00, 0x00, 0x00, 0x00, 0x03, 0x01, 0x00, 0x00, 0x00, 0x24, 0xa4,
  0xff, 0xff, 0x54, 0x00, 0x00, 0x00, 0x55, 0x00, 0x00, 0x00, 0x20, 0x00, 0x00,
  0x00, 0x5c, 0x00, 0x00, 0x00, 0x04, 0x00, 0x00, 0x00, 0x04, 0x00, 0x00, 0x00,
  0x01, 0x00, 0x00, 0x00, 0xff, 0xff, 0xff, 0xff, 0xff, 0xff, 0xff, 0xff, 0x14,
  0x00, 0x00, 0x00, 0x25, 0x00, 0x00, 0x00, 0x42, 0x69, 0x61, 0x73, 0x41, 0x64,
  0x64, 0x3b, 0x64, 0x65, 0x70, 0x74, 0x68, 0x77, 0x69, 0x73, 0x65, 0x5f, 0x33,
  0x39, 0x3b, 0x43, 0x6f, 0x6e, 0x76, 0x32, 0x44, 0x3b, 0x63, 0x6f, 0x6e, 0x76,
  0x5f, 0x30, 0x5f, 0x62, 0x31, 0x00, 0x00, 0x00, 0x04, 0x00, 0x00, 0x00, 0x01,
  0x00, 0x00, 0x00, 0x01, 0x00, 0x00, 0x00, 0x01, 0x00, 0x00, 0x00, 0x14, 0x00,
  0x00, 0x00, 0x24, 0xa4, 0xff, 0xff, 0x66, 0xff, 0xff, 0xff, 0x00, 0x00, 0x00,
  0x02, 0x01, 0x00, 0x00, 0x00, 0x24, 0x00, 0x00, 0x00, 0x18, 0x00, 0x00, 0x00,
  0x04, 0x00, 0x00, 0x00, 0x58, 0xff, 0xff, 0xff, 0x01, 0x00, 0x00, 0x00, 0x01,
  0x00, 0x00, 0x00, 0x01, 0x00, 0x00, 0x00, 0x01, 0x00, 0x00, 0x00, 0x53, 0x00,
  0x00, 0x00, 0x03, 0x00, 0x00, 0x00, 0x52, 0x00, 0x00, 0x00, 0x09, 0x00, 0x00,
  0x00, 0x47, 0x00, 0x00, 0x00, 0xd4, 0xa4, 0xff, 0xff, 0x3c, 0x00, 0x00, 0x00,
  0x54, 0x00, 0x00, 0x00, 0x20, 0x00, 0x00, 0x00, 0x44, 0x00, 0x00, 0x00, 0x04,
  0x00, 0x00, 0x00, 0x04, 0x00, 0x00, 0x00, 0x01, 0x00, 0x00, 0x00, 0xff, 0xff,
  0xff, 0xff, 0xff, 0xff, 0xff, 0xff, 0x01, 0x00, 0x00, 0x00, 0x0d, 0x00, 0x00,
  0x00, 0x64, 0x65, 0x70, 0x74, 0x68, 0x77, 0x69, 0x73, 0x65, 0x5f, 0x31, 0x31,
  0x30, 0x00, 0x00, 0x00, 0x04, 0x00, 0x00, 0x00, 0x01, 0x00, 0x00, 0x00, 0x01,
  0x00, 0x00, 0x00, 0x01, 0x00, 0x00, 0x00, 0x01, 0x00, 0x00, 0x00, 0xd4, 0xa5,
  0xff, 0xff, 0x00, 0x00, 0x0e, 0x00, 0x18, 0x00, 0x08, 0x00, 0x0c, 0x00, 0x10,
  0x00, 0x07, 0x00, 0x14, 0x00, 0x0e, 0x00, 0x00, 0x00, 0x00, 0x00, 0x00, 0x02,
  0x01, 0x00, 0x00, 0x00, 0x30, 0x00, 0x00, 0x00, 0x24, 0x00, 0x00, 0x00, 0x10,
  0x00, 0x00, 0x00, 0x0c, 0x00, 0x10, 0x00, 0x00, 0x00, 0x08, 0x00, 0x0c, 0x00,
  0x04, 0x00, 0x0c, 0x00, 0x00, 0x00, 0x01, 0x00, 0x00, 0x00, 0x01, 0x00, 0x00,
  0x00, 0x01, 0x00, 0x00, 0x00, 0x01, 0x00, 0x00, 0x00, 0x52, 0x00, 0x00, 0x00,
  0x03, 0x00, 0x00, 0x00, 0x51, 0x00, 0x00, 0x00, 0x08, 0x00, 0x00, 0x00, 0x47,
  0x00, 0x00, 0x00, 0x54, 0xff, 0xff, 0xff, 0x04, 0x00, 0x00, 0x00, 0x00, 0x00,
  0x00, 0x04, 0x01, 0x00, 0x00, 0x00, 0x98, 0xa5, 0xff, 0xff, 0x38, 0x00, 0x00,
  0x00, 0x53, 0x00, 0x00, 0x00, 0x20, 0x00, 0x00, 0x00, 0x40, 0x00, 0x00, 0x00,
  0x04, 0x00, 0x00, 0x00, 0x04, 0x00, 0x00, 0x00, 0x01, 0x00, 0x00, 0x00, 0xff,
  0xff, 0xff, 0xff, 0xff, 0xff, 0xff, 0xff, 0x01, 0x00, 0x00, 0x00, 0x0a, 0x00,
  0x00, 0x00, 0x64, 0x65, 0x70, 0x74, 0x68, 0x77, 0x69, 0x73, 0x65, 0x31, 0x00,
  0x00, 0x04, 0x00, 0x00, 0x00, 0x01, 0x00, 0x00, 0x00, 0x01, 0x00, 0x00, 0x00,
  0x01, 0x00, 0x00, 0x00, 0x01, 0x00, 0x00, 0x00, 0x94, 0xa6, 0xff, 0xff, 0x00,
  0x00, 0x0e, 0x00, 0x16, 0x00, 0x00, 0x00, 0x08, 0x00, 0x0c, 0x00, 0x07, 0x00,
  0x10, 0x00, 0x0e, 0x00, 0x00, 0x00, 0x00, 0x00, 0x00, 0x4d, 0x24, 0x00, 0x00,
  0x00, 0x18, 0x00, 0x00, 0x00, 0x0c, 0x00, 0x00, 0x00, 0x00, 0x00, 0x06, 0x00,
  0x08, 0x00, 0x07, 0x00, 0x06, 0x00, 0x00, 0x00, 0x00, 0x00, 0x00, 0x01, 0x01,
  0x00, 0x00, 0x00, 0x51, 0x00, 0x00, 0x00, 0x02, 0x00, 0x00, 0x00, 0x00, 0x00,
  0x00, 0x00, 0x07, 0x00, 0x00, 0x00, 0x0c, 0x00, 0x10, 0x00, 0x0b, 0x00, 0x00,
  0x00, 0x0c, 0x00, 0x04, 0x00, 0x0c, 0x00, 0x00, 0x00, 0x64, 0x00, 0x00, 0x00,
  0x00, 0x00, 0x00, 0x64, 0x01, 0x00, 0x00, 0x00, 0x50, 0xa6, 0xff, 0xff, 0x38,
  0x00, 0x00, 0x00, 0x52, 0x00, 0x00, 0x00, 0x20, 0x00, 0x00, 0x00, 0x40, 0x00,
  0x00, 0x00, 0x04, 0x00, 0x00, 0x00, 0x04, 0x00, 0x00, 0x00, 0x01, 0x00, 0x00,
  0x00, 0xff, 0xff, 0xff, 0xff, 0xff, 0xff, 0xff, 0xff, 0x01, 0x00, 0x00, 0x00,
  0x09, 0x00, 0x00, 0x00, 0x4d, 0x69, 0x72, 0x72, 0x6f, 0x72, 0x50, 0x61, 0x64,
  0x00, 0x00, 0x00, 0x04, 0x00, 0x00, 0x00, 0x01, 0x00, 0x00, 0x00, 0x01, 0x00,
  0x00, 0x00, 0x01, 0x00, 0x00, 0x00, 0x01, 0x00, 0x00, 0x00, 0x34, 0xa6, 0xff,
  0xff, 0x46, 0xa7, 0xff, 0xff, 0x04, 0x00, 0x00, 0x00, 0x04, 0x00, 0x00, 0x00,
  0x14, 0x59, 0x70, 0xb8, 0xf2, 0xa6, 0xff, 0xff, 0x34, 0x00, 0x00, 0x00, 0x51,
  0x00, 0x00, 0x00, 0x08, 0x00, 0x00, 0x00, 0x30, 0x00, 0x00, 0x00, 0x1d, 0x00,
  0x00, 0x00, 0x42, 0x69, 0x61, 0x73, 0x41, 0x64, 0x64, 0x5f, 0x31, 0x39, 0x3b,
  0x43, 0x6f, 0x6e, 0x76, 0x32, 0x44, 0x5f, 0x31, 0x39, 0x3b, 0x63, 0x6f, 0x6e,
  0x76, 0x5f, 0x37, 0x5f, 0x62, 0x00, 0x00, 0x00, 0x01, 0x00, 0x00, 0x00, 0x01,
  0x00, 0x00, 0x00, 0x88, 0xa6, 0xff, 0xff, 0x9a, 0xa7, 0xff, 0xff, 0x04, 0x00,
  0x00, 0x00, 0x50, 0x00, 0x00, 0x00, 0xa4, 0xac, 0x1e, 0x3c, 0x6d, 0x4e, 0x60,
  0xbc, 0xf5, 0x36, 0x0f, 0x3c, 0xee, 0xa7, 0x7f, 0xbc, 0x12, 0x95, 0x86, 0xbd,
  0x04, 0x6e, 0x25, 0xbb, 0xe0, 0xe8, 0x94, 0xbc, 0x45, 0x30, 0xab, 0x3d, 0x67,
  0xc8, 0xcb, 0x3c, 0x86, 0xe8, 0x45, 0x3c, 0x36, 0x9e, 0xb8, 0x3c, 0x87, 0xf9,
  0x07, 0xbd, 0xb3, 0xa5, 0x90, 0x3d, 0xbc, 0x41, 0xfa, 0x3c, 0xac, 0x8e, 0x84,
  0x3c, 0x42, 0x04, 0x2f, 0xbc, 0x71, 0x5e, 0x16, 0xbc, 0x5f, 0xad, 0xeb, 0x3d,
  0x5e, 0xd6, 0xac, 0x3c, 0xde, 0x06, 0xb9, 0xba, 0x92, 0xa7, 0xff, 0xff, 0x44,
  0x00, 0x00, 0x00, 0x50, 0x00, 0x00, 0x00, 0x08, 0x00, 0x00, 0x00, 0x40, 0x00,
  0x00, 0x00, 0x2c, 0x00, 0x00, 0x00, 0x42, 0x69, 0x61, 0x73, 0x41, 0x64, 0x64,
  0x5f, 0x31, 0x38, 0x3b, 0x64, 0x65, 0x70, 0x74, 0x68, 0x77, 0x69, 0x73, 0x65,
  0x5f, 0x33, 0x39, 0x3b, 0x43, 0x6f, 0x6e, 0x76, 0x32, 0x44, 0x5f, 0x31, 0x38,
  0x3b, 0x63, 0x6f, 0x6e, 0x76, 0x5f, 0x36, 0x5f, 0x31, 0x5f, 0x62, 0x00, 0x00,
  0x00, 0x00, 0x01, 0x00, 0x00, 0x00, 0x14, 0x00, 0x00, 0x00, 0x38, 0xa7, 0xff,
  0xff, 0x4a, 0xa8, 0xff, 0xff, 0x04, 0x00, 0x00, 0x00, 0x2c, 0x00, 0x00, 0x00,
  0x33, 0xf2, 0x03, 0xbe, 0xd0, 0x9b, 0xa2, 0x3d, 0x56, 0x24, 0xe9, 0x3d, 0x71,
  0xb6, 0x1e, 0xbc, 0xa5, 0x60, 0x13, 0x3c, 0x37, 0x99, 0xc9, 0xbc, 0x7c, 0x03,
  0xab, 0xbd, 0x15, 0xe7, 0xf6, 0x3c, 0x24, 0x0b, 0x2a, 0x3d, 0x63, 0x3d, 0x59,
  0x3e, 0xfb, 0x21, 0x6c, 0x3d, 0x1e, 0xa8, 0xff, 0xff, 0x44, 0x00, 0x00, 0x00,
  0x4f, 0x00, 0x00, 0x00, 0x08, 0x00, 0x00, 0x00, 0x40, 0x00, 0x00, 0x00, 0x2c,
  0x00, 0x00, 0x00, 0x42, 0x69, 0x61, 0x73, 0x41, 0x64, 0x64, 0x5f, 0x31, 0x35,
  0x3b, 0x64, 0x65, 0x70, 0x74, 0x68, 0x77, 0x69, 0x73, 0x65, 0x5f, 0x33, 0x37,
  0x3b, 0x43, 0x6f, 0x6e, 0x76, 0x32, 0x44, 0x5f, 0x31, 0x35, 0x3b, 0x63, 0x6f,
  0x6e, 0x76, 0x5f, 0x35, 0x5f, 0x31, 0x5f, 0x62, 0x00, 0x00, 0x00, 0x00, 0x01,
  0x00, 0x00, 0x00, 0x0b, 0x00, 0x00, 0x00, 0xc4, 0xa7, 0xff, 0xff, 0xd6, 0xa8,
  0xff, 0xff, 0x04, 0x00, 0x00, 0x00, 0x18, 0x00, 0x00, 0x00, 0x59, 0xec, 0x24,
  0x3e, 0xd5, 0xc2, 0x93, 0xbd, 0xf7, 0x36, 0x12, 0xbe, 0x2e, 0x88, 0x9b, 0x3d,
  0xb8, 0x3e, 0x60, 0xbe, 0x13, 0xd0, 0x42, 0x3c, 0x96, 0xa8, 0xff, 0xff, 0x44,
  0x00, 0x00, 0x00, 0x4e, 0x00, 0x00, 0x00, 0x08, 0x00, 0x00, 0x00, 0x40, 0x00,
  0x00, 0x00, 0x2c, 0x00, 0x00, 0x00, 0x42, 0x69, 0x61, 0x73, 0x41, 0x64, 0x64,
  0x5f, 0x31, 0x32, 0x3b, 0x64, 0x65, 0x70, 0x74, 0x68, 0x77, 0x69, 0x73, 0x65,
  0x5f, 0x33, 0x31, 0x3b, 0x43, 0x6f, 0x6e, 0x76, 0x32, 0x44, 0x5f, 0x31, 0x32,
  0x3b, 0x63, 0x6f, 0x6e, 0x76, 0x5f, 0x34, 0x5f, 0x31, 0x5f, 0x62, 0x00, 0x00,
  0x00, 0x00, 0x01, 0x00, 0x00, 0x00, 0x06, 0x00, 0x00, 0x00, 0x3c, 0xa8, 0xff,
  0xff, 0x4e, 0xa9, 0xff, 0xff, 0x04, 0x00, 0x00, 0x00, 0x10, 0x00, 0x00, 0x00,
  0xe4, 0x16, 0x6f, 0x3e, 0xd6, 0xab, 0xe2, 0x3e, 0x2e, 0x60, 0xe2, 0xbd, 0x63,
  0x6a, 0xcb, 0x3e, 0x06, 0xa9, 0xff, 0xff, 0x40, 0x00, 0x00, 0x00, 0x4d, 0x00,
  0x00, 0x00, 0x08, 0x00, 0x00, 0x00, 0x3c, 0x00, 0x00, 0x00, 0x2a, 0x00, 0x00,
  0x00, 0x42, 0x69, 0x61, 0x73, 0x41, 0x64, 0x64, 0x5f, 0x39, 0x3b, 0x64, 0x65,
  0x70, 0x74, 0x68, 0x77, 0x69, 0x73, 0x65, 0x5f, 0x32, 0x35, 0x3b, 0x43, 0x6f,
  0x6e, 0x76, 0x32, 0x44, 0x5f, 0x39, 0x3b, 0x63, 0x6f, 0x6e, 0x76, 0x5f, 0x33,
  0x5f, 0x31, 0x5f, 0x62, 0x00, 0x00, 0x01, 0x00, 0x00, 0x00, 0x04, 0x00, 0x00,
  0x00, 0xa8, 0xa8, 0xff, 0xff, 0xba, 0xa9, 0xff, 0xff, 0x04, 0x00, 0x00, 0x00,
  0x18, 0x00, 0x00, 0x00, 0xa2, 0xe8, 0x05, 0x3f, 0xa1, 0x5c, 0xab, 0xbe, 0x80,
  0xb5, 0xa5, 0x3e, 0x79, 0xac, 0x37, 0x3f, 0xdc, 0x64, 0x51, 0xbe, 0x48, 0xa2,
  0xc7, 0x3e, 0x7a, 0xa9, 0xff, 0xff, 0x40, 0x00, 0x00, 0x00, 0x4c, 0x00, 0x00,
  0x00, 0x08, 0x00, 0x00, 0x00, 0x3c, 0x00, 0x00, 0x00, 0x2a, 0x00, 0x00, 0x00,
  0x42, 0x69, 0x61, 0x73, 0x41, 0x64, 0x64, 0x5f, 0x36, 0x3b, 0x64, 0x65, 0x70,
  0x74, 0x68, 0x77, 0x69, 0x73, 0x65, 0x5f, 0x33, 0x31, 0x3b, 0x43, 0x6f, 0x6e,
  0x76, 0x32, 0x44, 0x5f, 0x36, 0x3b, 0x63, 0x6f, 0x6e, 0x76, 0x5f, 0x32, 0x5f,
  0x31, 0x5f, 0x62, 0x00, 0x00, 0x01, 0x00, 0x00, 0x00, 0x06, 0x00, 0x00, 0x00,
  0x1c, 0xa9, 0xff, 0xff, 0x2e, 0xaa, 0xff, 0xff, 0x04, 0x00, 0x00, 0x00, 0x2c,
  0x00, 0x00, 0x00, 0x4a, 0xb2, 0xa1, 0xbd, 0x99, 0x7f, 0xf3, 0x3e, 0xa5, 0x6d,
  0xfd, 0x3e, 0xa6, 0xf1, 0x0c, 0xbe, 0x88, 0x89, 0x74, 0xbe, 0x16, 0x31, 0xf0,
  0x3e, 0x2c, 0x16, 0x83, 0x3d, 0x8a, 0x33, 0xc3, 0x3e, 0xf1, 0xb8, 0x1e, 0x3f,
  0x61, 0x1f, 0x2a, 0xbe, 0xb7, 0xc9, 0x8f, 0xbf, 0x02, 0xaa, 0xff, 0xff, 0x40,
  0x00, 0x00, 0x00, 0x4b, 0x00, 0x00, 0x00, 0x08, 0x00, 0x00, 0x00, 0x3c, 0x00,
  0x00, 0x00, 0x2a, 0x00, 0x00, 0x00, 0x42, 0x69, 0x61, 0x73, 0x41, 0x64, 0x64,
  0x5f, 0x33, 0x3b, 0x64, 0x65, 0x70, 0x74, 0x68, 0x77, 0x69, 0x73, 0x65, 0x5f,
  0x33, 0x37, 0x3b, 0x43, 0x6f, 0x6e, 0x76, 0x32, 0x44, 0x5f, 0x33, 0x3b, 0x63,
  0x6f, 0x6e, 0x76, 0x5f, 0x31, 0x5f, 0x31, 0x5f, 0x62, 0x00, 0x00, 0x01, 0x00,
  0x00, 0x00, 0x0b, 0x00, 0x00, 0x00, 0xa4, 0xa9, 0xff, 0xff, 0xb6, 0xaa, 0xff,
  0xff, 0x04, 0x00, 0x00, 0x00, 0x50, 0x00, 0x00, 0x00, 0xb5, 0xe8, 0x7d, 0x3f,
  0x8e, 0x36, 0x2b, 0xbf, 0x79, 0x2e, 0x88, 0xbf, 0x74, 0xb2, 0xa7, 0x3f, 0x40,
  0x42, 0x2e, 0x3f, 0x0d, 0xf9, 0x4e, 0x3f, 0x9c, 0xfa, 0x17, 0x3f, 0x47, 0x6f,
  0xb8, 0xbf, 0xd6, 0x3a, 0xbb, 0x3f, 0x0d, 0x9d, 0x5e, 0x40, 0xab, 0xe2, 0xd5,
  0xbf, 0x86, 0x03, 0xa4, 0xbf, 0x3f, 0x77, 0x8f, 0xc0, 0xa9, 0x9e, 0x14, 0x3d,
  0x2b, 0x8a, 0x89, 0xbf, 0x1b, 0xdc, 0x08, 0xbf, 0xa0, 0x91, 0x5e, 0x3e, 0x3f,
  0xfd, 0x64, 0x3e, 0x6c, 0x7e, 0x20, 0xbe, 0xe6, 0xa1, 0x4c, 0xbf, 0xae, 0xaa,
  0xff, 0xff, 0x3c, 0x00, 0x00, 0x00, 0x4a, 0x00, 0x00, 0x00, 0x08, 0x00, 0x00,
  0x00, 0x38, 0x00, 0x00, 0x00, 0x24, 0x00, 0x00, 0x00, 0x42, 0x69, 0x61, 0x73,
  0x41, 0x64, 0x64, 0x3b, 0x64, 0x65, 0x70, 0x74, 0x68, 0x77, 0x69, 0x73, 0x65,
  0x5f, 0x33, 0x39, 0x3b, 0x43, 0x6f, 0x6e, 0x76, 0x32, 0x44, 0x3b, 0x63, 0x6f,
  0x6e, 0x76, 0x5f, 0x30, 0x5f, 0x62, 0x00, 0x00, 0x00, 0x00, 0x01, 0x00, 0x00,
  0x00, 0x14, 0x00, 0x00, 0x00, 0x4c, 0xaa, 0xff, 0xff, 0x5e, 0xab, 0xff, 0xff,
  0x04, 0x00, 0x00, 0x00, 0x50, 0x00, 0x00, 0x00, 0x58, 0xb4, 0xef, 0x3c, 0x9e,
  0xc6, 0xdb, 0x3c, 0xc1, 0x23, 0x03, 0x3d, 0x29, 0xc1, 0x08, 0xbd, 0x0f, 0xfc,
  0x0b, 0x3d, 0x6f, 0x1b, 0xce, 0x3c, 0xde, 0x11, 0x0c, 0xbd, 0x06, 0xf5, 0x1e,
  0x3d, 0x10, 0xc1, 0x0c, 0x3d, 0x9e, 0x8c, 0x99, 0x3c, 0xf2, 0xff, 0xbc, 0xbc,
  0x33, 0x1f, 0xf8, 0x3c, 0x00, 0x48, 0x82, 0x3d, 0x64, 0xec, 0x40, 0x3d, 0x47,
  0xda, 0xc0, 0x3c, 0xc9, 0x95, 0xf4, 0xbc, 0x2d, 0x7e, 0xde, 0xbc, 0x4d, 0xa9,
  0xba, 0xbc, 0x6a, 0x24, 0xbc, 0x3c, 0xfc, 0xe6, 0x0a, 0xbd, 0x56, 0xab, 0xff,
  0xff, 0x20, 0x00, 0x00, 0x00, 0x49, 0x00, 0x00, 0x00, 0x08, 0x00, 0x00, 0x00,
  0x28, 0x00, 0x00, 0x00, 0x0a, 0x00, 0x00, 0x00, 0x43, 0x6f, 0x6e, 0x76, 0x32,
  0x44, 0x5f, 0x31, 0x39, 0x31, 0x00, 0x00, 0x04, 0x00, 0x00, 0x00, 0x01, 0x00,
  0x00, 0x00, 0x01, 0x00, 0x00, 0x00, 0x01, 0x00, 0x00, 0x00, 0x14, 0x00, 0x00,
  0x00, 0xe4, 0xaa, 0xff, 0xff, 0xf6, 0xab, 0xff, 0xff, 0x04, 0x00, 0x00, 0x00,
  0x04, 0x00, 0x00, 0x00, 0x00, 0x00, 0x00, 0x00, 0xa2, 0xab, 0xff, 0xff, 0x20,
  0x00, 0x00, 0x00, 0x48, 0x00, 0x00, 0x00, 0x08, 0x00, 0x00, 0x00, 0x1c, 0x00,
  0x00, 0x00, 0x09, 0x00, 0x00, 0x00, 0x43, 0x6f, 0x6e, 0x76, 0x32, 0x44, 0x5f,
  0x31, 0x39, 0x00, 0x00, 0x00, 0x01, 0x00, 0x00, 0x00, 0x01, 0x00, 0x00, 0x00,
  0x24, 0xab, 0xff, 0xff, 0x36, 0xac, 0xff, 0xff, 0x04, 0x00, 0x00, 0x00, 0x30,
  0x02, 0x00, 0x00, 0xf4, 0xdc, 0x78, 0xbd, 0x36, 0x0c, 0x95, 0xbc, 0x02, 0xb5,
  0x28, 0x3d, 0xb6, 0xaf, 0x47, 0x3b, 0xc9, 0x9c, 0x44, 0xbd, 0xff, 0x88, 0xd9,
  0xbc, 0x94, 0xe2, 0xdd, 0xbc, 0x1a, 0x5f, 0xe9, 0x3b, 0xe3, 0xcf, 0xf1, 0x3d,
  0x04, 0x77, 0xab, 0xbc, 0x7d, 0x92, 0xcb, 0x3c, 0xe0, 0x51, 0x15, 0x3d, 0x50,
  0x33, 0x1b, 0xbd, 0xce, 0xd0, 0x75, 0xbd, 0xb1, 0x90, 0xe9, 0xbd, 0x8b, 0xe8,
  0xa1, 0x3c, 0xa2, 0xf7, 0x0d, 0x3c, 0x59, 0xd5, 0x18, 0x3e, 0xaf, 0x6a, 0x8f,
  0xbd, 0x4b, 0xab, 0x03, 0x3c, 0xbf, 0x4e, 0x19, 0xbe, 0xdf, 0x05, 0xe5, 0xbc,
  0xc0, 0x8d, 0xa6, 0x3d, 0xbc, 0x4d, 0x66, 0x3d, 0xa8, 0x4b, 0xea, 0xbd, 0x8a,
  0x12, 0xa2, 0x3e, 0x3d, 0x10, 0xe2, 0xba, 0x35, 0x20, 0xa1, 0x3d, 0x5f, 0x7f,
  0x0f, 0xbd, 0x75, 0x83, 0x53, 0x3e, 0x33, 0xff, 0xad, 0xbe, 0xa2, 0xfd, 0x82,
  0xbe, 0x74, 0x98, 0x1b, 0x3d, 0x72, 0x6e, 0x8a, 0xbd, 0x13, 0x01, 0x4a, 0xbe,
  0x79, 0xf0, 0x4b, 0xbd, 0x5a, 0x0f, 0x73, 0xbe, 0x7d, 0xc0, 0x6c, 0xbe, 0x02,
  0x52, 0x17, 0x3e, 0x87, 0x0f, 0xe9, 0x3d, 0x4b, 0x73, 0x71, 0xbe, 0x34, 0x1d,
  0x9e, 0x3d, 0x0c, 0x22, 0xe6, 0xbe, 0x95, 0x9b, 0x71, 0x3e, 0x45, 0x17, 0xc8,
  0xbd, 0x1c, 0xe6, 0x59, 0x3e, 0x5d, 0x4c, 0xdb, 0x3d, 0x38, 0x13, 0xbb, 0xbe,
  0xb8, 0xfa, 0x93, 0x3d, 0x44, 0xe3, 0xcc, 0xbe, 0xb4, 0x82, 0x89, 0x3e, 0x60,
  0x1b, 0x9e, 0x3c, 0x61, 0xac, 0x50, 0xbe, 0x2a, 0x42, 0x16, 0xbe, 0xaf, 0xd7,
  0x64, 0xbe, 0x0c, 0xef, 0x26, 0xbe, 0x7d, 0x09, 0xed, 0x3e, 0xc0, 0xba, 0x80,
  0xbe, 0xf0, 0x91, 0x10, 0xbe, 0x19, 0xd9, 0x0a, 0xbd, 0xc5, 0xd4, 0xce, 0x3d,
  0x08, 0xbb, 0x5d, 0x3e, 0x55, 0x72, 0x95, 0x3e, 0x11, 0x5b, 0x86, 0x3e, 0x74,
  0x3b, 0x15, 0xbe, 0x69, 0x63, 0x1b, 0x3e, 0x30, 0x36, 0x9b, 0xbc, 0x32, 0x10,
  0xeb, 0x3e, 0x20, 0x1a, 0x16, 0xbf, 0x02, 0xb0, 0x00, 0x3e, 0x14, 0x3a, 0x01,
  0xbd, 0x86, 0xc2, 0x95, 0x3e, 0xd4, 0x0a, 0x7d, 0xbe, 0x03, 0xea, 0x53, 0xbe,
  0xdc, 0x56, 0xac, 0x3e, 0xbe, 0x51, 0x93, 0xbe, 0x6e, 0x01, 0x11, 0x3d, 0xf5,
  0xb2, 0x81, 0x3e, 0xc4, 0x2a, 0xef, 0x3c, 0xf7, 0xce, 0xf2, 0x3e, 0xc7, 0xb8,
  0x54, 0x3d, 0x77, 0xad, 0xb2, 0x3e, 0x65, 0x4a, 0x85, 0x3d, 0x07, 0x33, 0xef,
  0x3d, 0xfb, 0x8a, 0x0f, 0x3d, 0x2e, 0x1a, 0x5e, 0x3e, 0x5c, 0x1b, 0x64, 0xbe,
  0x9c, 0xce, 0x8b, 0xbe, 0xcf, 0xd4, 0x34, 0x3e, 0xc6, 0x1a, 0xb8, 0x3e, 0xf2,
  0xfb, 0xb5, 0x3d, 0x1a, 0xec, 0x8b, 0x3e, 0x52, 0x38, 0xb5, 0x3c, 0x0b, 0xbf,
  0x9c, 0xbc, 0x35, 0xd9, 0x8b, 0x3d, 0x68, 0xc1, 0xb5, 0x3e, 0xec, 0x07, 0xbe,
  0x3c, 0xc1, 0x9f, 0xe9, 0x3d, 0x0a, 0x3b, 0xb1, 0xbe, 0xe2, 0x06, 0x3a, 0xbe,
  0xbc, 0x15, 0x9e, 0x3e, 0x33, 0x4c, 0xe0, 0x3d, 0x73, 0x79, 0x8d, 0x3d, 0x10,
  0x8e, 0x9a, 0x3c, 0x01, 0xc2, 0x0e, 0xbe, 0x51, 0xd0, 0x66, 0xbe, 0x5b, 0x11,
  0xc9, 0x3e, 0xa3, 0xde, 0x3e, 0x3c, 0xcd, 0x3c, 0xbe, 0x3d, 0x79, 0xec, 0x9d,
  0xbe, 0xa9, 0x1d, 0x72, 0xbe, 0xb2, 0x04, 0x8b, 0xbd, 0xf4, 0xfe, 0xd7, 0xbd,
  0xea, 0x51, 0xa5, 0xbd, 0x79, 0x69, 0x0f, 0xbd, 0xa3, 0x93, 0x07, 0xbc, 0x03,
  0xfa, 0x7e, 0xbe, 0xde, 0xbe, 0xb2, 0xbd, 0x88, 0xe1, 0x2d, 0x3e, 0x50, 0x1d,
  0x9f, 0xbe, 0x1f, 0x5e, 0x16, 0x3d, 0x25, 0x21, 0x84, 0xbd, 0xcc, 0xcd, 0x96,
  0xbd, 0x5d, 0xb7, 0x25, 0x3d, 0xc8, 0x51, 0xcc, 0xbd, 0x4d, 0xad, 0xd9, 0x3d,
  0x67, 0x3c, 0x6c, 0xbe, 0x5a, 0xd3, 0x94, 0x3d, 0x0d, 0x9a, 0x09, 0xbd, 0x80,
  0xd5, 0x78, 0x3d, 0x59, 0x4f, 0xc7, 0x3d, 0xe7, 0x94, 0x95, 0xbd, 0xc5, 0xe4,
  0x9f, 0xbd, 0x57, 0x44, 0xa0, 0xbd, 0x16, 0xc2, 0x51, 0x3d, 0x2a, 0x65, 0x0a,
  0x3e, 0xf9, 0x70, 0xc0, 0x3d, 0x66, 0xb1, 0xa1, 0xbd, 0xee, 0x53, 0x6d, 0x3e,
  0xa9, 0xb8, 0x04, 0xbe, 0x0e, 0xae, 0xff, 0xff, 0x24, 0x00, 0x00, 0x00, 0x47,
  0x00, 0x00, 0x00, 0x08, 0x00, 0x00, 0x00, 0x2c, 0x00, 0x00, 0x00, 0x0d, 0x00,
  0x00, 0x00, 0x64, 0x65, 0x70, 0x74, 0x68, 0x77, 0x69, 0x73, 0x65, 0x5f, 0x33,
  0x39, 0x31, 0x00, 0x00, 0x00, 0x04, 0x00, 0x00, 0x00, 0x01, 0x00, 0x00, 0x00,
  0x01, 0x00, 0x00, 0x00, 0x07, 0x00, 0x00, 0x00, 0x14, 0x00, 0x00, 0x00, 0xa0,
  0xad, 0xff, 0xff, 0xb2, 0xae, 0xff, 0xff, 0x04, 0x00, 0x00, 0x00, 0x50, 0x00,
  0x00, 0x00, 0x00, 0x00, 0x00, 0x00, 0x00, 0x00, 0x00, 0x00, 0x00, 0x00, 0x00,
  0x00, 0x00, 0x00, 0x00, 0x00, 0x00, 0x00, 0x00, 0x00, 0x00, 0x00, 0x00, 0x00,
  0x00, 0x00, 0x00, 0x00, 0x00, 0x00, 0x00, 0x00, 0x00, 0x00, 0x00, 0x00, 0x00,
  0x00, 0x00, 0x00, 0x00, 0x00, 0x00, 0x00, 0x00, 0x00, 0x00, 0x00, 0x00, 0x00,
  0x00, 0x00, 0x00, 0x00, 0x00, 0x00, 0x00, 0x00, 0x00, 0x00, 0x00, 0x00, 0x00,
  0x00, 0x00, 0x00, 0x00, 0x00, 0x00, 0x00, 0x00, 0x00, 0x00, 0x00, 0x00, 0x00,
  0x00, 0x00, 0x00, 0x00, 0xaa, 0xae, 0xff, 0xff, 0x24, 0x00, 0x00, 0x00, 0x46,
  0x00, 0x00, 0x00, 0x08, 0x00, 0x00, 0x00, 0x20, 0x00, 0x00, 0x00, 0x0c, 0x00,
  0x00, 0x00, 0x64, 0x65, 0x70, 0x74, 0x68, 0x77, 0x69, 0x73, 0x65, 0x5f, 0x33,
  0x39, 0x00, 0x00, 0x00, 0x00, 0x01, 0x00, 0x00, 0x00, 0x14, 0x00, 0x00, 0x00,
  0x30, 0xae, 0xff, 0xff, 0x42, 0xaf, 0xff, 0xff, 0x04, 0x00, 0x00, 0x00, 0x30,
  0x02, 0x00, 0x00, 0x93, 0xab, 0x19, 0x3e, 0xf6, 0xef, 0x67, 0xbe, 0x5c, 0x28,
  0xa7, 0xbd, 0x5d, 0xde, 0x5d, 0x3c, 0x9f, 0x1b, 0x09, 0xbe, 0x35, 0xc5, 0x1a,
  0xbe, 0x8c, 0x3c, 0x82, 0x3d, 0x43, 0x21, 0x01, 0x3d, 0x56, 0x78, 0x7e, 0xbb,
  0x2f, 0x20, 0x47, 0x3e, 0x7b, 0x66, 0x09, 0x3e, 0x6e, 0xee, 0x0c, 0xbe, 0xd8,
  0x98, 0x74, 0x3d, 0x29, 0x6d, 0x08, 0x3d, 0xdf, 0x26, 0xdd, 0x3c, 0x2f, 0x5d,
  0xb2, 0xba, 0xdd, 0x39, 0x7f, 0x3e, 0x58, 0x57, 0x07, 0x3e, 0xc3, 0xfd, 0x62,
  0x3d, 0xb7, 0x27, 0x8c, 0x3c, 0xa3, 0x2e, 0x47, 0xbe, 0x4c, 0x8a, 0x76, 0x3e,
  0xea, 0x11, 0xe4, 0xbd, 0x8a, 0x72, 0x42, 0xbe, 0x42, 0x3a, 0x63, 0x3e, 0xb9,
  0x15, 0x4d, 0xbe, 0x44, 0x6c, 0x15, 0x3e, 0x1c, 0x63, 0x1c, 0x3e, 0x67, 0x38,
  0xa7, 0xbd, 0xb5, 0xae, 0x91, 0x3e, 0x87, 0x15, 0xa1, 0x3e, 0xa6, 0x09, 0x40,
  0xbb, 0x30, 0x9d, 0x63, 0xbe, 0x85, 0x56, 0x0a, 0xbe, 0xa9, 0x60, 0xf4, 0xbd,
  0x7d, 0x1d, 0x27, 0x3e, 0x3e, 0x71, 0x85, 0xbc, 0xbc, 0x0d, 0x1b, 0x3e, 0xfd,
  0x96, 0x47, 0xbe, 0x13, 0x13, 0x91, 0x3d, 0xf6, 0x89, 0x87, 0xbe, 0xe5, 0x3b,
  0xa8, 0xbd, 0xab, 0x33, 0x1a, 0xbd, 0xfe, 0xb8, 0x25, 0x3e, 0x21, 0x9a, 0x26,
  0xbe, 0xb9, 0xa0, 0xc0, 0x3d, 0x74, 0x78, 0x60, 0x3e, 0x7d, 0x3f, 0x8d, 0x3e,
  0x3e, 0x4a, 0x0a, 0xbe, 0xde, 0x46, 0xe2, 0x3d, 0x10, 0x97, 0xb4, 0x3e, 0x49,
  0x41, 0xd0, 0x3e, 0x0b, 0x60, 0x12, 0xbd, 0xf5, 0x01, 0xa2, 0x3e, 0xea, 0x2c,
  0x62, 0xbd, 0xcb, 0xe5, 0xd6, 0xbb, 0xfa, 0x3e, 0x91, 0xbe, 0xaa, 0x72, 0x3e,
  0xbe, 0x01, 0xe9, 0x83, 0x3d, 0x3d, 0x88, 0xb3, 0x3d, 0x31, 0x7f, 0x0c, 0x3e,
  0xaa, 0x6e, 0x00, 0x3e, 0xac, 0x92, 0x1c, 0xbd, 0x7e, 0x6b, 0xa5, 0xbe, 0xb8,
  0x53, 0x6a, 0xbd, 0x21, 0x13, 0x53, 0x3e, 0xe8, 0xd7, 0xb3, 0x3e, 0x10, 0xcc,
  0x1e, 0x3e, 0x68, 0x3a, 0x84, 0x3c, 0x2d, 0xdf, 0x66, 0xbe, 0x58, 0x34, 0xb7,
  0x3d, 0xbb, 0x9f, 0x65, 0x3d, 0xf7, 0x1d, 0xc2, 0x3e, 0x2c, 0x33, 0xf9, 0xbd,
  0x98, 0xfc, 0xae, 0x3e, 0x95, 0x57, 0x6e, 0xbe, 0xcb, 0xe7, 0x4e, 0x3d, 0x10,
  0x6a, 0xe4, 0x3d, 0x23, 0x9d, 0x38, 0x3e, 0x29, 0x1c, 0x0e, 0xbf, 0xe7, 0x25,
  0x03, 0xbe, 0xc4, 0x6a, 0x59, 0xbe, 0xd8, 0x52, 0xd2, 0xbe, 0xce, 0x94, 0xb3,
  0xbd, 0xd5, 0xf2, 0x6e, 0xbe, 0x49, 0xf7, 0x55, 0x3e, 0x6c, 0x36, 0x71, 0x3e,
  0xd5, 0x71, 0xc2, 0x3d, 0xa1, 0x13, 0xb0, 0x3e, 0x1e, 0x86, 0x40, 0xbe, 0xff,
  0x57, 0xb5, 0xbd, 0x37, 0xf0, 0x24, 0xbe, 0x4b, 0x96, 0x7f, 0xbe, 0xf1, 0xc8,
  0x65, 0x3e, 0x1f, 0x7a, 0x9f, 0xbe, 0x79, 0xcf, 0xdd, 0x3e, 0xc2, 0xef, 0xb9,
  0xbd, 0x5d, 0x49, 0x5e, 0x3e, 0x06, 0x30, 0x10, 0x3e, 0xc1, 0xdb, 0x99, 0x3d,
  0x28, 0x0a, 0x8a, 0x3d, 0xd6, 0x6f, 0x73, 0xbc, 0x4e, 0x31, 0x12, 0xbe, 0x45,
  0x73, 0xb9, 0x3d, 0xbc, 0xe0, 0xc2, 0x3e, 0xe1, 0xb6, 0x1b, 0xbe, 0xa3, 0x8c,
  0xcf, 0x3d, 0xc6, 0xbe, 0x48, 0xbc, 0x69, 0x53, 0x84, 0xbd, 0xa4, 0xa8, 0x06,
  0xbe, 0xea, 0xfa, 0xb2, 0x3c, 0x22, 0xe4, 0x95, 0xbe, 0x91, 0x23, 0xd9, 0x3d,
  0x93, 0x29, 0x83, 0x3d, 0x0b, 0x67, 0x5b, 0x3e, 0x03, 0xdb, 0xb4, 0xbc, 0xf3,
  0x77, 0xa5, 0x3c, 0x50, 0x88, 0xa5, 0xbd, 0xbb, 0x68, 0x81, 0xbe, 0xc6, 0x57,
  0xae, 0xbc, 0x9a, 0x43, 0x9c, 0xbd, 0xdd, 0x6e, 0x5b, 0x3e, 0x17, 0x91, 0xcb,
  0xbc, 0xdd, 0xa1, 0x4d, 0x3e, 0x5c, 0xd1, 0x21, 0xbe, 0xf6, 0x65, 0xab, 0x3c,
  0xac, 0x10, 0x8c, 0x3d, 0x0e, 0xdb, 0xcf, 0xbc, 0x08, 0x27, 0xde, 0x3d, 0xb9,
  0xd6, 0x82, 0xbd, 0x78, 0xc9, 0x94, 0x3e, 0xbe, 0x9e, 0x83, 0x3d, 0x67, 0x04,
  0x14, 0xbd, 0x63, 0xbe, 0x69, 0xbe, 0xa0, 0xf9, 0xb7, 0x3c, 0xe2, 0xd4, 0x0a,
  0x3d, 0x6e, 0x61, 0x64, 0x3e, 0xef, 0x2b, 0x2a, 0xbe, 0x9c, 0xd1, 0x17, 0x3e,
  0x45, 0x43, 0xee, 0x3b, 0x1a, 0xb1, 0xff, 0xff, 0x24, 0x00, 0x00, 0x00, 0x45,
  0x00, 0x00, 0x00, 0x08, 0x00, 0x00, 0x00, 0x2c, 0x00, 0x00, 0x00, 0x0c, 0x00,
  0x00, 0x00, 0x64, 0x65, 0x70, 0x74, 0x68, 0x77, 0x69, 0x73, 0x65, 0x5f, 0x33,
  0x38, 0x00, 0x00, 0x00, 0x00, 0x04, 0x00, 0x00, 0x00, 0x01, 0x00, 0x00, 0x00,
  0x07, 0x00, 0x00, 0x00, 0x01, 0x00, 0x00, 0x00, 0x14, 0x00, 0x00, 0x00, 0xac,
  0xb0, 0xff, 0xff, 0xbe, 0xb1, 0xff, 0xff, 0x04, 0x00, 0x00, 0x00, 0x70, 0x03,
  0x00, 0x00, 0x24, 0x28, 0x3a, 0xbe, 0x1f, 0xad, 0x38, 0xbf, 0x7d, 0x73, 0xd4,
  0xbe, 0xa0, 0x52, 0x03, 0x3f, 0x47, 0xbc, 0x88, 0xbe, 0xaf, 0x69, 0x53, 0xbe,
  0x95, 0x0e, 0xc0, 0xbc, 0x9f, 0x0a, 0xcc, 0x3d, 0xd1, 0x27, 0x8b, 0x3e, 0xfc,
  0x3e, 0x6c, 0xbf, 0x33, 0x8c, 0x2e, 0xbe, 0xba, 0x94, 0x84, 0xbe, 0xe9, 0xae,
  0x19, 0xbf, 0xd5, 0x24, 0x61, 0xbf, 0x7b, 0x22, 0xc8, 0x3e, 0xe0, 0xfb, 0x36,
  0x3e, 0x18, 0x58, 0xac, 0x3e, 0x46, 0xdd, 0xaa, 0x3e, 0x81, 0x30, 0x84, 0xbe,
  0x50, 0xbe, 0x83, 0x3e, 0xa9, 0x12, 0xa3, 0x3e, 0x8e, 0x84, 0x92, 0x3d, 0x13,
  0xe8, 0xab, 0x3e, 0x0a, 0x7c, 0x14, 0xbd, 0x4c, 0x73, 0x0a, 0xbe, 0x8f, 0xa6,
  0xc0, 0xbe, 0x39, 0xaf, 0x05, 0x3f, 0x56, 0x20, 0x32, 0x3e, 0x82, 0x55, 0x22,
  0xbf, 0x46, 0x4f, 0x85, 0x3d, 0x1f, 0x46, 0x02, 0x3e, 0x91, 0x88, 0x0d, 0xbe,
  0x59, 0x6d, 0xdb, 0x3e, 0x15, 0x7a, 0x9c, 0x3e, 0x43, 0x86, 0x15, 0x3e, 0x51,
  0x82, 0x14, 0xbf, 0xdd, 0x88, 0x38, 0xbf, 0xb0, 0x99, 0x97, 0x3d, 0x8d, 0xfb,
  0x25, 0xbf, 0xfd, 0x80, 0xb5, 0xbe, 0x7a, 0x1c, 0x1e, 0xbf, 0xa0, 0x3e, 0xc3,
  0xbd, 0x44, 0x05, 0xb9, 0xbd, 0x19, 0xcd, 0xff, 0x3d, 0x57, 0xff, 0x71, 0xbe,
  0x56, 0x0b, 0xa2, 0x3d, 0x98, 0x58, 0x11, 0xbf, 0x73, 0xa8, 0xc6, 0x3c, 0x66,
  0xad, 0x91, 0xbe, 0xb7, 0xbe, 0xbe, 0x3e, 0x32, 0x9e, 0x17, 0xbf, 0xf3, 0x02,
  0x74, 0xbd, 0x76, 0x23, 0x18, 0x3f, 0x90, 0xc0, 0x40, 0xbe, 0xef, 0x2e, 0xb6,
  0xbc, 0xf8, 0x12, 0x91, 0xbd, 0xf7, 0x53, 0x44, 0xbe, 0xb0, 0x9b, 0xa6, 0xbf,
  0xde, 0x71, 0xd1, 0xbe, 0x3b, 0x3f, 0x18, 0xbf, 0x37, 0xd9, 0x5d, 0xbe, 0xbc,
  0x22, 0x05, 0x3d, 0x75, 0x54, 0x0b, 0x3e, 0x56, 0xb1, 0x79, 0xbd, 0x51, 0x9c,
  0x07, 0x3f, 0x78, 0x4f, 0x80, 0xbe, 0x84, 0x8a, 0x5f, 0x3d, 0x89, 0x41, 0x46,
  0xbd, 0x26, 0xa1, 0x86, 0x3d, 0x5d, 0xf8, 0x34, 0xbe, 0x0f, 0xba, 0x09, 0x3f,
  0x28, 0x38, 0x63, 0xbe, 0xb8, 0x0a, 0xea, 0x3e, 0xf6, 0x76, 0x8b, 0x3e, 0x81,
  0xfe, 0x09, 0x3e, 0xe3, 0x67, 0x26, 0xbc, 0x38, 0xc2, 0x58, 0x3e, 0x0d, 0x22,
  0x08, 0x3f, 0x09, 0x3f, 0x6e, 0x3f, 0xb2, 0x54, 0x54, 0x3f, 0xf4, 0xc8, 0x2a,
  0x3e, 0x57, 0xe5, 0xff, 0x3e, 0x03, 0xac, 0x54, 0x3e, 0x2c, 0xac, 0x8c, 0xbe,
  0x05, 0xd3, 0x95, 0xbd, 0x47, 0x42, 0x4f, 0xbe, 0x19, 0x0d, 0xbf, 0xbd, 0xc5,
  0x21, 0xa0, 0x3d, 0x34, 0xdc, 0xcb, 0x38, 0x77, 0xda, 0xc7, 0xbe, 0x91, 0xf3,
  0x0d, 0x3e, 0x8a, 0x15, 0xe3, 0x3e, 0xd6, 0x3c, 0x37, 0x3e, 0x9a, 0x57, 0x51,
  0x3f, 0x5f, 0x71, 0xae, 0x3e, 0xc7, 0xc9, 0xc2, 0x3d, 0x7d, 0xd1, 0x8e, 0xbd,
  0xbf, 0xcb, 0x26, 0xbd, 0xb5, 0x96, 0x3c, 0x3f, 0x3d, 0xcc, 0x9b, 0xbe, 0xfe,
  0xe2, 0x4e, 0xbe, 0xaa, 0xf3, 0xa9, 0xbe, 0xad, 0xab, 0xda, 0xbe, 0xf7, 0xb7,
  0x8d, 0xbe, 0x27, 0x4a, 0xc6, 0xbd, 0x11, 0x39, 0x95, 0x3d, 0x97, 0x87, 0x6a,
  0x3d, 0x9e, 0x19, 0x1c, 0x3e, 0x30, 0x38, 0x6e, 0xbe, 0x20, 0x7b, 0xc5, 0xbe,
  0xa2, 0xbb, 0x31, 0xbb, 0xcb, 0x1f, 0x08, 0xbe, 0x0a, 0x99, 0x83, 0x3e, 0x6a,
  0x58, 0xd5, 0xbe, 0xe6, 0x19, 0x25, 0xbe, 0x66, 0xe7, 0x6a, 0xbe, 0xe1, 0x11,
  0xb9, 0xbe, 0x6d, 0xde, 0x11, 0xbf, 0x37, 0x97, 0xda, 0xbe, 0x12, 0x1d, 0x04,
  0x3f, 0xb8, 0x4b, 0x33, 0x3f, 0x1c, 0xe9, 0x87, 0xbe, 0xcb, 0xc6, 0x38, 0x3e,
  0xc2, 0x2f, 0xaa, 0x3e, 0xd1, 0xcf, 0x29, 0x3e, 0xec, 0x54, 0x16, 0xbf, 0xe1,
  0x6e, 0x2c, 0xbd, 0x89, 0x9c, 0xb2, 0x3e, 0x59, 0x62, 0x81, 0xbc, 0x60, 0x40,
  0x92, 0x3e, 0xe7, 0xa5, 0x6e, 0x3e, 0xbb, 0x28, 0xa8, 0xbc, 0xf4, 0x51, 0x58,
  0xbe, 0x4c, 0x88, 0x0c, 0x3d, 0x06, 0x1c, 0xd8, 0xbd, 0x80, 0xcd, 0xd6, 0xbe,
  0xa2, 0xd4, 0x74, 0x3b, 0x02, 0x34, 0xb2, 0xbe, 0xa0, 0xa2, 0x0d, 0x3f, 0xba,
  0x6f, 0x41, 0x3f, 0x40, 0x46, 0xf9, 0xbe, 0x4b, 0x5e, 0xce, 0x3e, 0xa6, 0x0d,
  0xdc, 0x3d, 0xd3, 0x15, 0xd7, 0x3e, 0x2d, 0x37, 0x36, 0x3f, 0x92, 0x6d, 0xca,
  0x3e, 0x86, 0xe8, 0x9c, 0x3d, 0x38, 0xcb, 0x89, 0x3e, 0x55, 0xd9, 0x70, 0xbe,
  0x0a, 0x4f, 0x40, 0xbf, 0x85, 0xec, 0x8e, 0xbe, 0x04, 0xcc, 0x0d, 0xbf, 0xeb,
  0xaf, 0xd2, 0x3d, 0x1d, 0x77, 0x46, 0xbf, 0xe3, 0x77, 0x92, 0x3d, 0x04, 0x67,
  0x1a, 0x3f, 0x95, 0x73, 0x5f, 0xbf, 0x9f, 0x51, 0x03, 0x3e, 0xf8, 0x40, 0x7b,
  0x3e, 0x38, 0x76, 0x12, 0xbf, 0x12, 0x81, 0x5b, 0xbd, 0x46, 0xc6, 0x29, 0xbd,
  0x46, 0x62, 0xf3, 0xbe, 0xd7, 0x65, 0x3b, 0x3f, 0xfc, 0x84, 0xf8, 0x3c, 0x0e,
  0x87, 0x2c, 0xbf, 0x93, 0xdc, 0xbb, 0x3d, 0xfb, 0x0a, 0x56, 0xbe, 0xf1, 0x43,
  0x2e, 0xbf, 0xf8, 0x35, 0x19, 0x3a, 0x66, 0xac, 0xe6, 0x3e, 0x56, 0xbf, 0xb3,
  0x3d, 0xe2, 0x34, 0x25, 0x3e, 0xc7, 0xcf, 0x12, 0x3f, 0xc0, 0x69, 0x21, 0x3e,
  0x5d, 0x3b, 0xb6, 0xbd, 0x97, 0x60, 0x15, 0x3f, 0xea, 0x27, 0xa8, 0xbc, 0x37,
  0xbf, 0x9a, 0x3e, 0x4b, 0x41, 0xed, 0x3e, 0xea, 0xa9, 0x7d, 0x3a, 0xec, 0x50,
  0xfe, 0x3e, 0x03, 0xd1, 0xed, 0x3d, 0xc0, 0xf0, 0x39, 0x3f, 0x70, 0x70, 0xfc,
  0x3c, 0x3a, 0x7f, 0x97, 0xbe, 0xb2, 0x62, 0xbc, 0xbe, 0x39, 0x5e, 0x11, 0xbe,
  0x9b, 0x51, 0x5d, 0xbe, 0x1c, 0x80, 0x61, 0xbf, 0x90, 0x87, 0x97, 0x3d, 0x58,
  0x96, 0xde, 0xbd, 0xd7, 0x87, 0xcd, 0xbd, 0xfa, 0xa6, 0x9d, 0x3d, 0x27, 0x07,
  0x83, 0x3e, 0xb6, 0x1e, 0xb1, 0x3e, 0xd1, 0x60, 0xe1, 0xbe, 0x7c, 0xea, 0xad,
  0x3c, 0x96, 0x5f, 0x99, 0xbe, 0x22, 0xac, 0xa4, 0x3e, 0x62, 0x69, 0x9d, 0x3e,
  0x6f, 0x3d, 0xfa, 0x3e, 0x20, 0x13, 0xa3, 0x3e, 0xba, 0xb6, 0x1b, 0xbe, 0xbc,
  0x95, 0xa9, 0x3f, 0xfd, 0x19, 0x31, 0x3e, 0x25, 0x85, 0x49, 0x3f, 0xdc, 0x06,
  0xc3, 0xbe, 0xaf, 0x76, 0xc1, 0x3e, 0x6e, 0x50, 0x03, 0xbe, 0x16, 0x68, 0x78,
  0x3f, 0x5a, 0xa7, 0x25, 0xbf, 0x0c, 0xb8, 0x02, 0xbe, 0x71, 0xde, 0x83, 0xbd,
  0x19, 0xf6, 0x0f, 0x3e, 0x6f, 0xb6, 0xb7, 0x3d, 0x44, 0xc3, 0x1f, 0xbf, 0xd7,
  0xb1, 0x0c, 0xbf, 0x20, 0xd8, 0x5d, 0xbd, 0x17, 0x61, 0x28, 0x3f, 0xd6, 0xb4,
  0xff, 0xff, 0x20, 0x00, 0x00, 0x00, 0x44, 0x00, 0x00, 0x00, 0x08, 0x00, 0x00,
  0x00, 0x28, 0x00, 0x00, 0x00, 0x09, 0x00, 0x00, 0x00, 0x43, 0x6f, 0x6e, 0x76,
  0x32, 0x44, 0x5f, 0x31, 0x38, 0x00, 0x00, 0x00, 0x04, 0x00, 0x00, 0x00, 0x14,
