const unsigned char sr5by4_2_tflite[] = {
  0x1c, 0x00, 0x00, 0x00, 0x54, 0x46, 0x4c, 0x33, 0x14, 0x00, 0x20, 0x00, 0x04,
  0x00, 0x08, 0x00, 0x0c, 0x00, 0x10, 0x00, 0x14, 0x00, 0x00, 0x00, 0x18, 0x00,
  0x1c, 0x00, 0x14, 0x00, 0x00, 0x00, 0x03, 0x00, 0x00, 0x00, 0x88, 0x02, 0x00,
  0x00, 0x7c, 0x02, 0x00, 0x00, 0x6c, 0x03, 0x00, 0x00, 0x0c, 0x00, 0x00, 0x00,
  0x14, 0x03, 0x00, 0x00, 0x88, 0x02, 0x00, 0x00, 0x99, 0x00, 0x00, 0x00, 0x0c,
  0x9a, 0x00, 0x00, 0x08, 0x9a, 0x00, 0x00, 0xec, 0x98, 0x00, 0x00, 0x64, 0x98,
  0x00, 0x00, 0xf8, 0x97, 0x00, 0x00, 0x94, 0x97, 0x00, 0x00, 0x28, 0x97, 0x00,
  0x00, 0xac, 0x96, 0x00, 0x00, 0x38, 0x96, 0x00, 0x00, 0xd0, 0x95, 0x00, 0x00,
  0x68, 0x95, 0x00, 0x00, 0xdc, 0x94, 0x00, 0x00, 0x3c, 0x93, 0x00, 0x00, 0x9c,
  0x91, 0x00, 0x00, 0x54, 0x8d, 0x00, 0x00, 0xdc, 0x8b, 0x00, 0x00, 0x64, 0x8a,
  0x00, 0x00, 0x84, 0x87, 0x00, 0x00, 0xe4, 0x85, 0x00, 0x00, 0x44, 0x84, 0x00,
  0x00, 0x0c, 0x81, 0x00, 0x00, 0xe4, 0x7f, 0x00, 0x00, 0xbc, 0x7e, 0x00, 0x00,
  0x8c, 0x7c, 0x00, 0x00, 0x60, 0x7b, 0x00, 0x00, 0x34, 0x7a, 0x00, 0x00, 0x88,
  0x78, 0x00, 0x00, 0x5c, 0x77, 0x00, 0x00, 0x30, 0x76, 0x00, 0x00, 0x84, 0x74,
  0x00, 0x00, 0x94, 0x73, 0x00, 0x00, 0xa4, 0x72, 0x00, 0x00, 0x38, 0x71, 0x00,
  0x00, 0x34, 0x70, 0x00, 0x00, 0xcc, 0x6f, 0x00, 0x00, 0xc8, 0x6e, 0x00, 0x00,
  0x80, 0x6d, 0x00, 0x00, 0x90, 0x6c, 0x00, 0x00, 0xa0, 0x6b, 0x00, 0x00, 0x74,
  0x6a, 0x00, 0x00, 0x98, 0x69, 0x00, 0x00, 0xbc, 0x68, 0x00, 0x00, 0x3c, 0x67,
  0x00, 0x00, 0x10, 0x66, 0x00, 0x00, 0xe4, 0x64, 0x00, 0x00, 0x38, 0x63, 0x00,
  0x00, 0x5c, 0x62, 0x00, 0x00, 0xfc, 0x61, 0x00, 0x00, 0x20, 0x61, 0x00, 0x00,
  0xf4, 0x5f, 0x00, 0x00, 0x04, 0x5f, 0x00, 0x00, 0x14, 0x5e, 0x00, 0x00, 0xe8,
  0x5b, 0x00, 0x00, 0x6c, 0x5a, 0x00, 0x00, 0xec, 0x59, 0x00, 0x00, 0x70, 0x58,
  0x00, 0x00, 0x90, 0x55, 0x00, 0x00, 0xa0, 0x54, 0x00, 0x00, 0x3c, 0x54, 0x00,
  0x00, 0x4c, 0x53, 0x00, 0x00, 0xa0, 0x51, 0x00, 0x00, 0x74, 0x50, 0x00, 0x00,
  0x48, 0x4f, 0x00, 0x00, 0x08, 0x4b, 0x00, 0x00, 0xec, 0x48, 0x00, 0x00, 0x4c,
  0x48, 0x00, 0x00, 0x30, 0x46, 0x00, 0x00, 0xc8, 0x3f, 0x00, 0x00, 0x9c, 0x3e,
  0x00, 0x00, 0x2c, 0x3e, 0x00, 0x00, 0x00, 0x3d, 0x00, 0x00, 0xc8, 0x39, 0x00,
  0x00, 0x9c, 0x37, 0x00, 0x00, 0x14, 0x37, 0x00, 0x00, 0xe8, 0x34, 0x00, 0x00,
  0xa4, 0x34, 0x00, 0x00, 0x14, 0x34, 0x00, 0x00, 0x74, 0x33, 0x00, 0x00, 0xe8,
  0x32, 0x00, 0x00, 0x68, 0x32, 0x00, 0x00, 0xec, 0x31, 0x00, 0x00, 0x68, 0x31,
  0x00, 0x00, 0xd8, 0x30, 0x00, 0x00, 0x30, 0x30, 0x00, 0x00, 0xd8, 0x2f, 0x00,
  0x00, 0xb8, 0x98, 0x00, 0x00, 0xb4, 0x98, 0x00, 0x00, 0xb0, 0x98, 0x00, 0x00,
  0xac, 0x98, 0x00, 0x00, 0xa8, 0x98, 0x00, 0x00, 0xa4, 0x98, 0x00, 0x00, 0xa0,
  0x98, 0x00, 0x00, 0x9c, 0x98, 0x00, 0x00, 0x98, 0x98, 0x00, 0x00, 0x94, 0x98,
  0x00, 0x00, 0x90, 0x98, 0x00, 0x00, 0x8c, 0x98, 0x00, 0x00, 0x88, 0x98, 0x00,
  0x00, 0x84, 0x98, 0x00, 0x00, 0x80, 0x98, 0x00, 0x00, 0x7c, 0x98, 0x00, 0x00,
  0x78, 0x98, 0x00, 0x00, 0x74, 0x98, 0x00, 0x00, 0x70, 0x98, 0x00, 0x00, 0x6c,
  0x98, 0x00, 0x00, 0x68, 0x98, 0x00, 0x00, 0x64, 0x98, 0x00, 0x00, 0x60, 0x98,
  0x00, 0x00, 0x5c, 0x98, 0x00, 0x00, 0x58, 0x98, 0x00, 0x00, 0x54, 0x98, 0x00,
  0x00, 0x50, 0x98, 0x00, 0x00, 0x4c, 0x98, 0x00, 0x00, 0x48, 0x98, 0x00, 0x00,
  0x44, 0x98, 0x00, 0x00, 0x40, 0x98, 0x00, 0x00, 0x3c, 0x98, 0x00, 0x00, 0x38,
  0x98, 0x00, 0x00, 0x34, 0x98, 0x00, 0x00, 0x30, 0x98, 0x00, 0x00, 0x2c, 0x98,
  0x00, 0x00, 0x28, 0x98, 0x00, 0x00, 0x24, 0x98, 0x00, 0x00, 0x20, 0x98, 0x00,
  0x00, 0x1c, 0x98, 0x00, 0x00, 0x18, 0x98, 0x00, 0x00, 0x14, 0x98, 0x00, 0x00,
  0x10, 0x98, 0x00, 0x00, 0x0c, 0x98, 0x00, 0x00, 0x08, 0x98, 0x00, 0x00, 0x04,
  0x98, 0x00, 0x00, 0x00, 0x98, 0x00, 0x00, 0xfc, 0x97, 0x00, 0x00, 0xf8, 0x97,
  0x00, 0x00, 0xf4, 0x97, 0x00, 0x00, 0xf0, 0x97, 0x00, 0x00, 0xec, 0x97, 0x00,
  0x00, 0xe8, 0x97, 0x00, 0x00, 0xe4, 0x97, 0x00, 0x00, 0xe0, 0x97, 0x00, 0x00,
  0xdc, 0x97, 0x00, 0x00, 0xd8, 0x97, 0x00, 0x00, 0xd4, 0x97, 0x00, 0x00, 0xd0,
  0x97, 0x00, 0x00, 0xcc, 0x97, 0x00, 0x00, 0xc8, 0x97, 0x00, 0x00, 0xc4, 0x97,
  0x00, 0x00, 0xc0, 0x97, 0x00, 0x00, 0xbc, 0x97, 0x00, 0x00, 0xb8, 0x97, 0x00,
  0x00, 0xb4, 0x97, 0x00, 0x00, 0xb0, 0x97, 0x00, 0x00, 0xdc, 0x00, 0x00, 0x00,
  0x01, 0x00, 0x00, 0x00, 0x14, 0x01, 0x00, 0x00, 0x04, 0x00, 0x00, 0x00, 0x54,
  0x2e, 0x00, 0x00, 0x98, 0x2d, 0x00, 0x00, 0x20, 0x2c, 0x00, 0x00, 0xbc, 0x25,
  0x00, 0x00, 0x01, 0x00, 0x00, 0x00, 0x10, 0x00, 0x00, 0x00, 0x0c, 0x00, 0x14,
  0x00, 0x10, 0x00, 0x0c, 0x00, 0x08, 0x00, 0x04, 0x00, 0x0c, 0x00, 0x00, 0x00,
  0x10, 0x00, 0x00, 0x00, 0x18, 0x00, 0x00, 0x00, 0x28, 0x00, 0x00, 0x00, 0x2c,
  0x00, 0x00, 0x00, 0x05, 0x00, 0x00, 0x00, 0x73, 0x65, 0x72, 0x76, 0x65, 0x00,
  0x00, 0x00, 0x0f, 0x00, 0x00, 0x00, 0x73, 0x65, 0x72, 0x76, 0x69, 0x6e, 0x67,
  0x5f, 0x64, 0x65, 0x66, 0x61, 0x75, 0x6c, 0x74, 0x00, 0x01, 0x00, 0x00, 0x00,
  0x14, 0x00, 0x00, 0x00, 0x01, 0x00, 0x00, 0x00, 0x24, 0x00, 0x00, 0x00, 0x08,
  0x00, 0x0c, 0x00, 0x08, 0x00, 0x04, 0x00, 0x08, 0x00, 0x00, 0x00, 0x96, 0x00,
  0x00, 0x00, 0x04, 0x00, 0x00, 0x00, 0x06, 0x00, 0x00, 0x00, 0x6f, 0x75, 0x74,
  0x70, 0x75, 0x74, 0x00, 0x00, 0x0a, 0x6a, 0xff, 0xff, 0x04, 0x00, 0x00, 0x00,
  0x03, 0x00, 0x00, 0x00, 0x69, 0x6d, 0x67, 0x00, 0x01, 0x00, 0x00, 0x00, 0x0c,
  0x00, 0x00, 0x00, 0x08, 0x00, 0x0c, 0x00, 0x04, 0x00, 0x08, 0x00, 0x08, 0x00,
  0x00, 0x00, 0x08, 0x00, 0x00, 0x00, 0x98, 0x00, 0x00, 0x00, 0x13, 0x00, 0x00,
  0x00, 0x6d, 0x69, 0x6e, 0x5f, 0x72, 0x75, 0x6e, 0x74, 0x69, 0x6d, 0x65, 0x5f,
  0x76, 0x65, 0x72, 0x73, 0x69, 0x6f, 0x6e, 0x00, 0x4e, 0x6a, 0xff, 0xff, 0x04,
  0x00, 0x00, 0x00, 0x10, 0x00, 0x00, 0x00, 0x31, 0x2e, 0x31, 0x33, 0x2e, 0x31,
  0x00, 0x00, 0x00, 0x00, 0x00, 0x00, 0x00, 0x00, 0x00, 0x00, 0x0f, 0x00, 0x00,
  0x00, 0x4d, 0x4c, 0x49, 0x52, 0x20, 0x43, 0x6f, 0x6e, 0x76, 0x65, 0x72, 0x74,
  0x65, 0x64, 0x2e, 0x00, 0x00, 0x00, 0x0e, 0x00, 0x18, 0x00, 0x04, 0x00, 0x08,
  0x00, 0x0c, 0x00, 0x10, 0x00, 0x14, 0x00, 0x0e, 0x00, 0x00, 0x00, 0x40, 0x01,
  0x00, 0x00, 0x34, 0x01, 0x00, 0x00, 0x28, 0x01, 0x00, 0x00, 0x14, 0x00, 0x00,
  0x00, 0x04, 0x00, 0x00, 0x00, 0x04, 0x00, 0x00, 0x00, 0x6d, 0x61, 0x69, 0x6e,
  0x00, 0x00, 0x00, 0x00, 0x43, 0x00, 0x00, 0x00, 0xdc, 0x2c, 0x00, 0x00, 0x18,
  0x2c, 0x00, 0x00, 0x6c, 0x2b, 0x00, 0x00, 0xa0, 0x2a, 0x00, 0x00, 0xf4, 0x29,
  0x00, 0x00, 0x58, 0x29, 0x00, 0x00, 0x90, 0x28, 0x00, 0x00, 0xf4, 0x27, 0x00,
  0x00, 0x58, 0x27, 0x00, 0x00, 0xa4, 0x26, 0x00, 0x00, 0x08, 0x26, 0x00, 0x00,
  0x6c, 0x25, 0x00, 0x00, 0xb8, 0x24, 0x00, 0x00, 0x24, 0x24, 0x00, 0x00, 0x88,
  0x23, 0x00, 0x00, 0xec, 0x22, 0x00, 0x00, 0x2c, 0x22, 0x00, 0x00, 0x90, 0x21,
  0x00, 0x00, 0xf4, 0x20, 0x00, 0x00, 0x40, 0x20, 0x00, 0x00, 0xa4, 0x1f, 0x00,
  0x00, 0x08, 0x1f, 0x00, 0x00, 0x54, 0x1e, 0x00, 0x00, 0xd0, 0x1d, 0x00, 0x00,
  0x34, 0x1d, 0x00, 0x00, 0x98, 0x1c, 0x00, 0x00, 0xd8, 0x1b, 0x00, 0x00, 0x3c,
  0x1b, 0x00, 0x00, 0xa0, 0x1a, 0x00, 0x00, 0xec, 0x19, 0x00, 0x00, 0x50, 0x19,
  0x00, 0x00, 0xb4, 0x18, 0x00, 0x00, 0x00, 0x18, 0x00, 0x00, 0x7c, 0x17, 0x00,
  0x00, 0xe0, 0x16, 0x00, 0x00, 0x44, 0x16, 0x00, 0x00, 0x84, 0x15, 0x00, 0x00,
  0xe8, 0x14, 0x00, 0x00, 0x4c, 0x14, 0x00, 0x00, 0x94, 0x13, 0x00, 0x00, 0xf8,
  0x12, 0x00, 0x00, 0x5c, 0x12, 0x00, 0x00, 0xa4, 0x11, 0x00, 0x00, 0x20, 0x11,
  0x00, 0x00, 0x84, 0x10, 0x00, 0x00, 0xe8, 0x0f, 0x00, 0x00, 0x28, 0x0f, 0x00,
  0x00, 0x8c, 0x0e, 0x00, 0x00, 0xf0, 0x0d, 0x00, 0x00, 0x38, 0x0d, 0x00, 0x00,
  0x9c, 0x0c, 0x00, 0x00, 0x00, 0x0c, 0x00, 0x00, 0x48, 0x0b, 0x00, 0x00, 0xc4,
  0x0a, 0x00, 0x00, 0x28, 0x0a, 0x00, 0x00, 0x8c, 0x09, 0x00, 0x00, 0xcc, 0x08,
  0x00, 0x00, 0x30, 0x08, 0x00, 0x00, 0x94, 0x07, 0x00, 0x00, 0xdc, 0x06, 0x00,
  0x00, 0x40, 0x06, 0x00, 0x00, 0xa4, 0x05, 0x00, 0x00, 0xec, 0x04, 0x00, 0x00,
  0x68, 0x04, 0x00, 0x00, 0xbc, 0x03, 0x00, 0x00, 0x1c, 0x03, 0x00, 0x00, 0x74,
  0x02, 0x00, 0x00, 0x01, 0x00, 0x00, 0x00, 0x96, 0x00, 0x00, 0x00, 0x01, 0x00,
  0x00, 0x00, 0x00, 0x00, 0x00, 0x00, 0x97, 0x00, 0x00, 0x00, 0xec, 0x94, 0x00,
  0x00, 0xa4, 0x94, 0x00, 0x00, 0xec, 0x93, 0x00, 0x00, 0x70, 0x93, 0x00, 0x00,
  0x04, 0x93, 0x00, 0x00, 0xa0, 0x92, 0x00, 0x00, 0x34, 0x92, 0x00, 0x00, 0xb4,
  0x91, 0x00, 0x00, 0x38, 0x91, 0x00, 0x00, 0xd0, 0x90, 0x00, 0x00, 0x6c, 0x90,
  0x00, 0x00, 0xdc, 0x8f, 0x00, 0x00, 0x3c, 0x8e, 0x00, 0x00, 0x9c, 0x8c, 0x00,
  0x00, 0x54, 0x88, 0x00, 0x00, 0xdc, 0x86, 0x00, 0x00, 0x64, 0x85, 0x00, 0x00,
  0x84, 0x82, 0x00, 0x00, 0xe4, 0x80, 0x00, 0x00, 0x44, 0x7f, 0x00, 0x00, 0x0c,
  0x7c, 0x00, 0x00, 0xe4, 0x7a, 0x00, 0x00, 0xbc, 0x79, 0x00, 0x00, 0x88, 0x77,
  0x00, 0x00, 0x5c, 0x76, 0x00, 0x00, 0x34, 0x75, 0x00, 0x00, 0x84, 0x73, 0x00,
  0x00, 0x58, 0x72, 0x00, 0x00, 0x30, 0x71, 0x00, 0x00, 0x80, 0x6f, 0x00, 0x00,
  0x90, 0x6e, 0x00, 0x00, 0xa4, 0x6d, 0x00, 0x00, 0x34, 0x6c, 0x00, 0x00, 0x3c,
  0x6b, 0x00, 0x00, 0xc8, 0x6a, 0x00, 0x00, 0xc8, 0x69, 0x00, 0x00, 0x7c, 0x68,
  0x00, 0x00, 0x8c, 0x67, 0x00, 0x00, 0xa0, 0x66, 0x00, 0x00, 0x70, 0x65, 0x00,
  0x00, 0x94, 0x64, 0x00, 0x00, 0xbc, 0x63, 0x00, 0x00, 0x38, 0x62, 0x00, 0x00,
  0x0c, 0x61, 0x00, 0x00, 0xe4, 0x5f, 0x00, 0x00, 0x34, 0x5e, 0x00, 0x00, 0x64,
  0x5d, 0x00, 0x00, 0xf8, 0x5c, 0x00, 0x00, 0x20, 0x5c, 0x00, 0x00, 0xf0, 0x5a,
  0x00, 0x00, 0x00, 0x5a, 0x00, 0x00, 0x14, 0x59, 0x00, 0x00, 0xe4, 0x56, 0x00,
  0x00, 0x74, 0x55, 0x00, 0x00, 0xe8, 0x54, 0x00, 0x00, 0x70, 0x53, 0x00, 0x00,
  0x8c, 0x50, 0x00, 0x00, 0xa8, 0x4f, 0x00, 0x00, 0x38, 0x4f, 0x00, 0x00, 0x4c,
  0x4e, 0x00, 0x00, 0x9c, 0x4c, 0x00, 0x00, 0x70, 0x4b, 0x00, 0x00, 0x48, 0x4a,
  0x00, 0x00, 0x04, 0x46, 0x00, 0x00, 0xf4, 0x43, 0x00, 0x00, 0x48, 0x43, 0x00,
  0x00, 0x30, 0x41, 0x00, 0x00, 0xc4, 0x3a, 0x00, 0x00, 0xa4, 0x39, 0x00, 0x00,
  0x28, 0x39, 0x00, 0x00, 0x00, 0x38, 0x00, 0x00, 0xc4, 0x34, 0x00, 0x00, 0xa4,
  0x32, 0x00, 0x00, 0x10, 0x32, 0x00, 0x00, 0xf4, 0x2f, 0x00, 0x00, 0xa4, 0x2f,
  0x00, 0x00, 0x04, 0x2f, 0x00, 0x00, 0x60, 0x2e, 0x00, 0x00, 0xd4, 0x2d, 0x00,
  0x00, 0x54, 0x2d, 0x00, 0x00, 0xd4, 0x2c, 0x00, 0x00, 0x50, 0x2c, 0x00, 0x00,
  0xc0, 0x2b, 0x00, 0x00, 0x28, 0x2b, 0x00, 0x00, 0xc0, 0x2a, 0x00, 0x00, 0x04,
  0x2a, 0x00, 0x00, 0x3c, 0x29, 0x00, 0x00, 0x88, 0x28, 0x00, 0x00, 0xc4, 0x27,
  0x00, 0x00, 0x28, 0x27, 0x00, 0x00, 0x6c, 0x26, 0x00, 0x00, 0xc4, 0x25, 0x00,
  0x00, 0x28, 0x25, 0x00, 0x00, 0x70, 0x24, 0x00, 0x00, 0xd8, 0x23, 0x00, 0x00,
  0x3c, 0x23, 0x00, 0x00, 0x84, 0x22, 0x00, 0x00, 0xf8, 0x21, 0x00, 0x00, 0x58,
  0x21, 0x00, 0x00, 0xbc, 0x20, 0x00, 0x00, 0xfc, 0x1f, 0x00, 0x00, 0x60, 0x1f,
  0x00, 0x00, 0xc4, 0x1e, 0x00, 0x00, 0x0c, 0x1e, 0x00, 0x00, 0x74, 0x1d, 0x00,
  0x00, 0xd8, 0x1c, 0x00, 0x00, 0x20, 0x1c, 0x00, 0x00, 0x90, 0x1b, 0x00, 0x00,
  0x04, 0x1b, 0x00, 0x00, 0x68, 0x1a, 0x00, 0x00, 0xa8, 0x19, 0x00, 0x00, 0x0c,
  0x19, 0x00, 0x00, 0x70, 0x18, 0x00, 0x00, 0xb8, 0x17, 0x00, 0x00, 0x20, 0x17,
  0x00, 0x00, 0x84, 0x16, 0x00, 0x00, 0xcc, 0x15, 0x00, 0x00, 0x3c, 0x15, 0x00,
  0x00, 0xb0, 0x14, 0x00, 0x00, 0x14, 0x14, 0x00, 0x00, 0x54, 0x13, 0x00, 0x00,
  0xb8, 0x12, 0x00, 0x00, 0x1c, 0x12, 0x00, 0x00, 0x60, 0x11, 0x00, 0x00, 0xc8,
  0x10, 0x00, 0x00, 0x2c, 0x10, 0x00, 0x00, 0x70, 0x0f, 0x00, 0x00, 0xe0, 0x0e,
  0x00, 0x00, 0x54, 0x0e, 0x00, 0x00, 0xb8, 0x0d, 0x00, 0x00, 0xf8, 0x0c, 0x00,
  0x00, 0x5c, 0x0c, 0x00, 0x00, 0xc0, 0x0b, 0x00, 0x00, 0x04, 0x0b, 0x00, 0x00,
  0x6c, 0x0a, 0x00, 0x00, 0xd0, 0x09, 0x00, 0x00, 0x14, 0x09, 0x00, 0x00, 0x84,
  0x08, 0x00, 0x00, 0xf8, 0x07, 0x00, 0x00, 0x5c, 0x07, 0x00, 0x00, 0x9c, 0x06,
  0x00, 0x00, 0x00, 0x06, 0x00, 0x00, 0x64, 0x05, 0x00, 0x00, 0xa8, 0x04, 0x00,
  0x00, 0x10, 0x04, 0x00, 0x00, 0x74, 0x03, 0x00, 0x00, 0xb8, 0x02, 0x00, 0x00,
  0x28, 0x02, 0x00, 0x00, 0x9c, 0x01, 0x00, 0x00, 0xf0, 0x00, 0x00, 0x00, 0x50,
  0x00, 0x00, 0x00, 0xde, 0xd8, 0xff, 0xff, 0x00, 0x00, 0x00, 0x01, 0x02, 0x00,
  0x00, 0x00, 0x30, 0x00, 0x00, 0x00, 0x24, 0x00, 0x00, 0x00, 0x10, 0x00, 0x00,
  0x00, 0x00, 0x00, 0x0a, 0x00, 0x10, 0x00, 0x0f, 0x00, 0x04, 0x00, 0x08, 0x00,
  0x0a, 0x00, 0x00, 0x00, 0x01, 0x00, 0x00, 0x00, 0x01, 0x00, 0x00, 0x00, 0x00,
  0x00, 0x00, 0x01, 0x01, 0x00, 0x00, 0x00, 0x96, 0x00, 0x00, 0x00, 0x03, 0x00,
  0x00, 0x00, 0x95, 0x00, 0x00, 0x00, 0x4b, 0x00, 0x00, 0x00, 0x53, 0x00, 0x00,
  0x00, 0xd0, 0x6d, 0xff, 0xff, 0x3c, 0x00, 0x00, 0x00, 0x97, 0x00, 0x00, 0x00,
  0x20, 0x00, 0x00, 0x00, 0x44, 0x00, 0x00, 0x00, 0x04, 0x00, 0x00, 0x00, 0x04,
  0x00, 0x00, 0x00, 0x01, 0x00, 0x00, 0x00, 0xff, 0xff, 0xff, 0xff, 0xff, 0xff,
  0xff, 0xff, 0x01, 0x00, 0x00, 0x00, 0x0c, 0x00, 0x00, 0x00, 0x42, 0x69, 0x61,
  0x73, 0x41, 0x64, 0x64, 0x5f, 0x31, 0x39, 0x3a, 0x30, 0x00, 0x00, 0x00, 0x00,
  0x04, 0x00, 0x00, 0x00, 0x01, 0x00, 0x00, 0x00, 0x01, 0x00, 0x00, 0x00, 0x01,
  0x00, 0x00, 0x00, 0x01, 0x00, 0x00, 0x00, 0xb8, 0x6d, 0xff, 0xff, 0x12, 0xd8,
  0xff, 0xff, 0x00, 0x00, 0x00, 0x02, 0x01, 0x00, 0x00, 0x00, 0x28, 0x00, 0x00,
  0x00, 0x1c, 0x00, 0x00, 0x00, 0x04, 0x00, 0x00, 0x00, 0x64, 0xff, 0xff, 0xff,
  0x01, 0x00, 0x00, 0x00, 0x01, 0x00, 0x00, 0x00, 0x01, 0x00, 0x00, 0x00, 0x00,
  0x00, 0x00, 0x01, 0x01, 0x00, 0x00, 0x00, 0x95, 0x00, 0x00, 0x00, 0x03, 0x00,
  0x00, 0x00, 0x94, 0x00, 0x00, 0x00, 0x49, 0x00, 0x00, 0x00, 0x48, 0x00, 0x00,
  0x00, 0x6c, 0x6e, 0xff, 0xff, 0x3c, 0x00, 0x00, 0x00, 0x96, 0x00, 0x00, 0x00,
  0x20, 0x00, 0x00, 0x00, 0x44, 0x00, 0x00, 0x00, 0x04, 0x00, 0x00, 0x00, 0x04,
  0x00, 0x00, 0x00, 0x01, 0x00, 0x00, 0x00, 0xff, 0xff, 0xff, 0xff, 0xff, 0xff,
  0xff, 0xff, 0x11, 0x00, 0x00, 0x00, 0x0d, 0x00, 0x00, 0x00, 0x64, 0x65, 0x70,
  0x74, 0x68, 0x77, 0x69, 0x73, 0x65, 0x5f, 0x33, 0x39, 0x32, 0x00, 0x00, 0x00,
  0x04, 0x00, 0x00, 0x00, 0x01, 0x00, 0x00, 0x00, 0x01, 0x00, 0x00, 0x00, 0x01,
  0x00, 0x00, 0x00, 0x11, 0x00, 0x00, 0x00, 0x54, 0x6e, 0xff, 0xff, 0xae, 0xd8,
  0xff, 0xff, 0x00, 0x00, 0x00, 0x02, 0x01, 0x00, 0x00, 0x00, 0x34, 0x00, 0x00,
  0x00, 0x28, 0x00, 0x00, 0x00, 0x10, 0x00, 0x00, 0x00, 0x0c, 0x00, 0x14, 0x00,
  0x13, 0x00, 0x08, 0x00, 0x0c, 0x00, 0x04, 0x00, 0x0c, 0x00, 0x00, 0x00, 0x01,
  0x00, 0x00, 0x00, 0x01, 0x00, 0x00, 0x00, 0x01, 0x00, 0x00, 0x00, 0x00, 0x00,
  0x00, 0x01, 0x01, 0x00, 0x00, 0x00, 0x94, 0x00, 0x00, 0x00, 0x03, 0x00, 0x00,
  0x00, 0x93, 0x00, 0x00, 0x00, 0x47, 0x00, 0x00, 0x00, 0x48, 0x00, 0x00, 0x00,
  0x14, 0x6f, 0xff, 0xff, 0x3c, 0x00, 0x00, 0x00, 0x95, 0x00, 0x00, 0x00, 0x20,
  0x00, 0x00, 0x00, 0x44, 0x00, 0x00, 0x00, 0x04, 0x00, 0x00, 0x00, 0x04, 0x00,
  0x00, 0x00, 0x01, 0x00, 0x00, 0x00, 0xff, 0xff, 0xff, 0xff, 0xff, 0xff, 0xff,
  0xff, 0x11, 0x00, 0x00, 0x00, 0x0d, 0x00, 0x00, 0x00, 0x64, 0x65, 0x70, 0x74,
  0x68, 0x77, 0x69, 0x73, 0x65, 0x5f, 0x33, 0x38, 0x31, 0x00, 0x00, 0x00, 0x04,
  0x00, 0x00, 0x00, 0x01, 0x00, 0x00, 0x00, 0x01, 0x00, 0x00, 0x00, 0x01, 0x00,
  0x00, 0x00, 0x11, 0x00, 0x00, 0x00, 0xfc, 0x6e, 0xff, 0xff, 0x56, 0xd9, 0xff,
  0xff, 0x00, 0x00, 0x00, 0x0b, 0x03, 0x00, 0x00, 0x00, 0x18, 0x00, 0x00, 0x00,
  0x0c, 0x00, 0x00, 0x00, 0x04, 0x00, 0x00, 0x00, 0x18, 0x6f, 0xff, 0xff, 0x01,
  0x00, 0x00, 0x00, 0x93, 0x00, 0x00, 0x00, 0x02, 0x00, 0x00, 0x00, 0x92, 0x00,
  0x00, 0x00, 0x8f, 0x00, 0x00, 0x00, 0x9c, 0x6f, 0xff, 0xff, 0x34, 0x00, 0x00,
  0x00, 0x94, 0x00, 0x00, 0x00, 0x20, 0x00, 0x00, 0x00, 0x3c, 0x00, 0x00, 0x00,
  0x04, 0x00, 0x00, 0x00, 0x04, 0x00, 0x00, 0x00, 0x01, 0x00, 0x00, 0x00, 0xff,
  0xff, 0xff, 0xff, 0xff, 0xff, 0xff, 0xff, 0x11, 0x00, 0x00, 0x00, 0x05, 0x00,
  0x00, 0x00, 0x41, 0x64, 0x64, 0x5f, 0x35, 0x00, 0x00, 0x00, 0x04, 0x00, 0x00,
  0x00, 0x01, 0x00, 0x00, 0x00, 0x01, 0x00, 0x00, 0x00, 0x01, 0x00, 0x00, 0x00,
  0x11, 0x00, 0x00, 0x00, 0x7c, 0x6f, 0xff, 0xff, 0xd6, 0xd9, 0xff, 0xff, 0x00,
  0x00, 0x00, 0x01, 0x02, 0x00, 0x00, 0x00, 0x20, 0x00, 0x00, 0x00, 0x14, 0x00,
  0x00, 0x00, 0x04, 0x00, 0x00, 0x00, 0x36, 0xdb, 0xff, 0xff, 0x01, 0x00, 0x00,
  0x00, 0x01, 0x00, 0x00, 0x00, 0x01, 0x00, 0x00, 0x00, 0x92, 0x00, 0x00, 0x00,
  0x03, 0x00, 0x00, 0x00, 0x91, 0x00, 0x00, 0x00, 0x46, 0x00, 0x00, 0x00, 0x52,
  0x00, 0x00, 0x00, 0x28, 0x70, 0xff, 0xff, 0x5c, 0x00, 0x00, 0x00, 0x93, 0x00,
  0x00, 0x00, 0x20, 0x00, 0x00, 0x00, 0x64, 0x00, 0x00, 0x00, 0x04, 0x00, 0x00,
  0x00, 0x04, 0x00, 0x00, 0x00, 0x01, 0x00, 0x00, 0x00, 0xff, 0xff, 0xff, 0xff,
  0xff, 0xff, 0xff, 0xff, 0x11, 0x00, 0x00, 0x00, 0x2d, 0x00, 0x00, 0x00, 0x42,
  0x69, 0x61, 0x73, 0x41, 0x64, 0x64, 0x5f, 0x31, 0x38, 0x3b, 0x64, 0x65, 0x70,
  0x74, 0x68, 0x77, 0x69, 0x73, 0x65, 0x5f, 0x33, 0x39, 0x3b, 0x43, 0x6f, 0x6e,
  0x76, 0x32, 0x44, 0x5f, 0x31, 0x38, 0x3b, 0x63, 0x6f, 0x6e, 0x76, 0x5f, 0x36,
  0x5f, 0x31, 0x5f, 0x62, 0x31, 0x00, 0x00, 0x00, 0x04, 0x00, 0x00, 0x00, 0x01,
  0x00, 0x00, 0x00, 0x01, 0x00, 0x00, 0x00, 0x01, 0x00, 0x00, 0x00, 0x11, 0x00,
  0x00, 0x00, 0x30, 0x70, 0xff, 0xff, 0x8a, 0xda, 0xff, 0xff, 0x00, 0x00, 0x00,
  0x02, 0x01, 0x00, 0x00, 0x00, 0x24, 0x00, 0x00, 0x00, 0x18, 0x00, 0x00, 0x00,
  0x04, 0x00, 0x00, 0x00, 0x7c, 0xda, 0xff, 0xff, 0x01, 0x00, 0x00, 0x00, 0x01,
  0x00, 0x00, 0x00, 0x01, 0x00, 0x00, 0x00, 0x01, 0x00, 0x00, 0x00, 0x91, 0x00,
  0x00, 0x00, 0x03, 0x00, 0x00, 0x00, 0x90, 0x00, 0x00, 0x00, 0x45, 0x00, 0x00,
  0x00, 0x44, 0x00, 0x00, 0x00, 0xe0, 0x70, 0xff, 0xff, 0x3c, 0x00, 0x00, 0x00,
  0x92, 0x00, 0x00, 0x00, 0x20, 0x00, 0x00, 0x00, 0x44, 0x00, 0x00, 0x00, 0x04,
  0x00, 0x00, 0x00, 0x04, 0x00, 0x00, 0x00, 0x01, 0x00, 0x00, 0x00, 0xff, 0xff,
  0xff, 0xff, 0xff, 0xff, 0xff, 0xff, 0x0b, 0x00, 0x00, 0x00, 0x0d, 0x00, 0x00,
  0x00, 0x64, 0x65, 0x70, 0x74, 0x68, 0x77, 0x69, 0x73, 0x65, 0x5f, 0x33, 0x37,
  0x32, 0x00, 0x00, 0x00, 0x04, 0x00, 0x00, 0x00, 0x01, 0x00, 0x00, 0x00, 0x01,
  0x00, 0x00, 0x00, 0x01, 0x00, 0x00, 0x00, 0x0b, 0x00, 0x00, 0x00, 0xc8, 0x70,
  0xff, 0xff, 0x22, 0xdb, 0xff, 0xff, 0x00, 0x00, 0x00, 0x02, 0x01, 0x00, 0x00,
  0x00, 0x24, 0x00, 0x00, 0x00, 0x18, 0x00, 0x00, 0x00, 0x04, 0x00, 0x00, 0x00,
  0x14, 0xdb, 0xff, 0xff, 0x01, 0x00, 0x00, 0x00, 0x01, 0x00, 0x00, 0x00, 0x01,
  0x00, 0x00, 0x00, 0x01, 0x00, 0x00, 0x00, 0x90, 0x00, 0x00, 0x00, 0x03, 0x00,
  0x00, 0x00, 0x89, 0x00, 0x00, 0x00, 0x43, 0x00, 0x00, 0x00, 0x44, 0x00, 0x00,
  0x00, 0x78, 0x71, 0xff, 0xff, 0x3c, 0x00, 0x00, 0x00, 0x91, 0x00, 0x00, 0x00,
  0x20, 0x00, 0x00, 0x00, 0x44, 0x00, 0x00, 0x00, 0x04, 0x00, 0x00, 0x00, 0x04,
  0x00, 0x00, 0x00, 0x01, 0x00, 0x00, 0x00, 0xff, 0xff, 0xff, 0xff, 0xff, 0xff,
  0xff, 0xff, 0x0b, 0x00, 0x00, 0x00, 0x0d, 0x00, 0x00, 0x00, 0x64, 0x65, 0x70,
  0x74, 0x68, 0x77, 0x69, 0x73, 0x65, 0x5f, 0x33, 0x36, 0x31, 0x00, 0x00, 0x00,
  0x04, 0x00, 0x00, 0x00, 0x01, 0x00, 0x00, 0x00, 0x01, 0x00, 0x00, 0x00, 0x01,
  0x00, 0x00, 0x00, 0x0b, 0x00, 0x00, 0x00, 0x60, 0x71, 0xff, 0xff, 0xba, 0xdb,
  0xff, 0xff, 0x00, 0x00, 0x00, 0x01, 0x02, 0x00, 0x00, 0x00, 0x20, 0x00, 0x00,
  0x00, 0x14, 0x00, 0x00, 0x00, 0x04, 0x00, 0x00, 0x00, 0x1a, 0xdd, 0xff, 0xff,
  0x01, 0x00, 0x00, 0x00, 0x01, 0x00, 0x00, 0x00, 0x01, 0x00, 0x00, 0x00, 0x8f,
  0x00, 0x00, 0x00, 0x03, 0x00, 0x00, 0x00, 0x8e, 0x00, 0x00, 0x00, 0x42, 0x00,
  0x00, 0x00, 0x52, 0x00, 0x00, 0x00, 0x0c, 0x72, 0xff, 0xff, 0x5c, 0x00, 0x00,
  0x00, 0x90, 0x00, 0x00, 0x00, 0x20, 0x00, 0x00, 0x00, 0x64, 0x00, 0x00, 0x00,
  0x04, 0x00, 0x00, 0x00, 0x04, 0x00, 0x00, 0x00, 0x01, 0x00, 0x00, 0x00, 0xff,
  0xff, 0xff, 0xff, 0xff, 0xff, 0xff, 0xff, 0x11, 0x00, 0x00, 0x00, 0x2c, 0x00,
  0x00, 0x00, 0x42, 0x69, 0x61, 0x73, 0x41, 0x64, 0x64, 0x5f, 0x31, 0x37, 0x3b,
  0x64, 0x65, 0x70, 0x74, 0x68, 0x77, 0x69, 0x73, 0x65, 0x5f, 0x33, 0x39, 0x3b,
  0x43, 0x6f, 0x6e, 0x76, 0x32, 0x44, 0x5f, 0x31, 0x37, 0x3b, 0x63, 0x6f, 0x6e,
  0x76, 0x5f, 0x36, 0x5f, 0x31, 0x5f, 0x62, 0x00, 0x00, 0x00, 0x00, 0x04, 0x00,
  0x00, 0x00, 0x01, 0x00, 0x00, 0x00, 0x01, 0x00, 0x00, 0x00, 0x01, 0x00, 0x00,
  0x00, 0x11, 0x00, 0x00, 0x00, 0x14, 0x72, 0xff, 0xff, 0x6e, 0xdc, 0xff, 0xff,
  0x00, 0x00, 0x00, 0x02, 0x01, 0x00, 0x00, 0x00, 0x24, 0x00, 0x00, 0x00, 0x18,
  0x00, 0x00, 0x00, 0x04, 0x00, 0x00, 0x00, 0x60, 0xdc, 0xff, 0xff, 0x01, 0x00,
  0x00, 0x00, 0x01, 0x00, 0x00, 0x00, 0x01, 0x00, 0x00, 0x00, 0x01, 0x00, 0x00,
  0x00, 0x8e, 0x00, 0x00, 0x00, 0x03, 0x00, 0x00, 0x00, 0x8d, 0x00, 0x00, 0x00,
  0x41, 0x00, 0x00, 0x00, 0x40, 0x00, 0x00, 0x00, 0xc4, 0x72, 0xff, 0xff, 0x3c,
  0x00, 0x00, 0x00, 0x8f, 0x00, 0x00, 0x00, 0x20, 0x00, 0x00, 0x00, 0x44, 0x00,
  0x00, 0x00, 0x04, 0x00, 0x00, 0x00, 0x04, 0x00, 0x00, 0x00, 0x01, 0x00, 0x00,
  0x00, 0xff, 0xff, 0xff, 0xff, 0xff, 0xff, 0xff, 0xff, 0x17, 0x00, 0x00, 0x00,
  0x0d, 0x00, 0x00, 0x00, 0x64, 0x65, 0x70, 0x74, 0x68, 0x77, 0x69, 0x73, 0x65,
  0x5f, 0x33, 0x35, 0x32, 0x00, 0x00, 0x00, 0x04, 0x00, 0x00, 0x00, 0x01, 0x00,
  0x00, 0x00, 0x01, 0x00, 0x00, 0x00, 0x01, 0x00, 0x00, 0x00, 0x17, 0x00, 0x00,
  0x00, 0xac, 0x72, 0xff, 0xff, 0x06, 0xdd, 0xff, 0xff, 0x00, 0x00, 0x00, 0x02,
  0x01, 0x00, 0x00, 0x00, 0x24, 0x00, 0x00, 0x00, 0x18, 0x00, 0x00, 0x00, 0x04,
  0x00, 0x00, 0x00, 0xf8, 0xdc, 0xff, 0xff, 0x01, 0x00, 0x00, 0x00, 0x01, 0x00,
  0x00, 0x00, 0x01, 0x00, 0x00, 0x00, 0x01, 0x00, 0x00, 0x00, 0x8d, 0x00, 0x00,
  0x00, 0x03, 0x00, 0x00, 0x00, 0x8c, 0x00, 0x00, 0x00, 0x3f, 0x00, 0x00, 0x00,
  0x40, 0x00, 0x00, 0x00, 0x5c, 0x73, 0xff, 0xff, 0x3c, 0x00, 0x00, 0x00, 0x8e,
  0x00, 0x00, 0x00, 0x20, 0x00, 0x00, 0x00, 0x44, 0x00, 0x00, 0x00, 0x04, 0x00,
  0x00, 0x00, 0x04, 0x00, 0x00, 0x00, 0x01, 0x00, 0x00, 0x00, 0xff, 0xff, 0xff,
  0xff, 0xff, 0xff, 0xff, 0xff, 0x17, 0x00, 0x00, 0x00, 0x0d, 0x00, 0x00, 0x00,
  0x64, 0x65, 0x70, 0x74, 0x68, 0x77, 0x69, 0x73, 0x65, 0x5f, 0x33, 0x34, 0x31,
  0x00, 0x00, 0x00, 0x04, 0x00, 0x00, 0x00, 0x01, 0x00, 0x00, 0x00, 0x01, 0x00,
  0x00, 0x00, 0x01, 0x00, 0x00, 0x00, 0x17, 0x00, 0x00, 0x00, 0x44, 0x73, 0xff,
  0xff, 0x9e, 0xdd, 0xff, 0xff, 0x00, 0x00, 0x00, 0x01, 0x02, 0x00, 0x00, 0x00,
  0x24, 0x00, 0x00, 0x00, 0x18, 0x00, 0x00, 0x00, 0x04, 0x00, 0x00, 0x00, 0x04,
  0xe1, 0xff, 0xff, 0x01, 0x00, 0x00, 0x00, 0x01, 0x00, 0x00, 0x00, 0x00, 0x00,
  0x00, 0x01, 0x01, 0x00, 0x00, 0x00, 0x8c, 0x00, 0x00, 0x00, 0x03, 0x00, 0x00,
  0x00, 0x8b, 0x00, 0x00, 0x00, 0x3e, 0x00, 0x00, 0x00, 0x01, 0x00, 0x00, 0x00,
  0xf4, 0x73, 0xff, 0xff, 0x60, 0x00, 0x00, 0x00, 0x8d, 0x00, 0x00, 0x00, 0x20,
  0x00, 0x00, 0x00, 0x68, 0x00, 0x00, 0x00, 0x04, 0x00, 0x00, 0x00, 0x04, 0x00,
  0x00, 0x00, 0x01, 0x00, 0x00, 0x00, 0xff, 0xff, 0xff, 0xff, 0xff, 0xff, 0xff,
  0xff, 0x17, 0x00, 0x00, 0x00, 0x33, 0x00, 0x00, 0x00, 0x52, 0x65, 0x6c, 0x75,
  0x5f, 0x35, 0x3b, 0x42, 0x69, 0x61, 0x73, 0x41, 0x64, 0x64, 0x5f, 0x31, 0x36,
  0x3b, 0x64, 0x65, 0x70, 0x74, 0x68, 0x77, 0x69, 0x73, 0x65, 0x5f, 0x33, 0x35,
  0x3b, 0x43, 0x6f, 0x6e, 0x76, 0x32, 0x44, 0x5f, 0x31, 0x36, 0x3b, 0x63, 0x6f,
  0x6e, 0x76, 0x5f, 0x36, 0x5f, 0x30, 0x5f, 0x62, 0x00, 0x04, 0x00, 0x00, 0x00,
  0x01, 0x00, 0x00, 0x00, 0x01, 0x00, 0x00, 0x00, 0x01, 0x00, 0x00, 0x00, 0x17,
  0x00, 0x00, 0x00, 0x00, 0x74, 0xff, 0xff, 0x5a, 0xde, 0xff, 0xff, 0x00, 0x00,
  0x00, 0x02, 0x01, 0x00, 0x00, 0x00, 0x24, 0x00, 0x00, 0x00, 0x18, 0x00, 0x00,
  0x00, 0x04, 0x00, 0x00, 0x00, 0x4c, 0xde, 0xff, 0xff, 0x01, 0x00, 0x00, 0x00,
  0x01, 0x00, 0x00, 0x00, 0x01, 0x00, 0x00, 0x00, 0x01, 0x00, 0x00, 0x00, 0x8b,
  0x00, 0x00, 0x00, 0x03, 0x00, 0x00, 0x00, 0x8a, 0x00, 0x00, 0x00, 0x3d, 0x00,
  0x00, 0x00, 0x44, 0x00, 0x00, 0x00, 0xb0, 0x74, 0xff, 0xff, 0x3c, 0x00, 0x00,
  0x00, 0x8c, 0x00, 0x00, 0x00, 0x20, 0x00, 0x00, 0x00, 0x44, 0x00, 0x00, 0x00,
  0x04, 0x00, 0x00, 0x00, 0x04, 0x00, 0x00, 0x00, 0x01, 0x00, 0x00, 0x00, 0xff,
  0xff, 0xff, 0xff, 0xff, 0xff, 0xff, 0xff, 0x0b, 0x00, 0x00, 0x00, 0x0d, 0x00,
  0x00, 0x00, 0x64, 0x65, 0x70, 0x74, 0x68, 0x77, 0x69, 0x73, 0x65, 0x5f, 0x33,
  0x33, 0x31, 0x00, 0x00, 0x00, 0x04, 0x00, 0x00, 0x00, 0x01, 0x00, 0x00, 0x00,
  0x01, 0x00, 0x00, 0x00, 0x01, 0x00, 0x00, 0x00, 0x0b, 0x00, 0x00, 0x00, 0x98,
  0x74, 0xff, 0xff, 0xf2, 0xde, 0xff, 0xff, 0x00, 0x00, 0x00, 0x02, 0x01, 0x00,
  0x00, 0x00, 0x24, 0x00, 0x00, 0x00, 0x18, 0x00, 0x00, 0x00, 0x04, 0x00, 0x00,
  0x00, 0xe4, 0xde, 0xff, 0xff, 0x01, 0x00, 0x00, 0x00, 0x01, 0x00, 0x00, 0x00,
  0x01, 0x00, 0x00, 0x00, 0x01, 0x00, 0x00, 0x00, 0x8a, 0x00, 0x00, 0x00, 0x03,
  0x00, 0x00, 0x00, 0x89, 0x00, 0x00, 0x00, 0x3c, 0x00, 0x00, 0x00, 0x44, 0x00,
  0x00, 0x00, 0x48, 0x75, 0xff, 0xff, 0x3c, 0x00, 0x00, 0x00, 0x8b, 0x00, 0x00,
  0x00, 0x20, 0x00, 0x00, 0x00, 0x44, 0x00, 0x00, 0x00, 0x04, 0x00, 0x00, 0x00,
  0x04, 0x00, 0x00, 0x00, 0x01, 0x00, 0x00, 0x00, 0xff, 0xff, 0xff, 0xff, 0xff,
  0xff, 0xff, 0xff, 0x0b, 0x00, 0x00, 0x00, 0x0d, 0x00, 0x00, 0x00, 0x64, 0x65,
  0x70, 0x74, 0x68, 0x77, 0x69, 0x73, 0x65, 0x5f, 0x33, 0x32, 0x31, 0x00, 0x00,
  0x00, 0x04, 0x00, 0x00, 0x00, 0x01, 0x00, 0x00, 0x00, 0x01, 0x00, 0x00, 0x00,
  0x01, 0x00, 0x00, 0x00, 0x0b, 0x00, 0x00, 0x00, 0x30, 0x75, 0xff, 0xff, 0x8a,
  0xdf, 0xff, 0xff, 0x00, 0x00, 0x00, 0x0b, 0x03, 0x00, 0x00, 0x00, 0x18, 0x00,
  0x00, 0x00, 0x0c, 0x00, 0x00, 0x00, 0x04, 0x00, 0x00, 0x00, 0x4c, 0x75, 0xff,
  0xff, 0x01, 0x00, 0x00, 0x00, 0x89, 0x00, 0x00, 0x00, 0x02, 0x00, 0x00, 0x00,
  0x88, 0x00, 0x00, 0x00, 0x85, 0x00, 0x00, 0x00, 0xd0, 0x75, 0xff, 0xff, 0x34,
  0x00, 0x00, 0x00, 0x8a, 0x00, 0x00, 0x00, 0x20, 0x00, 0x00, 0x00, 0x3c, 0x00,
  0x00, 0x00, 0x04, 0x00, 0x00, 0x00, 0x04, 0x00, 0x00, 0x00, 0x01, 0x00, 0x00,
  0x00, 0xff, 0xff, 0xff, 0xff, 0xff, 0xff, 0xff, 0xff, 0x0b, 0x00, 0x00, 0x00,
  0x05, 0x00, 0x00, 0x00, 0x41, 0x64, 0x64, 0x5f, 0x34, 0x00, 0x00, 0x00, 0x04,
  0x00, 0x00, 0x00, 0x01, 0x00, 0x00, 0x00, 0x01, 0x00, 0x00, 0x00, 0x01, 0x00,
  0x00, 0x00, 0x0b, 0x00, 0x00, 0x00, 0xb0, 0x75, 0xff, 0xff, 0x0a, 0xe0, 0xff,
  0xff, 0x00, 0x00, 0x00, 0x01, 0x02, 0x00, 0x00, 0x00, 0x20, 0x00, 0x00, 0x00,
  0x14, 0x00, 0x00, 0x00, 0x04, 0x00, 0x00, 0x00, 0x6a, 0xe1, 0xff, 0xff, 0x01,
  0x00, 0x00, 0x00, 0x01, 0x00, 0x00, 0x00, 0x01, 0x00, 0x00, 0x00, 0x88, 0x00,
  0x00, 0x00, 0x03, 0x00, 0x00, 0x00, 0x87, 0x00, 0x00, 0x00, 0x3b, 0x00, 0x00,
  0x00, 0x51, 0x00, 0x00, 0x00, 0x5c, 0x76, 0xff, 0xff, 0x5c, 0x00, 0x00, 0x00,
  0x89, 0x00, 0x00, 0x00, 0x20, 0x00, 0x00, 0x00, 0x64, 0x00, 0x00, 0x00, 0x04,
  0x00, 0x00, 0x00, 0x04, 0x00, 0x00, 0x00, 0x01, 0x00, 0x00, 0x00, 0xff, 0xff,
  0xff, 0xff, 0xff, 0xff, 0xff, 0xff, 0x0b, 0x00, 0x00, 0x00, 0x2d, 0x00, 0x00,
  0x00, 0x42, 0x69, 0x61, 0x73, 0x41, 0x64, 0x64, 0x5f, 0x31, 0x35, 0x3b, 0x64,
  0x65, 0x70, 0x74, 0x68, 0x77, 0x69, 0x73, 0x65, 0x5f, 0x33, 0x37, 0x3b, 0x43,
  0x6f, 0x6e, 0x76, 0x32, 0x44, 0x5f, 0x31, 0x35, 0x3b, 0x63, 0x6f, 0x6e, 0x76,
  0x5f, 0x35, 0x5f, 0x31, 0x5f, 0x62, 0x31, 0x00, 0x00, 0x00, 0x04, 0x00, 0x00,
  0x00, 0x01, 0x00, 0x00, 0x00, 0x01, 0x00, 0x00, 0x00, 0x01, 0x00, 0x00, 0x00,
  0x0b, 0x00, 0x00, 0x00, 0x64, 0x76, 0xff, 0xff, 0xbe, 0xe0, 0xff, 0xff, 0x00,
  0x00, 0x00, 0x02, 0x01, 0x00, 0x00, 0x00, 0x24, 0x00, 0x00, 0x00, 0x18, 0x00,
  0x00, 0x00, 0x04, 0x00, 0x00, 0x00, 0xb0, 0xe0, 0xff, 0xff, 0x01, 0x00, 0x00,
  0x00, 0x01, 0x00, 0x00, 0x00, 0x01, 0x00, 0x00, 0x00, 0x01, 0x00, 0x00, 0x00,
  0x87, 0x00, 0x00, 0x00, 0x03, 0x00, 0x00, 0x00, 0x86, 0x00, 0x00, 0x00, 0x3a,
  0x00, 0x00, 0x00, 0x39, 0x00, 0x00, 0x00, 0x14, 0x77, 0xff, 0xff, 0x3c, 0x00,
  0x00, 0x00, 0x88, 0x00, 0x00, 0x00, 0x20, 0x00, 0x00, 0x00, 0x44, 0x00, 0x00,
  0x00, 0x04, 0x00, 0x00, 0x00, 0x04, 0x00, 0x00, 0x00, 0x01, 0x00, 0x00, 0x00,
  0xff, 0xff, 0xff, 0xff, 0xff, 0xff, 0xff, 0xff, 0x08, 0x00, 0x00, 0x00, 0x0d,
  0x00, 0x00, 0x00, 0x64, 0x65, 0x70, 0x74, 0x68, 0x77, 0x69, 0x73, 0x65, 0x5f,
  0x33, 0x31, 0x32, 0x00, 0x00, 0x00, 0x04, 0x00, 0x00, 0x00, 0x01, 0x00, 0x00,
  0x00, 0x01, 0x00, 0x00, 0x00, 0x01, 0x00, 0x00, 0x00, 0x08, 0x00, 0x00, 0x00,
  0xfc, 0x76, 0xff, 0xff, 0x56, 0xe1, 0xff, 0xff, 0x00, 0x00, 0x00, 0x02, 0x01,
  0x00, 0x00, 0x00, 0x24, 0x00, 0x00, 0x00, 0x18, 0x00, 0x00, 0x00, 0x04, 0x00,
  0x00, 0x00, 0x48, 0xe1, 0xff, 0xff, 0x01, 0x00, 0x00, 0x00, 0x01, 0x00, 0x00,
  0x00, 0x01, 0x00, 0x00, 0x00, 0x01, 0x00, 0x00, 0x00, 0x86, 0x00, 0x00, 0x00,
  0x03, 0x00, 0x00, 0x00, 0x7f, 0x00, 0x00, 0x00, 0x38, 0x00, 0x00, 0x00, 0x39,
  0x00, 0x00, 0x00, 0xac, 0x77, 0xff, 0xff, 0x3c, 0x00, 0x00, 0x00, 0x87, 0x00,
  0x00, 0x00, 0x20, 0x00, 0x00, 0x00, 0x44, 0x00, 0x00, 0x00, 0x04, 0x00, 0x00,
  0x00, 0x04, 0x00, 0x00, 0x00, 0x01, 0x00, 0x00, 0x00, 0xff, 0xff, 0xff, 0xff,
  0xff, 0xff, 0xff, 0xff, 0x08, 0x00, 0x00, 0x00, 0x0d, 0x00, 0x00, 0x00, 0x64,
  0x65, 0x70, 0x74, 0x68, 0x77, 0x69, 0x73, 0x65, 0x5f, 0x33, 0x30, 0x31, 0x00,
  0x00, 0x00, 0x04, 0x00, 0x00, 0x00, 0x01, 0x00, 0x00, 0x00, 0x01, 0x00, 0x00,
  0x00, 0x01, 0x00, 0x00, 0x00, 0x08, 0x00, 0x00, 0x00, 0x94, 0x77, 0xff, 0xff,
  0xee, 0xe1, 0xff, 0xff, 0x00, 0x00, 0x00, 0x01, 0x02, 0x00, 0x00, 0x00, 0x20,
  0x00, 0x00, 0x00, 0x14, 0x00, 0x00, 0x00, 0x04, 0x00, 0x00, 0x00, 0x4e, 0xe3,
  0xff, 0xff, 0x01, 0x00, 0x00, 0x00, 0x01, 0x00, 0x00, 0x00, 0x01, 0x00, 0x00,
  0x00, 0x85, 0x00, 0x00, 0x00, 0x03, 0x00, 0x00, 0x00, 0x84, 0x00, 0x00, 0x00,
  0x37, 0x00, 0x00, 0x00, 0x51, 0x00, 0x00, 0x00, 0x40, 0x78, 0xff, 0xff, 0x5c,
  0x00, 0x00, 0x00, 0x86, 0x00, 0x00, 0x00, 0x20, 0x00, 0x00, 0x00, 0x64, 0x00,
  0x00, 0x00, 0x04, 0x00, 0x00, 0x00, 0x04, 0x00, 0x00, 0x00, 0x01, 0x00, 0x00,
  0x00, 0xff, 0xff, 0xff, 0xff, 0xff, 0xff, 0xff, 0xff, 0x0b, 0x00, 0x00, 0x00,
  0x2c, 0x00, 0x00, 0x00, 0x42, 0x69, 0x61, 0x73, 0x41, 0x64, 0x64, 0x5f, 0x31,
  0x34, 0x3b, 0x64, 0x65, 0x70, 0x74, 0x68, 0x77, 0x69, 0x73, 0x65, 0x5f, 0x33,
  0x37, 0x3b, 0x43, 0x6f, 0x6e, 0x76, 0x32, 0x44, 0x5f, 0x31, 0x34, 0x3b, 0x63,
  0x6f, 0x6e, 0x76, 0x5f, 0x35, 0x5f, 0x31, 0x5f, 0x62, 0x00, 0x00, 0x00, 0x00,
  0x04, 0x00, 0x00, 0x00, 0x01, 0x00, 0x00, 0x00, 0x01, 0x00, 0x00, 0x00, 0x01,
  0x00, 0x00, 0x00, 0x0b, 0x00, 0x00, 0x00, 0x48, 0x78, 0xff, 0xff, 0xa2, 0xe2,
  0xff, 0xff, 0x00, 0x00, 0x00, 0x02, 0x01, 0x00, 0x00, 0x00, 0x24, 0x00, 0x00,
  0x00, 0x18, 0x00, 0x00, 0x00, 0x04, 0x00, 0x00, 0x00, 0x94, 0xe2, 0xff, 0xff,
  0x01, 0x00, 0x00, 0x00, 0x01, 0x00, 0x00, 0x00, 0x01, 0x00, 0x00, 0x00, 0x01,
  0x00, 0x00, 0x00, 0x84, 0x00, 0x00, 0x00, 0x03, 0x00, 0x00, 0x00, 0x83, 0x00,
  0x00, 0x00, 0x36, 0x00, 0x00, 0x00, 0x35, 0x00, 0x00, 0x00, 0xf8, 0x78, 0xff,
  0xff, 0x3c, 0x00, 0x00, 0x00, 0x85, 0x00, 0x00, 0x00, 0x20, 0x00, 0x00, 0x00,
  0x44, 0x00, 0x00, 0x00, 0x04, 0x00, 0x00, 0x00, 0x04, 0x00, 0x00, 0x00, 0x01,
  0x00, 0x00, 0x00, 0xff, 0xff, 0xff, 0xff, 0xff, 0xff, 0xff, 0xff, 0x0f, 0x00,
  0x00, 0x00, 0x0d, 0x00, 0x00, 0x00, 0x64, 0x65, 0x70, 0x74, 0x68, 0x77, 0x69,
  0x73, 0x65, 0x5f, 0x32, 0x39, 0x32, 0x00, 0x00, 0x00, 0x04, 0x00, 0x00, 0x00,
  0x01, 0x00, 0x00, 0x00, 0x01, 0x00, 0x00, 0x00, 0x01, 0x00, 0x00, 0x00, 0x0f,
  0x00, 0x00, 0x00, 0xe0, 0x78, 0xff, 0xff, 0x3a, 0xe3, 0xff, 0xff, 0x00, 0x00,
  0x00, 0x02, 0x01, 0x00, 0x00, 0x00, 0x24, 0x00, 0x00, 0x00, 0x18, 0x00, 0x00,
  0x00, 0x04, 0x00, 0x00, 0x00, 0x2c, 0xe3, 0xff, 0xff, 0x01, 0x00, 0x00, 0x00,
  0x01, 0x00, 0x00, 0x00, 0x01, 0x00, 0x00, 0x00, 0x01, 0x00, 0x00, 0x00, 0x83,
  0x00, 0x00, 0x00, 0x03, 0x00, 0x00, 0x00, 0x82, 0x00, 0x00, 0x00, 0x34, 0x00,
  0x00, 0x00, 0x35, 0x00, 0x00, 0x00, 0x90, 0x79, 0xff, 0xff, 0x3c, 0x00, 0x00,
  0x00, 0x84, 0x00, 0x00, 0x00, 0x20, 0x00, 0x00, 0x00, 0x44, 0x00, 0x00, 0x00,
  0x04, 0x00, 0x00, 0x00, 0x04, 0x00, 0x00, 0x00, 0x01, 0x00, 0x00, 0x00, 0xff,
  0xff, 0xff, 0xff, 0xff, 0xff, 0xff, 0xff, 0x0f, 0x00, 0x00, 0x00, 0x0d, 0x00,
  0x00, 0x00, 0x64, 0x65, 0x70, 0x74, 0x68, 0x77, 0x69, 0x73, 0x65, 0x5f, 0x32,
  0x38, 0x31, 0x00, 0x00, 0x00, 0x04, 0x00, 0x00, 0x00, 0x01, 0x00, 0x00, 0x00,
  0x01, 0x00, 0x00, 0x00, 0x01, 0x00, 0x00, 0x00, 0x0f, 0x00, 0x00, 0x00, 0x78,
  0x79, 0xff, 0xff, 0xd2, 0xe3, 0xff, 0xff, 0x00, 0x00, 0x00, 0x01, 0x02, 0x00,
  0x00, 0x00, 0x24, 0x00, 0x00, 0x00, 0x18, 0x00, 0x00, 0x00, 0x04, 0x00, 0x00,
  0x00, 0x38, 0xe7, 0xff, 0xff, 0x01, 0x00, 0x00, 0x00, 0x01, 0x00, 0x00, 0x00,
  0x00, 0x00, 0x00, 0x01, 0x01, 0x00, 0x00, 0x00, 0x82, 0x00, 0x00, 0x00, 0x03,
  0x00, 0x00, 0x00, 0x81, 0x00, 0x00, 0x00, 0x33, 0x00, 0x00, 0x00, 0x02, 0x00,
  0x00, 0x00, 0x28, 0x7a, 0xff, 0xff, 0x60, 0x00, 0x00, 0x00, 0x83, 0x00, 0x00,
  0x00, 0x20, 0x00, 0x00, 0x00, 0x68, 0x00, 0x00, 0x00, 0x04, 0x00, 0x00, 0x00,
  0x04, 0x00, 0x00, 0x00, 0x01, 0x00, 0x00, 0x00, 0xff, 0xff, 0xff, 0xff, 0xff,
  0xff, 0xff, 0xff, 0x0f, 0x00, 0x00, 0x00, 0x33, 0x00, 0x00, 0x00, 0x52, 0x65,
  0x6c, 0x75, 0x5f, 0x34, 0x3b, 0x42, 0x69, 0x61, 0x73, 0x41, 0x64, 0x64, 0x5f,
  0x31, 0x33, 0x3b, 0x64, 0x65, 0x70, 0x74, 0x68, 0x77, 0x69, 0x73, 0x65, 0x5f,
  0x32, 0x39, 0x3b, 0x43, 0x6f, 0x6e, 0x76, 0x32, 0x44, 0x5f, 0x31, 0x33, 0x3b,
  0x63, 0x6f, 0x6e, 0x76, 0x5f, 0x35, 0x5f, 0x30, 0x5f, 0x62, 0x00, 0x04, 0x00,
  0x00, 0x00, 0x01, 0x00, 0x00, 0x00, 0x01, 0x00, 0x00, 0x00, 0x01, 0x00, 0x00,
  0x00, 0x0f, 0x00, 0x00, 0x00, 0x34, 0x7a, 0xff, 0xff, 0x8e, 0xe4, 0xff, 0xff,
  0x00, 0x00, 0x00, 0x02, 0x01, 0x00, 0x00, 0x00, 0x24, 0x00, 0x00, 0x00, 0x18,
  0x00, 0x00, 0x00, 0x04, 0x00, 0x00, 0x00, 0x80, 0xe4, 0xff, 0xff, 0x01, 0x00,
  0x00, 0x00, 0x01, 0x00, 0x00, 0x00, 0x01, 0x00, 0x00, 0x00, 0x01, 0x00, 0x00,
  0x00, 0x81, 0x00, 0x00, 0x00, 0x03, 0x00, 0x00, 0x00, 0x80, 0x00, 0x00, 0x00,
  0x32, 0x00, 0x00, 0x00, 0x39, 0x00, 0x00, 0x00, 0xe4, 0x7a, 0xff, 0xff, 0x3c,
  0x00, 0x00, 0x00, 0x82, 0x00, 0x00, 0x00, 0x20, 0x00, 0x00, 0x00, 0x44, 0x00,
  0x00, 0x00, 0x04, 0x00, 0x00, 0x00, 0x04, 0x00, 0x00, 0x00, 0x01, 0x00, 0x00,
  0x00, 0xff, 0xff, 0xff, 0xff, 0xff, 0xff, 0xff, 0xff, 0x08, 0x00, 0x00, 0x00,
  0x0d, 0x00, 0x00, 0x00, 0x64, 0x65, 0x70, 0x74, 0x68, 0x77, 0x69, 0x73, 0x65,
  0x5f, 0x32, 0x37, 0x31, 0x00, 0x00, 0x00, 0x04, 0x00, 0x00, 0x00, 0x01, 0x00,
  0x00, 0x00, 0x01, 0x00, 0x00, 0x00, 0x01, 0x00, 0x00, 0x00, 0x08, 0x00, 0x00,
  0x00, 0xcc, 0x7a, 0xff, 0xff, 0x26, 0xe5, 0xff, 0xff, 0x00, 0x00, 0x00, 0x02,
  0x01, 0x00, 0x00, 0x00, 0x24, 0x00, 0x00, 0x00, 0x18, 0x00, 0x00, 0x00, 0x04,
  0x00, 0x00, 0x00, 0x18, 0xe5, 0xff, 0xff, 0x01, 0x00, 0x00, 0x00, 0x01, 0x00,
  0x00, 0x00, 0x01, 0x00, 0x00, 0x00, 0x01, 0x00, 0x00, 0x00, 0x80, 0x00, 0x00,
  0x00, 0x03, 0x00, 0x00, 0x00, 0x7f, 0x00, 0x00, 0x00, 0x31, 0x00, 0x00, 0x00,
  0x39, 0x00, 0x00, 0x00, 0x7c, 0x7b, 0xff, 0xff, 0x3c, 0x00, 0x00, 0x00, 0x81,
  0x00, 0x00, 0x00, 0x20, 0x00, 0x00, 0x00, 0x44, 0x00, 0x00, 0x00, 0x04, 0x00,
  0x00, 0x00, 0x04, 0x00, 0x00, 0x00, 0x01, 0x00, 0x00, 0x00, 0xff, 0xff, 0xff,
  0xff, 0xff, 0xff, 0xff, 0xff, 0x08, 0x00, 0x00, 0x00, 0x0d, 0x00, 0x00, 0x00,
  0x64, 0x65, 0x70, 0x74, 0x68, 0x77, 0x69, 0x73, 0x65, 0x5f, 0x32, 0x36, 0x31,
  0x00, 0x00, 0x00, 0x04, 0x00, 0x00, 0x00, 0x01, 0x00, 0x00, 0x00, 0x01, 0x00,
  0x00, 0x00, 0x01, 0x00, 0x00, 0x00, 0x08, 0x00, 0x00, 0x00, 0x64, 0x7b, 0xff,
  0xff, 0xbe, 0xe5, 0xff, 0xff, 0x00, 0x00, 0x00, 0x0b, 0x03, 0x00, 0x00, 0x00,
  0x18, 0x00, 0x00, 0x00, 0x0c, 0x00, 0x00, 0x00, 0x04, 0x00, 0x00, 0x00, 0x80,
  0x7b, 0xff, 0xff, 0x01, 0x00, 0x00, 0x00, 0x7f, 0x00, 0x00, 0x00, 0x02, 0x00,
  0x00, 0x00, 0x7e, 0x00, 0x00, 0x00, 0x7b, 0x00, 0x00, 0x00, 0x04, 0x7c, 0xff,
  0xff, 0x34, 0x00, 0x00, 0x00, 0x80, 0x00, 0x00, 0x00, 0x20, 0x00, 0x00, 0x00,
  0x3c, 0x00, 0x00, 0x00, 0x04, 0x00, 0x00, 0x00, 0x04, 0x00, 0x00, 0x00, 0x01,
  0x00, 0x00, 0x00, 0xff, 0xff, 0xff, 0xff, 0xff, 0xff, 0xff, 0xff, 0x08, 0x00,
  0x00, 0x00, 0x05, 0x00, 0x00, 0x00, 0x41, 0x64, 0x64, 0x5f, 0x33, 0x00, 0x00,
  0x00, 0x04, 0x00, 0x00, 0x00, 0x01, 0x00, 0x00, 0x00, 0x01, 0x00, 0x00, 0x00,
  0x01, 0x00, 0x00, 0x00, 0x08, 0x00, 0x00, 0x00, 0xe4, 0x7b, 0xff, 0xff, 0x3e,
  0xe6, 0xff, 0xff, 0x00, 0x00, 0x00, 0x01, 0x02, 0x00, 0x00, 0x00, 0x20, 0x00,
  0x00, 0x00, 0x14, 0x00, 0x00, 0x00, 0x04, 0x00, 0x00, 0x00, 0x9e, 0xe7, 0xff,
  0xff, 0x01, 0x00, 0x00, 0x00, 0x01, 0x00, 0x00, 0x00, 0x01, 0x00, 0x00, 0x00,
  0x7e, 0x00, 0x00, 0x00, 0x03, 0x00, 0x00, 0x00, 0x7d, 0x00, 0x00, 0x00, 0x30,
  0x00, 0x00, 0x00, 0x50, 0x00, 0x00, 0x00, 0x90, 0x7c, 0xff, 0xff, 0x5c, 0x00,
  0x00, 0x00, 0x7f, 0x00, 0x00, 0x00, 0x20, 0x00, 0x00, 0x00, 0x64, 0x00, 0x00,
  0x00, 0x04, 0x00, 0x00, 0x00, 0x04, 0x00, 0x00, 0x00, 0x01, 0x00, 0x00, 0x00,
  0xff, 0xff, 0xff, 0xff, 0xff, 0xff, 0xff, 0xff, 0x08, 0x00, 0x00, 0x00, 0x2d,
  0x00, 0x00, 0x00, 0x42, 0x69, 0x61, 0x73, 0x41, 0x64, 0x64, 0x5f, 0x31, 0x32,
  0x3b, 0x64, 0x65, 0x70, 0x74, 0x68, 0x77, 0x69, 0x73, 0x65, 0x5f, 0x33, 0x31,
  0x3b, 0x43, 0x6f, 0x6e, 0x76, 0x32, 0x44, 0x5f, 0x31, 0x32, 0x3b, 0x63, 0x6f,
  0x6e, 0x76, 0x5f, 0x34, 0x5f, 0x31, 0x5f, 0x62, 0x31, 0x00, 0x00, 0x00, 0x04,
  0x00, 0x00, 0x00, 0x01, 0x00, 0x00, 0x00, 0x01, 0x00, 0x00, 0x00, 0x01, 0x00,
  0x00, 0x00, 0x08, 0x00, 0x00, 0x00, 0x98, 0x7c, 0xff, 0xff, 0xf2, 0xe6, 0xff,
  0xff, 0x00, 0x00, 0x00, 0x02, 0x01, 0x00, 0x00, 0x00, 0x24, 0x00, 0x00, 0x00,
  0x18, 0x00, 0x00, 0x00, 0x04, 0x00, 0x00, 0x00, 0xe4, 0xe6, 0xff, 0xff, 0x01,
  0x00, 0x00, 0x00, 0x01, 0x00, 0x00, 0x00, 0x01, 0x00, 0x00, 0x00, 0x01, 0x00,
  0x00, 0x00, 0x7d, 0x00, 0x00, 0x00, 0x03, 0x00, 0x00, 0x00, 0x7c, 0x00, 0x00,
  0x00, 0x2f, 0x00, 0x00, 0x00, 0x2e, 0x00, 0x00, 0x00, 0x48, 0x7d, 0xff, 0xff,
  0x3c, 0x00, 0x00, 0x00, 0x7e, 0x00, 0x00, 0x00, 0x20, 0x00, 0x00, 0x00, 0x44,
  0x00, 0x00, 0x00, 0x04, 0x00, 0x00, 0x00, 0x04, 0x00, 0x00, 0x00, 0x01, 0x00,
  0x00, 0x00, 0xff, 0xff, 0xff, 0xff, 0xff, 0xff, 0xff, 0xff, 0x07, 0x00, 0x00,
  0x00, 0x0d, 0x00, 0x00, 0x00, 0x64, 0x65, 0x70, 0x74, 0x68, 0x77, 0x69, 0x73,
  0x65, 0x5f, 0x32, 0x35, 0x32, 0x00, 0x00, 0x00, 0x04, 0x00, 0x00, 0x00, 0x01,
  0x00, 0x00, 0x00, 0x01, 0x00, 0x00, 0x00, 0x01, 0x00, 0x00, 0x00, 0x07, 0x00,
  0x00, 0x00, 0x30, 0x7d, 0xff, 0xff, 0x8a, 0xe7, 0xff, 0xff, 0x00, 0x00, 0x00,
  0x02, 0x01, 0x00, 0x00, 0x00, 0x24, 0x00, 0x00, 0x00, 0x18, 0x00, 0x00, 0x00,
  0x04, 0x00, 0x00, 0x00, 0x7c, 0xe7, 0xff, 0xff, 0x01, 0x00, 0x00, 0x00, 0x01,
  0x00, 0x00, 0x00, 0x01, 0x00, 0x00, 0x00, 0x01, 0x00, 0x00, 0x00, 0x7c, 0x00,
  0x00, 0x00, 0x03, 0x00, 0x00, 0x00, 0x75, 0x00, 0x00, 0x00, 0x2d, 0x00, 0x00,
  0x00, 0x2e, 0x00, 0x00, 0x00, 0xe0, 0x7d, 0xff, 0xff, 0x3c, 0x00, 0x00, 0x00,
  0x7d, 0x00, 0x00, 0x00, 0x20, 0x00, 0x00, 0x00, 0x44, 0x00, 0x00, 0x00, 0x04,
  0x00, 0x00, 0x00, 0x04, 0x00, 0x00, 0x00, 0x01, 0x00, 0x00, 0x00, 0xff, 0xff,
  0xff, 0xff, 0xff, 0xff, 0xff, 0xff, 0x07, 0x00, 0x00, 0x00, 0x0d, 0x00, 0x00,
  0x00, 0x64, 0x65, 0x70, 0x74, 0x68, 0x77, 0x69, 0x73, 0x65, 0x5f, 0x32, 0x34,
  0x31, 0x00, 0x00, 0x00, 0x04, 0x00, 0x00, 0x00, 0x01, 0x00, 0x00, 0x00, 0x01,
  0x00, 0x00, 0x00, 0x01, 0x00, 0x00, 0x00, 0x07, 0x00, 0x00, 0x00, 0xc8, 0x7d,
  0xff, 0xff, 0x22, 0xe8, 0xff, 0xff, 0x00, 0x00, 0x00, 0x01, 0x02, 0x00, 0x00,
  0x00, 0x20, 0x00, 0x00, 0x00, 0x14, 0x00, 0x00, 0x00, 0x04, 0x00, 0x00, 0x00,
  0x82, 0xe9, 0xff, 0xff, 0x01, 0x00, 0x00, 0x00, 0x01, 0x00, 0x00, 0x00, 0x01,
  0x00, 0x00, 0x00, 0x7b, 0x00, 0x00, 0x00, 0x03, 0x00, 0x00, 0x00, 0x7a, 0x00,
  0x00, 0x00, 0x2c, 0x00, 0x00, 0x00, 0x50, 0x00, 0x00, 0x00, 0x74, 0x7e, 0xff,
  0xff, 0x5c, 0x00, 0x00, 0x00, 0x7c, 0x00, 0x00, 0x00, 0x20, 0x00, 0x00, 0x00,
  0x64, 0x00, 0x00, 0x00, 0x04, 0x00, 0x00, 0x00, 0x04, 0x00, 0x00, 0x00, 0x01,
  0x00, 0x00, 0x00, 0xff, 0xff, 0xff, 0xff, 0xff, 0xff, 0xff, 0xff, 0x08, 0x00,
  0x00, 0x00, 0x2c, 0x00, 0x00, 0x00, 0x42, 0x69, 0x61, 0x73, 0x41, 0x64, 0x64,
  0x5f, 0x31, 0x31, 0x3b, 0x64, 0x65, 0x70, 0x74, 0x68, 0x77, 0x69, 0x73, 0x65,
  0x5f, 0x33, 0x31, 0x3b, 0x43, 0x6f, 0x6e, 0x76, 0x32, 0x44, 0x5f, 0x31, 0x31,
  0x3b, 0x63, 0x6f, 0x6e, 0x76, 0x5f, 0x34, 0x5f, 0x31, 0x5f, 0x62, 0x00, 0x00,
  0x00, 0x00, 0x04, 0x00, 0x00, 0x00, 0x01, 0x00, 0x00, 0x00, 0x01, 0x00, 0x00,
  0x00, 0x01, 0x00, 0x00, 0x00, 0x08, 0x00, 0x00, 0x00, 0x7c, 0x7e, 0xff, 0xff,
  0xd6, 0xe8, 0xff, 0xff, 0x00, 0x00, 0x00, 0x02, 0x01, 0x00, 0x00, 0x00, 0x24,
  0x00, 0x00, 0x00, 0x18, 0x00, 0x00, 0x00, 0x04, 0x00, 0x00, 0x00, 0xc8, 0xe8,
  0xff, 0xff, 0x01, 0x00, 0x00, 0x00, 0x01, 0x00, 0x00, 0x00, 0x01, 0x00, 0x00,
  0x00, 0x01, 0x00, 0x00, 0x00, 0x7a, 0x00, 0x00, 0x00, 0x03, 0x00, 0x00, 0x00,
  0x79, 0x00, 0x00, 0x00, 0x2b, 0x00, 0x00, 0x00, 0x44, 0x00, 0x00, 0x00, 0x2c,
  0x7f, 0xff, 0xff, 0x3c, 0x00, 0x00, 0x00, 0x7b, 0x00, 0x00, 0x00, 0x20, 0x00,
  0x00, 0x00, 0x44, 0x00, 0x00, 0x00, 0x04, 0x00, 0x00, 0x00, 0x04, 0x00, 0x00,
  0x00, 0x01, 0x00, 0x00, 0x00, 0xff, 0xff, 0xff, 0xff, 0xff, 0xff, 0xff, 0xff,
  0x0b, 0x00, 0x00, 0x00, 0x0d, 0x00, 0x00, 0x00, 0x64, 0x65, 0x70, 0x74, 0x68,
  0x77, 0x69, 0x73, 0x65, 0x5f, 0x32, 0x33, 0x31, 0x00, 0x00, 0x00, 0x04, 0x00,
  0x00, 0x00, 0x01, 0x00, 0x00, 0x00, 0x01, 0x00, 0x00, 0x00, 0x01, 0x00, 0x00,
  0x00, 0x0b, 0x00, 0x00, 0x00, 0x14, 0x7f, 0xff, 0xff, 0x6e, 0xe9, 0xff, 0xff,
  0x00, 0x00, 0x00, 0x02, 0x01, 0x00, 0x00, 0x00, 0x24, 0x00, 0x00, 0x00, 0x18,
  0x00, 0x00, 0x00, 0x04, 0x00, 0x00, 0x00, 0x60, 0xe9, 0xff, 0xff, 0x01, 0x00,
  0x00, 0x00, 0x01, 0x00, 0x00, 0x00, 0x01, 0x00, 0x00, 0x00, 0x01, 0x00, 0x00,
  0x00, 0x79, 0x00, 0x00, 0x00, 0x03, 0x00, 0x00, 0x00, 0x78, 0x00, 0x00, 0x00,
  0x2a, 0x00, 0x00, 0x00, 0x44, 0x00, 0x00, 0x00, 0xc4, 0x7f, 0xff, 0xff, 0x3c,
  0x00, 0x00, 0x00, 0x7a, 0x00, 0x00, 0x00, 0x20, 0x00, 0x00, 0x00, 0x44, 0x00,
  0x00, 0x00, 0x04, 0x00, 0x00, 0x00, 0x04, 0x00, 0x00, 0x00, 0x01, 0x00, 0x00,
  0x00, 0xff, 0xff, 0xff, 0xff, 0xff, 0xff, 0xff, 0xff, 0x0b, 0x00, 0x00, 0x00,
  0x0d, 0x00, 0x00, 0x00, 0x64, 0x65, 0x70, 0x74, 0x68, 0x77, 0x69, 0x73, 0x65,
  0x5f, 0x32, 0x32, 0x31, 0x00, 0x00, 0x00, 0x04, 0x00, 0x00, 0x00, 0x01, 0x00,
  0x00, 0x00, 0x01, 0x00, 0x00, 0x00, 0x01, 0x00, 0x00, 0x00, 0x0b, 0x00, 0x00,
  0x00, 0xac, 0x7f, 0xff, 0xff, 0x06, 0xea, 0xff, 0xff, 0x00, 0x00, 0x00, 0x01,
  0x02, 0x00, 0x00, 0x00, 0x24, 0x00, 0x00, 0x00, 0x18, 0x00, 0x00, 0x00, 0x04,
  0x00, 0x00, 0x00, 0x6c, 0xed, 0xff, 0xff, 0x01, 0x00, 0x00, 0x00, 0x01, 0x00,
  0x00, 0x00, 0x00, 0x00, 0x00, 0x01, 0x01, 0x00, 0x00, 0x00, 0x78, 0x00, 0x00,
  0x00, 0x03, 0x00, 0x00, 0x00, 0x77, 0x00, 0x00, 0x00, 0x29, 0x00, 0x00, 0x00,
  0x03, 0x00, 0x00, 0x00, 0x5c, 0x80, 0xff, 0xff, 0x60, 0x00, 0x00, 0x00, 0x79,
  0x00, 0x00, 0x00, 0x20, 0x00, 0x00, 0x00, 0x68, 0x00, 0x00, 0x00, 0x04, 0x00,
  0x00, 0x00, 0x04, 0x00, 0x00, 0x00, 0x01, 0x00, 0x00, 0x00, 0xff, 0xff, 0xff,
  0xff, 0xff, 0xff, 0xff, 0xff, 0x0b, 0x00, 0x00, 0x00, 0x33, 0x00, 0x00, 0x00,
  0x52, 0x65, 0x6c, 0x75, 0x5f, 0x33, 0x3b, 0x42, 0x69, 0x61, 0x73, 0x41, 0x64,
  0x64, 0x5f, 0x31, 0x30, 0x3b, 0x64, 0x65, 0x70, 0x74, 0x68, 0x77, 0x69, 0x73,
  0x65, 0x5f, 0x33, 0x37, 0x3b, 0x43, 0x6f, 0x6e, 0x76, 0x32, 0x44, 0x5f, 0x31,
  0x30, 0x3b, 0x63, 0x6f, 0x6e, 0x76, 0x5f, 0x34, 0x5f, 0x30, 0x5f, 0x62, 0x00,
  0x04, 0x00, 0x00, 0x00, 0x01, 0x00, 0x00, 0x00, 0x01, 0x00, 0x00, 0x00, 0x01,
  0x00, 0x00, 0x00, 0x0b, 0x00, 0x00, 0x00, 0x68, 0x80, 0xff, 0xff, 0xc2, 0xea,
  0xff, 0xff, 0x00, 0x00, 0x00, 0x02, 0x01, 0x00, 0x00, 0x00, 0x24, 0x00, 0x00,
  0x00, 0x18, 0x00, 0x00, 0x00, 0x04, 0x00, 0x00, 0x00, 0xb4, 0xea, 0xff, 0xff,
  0x01, 0x00, 0x00, 0x00, 0x01, 0x00, 0x00, 0x00, 0x01, 0x00, 0x00, 0x00, 0x01,
  0x00, 0x00, 0x00, 0x77, 0x00, 0x00, 0x00, 0x03, 0x00, 0x00, 0x00, 0x76, 0x00,
  0x00, 0x00, 0x28, 0x00, 0x00, 0x00, 0x2e, 0x00, 0x00, 0x00, 0x18, 0x81, 0xff,
  0xff, 0x3c, 0x00, 0x00, 0x00, 0x78, 0x00, 0x00, 0x00, 0x20, 0x00, 0x00, 0x00,
  0x44, 0x00, 0x00, 0x00, 0x04, 0x00, 0x00, 0x00, 0x04, 0x00, 0x00, 0x00, 0x01,
  0x00, 0x00, 0x00, 0xff, 0xff, 0xff, 0xff, 0xff, 0xff, 0xff, 0xff, 0x07, 0x00,
  0x00, 0x00, 0x0d, 0x00, 0x00, 0x00, 0x64, 0x65, 0x70, 0x74, 0x68, 0x77, 0x69,
  0x73, 0x65, 0x5f, 0x32, 0x31, 0x31, 0x00, 0x00, 0x00, 0x04, 0x00, 0x00, 0x00,
  0x01, 0x00, 0x00, 0x00, 0x01, 0x00, 0x00, 0x00, 0x01, 0x00, 0x00, 0x00, 0x07,
  0x00, 0x00, 0x00, 0x00, 0x81, 0xff, 0xff, 0x5a, 0xeb, 0xff, 0xff, 0x00, 0x00,
  0x00, 0x02, 0x01, 0x00, 0x00, 0x00, 0x24, 0x00, 0x00, 0x00, 0x18, 0x00, 0x00,
  0x00, 0x04, 0x00, 0x00, 0x00, 0x4c, 0xeb, 0xff, 0xff, 0x01, 0x00, 0x00, 0x00,
  0x01, 0x00, 0x00, 0x00, 0x01, 0x00, 0x00, 0x00, 0x01, 0x00, 0x00, 0x00, 0x76,
  0x00, 0x00, 0x00, 0x03, 0x00, 0x00, 0x00, 0x75, 0x00, 0x00, 0x00, 0x27, 0x00,
  0x00, 0x00, 0x2e, 0x00, 0x00, 0x00, 0xb0, 0x81, 0xff, 0xff, 0x3c, 0x00, 0x00,
  0x00, 0x77, 0x00, 0x00, 0x00, 0x20, 0x00, 0x00, 0x00, 0x44, 0x00, 0x00, 0x00,
  0x04, 0x00, 0x00, 0x00, 0x04, 0x00, 0x00, 0x00, 0x01, 0x00, 0x00, 0x00, 0xff,
  0xff, 0xff, 0xff, 0xff, 0xff, 0xff, 0xff, 0x07, 0x00, 0x00, 0x00, 0x0d, 0x00,
  0x00, 0x00, 0x64, 0x65, 0x70, 0x74, 0x68, 0x77, 0x69, 0x73, 0x65, 0x5f, 0x32,
  0x30, 0x31, 0x00, 0x00, 0x00, 0x04, 0x00, 0x00, 0x00, 0x01, 0x00, 0x00, 0x00,
  0x01, 0x00, 0x00, 0x00, 0x01, 0x00, 0x00, 0x00, 0x07, 0x00, 0x00, 0x00, 0x98,
  0x81, 0xff, 0xff, 0xf2, 0xeb, 0xff, 0xff, 0x00, 0x00, 0x00, 0x0b, 0x03, 0x00,
  0x00, 0x00, 0x18, 0x00, 0x00, 0x00, 0x0c, 0x00, 0x00, 0x00, 0x04, 0x00, 0x00,
  0x00, 0xb4, 0x81, 0xff, 0xff, 0x01, 0x00, 0x00, 0x00, 0x75, 0x00, 0x00, 0x00,
  0x02, 0x00, 0x00, 0x00, 0x74, 0x00, 0x00, 0x00, 0x71, 0x00, 0x00, 0x00, 0x38,
  0x82, 0xff, 0xff, 0x34, 0x00, 0x00, 0x00, 0x76, 0x00, 0x00, 0x00, 0x20, 0x00,
  0x00, 0x00, 0x3c, 0x00, 0x00, 0x00, 0x04, 0x00, 0x00, 0x00, 0x04, 0x00, 0x00,
  0x00, 0x01, 0x00, 0x00, 0x00, 0xff, 0xff, 0xff, 0xff, 0xff, 0xff, 0xff, 0xff,
  0x07, 0x00, 0x00, 0x00, 0x05, 0x00, 0x00, 0x00, 0x41, 0x64, 0x64, 0x5f, 0x32,
  0x00, 0x00, 0x00, 0x04, 0x00, 0x00, 0x00, 0x01, 0x00, 0x00, 0x00, 0x01, 0x00,
  0x00, 0x00, 0x01, 0x00, 0x00, 0x00, 0x07, 0x00, 0x00, 0x00, 0x18, 0x82, 0xff,
  0xff, 0x72, 0xec, 0xff, 0xff, 0x00, 0x00, 0x00, 0x01, 0x02, 0x00, 0x00, 0x00,
  0x20, 0x00, 0x00, 0x00, 0x14, 0x00, 0x00, 0x00, 0x04, 0x00, 0x00, 0x00, 0xd2,
  0xed, 0xff, 0xff, 0x01, 0x00, 0x00, 0x00, 0x01, 0x00, 0x00, 0x00, 0x01, 0x00,
  0x00, 0x00, 0x74, 0x00, 0x00, 0x00, 0x03, 0x00, 0x00, 0x00, 0x73, 0x00, 0x00,
  0x00, 0x26, 0x00, 0x00, 0x00, 0x4f, 0x00, 0x00, 0x00, 0xc4, 0x82, 0xff, 0xff,
  0x58, 0x00, 0x00, 0x00, 0x75, 0x00, 0x00, 0x00, 0x20, 0x00, 0x00, 0x00, 0x60,
  0x00, 0x00, 0x00, 0x04, 0x00, 0x00, 0x00, 0x04, 0x00, 0x00, 0x00, 0x01, 0x00,
  0x00, 0x00, 0xff, 0xff, 0xff, 0xff, 0xff, 0xff, 0xff, 0xff, 0x07, 0x00, 0x00,
  0x00, 0x2b, 0x00, 0x00, 0x00, 0x42, 0x69, 0x61, 0x73, 0x41, 0x64, 0x64, 0x5f,
  0x39, 0x3b, 0x64, 0x65, 0x70, 0x74, 0x68, 0x77, 0x69, 0x73, 0x65, 0x5f, 0x32,
  0x35, 0x3b, 0x43, 0x6f, 0x6e, 0x76, 0x32, 0x44, 0x5f, 0x39, 0x3b, 0x63, 0x6f,
  0x6e, 0x76, 0x5f, 0x33, 0x5f, 0x31, 0x5f, 0x62, 0x31, 0x00, 0x04, 0x00, 0x00,
  0x00, 0x01, 0x00, 0x00, 0x00, 0x01, 0x00, 0x00, 0x00, 0x01, 0x00, 0x00, 0x00,
  0x07, 0x00, 0x00, 0x00, 0xc8, 0x82, 0xff, 0xff, 0x22, 0xed, 0xff, 0xff, 0x00,
  0x00, 0x00, 0x02, 0x01, 0x00, 0x00, 0x00, 0x24, 0x00, 0x00, 0x00, 0x18, 0x00,
  0x00, 0x00, 0x04, 0x00, 0x00, 0x00, 0x14, 0xed, 0xff, 0xff, 0x01, 0x00, 0x00,
  0x00, 0x01, 0x00, 0x00, 0x00, 0x01, 0x00, 0x00, 0x00, 0x01, 0x00, 0x00, 0x00,
  0x73, 0x00, 0x00, 0x00, 0x03, 0x00, 0x00, 0x00, 0x72, 0x00, 0x00, 0x00, 0x25,
  0x00, 0x00, 0x00, 0x39, 0x00, 0x00, 0x00, 0x78, 0x83, 0xff, 0xff, 0x3c, 0x00,
  0x00, 0x00, 0x74, 0x00, 0x00, 0x00, 0x20, 0x00, 0x00, 0x00, 0x44, 0x00, 0x00,
  0x00, 0x04, 0x00, 0x00, 0x00, 0x04, 0x00, 0x00, 0x00, 0x01, 0x00, 0x00, 0x00,
  0xff, 0xff, 0xff, 0xff, 0xff, 0xff, 0xff, 0xff, 0x08, 0x00, 0x00, 0x00, 0x0d,
  0x00, 0x00, 0x00, 0x64, 0x65, 0x70, 0x74, 0x68, 0x77, 0x69, 0x73, 0x65, 0x5f,
  0x31, 0x39, 0x31, 0x00, 0x00, 0x00, 0x04, 0x00, 0x00, 0x00, 0x01, 0x00, 0x00,
  0x00, 0x01, 0x00, 0x00, 0x00, 0x01, 0x00, 0x00, 0x00, 0x08, 0x00, 0x00, 0x00,
  0x60, 0x83, 0xff, 0xff, 0xba, 0xed, 0xff, 0xff, 0x00, 0x00, 0x00, 0x02, 0x01,
  0x00, 0x00, 0x00, 0x24, 0x00, 0x00, 0x00, 0x18, 0x00, 0x00, 0x00, 0x04, 0x00,
  0x00, 0x00, 0xac, 0xed, 0xff, 0xff, 0x01, 0x00, 0x00, 0x00, 0x01, 0x00, 0x00,
  0x00, 0x01, 0x00, 0x00, 0x00, 0x01, 0x00, 0x00, 0x00, 0x72, 0x00, 0x00, 0x00,
  0x03, 0x00, 0x00, 0x00, 0x6b, 0x00, 0x00, 0x00, 0x24, 0x00, 0x00, 0x00, 0x39,
  0x00, 0x00, 0x00, 0x10, 0x84, 0xff, 0xff, 0x3c, 0x00, 0x00, 0x00, 0x73, 0x00,
  0x00, 0x00, 0x20, 0x00, 0x00, 0x00, 0x44, 0x00, 0x00, 0x00, 0x04, 0x00, 0x00,
  0x00, 0x04, 0x00, 0x00, 0x00, 0x01, 0x00, 0x00, 0x00, 0xff, 0xff, 0xff, 0xff,
  0xff, 0xff, 0xff, 0xff, 0x08, 0x00, 0x00, 0x00, 0x0d, 0x00, 0x00, 0x00, 0x64,
  0x65, 0x70, 0x74, 0x68, 0x77, 0x69, 0x73, 0x65, 0x5f, 0x31, 0x38, 0x31, 0x00,
  0x00, 0x00, 0x04, 0x00, 0x00, 0x00, 0x01, 0x00, 0x00, 0x00, 0x01, 0x00, 0x00,
  0x00, 0x01, 0x00, 0x00, 0x00, 0x08, 0x00, 0x00, 0x00, 0xf8, 0x83, 0xff, 0xff,
  0x52, 0xee, 0xff, 0xff, 0x00, 0x00, 0x00, 0x01, 0x02, 0x00, 0x00, 0x00, 0x20,
  0x00, 0x00, 0x00, 0x14, 0x00, 0x00, 0x00, 0x04, 0x00, 0x00, 0x00, 0xb2, 0xef,
  0xff, 0xff, 0x01, 0x00, 0x00, 0x00, 0x01, 0x00, 0x00, 0x00, 0x01, 0x00, 0x00,
  0x00, 0x71, 0x00, 0x00, 0x00, 0x03, 0x00, 0x00, 0x00, 0x70, 0x00, 0x00, 0x00,
  0x23, 0x00, 0x00, 0x00, 0x4f, 0x00, 0x00, 0x00, 0xa4, 0x84, 0xff, 0xff, 0x58,
  0x00, 0x00, 0x00, 0x72, 0x00, 0x00, 0x00, 0x20, 0x00, 0x00, 0x00, 0x60, 0x00,
  0x00, 0x00, 0x04, 0x00, 0x00, 0x00, 0x04, 0x00, 0x00, 0x00, 0x01, 0x00, 0x00,
  0x00, 0xff, 0xff, 0xff, 0xff, 0xff, 0xff, 0xff, 0xff, 0x07, 0x00, 0x00, 0x00,
  0x2a, 0x00, 0x00, 0x00, 0x42, 0x69, 0x61, 0x73, 0x41, 0x64, 0x64, 0x5f, 0x38,
  0x3b, 0x64, 0x65, 0x70, 0x74, 0x68, 0x77, 0x69, 0x73, 0x65, 0x5f, 0x32, 0x35,
  0x3b, 0x43, 0x6f, 0x6e, 0x76, 0x32, 0x44, 0x5f, 0x38, 0x3b, 0x63, 0x6f, 0x6e,
  0x76, 0x5f, 0x33, 0x5f, 0x31, 0x5f, 0x62, 0x00, 0x00, 0x04, 0x00, 0x00, 0x00,
  0x01, 0x00, 0x00, 0x00, 0x01, 0x00, 0x00, 0x00, 0x01, 0x00, 0x00, 0x00, 0x07,
  0x00, 0x00, 0x00, 0xa8, 0x84, 0xff, 0xff, 0x02, 0xef, 0xff, 0xff, 0x00, 0x00,
  0x00, 0x02, 0x01, 0x00, 0x00, 0x00, 0x24, 0x00, 0x00, 0x00, 0x18, 0x00, 0x00,
  0x00, 0x04, 0x00, 0x00, 0x00, 0xf4, 0xee, 0xff, 0xff, 0x01, 0x00, 0x00, 0x00,
  0x01, 0x00, 0x00, 0x00, 0x01, 0x00, 0x00, 0x00, 0x01, 0x00, 0x00, 0x00, 0x70,
  0x00, 0x00, 0x00, 0x03, 0x00, 0x00, 0x00, 0x6f, 0x00, 0x00, 0x00, 0x22, 0x00,
  0x00, 0x00, 0x21, 0x00, 0x00, 0x00, 0x58, 0x85, 0xff, 0xff, 0x3c, 0x00, 0x00,
  0x00, 0x71, 0x00, 0x00, 0x00, 0x20, 0x00, 0x00, 0x00, 0x44, 0x00, 0x00, 0x00,
  0x04, 0x00, 0x00, 0x00, 0x04, 0x00, 0x00, 0x00, 0x01, 0x00, 0x00, 0x00, 0xff,
  0xff, 0xff, 0xff, 0xff, 0xff, 0xff, 0xff, 0x09, 0x00, 0x00, 0x00, 0x0d, 0x00,
  0x00, 0x00, 0x64, 0x65, 0x70, 0x74, 0x68, 0x77, 0x69, 0x73, 0x65, 0x5f, 0x31,
  0x37, 0x32, 0x00, 0x00, 0x00, 0x04, 0x00, 0x00, 0x00, 0x01, 0x00, 0x00, 0x00,
  0x01, 0x00, 0x00, 0x00, 0x01, 0x00, 0x00, 0x00, 0x09, 0x00, 0x00, 0x00, 0x40,
  0x85, 0xff, 0xff, 0x9a, 0xef, 0xff, 0xff, 0x00, 0x00, 0x00, 0x02, 0x01, 0x00,
  0x00, 0x00, 0x24, 0x00, 0x00, 0x00, 0x18, 0x00, 0x00, 0x00, 0x04, 0x00, 0x00,
  0x00, 0x8c, 0xef, 0xff, 0xff, 0x01, 0x00, 0x00, 0x00, 0x01, 0x00, 0x00, 0x00,
  0x01, 0x00, 0x00, 0x00, 0x01, 0x00, 0x00, 0x00, 0x6f, 0x00, 0x00, 0x00, 0x03,
  0x00, 0x00, 0x00, 0x6e, 0x00, 0x00, 0x00, 0x20, 0x00, 0x00, 0x00, 0x21, 0x00,
  0x00, 0x00, 0xf0, 0x85, 0xff, 0xff, 0x3c, 0x00, 0x00, 0x00, 0x70, 0x00, 0x00,
  0x00, 0x20, 0x00, 0x00, 0x00, 0x44, 0x00, 0x00, 0x00, 0x04, 0x00, 0x00, 0x00,
  0x04, 0x00, 0x00, 0x00, 0x01, 0x00, 0x00, 0x00, 0xff, 0xff, 0xff, 0xff, 0xff,
  0xff, 0xff, 0xff, 0x09, 0x00, 0x00, 0x00, 0x0d, 0x00, 0x00, 0x00, 0x64, 0x65,
  0x70, 0x74, 0x68, 0x77, 0x69, 0x73, 0x65, 0x5f, 0x31, 0x36, 0x31, 0x00, 0x00,
  0x00, 0x04, 0x00, 0x00, 0x00, 0x01, 0x00, 0x00, 0x00, 0x01, 0x00, 0x00, 0x00,
  0x01, 0x00, 0x00, 0x00, 0x09, 0x00, 0x00, 0x00, 0xd8, 0x85, 0xff, 0xff, 0x32,
  0xf0, 0xff, 0xff, 0x00, 0x00, 0x00, 0x01, 0x02, 0x00, 0x00, 0x00, 0x24, 0x00,
  0x00, 0x00, 0x18, 0x00, 0x00, 0x00, 0x04, 0x00, 0x00, 0x00, 0x98, 0xf3, 0xff,
  0xff, 0x01, 0x00, 0x00, 0x00, 0x01, 0x00, 0x00, 0x00, 0x00, 0x00, 0x00, 0x01,
  0x01, 0x00, 0x00, 0x00, 0x6e, 0x00, 0x00, 0x00, 0x03, 0x00, 0x00, 0x00, 0x6d,
  0x00, 0x00, 0x00, 0x1f, 0x00, 0x00, 0x00, 0x04, 0x00, 0x00, 0x00, 0x88, 0x86,
  0xff, 0xff, 0x60, 0x00, 0x00, 0x00, 0x6f, 0x00, 0x00, 0x00, 0x20, 0x00, 0x00,
  0x00, 0x68, 0x00, 0x00, 0x00, 0x04, 0x00, 0x00, 0x00, 0x04, 0x00, 0x00, 0x00,
  0x01, 0x00, 0x00, 0x00, 0xff, 0xff, 0xff, 0xff, 0xff, 0xff, 0xff, 0xff, 0x09,
  0x00, 0x00, 0x00, 0x31, 0x00, 0x00, 0x00, 0x52, 0x65, 0x6c, 0x75, 0x5f, 0x32,
  0x3b, 0x42, 0x69, 0x61, 0x73, 0x41, 0x64, 0x64, 0x5f, 0x37, 0x3b, 0x64, 0x65,
  0x70, 0x74, 0x68, 0x77, 0x69, 0x73, 0x65, 0x5f, 0x31, 0x37, 0x3b, 0x43, 0x6f,
  0x6e, 0x76, 0x32, 0x44, 0x5f, 0x37, 0x3b, 0x63, 0x6f, 0x6e, 0x76, 0x5f, 0x33,
  0x5f, 0x30, 0x5f, 0x62, 0x00, 0x00, 0x00, 0x04, 0x00, 0x00, 0x00, 0x01, 0x00,
  0x00, 0x00, 0x01, 0x00, 0x00, 0x00, 0x01, 0x00, 0x00, 0x00, 0x09, 0x00, 0x00,
  0x00, 0x94, 0x86, 0xff, 0xff, 0xee, 0xf0, 0xff, 0xff, 0x00, 0x00, 0x00, 0x02,
  0x01, 0x00, 0x00, 0x00, 0x24, 0x00, 0x00, 0x00, 0x18, 0x00, 0x00, 0x00, 0x04,
  0x00, 0x00, 0x00, 0xe0, 0xf0, 0xff, 0xff, 0x01, 0x00, 0x00, 0x00, 0x01, 0x00,
  0x00, 0x00, 0x01, 0x00, 0x00, 0x00, 0x01, 0x00, 0x00, 0x00, 0x6d, 0x00, 0x00,
  0x00, 0x03, 0x00, 0x00, 0x00, 0x6c, 0x00, 0x00, 0x00, 0x1e, 0x00, 0x00, 0x00,
  0x39, 0x00, 0x00, 0x00, 0x44, 0x87, 0xff, 0xff, 0x3c, 0x00, 0x00, 0x00, 0x6e,
  0x00, 0x00, 0x00, 0x20, 0x00, 0x00, 0x00, 0x44, 0x00, 0x00, 0x00, 0x04, 0x00,
  0x00, 0x00, 0x04, 0x00, 0x00, 0x00, 0x01, 0x00, 0x00, 0x00, 0xff, 0xff, 0xff,
  0xff, 0xff, 0xff, 0xff, 0xff, 0x08, 0x00, 0x00, 0x00, 0x0d, 0x00, 0x00, 0x00,
  0x64, 0x65, 0x70, 0x74, 0x68, 0x77, 0x69, 0x73, 0x65, 0x5f, 0x31, 0x35, 0x31,
  0x00, 0x00, 0x00, 0x04, 0x00, 0x00, 0x00, 0x01, 0x00, 0x00, 0x00, 0x01, 0x00,
  0x00, 0x00, 0x01, 0x00, 0x00, 0x00, 0x08, 0x00, 0x00, 0x00, 0x2c, 0x87, 0xff,
  0xff, 0x86, 0xf1, 0xff, 0xff, 0x00, 0x00, 0x00, 0x02, 0x01, 0x00, 0x00, 0x00,
  0x24, 0x00, 0x00, 0x00, 0x18, 0x00, 0x00, 0x00, 0x04, 0x00, 0x00, 0x00, 0x78,
  0xf1, 0xff, 0xff, 0x01, 0x00, 0x00, 0x00, 0x01, 0x00, 0x00, 0x00, 0x01, 0x00,
  0x00, 0x00, 0x01, 0x00, 0x00, 0x00, 0x6c, 0x00, 0x00, 0x00, 0x03, 0x00, 0x00,
  0x00, 0x6b, 0x00, 0x00, 0x00, 0x1d, 0x00, 0x00, 0x00, 0x39, 0x00, 0x00, 0x00,
  0xdc, 0x87, 0xff, 0xff, 0x3c, 0x00, 0x00, 0x00, 0x6d, 0x00, 0x00, 0x00, 0x20,
  0x00, 0x00, 0x00, 0x44, 0x00, 0x00, 0x00, 0x04, 0x00, 0x00, 0x00, 0x04, 0x00,
  0x00, 0x00, 0x01, 0x00, 0x00, 0x00, 0xff, 0xff, 0xff, 0xff, 0xff, 0xff, 0xff,
  0xff, 0x08, 0x00, 0x00, 0x00, 0x0d, 0x00, 0x00, 0x00, 0x64, 0x65, 0x70, 0x74,
  0x68, 0x77, 0x69, 0x73, 0x65, 0x5f, 0x31, 0x34, 0x31, 0x00, 0x00, 0x00, 0x04,
  0x00, 0x00, 0x00, 0x01, 0x00, 0x00, 0x00, 0x01, 0x00, 0x00, 0x00, 0x01, 0x00,
  0x00, 0x00, 0x08, 0x00, 0x00, 0x00, 0xc4, 0x87, 0xff, 0xff, 0x1e, 0xf2, 0xff,
  0xff, 0x00, 0x00, 0x00, 0x0b, 0x03, 0x00, 0x00, 0x00, 0x18, 0x00, 0x00, 0x00,
  0x0c, 0x00, 0x00, 0x00, 0x04, 0x00, 0x00, 0x00, 0xe0, 0x87, 0xff, 0xff, 0x01,
  0x00, 0x00, 0x00, 0x6b, 0x00, 0x00, 0x00, 0x02, 0x00, 0x00, 0x00, 0x6a, 0x00,
  0x00, 0x00, 0x67, 0x00, 0x00, 0x00, 0x64, 0x88, 0xff, 0xff, 0x34, 0x00, 0x00,
  0x00, 0x6c, 0x00, 0x00, 0x00, 0x20, 0x00, 0x00, 0x00, 0x3c, 0x00, 0x00, 0x00,
  0x04, 0x00, 0x00, 0x00, 0x04, 0x00, 0x00, 0x00, 0x01, 0x00, 0x00, 0x00, 0xff,
  0xff, 0xff, 0xff, 0xff, 0xff, 0xff, 0xff, 0x08, 0x00, 0x00, 0x00, 0x05, 0x00,
  0x00, 0x00, 0x41, 0x64, 0x64, 0x5f, 0x31, 0x00, 0x00, 0x00, 0x04, 0x00, 0x00,
  0x00, 0x01, 0x00, 0x00, 0x00, 0x01, 0x00, 0x00, 0x00, 0x01, 0x00, 0x00, 0x00,
  0x08, 0x00, 0x00, 0x00, 0x44, 0x88, 0xff, 0xff, 0x9e, 0xf2, 0xff, 0xff, 0x00,
  0x00, 0x00, 0x01, 0x02, 0x00, 0x00, 0x00, 0x20, 0x00, 0x00, 0x00, 0x14, 0x00,
  0x00, 0x00, 0x04, 0x00, 0x00, 0x00, 0xfe, 0xf3, 0xff, 0xff, 0x01, 0x00, 0x00,
  0x00, 0x01, 0x00, 0x00, 0x00, 0x01, 0x00, 0x00, 0x00, 0x6a, 0x00, 0x00, 0x00,
  0x03, 0x00, 0x00, 0x00, 0x69, 0x00, 0x00, 0x00, 0x1c, 0x00, 0x00, 0x00, 0x4e,
  0x00, 0x00, 0x00, 0xf0, 0x88, 0xff, 0xff, 0x58, 0x00, 0x00, 0x00, 0x6b, 0x00,
  0x00, 0x00, 0x20, 0x00, 0x00, 0x00, 0x60, 0x00, 0x00, 0x00, 0x04, 0x00, 0x00,
  0x00, 0x04, 0x00, 0x00, 0x00, 0x01, 0x00, 0x00, 0x00, 0xff, 0xff, 0xff, 0xff,
  0xff, 0xff, 0xff, 0xff, 0x08, 0x00, 0x00, 0x00, 0x2b, 0x00, 0x00, 0x00, 0x42,
  0x69, 0x61, 0x73, 0x41, 0x64, 0x64, 0x5f, 0x36, 0x3b, 0x64, 0x65, 0x70, 0x74,
  0x68, 0x77, 0x69, 0x73, 0x65, 0x5f, 0x33, 0x31, 0x3b, 0x43, 0x6f, 0x6e, 0x76,
  0x32, 0x44, 0x5f, 0x36, 0x3b, 0x63, 0x6f, 0x6e, 0x76, 0x5f, 0x32, 0x5f, 0x31,
  0x5f, 0x62, 0x31, 0x00, 0x04, 0x00, 0x00, 0x00, 0x01, 0x00, 0x00, 0x00, 0x01,
  0x00, 0x00, 0x00, 0x01, 0x00, 0x00, 0x00, 0x08, 0x00, 0x00, 0x00, 0xf4, 0x88,
  0xff, 0xff, 0x4e, 0xf3, 0xff, 0xff, 0x00, 0x00, 0x00, 0x02, 0x01, 0x00, 0x00,
  0x00, 0x24, 0x00, 0x00, 0x00, 0x18, 0x00, 0x00, 0x00, 0x04, 0x00, 0x00, 0x00,
  0x40, 0xf3, 0xff, 0xff, 0x01, 0x00, 0x00, 0x00, 0x01, 0x00, 0x00, 0x00, 0x01,
  0x00, 0x00, 0x00, 0x01, 0x00, 0x00, 0x00, 0x69, 0x00, 0x00, 0x00, 0x03, 0x00,
  0x00, 0x00, 0x68, 0x00, 0x00, 0x00, 0x1b, 0x00, 0x00, 0x00, 0x44, 0x00, 0x00,
  0x00, 0xa4, 0x89, 0xff, 0xff, 0x3c, 0x00, 0x00, 0x00, 0x6a, 0x00, 0x00, 0x00,
  0x20, 0x00, 0x00, 0x00, 0x44, 0x00, 0x00, 0x00, 0x04, 0x00, 0x00, 0x00, 0x04,
  0x00, 0x00, 0x00, 0x01, 0x00, 0x00, 0x00, 0xff, 0xff, 0xff, 0xff, 0xff, 0xff,
  0xff, 0xff, 0x0b, 0x00, 0x00, 0x00, 0x0d, 0x00, 0x00, 0x00, 0x64, 0x65, 0x70,
  0x74, 0x68, 0x77, 0x69, 0x73, 0x65, 0x5f, 0x31, 0x33, 0x31, 0x00, 0x00, 0x00,
  0x04, 0x00, 0x00, 0x00, 0x01, 0x00, 0x00, 0x00, 0x01, 0x00, 0x00, 0x00, 0x01,
  0x00, 0x00, 0x00, 0x0b, 0x00, 0x00, 0x00, 0x8c, 0x89, 0xff, 0xff, 0xe6, 0xf3,
  0xff, 0xff, 0x00, 0x00, 0x00, 0x02, 0x01, 0x00, 0x00, 0x00, 0x24, 0x00, 0x00,
  0x00, 0x18, 0x00, 0x00, 0x00, 0x04, 0x00, 0x00, 0x00, 0xd8, 0xf3, 0xff, 0xff,
  0x01, 0x00, 0x00, 0x00, 0x01, 0x00, 0x00, 0x00, 0x01, 0x00, 0x00, 0x00, 0x01,
  0x00, 0x00, 0x00, 0x68, 0x00, 0x00, 0x00, 0x03, 0x00, 0x00, 0x00, 0x61, 0x00,
  0x00, 0x00, 0x1a, 0x00, 0x00, 0x00, 0x44, 0x00, 0x00, 0x00, 0x3c, 0x8a, 0xff,
  0xff, 0x3c, 0x00, 0x00, 0x00, 0x69, 0x00, 0x00, 0x00, 0x20, 0x00, 0x00, 0x00,
  0x44, 0x00, 0x00, 0x00, 0x04, 0x00, 0x00, 0x00, 0x04, 0x00, 0x00, 0x00, 0x01,
  0x00, 0x00, 0x00, 0xff, 0xff, 0xff, 0xff, 0xff, 0xff, 0xff, 0xff, 0x0b, 0x00,
  0x00, 0x00, 0x0d, 0x00, 0x00, 0x00, 0x64, 0x65, 0x70, 0x74, 0x68, 0x77, 0x69,
  0x73, 0x65, 0x5f, 0x31, 0x32, 0x31, 0x00, 0x00, 0x00, 0x04, 0x00, 0x00, 0x00,
  0x01, 0x00, 0x00, 0x00, 0x01, 0x00, 0x00, 0x00, 0x01, 0x00, 0x00, 0x00, 0x0b,
  0x00, 0x00, 0x00, 0x24, 0x8a, 0xff, 0xff, 0x7e, 0xf4, 0xff, 0xff, 0x00, 0x00,
  0x00, 0x01, 0x02, 0x00, 0x00, 0x00, 0x20, 0x00, 0x00, 0x00, 0x14, 0x00, 0x00,
  0x00, 0x04, 0x00, 0x00, 0x00, 0xde, 0xf5, 0xff, 0xff, 0x01, 0x00, 0x00, 0x00,
  0x01, 0x00, 0x00, 0x00, 0x01, 0x00, 0x00, 0x00, 0x67, 0x00, 0x00, 0x00, 0x03,
  0x00, 0x00, 0x00, 0x66, 0x00, 0x00, 0x00, 0x19, 0x00, 0x00, 0x00, 0x4e, 0x00,
  0x00, 0x00, 0xd0, 0x8a, 0xff, 0xff, 0x58, 0x00, 0x00, 0x00, 0x68, 0x00, 0x00,
  0x00, 0x20, 0x00, 0x00, 0x00, 0x60, 0x00, 0x00, 0x00, 0x04, 0x00, 0x00, 0x00,
  0x04, 0x00, 0x00, 0x00, 0x01, 0x00, 0x00, 0x00, 0xff, 0xff, 0xff, 0xff, 0xff,
  0xff, 0xff, 0xff, 0x08, 0x00, 0x00, 0x00, 0x2a, 0x00, 0x00, 0x00, 0x42, 0x69,
  0x61, 0x73, 0x41, 0x64, 0x64, 0x5f, 0x35, 0x3b, 0x64, 0x65, 0x70, 0x74, 0x68,
  0x77, 0x69, 0x73, 0x65, 0x5f, 0x33, 0x31, 0x3b, 0x43, 0x6f, 0x6e, 0x76, 0x32,
  0x44, 0x5f, 0x35, 0x3b, 0x63, 0x6f, 0x6e, 0x76, 0x5f, 0x32, 0x5f, 0x31, 0x5f,
  0x62, 0x00, 0x00, 0x04, 0x00, 0x00, 0x00, 0x01, 0x00, 0x00, 0x00, 0x01, 0x00,
  0x00, 0x00, 0x01, 0x00, 0x00, 0x00, 0x08, 0x00, 0x00, 0x00, 0xd4, 0x8a, 0xff,
  0xff, 0x2e, 0xf5, 0xff, 0xff, 0x00, 0x00, 0x00, 0x02, 0x01, 0x00, 0x00, 0x00,
  0x24, 0x00, 0x00, 0x00, 0x18, 0x00, 0x00, 0x00, 0x04, 0x00, 0x00, 0x00, 0x20,
  0xf5, 0xff, 0xff, 0x01, 0x00, 0x00, 0x00, 0x01, 0x00, 0x00, 0x00, 0x01, 0x00,
  0x00, 0x00, 0x01, 0x00, 0x00, 0x00, 0x66, 0x00, 0x00, 0x00, 0x03, 0x00, 0x00,
  0x00, 0x65, 0x00, 0x00, 0x00, 0x18, 0x00, 0x00, 0x00, 0x44, 0x00, 0x00, 0x00,
  0x84, 0x8b, 0xff, 0xff, 0x3c, 0x00, 0x00, 0x00, 0x67, 0x00, 0x00, 0x00, 0x20,
  0x00, 0x00, 0x00, 0x44, 0x00, 0x00, 0x00, 0x04, 0x00, 0x00, 0x00, 0x04, 0x00,
  0x00, 0x00, 0x01, 0x00, 0x00, 0x00, 0xff, 0xff, 0xff, 0xff, 0xff, 0xff, 0xff,
  0xff, 0x0b, 0x00, 0x00, 0x00, 0x0d, 0x00, 0x00, 0x00, 0x64, 0x65, 0x70, 0x74,
  0x68, 0x77, 0x69, 0x73, 0x65, 0x5f, 0x31, 0x31, 0x31, 0x00, 0x00, 0x00, 0x04,
  0x00, 0x00, 0x00, 0x01, 0x00, 0x00, 0x00, 0x01, 0x00, 0x00, 0x00, 0x01, 0x00,
  0x00, 0x00, 0x0b, 0x00, 0x00, 0x00, 0x6c, 0x8b, 0xff, 0xff, 0xc6, 0xf5, 0xff,
  0xff, 0x00, 0x00, 0x00, 0x02, 0x01, 0x00, 0x00, 0x00, 0x24, 0x00, 0x00, 0x00,
  0x18, 0x00, 0x00, 0x00, 0x04, 0x00, 0x00, 0x00, 0xb8, 0xf5, 0xff, 0xff, 0x01,
  0x00, 0x00, 0x00, 0x01, 0x00, 0x00, 0x00, 0x01, 0x00, 0x00, 0x00, 0x01, 0x00,
  0x00, 0x00, 0x65, 0x00, 0x00, 0x00, 0x03, 0x00, 0x00, 0x00, 0x64, 0x00, 0x00,
  0x00, 0x17, 0x00, 0x00, 0x00, 0x44, 0x00, 0x00, 0x00, 0x1c, 0x8c, 0xff, 0xff,
  0x3c, 0x00, 0x00, 0x00, 0x66, 0x00, 0x00, 0x00, 0x20, 0x00, 0x00, 0x00, 0x44,
  0x00, 0x00, 0x00, 0x04, 0x00, 0x00, 0x00, 0x04, 0x00, 0x00, 0x00, 0x01, 0x00,
  0x00, 0x00, 0xff, 0xff, 0xff, 0xff, 0xff, 0xff, 0xff, 0xff, 0x0b, 0x00, 0x00,
  0x00, 0x0d, 0x00, 0x00, 0x00, 0x64, 0x65, 0x70, 0x74, 0x68, 0x77, 0x69, 0x73,
  0x65, 0x5f, 0x31, 0x30, 0x31, 0x00, 0x00, 0x00, 0x04, 0x00, 0x00, 0x00, 0x01,
  0x00, 0x00, 0x00, 0x01, 0x00, 0x00, 0x00, 0x01, 0x00, 0x00, 0x00, 0x0b, 0x00,
  0x00, 0x00, 0x04, 0x8c, 0xff, 0xff, 0x5e, 0xf6, 0xff, 0xff, 0x00, 0x00, 0x00,
  0x01, 0x02, 0x00, 0x00, 0x00, 0x24, 0x00, 0x00, 0x00, 0x18, 0x00, 0x00, 0x00,
  0x04, 0x00, 0x00, 0x00, 0xc4, 0xf9, 0xff, 0xff, 0x01, 0x00, 0x00, 0x00, 0x01,
  0x00, 0x00, 0x00, 0x00, 0x00, 0x00, 0x01, 0x01, 0x00, 0x00, 0x00, 0x64, 0x00,
  0x00, 0x00, 0x03, 0x00, 0x00, 0x00, 0x63, 0x00, 0x00, 0x00, 0x16, 0x00, 0x00,
  0x00, 0x05, 0x00, 0x00, 0x00, 0xb4, 0x8c, 0xff, 0xff, 0x60, 0x00, 0x00, 0x00,
  0x65, 0x00, 0x00, 0x00, 0x20, 0x00, 0x00, 0x00, 0x68, 0x00, 0x00, 0x00, 0x04,
  0x00, 0x00, 0x00, 0x04, 0x00, 0x00, 0x00, 0x01, 0x00, 0x00, 0x00, 0xff, 0xff,
  0xff, 0xff, 0xff, 0xff, 0xff, 0xff, 0x0b, 0x00, 0x00, 0x00, 0x31, 0x00, 0x00,
  0x00, 0x52, 0x65, 0x6c, 0x75, 0x5f, 0x31, 0x3b, 0x42, 0x69, 0x61, 0x73, 0x41,
  0x64, 0x64, 0x5f, 0x34, 0x3b, 0x64, 0x65, 0x70, 0x74, 0x68, 0x77, 0x69, 0x73,
  0x65, 0x5f, 0x33, 0x37, 0x3b, 0x43, 0x6f, 0x6e, 0x76, 0x32, 0x44, 0x5f, 0x34,
  0x3b, 0x63, 0x6f, 0x6e, 0x76, 0x5f, 0x32, 0x5f, 0x30, 0x5f, 0x62, 0x00, 0x00,
  0x00, 0x04, 0x00, 0x00, 0x00, 0x01, 0x00, 0x00, 0x00, 0x01, 0x00, 0x00, 0x00,
  0x01, 0x00, 0x00, 0x00, 0x0b, 0x00, 0x00, 0x00, 0xc0, 0x8c, 0xff, 0xff, 0x1a,
  0xf7, 0xff, 0xff, 0x00, 0x00, 0x00, 0x02, 0x01, 0x00, 0x00, 0x00, 0x24, 0x00,
  0x00, 0x00, 0x18, 0x00, 0x00, 0x00, 0x04, 0x00, 0x00, 0x00, 0x0c, 0xf7, 0xff,
  0xff, 0x01, 0x00, 0x00, 0x00, 0x01, 0x00, 0x00, 0x00, 0x01, 0x00, 0x00, 0x00,
  0x01, 0x00, 0x00, 0x00, 0x63, 0x00, 0x00, 0x00, 0x03, 0x00, 0x00, 0x00, 0x62,
  0x00, 0x00, 0x00, 0x15, 0x00, 0x00, 0x00, 0x44, 0x00, 0x00, 0x00, 0x70, 0x8d,
  0xff, 0xff, 0x3c, 0x00, 0x00, 0x00, 0x64, 0x00, 0x00, 0x00, 0x20, 0x00, 0x00,
  0x00, 0x44, 0x00, 0x00, 0x00, 0x04, 0x00, 0x00, 0x00, 0x04, 0x00, 0x00, 0x00,
  0x01, 0x00, 0x00, 0x00, 0xff, 0xff, 0xff, 0xff, 0xff, 0xff, 0xff, 0xff, 0x0b,
  0x00, 0x00, 0x00, 0x0c, 0x00, 0x00, 0x00, 0x64, 0x65, 0x70, 0x74, 0x68, 0x77,
  0x69, 0x73, 0x65, 0x5f, 0x39, 0x31, 0x00, 0x00, 0x00, 0x00, 0x04, 0x00, 0x00,
  0x00, 0x01, 0x00, 0x00, 0x00, 0x01, 0x00, 0x00, 0x00, 0x01, 0x00, 0x00, 0x00,
  0x0b, 0x00, 0x00, 0x00, 0x58, 0x8d, 0xff, 0xff, 0xb2, 0xf7, 0xff, 0xff, 0x00,
  0x00, 0x00, 0x02, 0x01, 0x00, 0x00, 0x00, 0x24, 0x00, 0x00, 0x00, 0x18, 0x00,
  0x00, 0x00, 0x04, 0x00, 0x00, 0x00, 0xa4, 0xf7, 0xff, 0xff, 0x01, 0x00, 0x00,
  0x00, 0x01, 0x00, 0x00, 0x00, 0x01, 0x00, 0x00, 0x00, 0x01, 0x00, 0x00, 0x00,
  0x62, 0x00, 0x00, 0x00, 0x03, 0x00, 0x00, 0x00, 0x61, 0x00, 0x00, 0x00, 0x14,
  0x00, 0x00, 0x00, 0x44, 0x00, 0x00, 0x00, 0x08, 0x8e, 0xff, 0xff, 0x3c, 0x00,
  0x00, 0x00, 0x63, 0x00, 0x00, 0x00, 0x20, 0x00, 0x00, 0x00, 0x44, 0x00, 0x00,
  0x00, 0x04, 0x00, 0x00, 0x00, 0x04, 0x00, 0x00, 0x00, 0x01, 0x00, 0x00, 0x00,
  0xff, 0xff, 0xff, 0xff, 0xff, 0xff, 0xff, 0xff, 0x0b, 0x00, 0x00, 0x00, 0x0c,
  0x00, 0x00, 0x00, 0x64, 0x65, 0x70, 0x74, 0x68, 0x77, 0x69, 0x73, 0x65, 0x5f,
  0x38, 0x31, 0x00, 0x00, 0x00, 0x00, 0x04, 0x00, 0x00, 0x00, 0x01, 0x00, 0x00,
  0x00, 0x01, 0x00, 0x00, 0x00, 0x01, 0x00, 0x00, 0x00, 0x0b, 0x00, 0x00, 0x00,
  0xf0, 0x8d, 0xff, 0xff, 0x4a, 0xf8, 0xff, 0xff, 0x00, 0x00, 0x00, 0x0b, 0x03,
  0x00, 0x00, 0x00, 0x18, 0x00, 0x00, 0x00, 0x0c, 0x00, 0x00, 0x00, 0x04, 0x00,
  0x00, 0x00, 0x0c, 0x8e, 0xff, 0xff, 0x01, 0x00, 0x00, 0x00, 0x61, 0x00, 0x00,
  0x00, 0x02, 0x00, 0x00, 0x00, 0x60, 0x00, 0x00, 0x00, 0x5d, 0x00, 0x00, 0x00,
  0x00, 0x00, 0x0a, 0x00, 0x08, 0x00, 0x00, 0x00, 0x00, 0x00, 0x04, 0x00, 0x0a,
  0x00, 0x00, 0x00, 0x01, 0x00, 0x00, 0x00, 0xa4, 0x8e, 0xff, 0xff, 0x30, 0x00,
  0x00, 0x00, 0x62, 0x00, 0x00, 0x00, 0x20, 0x00, 0x00, 0x00, 0x38, 0x00, 0x00,
  0x00, 0x04, 0x00, 0x00, 0x00, 0x04, 0x00, 0x00, 0x00, 0x01, 0x00, 0x00, 0x00,
  0xff, 0xff, 0xff, 0xff, 0xff, 0xff, 0xff, 0xff, 0x0b, 0x00, 0x00, 0x00, 0x03,
  0x00, 0x00, 0x00, 0x41, 0x64, 0x64, 0x00, 0x04, 0x00, 0x00, 0x00, 0x01, 0x00,
  0x00, 0x00, 0x01, 0x00, 0x00, 0x00, 0x01, 0x00, 0x00, 0x00, 0x0b, 0x00, 0x00,
  0x00, 0x80, 0x8e, 0xff, 0xff, 0xda, 0xf8, 0xff, 0xff, 0x00, 0x00, 0x00, 0x01,
  0x02, 0x00, 0x00, 0x00, 0x20, 0x00, 0x00, 0x00, 0x14, 0x00, 0x00, 0x00, 0x04,
  0x00, 0x00, 0x00, 0x3a, 0xfa, 0xff, 0xff, 0x01, 0x00, 0x00, 0x00, 0x01, 0x00,
  0x00, 0x00, 0x01, 0x00, 0x00, 0x00, 0x60, 0x00, 0x00, 0x00, 0x03, 0x00, 0x00,
  0x00, 0x5f, 0x00, 0x00, 0x00, 0x13, 0x00, 0x00, 0x00, 0x4d, 0x00, 0x00, 0x00,
  0x2c, 0x8f, 0xff, 0xff, 0x58, 0x00, 0x00, 0x00, 0x61, 0x00, 0x00, 0x00, 0x20,
  0x00, 0x00, 0x00, 0x60, 0x00, 0x00, 0x00, 0x04, 0x00, 0x00, 0x00, 0x04, 0x00,
  0x00, 0x00, 0x01, 0x00, 0x00, 0x00, 0xff, 0xff, 0xff, 0xff, 0xff, 0xff, 0xff,
  0xff, 0x0b, 0x00, 0x00, 0x00, 0x2b, 0x00, 0x00, 0x00, 0x42, 0x69, 0x61, 0x73,
  0x41, 0x64, 0x64, 0x5f, 0x33, 0x3b, 0x64, 0x65, 0x70, 0x74, 0x68, 0x77, 0x69,
  0x73, 0x65, 0x5f, 0x33, 0x37, 0x3b, 0x43, 0x6f, 0x6e, 0x76, 0x32, 0x44, 0x5f,
  0x33, 0x3b, 0x63, 0x6f, 0x6e, 0x76, 0x5f, 0x31, 0x5f, 0x31, 0x5f, 0x62, 0x31,
  0x00, 0x04, 0x00, 0x00, 0x00, 0x01, 0x00, 0x00, 0x00, 0x01, 0x00, 0x00, 0x00,
  0x01, 0x00, 0x00, 0x00, 0x0b, 0x00, 0x00, 0x00, 0x30, 0x8f, 0xff, 0xff, 0x8a,
  0xf9, 0xff, 0xff, 0x00, 0x00, 0x00, 0x02, 0x01, 0x00, 0x00, 0x00, 0x24, 0x00,
  0x00, 0x00, 0x18, 0x00, 0x00, 0x00, 0x04, 0x00, 0x00, 0x00, 0x7c, 0xf9, 0xff,
  0xff, 0x01, 0x00, 0x00, 0x00, 0x01, 0x00, 0x00, 0x00, 0x01, 0x00, 0x00, 0x00,
  0x01, 0x00, 0x00, 0x00, 0x5f, 0x00, 0x00, 0x00, 0x03, 0x00, 0x00, 0x00, 0x5e,
  0x00, 0x00, 0x00, 0x12, 0x00, 0x00, 0x00, 0x48, 0x00, 0x00, 0x00, 0xe0, 0x8f,
  0xff, 0xff, 0x3c, 0x00, 0x00, 0x00, 0x60, 0x00, 0x00, 0x00, 0x20, 0x00, 0x00,
  0x00, 0x44, 0x00, 0x00, 0x00, 0x04, 0x00, 0x00, 0x00, 0x04, 0x00, 0x00, 0x00,
  0x01, 0x00, 0x00, 0x00, 0xff, 0xff, 0xff, 0xff, 0xff, 0xff, 0xff, 0xff, 0x11,
  0x00, 0x00, 0x00, 0x0c, 0x00, 0x00, 0x00, 0x64, 0x65, 0x70, 0x74, 0x68, 0x77,
  0x69, 0x73, 0x65, 0x5f, 0x37, 0x31, 0x00, 0x00, 0x00, 0x00, 0x04, 0x00, 0x00,
  0x00, 0x01, 0x00, 0x00, 0x00, 0x01, 0x00, 0x00, 0x00, 0x01, 0x00, 0x00, 0x00,
  0x11, 0x00, 0x00, 0x00, 0xc8, 0x8f, 0xff, 0xff, 0x22, 0xfa, 0xff, 0xff, 0x00,
  0x00, 0x00, 0x02, 0x01, 0x00, 0x00, 0x00, 0x24, 0x00, 0x00, 0x00, 0x18, 0x00,
  0x00, 0x00, 0x04, 0x00, 0x00, 0x00, 0x14, 0xfa, 0xff, 0xff, 0x01, 0x00, 0x00,
  0x00, 0x01, 0x00, 0x00, 0x00, 0x01, 0x00, 0x00, 0x00, 0x01, 0x00, 0x00, 0x00,
  0x5e, 0x00, 0x00, 0x00, 0x03, 0x00, 0x00, 0x00, 0x57, 0x00, 0x00, 0x00, 0x11,
  0x00, 0x00, 0x00, 0x48, 0x00, 0x00, 0x00, 0x78, 0x90, 0xff, 0xff, 0x3c, 0x00,
  0x00, 0x00, 0x5f, 0x00, 0x00, 0x00, 0x20, 0x00, 0x00, 0x00, 0x44, 0x00, 0x00,
  0x00, 0x04, 0x00, 0x00, 0x00, 0x04, 0x00, 0x00, 0x00, 0x01, 0x00, 0x00, 0x00,
  0xff, 0xff, 0xff, 0xff, 0xff, 0xff, 0xff, 0xff, 0x11, 0x00, 0x00, 0x00, 0x0c,
  0x00, 0x00, 0x00, 0x64, 0x65, 0x70, 0x74, 0x68, 0x77, 0x69, 0x73, 0x65, 0x5f,
  0x36, 0x31, 0x00, 0x00, 0x00, 0x00, 0x04, 0x00, 0x00, 0x00, 0x01, 0x00, 0x00,
  0x00, 0x01, 0x00, 0x00, 0x00, 0x01, 0x00, 0x00, 0x00, 0x11, 0x00, 0x00, 0x00,
  0x60, 0x90, 0xff, 0xff, 0xba, 0xfa, 0xff, 0xff, 0x00, 0x00, 0x00, 0x01, 0x02,
  0x00, 0x00, 0x00, 0x20, 0x00, 0x00, 0x00, 0x14, 0x00, 0x00, 0x00, 0x04, 0x00,
  0x00, 0x00, 0x1a, 0xfc, 0xff, 0xff, 0x01, 0x00, 0x00, 0x00, 0x01, 0x00, 0x00,
  0x00, 0x01, 0x00, 0x00, 0x00, 0x5d, 0x00, 0x00, 0x00, 0x03, 0x00, 0x00, 0x00,
  0x5c, 0x00, 0x00, 0x00, 0x10, 0x00, 0x00, 0x00, 0x4d, 0x00, 0x00, 0x00, 0x0c,
  0x91, 0xff, 0xff, 0x58, 0x00, 0x00, 0x00, 0x5e, 0x00, 0x00, 0x00, 0x20, 0x00,
  0x00, 0x00, 0x60, 0x00, 0x00, 0x00, 0x04, 0x00, 0x00, 0x00, 0x04, 0x00, 0x00,
  0x00, 0x01, 0x00, 0x00, 0x00, 0xff, 0xff, 0xff, 0xff, 0xff, 0xff, 0xff, 0xff,
  0x0b, 0x00, 0x00, 0x00, 0x2a, 0x00, 0x00, 0x00, 0x42, 0x69, 0x61, 0x73, 0x41,
  0x64, 0x64, 0x5f, 0x32, 0x3b, 0x64, 0x65, 0x70, 0x74, 0x68, 0x77, 0x69, 0x73,
  0x65, 0x5f, 0x33, 0x37, 0x3b, 0x43, 0x6f, 0x6e, 0x76, 0x32, 0x44, 0x5f, 0x32,
  0x3b, 0x63, 0x6f, 0x6e, 0x76, 0x5f, 0x31, 0x5f, 0x31, 0x5f, 0x62, 0x00, 0x00,
  0x04, 0x00, 0x00, 0x00, 0x01, 0x00, 0x00, 0x00, 0x01, 0x00, 0x00, 0x00, 0x01,
  0x00, 0x00, 0x00, 0x0b, 0x00, 0x00, 0x00, 0x10, 0x91, 0xff, 0xff, 0x6a, 0xfb,
  0xff, 0xff, 0x00, 0x00, 0x00, 0x02, 0x01, 0x00, 0x00, 0x00, 0x24, 0x00, 0x00,
  0x00, 0x18, 0x00, 0x00, 0x00, 0x04, 0x00, 0x00, 0x00, 0x5c, 0xfb, 0xff, 0xff,
  0x01, 0x00, 0x00, 0x00, 0x01, 0x00, 0x00, 0x00, 0x01, 0x00, 0x00, 0x00, 0x01,
  0x00, 0x00, 0x00, 0x5c, 0x00, 0x00, 0x00, 0x03, 0x00, 0x00, 0x00, 0x5b, 0x00,
  0x00, 0x00, 0x0f, 0x00, 0x00, 0x00, 0x35, 0x00, 0x00, 0x00, 0xc0, 0x91, 0xff,
  0xff, 0x3c, 0x00, 0x00, 0x00, 0x5d, 0x00, 0x00, 0x00, 0x20, 0x00, 0x00, 0x00,
  0x44, 0x00, 0x00, 0x00, 0x04, 0x00, 0x00, 0x00, 0x04, 0x00, 0x00, 0x00, 0x01,
  0x00, 0x00, 0x00, 0xff, 0xff, 0xff, 0xff, 0xff, 0xff, 0xff, 0xff, 0x0f, 0x00,
  0x00, 0x00, 0x0c, 0x00, 0x00, 0x00, 0x64, 0x65, 0x70, 0x74, 0x68, 0x77, 0x69,
  0x73, 0x65, 0x5f, 0x35, 0x31, 0x00, 0x00, 0x00, 0x00, 0x04, 0x00, 0x00, 0x00,
  0x01, 0x00, 0x00, 0x00, 0x01, 0x00, 0x00, 0x00, 0x01, 0x00, 0x00, 0x00, 0x0f,
  0x00, 0x00, 0x00, 0xa8, 0x91, 0xff, 0xff, 0x02, 0xfc, 0xff, 0xff, 0x00, 0x00,
  0x00, 0x02, 0x01, 0x00, 0x00, 0x00, 0x24, 0x00, 0x00, 0x00, 0x18, 0x00, 0x00,
  0x00, 0x04, 0x00, 0x00, 0x00, 0xf4, 0xfb, 0xff, 0xff, 0x01, 0x00, 0x00, 0x00,
  0x01, 0x00, 0x00, 0x00, 0x01, 0x00, 0x00, 0x00, 0x01, 0x00, 0x00, 0x00, 0x5b,
  0x00, 0x00, 0x00, 0x03, 0x00, 0x00, 0x00, 0x5a, 0x00, 0x00, 0x00, 0x0e, 0x00,
  0x00, 0x00, 0x35, 0x00, 0x00, 0x00, 0x58, 0x92, 0xff, 0xff, 0x3c, 0x00, 0x00,
  0x00, 0x5c, 0x00, 0x00, 0x00, 0x20, 0x00, 0x00, 0x00, 0x44, 0x00, 0x00, 0x00,
  0x04, 0x00, 0x00, 0x00, 0x04, 0x00, 0x00, 0x00, 0x01, 0x00, 0x00, 0x00, 0xff,
  0xff, 0xff, 0xff, 0xff, 0xff, 0xff, 0xff, 0x0f, 0x00, 0x00, 0x00, 0x0c, 0x00,
  0x00, 0x00, 0x64, 0x65, 0x70, 0x74, 0x68, 0x77, 0x69, 0x73, 0x65, 0x5f, 0x34,
  0x31, 0x00, 0x00, 0x00, 0x00, 0x04, 0x00, 0x00, 0x00, 0x01, 0x00, 0x00, 0x00,
  0x01, 0x00, 0x00, 0x00, 0x01, 0x00, 0x00, 0x00, 0x0f, 0x00, 0x00, 0x00, 0x40,
  0x92, 0xff, 0xff, 0x9a, 0xfc, 0xff, 0xff, 0x00, 0x00, 0x00, 0x01, 0x02, 0x00,
  0x00, 0x00, 0x30, 0x00, 0x00, 0x00, 0x24, 0x00, 0x00, 0x00, 0x10, 0x00, 0x00,
  0x00, 0x0c, 0x00, 0x10, 0x00, 0x00, 0x00, 0x04, 0x00, 0x08, 0x00, 0x0f, 0x00,
  0x0c, 0x00, 0x00, 0x00, 0x01, 0x00, 0x00, 0x00, 0x01, 0x00, 0x00, 0x00, 0x00,
  0x00, 0x00, 0x01, 0x01, 0x00, 0x00, 0x00, 0x5a, 0x00, 0x00, 0x00, 0x03, 0x00,
  0x00, 0x00, 0x59, 0x00, 0x00, 0x00, 0x0d, 0x00, 0x00, 0x00, 0x06, 0x00, 0x00,
  0x00, 0xfc, 0x92, 0xff, 0xff, 0x5c, 0x00, 0x00, 0x00, 0x5b, 0x00, 0x00, 0x00,
  0x20, 0x00, 0x00, 0x00, 0x64, 0x00, 0x00, 0x00, 0x04, 0x00, 0x00, 0x00, 0x04,
  0x00, 0x00, 0x00, 0x01, 0x00, 0x00, 0x00, 0xff, 0xff, 0xff, 0xff, 0xff, 0xff,
  0xff, 0xff, 0x0f, 0x00, 0x00, 0x00, 0x2f, 0x00, 0x00, 0x00, 0x52, 0x65, 0x6c,
  0x75, 0x3b, 0x42, 0x69, 0x61, 0x73, 0x41, 0x64, 0x64, 0x5f, 0x31, 0x3b, 0x64,
  0x65, 0x70, 0x74, 0x68, 0x77, 0x69, 0x73, 0x65, 0x5f, 0x32, 0x39, 0x3b, 0x43,
  0x6f, 0x6e, 0x76, 0x32, 0x44, 0x5f, 0x31, 0x3b, 0x63, 0x6f, 0x6e, 0x76, 0x5f,
  0x31, 0x5f, 0x30, 0x5f, 0x62, 0x00, 0x04, 0x00, 0x00, 0x00, 0x01, 0x00, 0x00,
  0x00, 0x01, 0x00, 0x00, 0x00, 0x01, 0x00, 0x00, 0x00, 0x0f, 0x00, 0x00, 0x00,
  0x04, 0x93, 0xff, 0xff, 0x5e, 0xfd, 0xff, 0xff, 0x00, 0x00, 0x00, 0x02, 0x01,
  0x00, 0x00, 0x00, 0x24, 0x00, 0x00, 0x00, 0x18, 0x00, 0x00, 0x00, 0x04, 0x00,
  0x00, 0x00, 0x50, 0xfd, 0xff, 0xff, 0x01, 0x00, 0x00, 0x00, 0x01, 0x00, 0x00,
  0x00, 0x01, 0x00, 0x00, 0x00, 0x01, 0x00, 0x00, 0x00, 0x59, 0x00, 0x00, 0x00,
  0x03, 0x00, 0x00, 0x00, 0x58, 0x00, 0x00, 0x00, 0x0c, 0x00, 0x00, 0x00, 0x48,
  0x00, 0x00, 0x00, 0xb4, 0x93, 0xff, 0xff, 0x3c, 0x00, 0x00, 0x00, 0x5a, 0x00,
  0x00, 0x00, 0x20, 0x00, 0x00, 0x00, 0x44, 0x00, 0x00, 0x00, 0x04, 0x00, 0x00,
  0x00, 0x04, 0x00, 0x00, 0x00, 0x01, 0x00, 0x00, 0x00, 0xff, 0xff, 0xff, 0xff,
  0xff, 0xff, 0xff, 0xff, 0x11, 0x00, 0x00, 0x00, 0x0d, 0x00, 0x00, 0x00, 0x64,
  0x65, 0x70, 0x74, 0x68, 0x77, 0x69, 0x73, 0x65, 0x5f, 0x33, 0x31, 0x30, 0x00,
  0x00, 0x00, 0x04, 0x00, 0x00, 0x00, 0x01, 0x00, 0x00, 0x00, 0x01, 0x00, 0x00,
  0x00, 0x01, 0x00, 0x00, 0x00, 0x11, 0x00, 0x00, 0x00, 0x9c, 0x93, 0xff, 0xff,
  0xf6, 0xfd, 0xff, 0xff, 0x00, 0x00, 0x00, 0x02, 0x01, 0x00, 0x00, 0x00, 0x24,
  0x00, 0x00, 0x00, 0x18, 0x00, 0x00, 0x00, 0x04, 0x00, 0x00, 0x00, 0xe8, 0xfd,
  0xff, 0xff, 0x01, 0x00, 0x00, 0x00, 0x01, 0x00, 0x00, 0x00, 0x01, 0x00, 0x00,
  0x00, 0x01, 0x00, 0x00, 0x00, 0x58, 0x00, 0x00, 0x00, 0x03, 0x00, 0x00, 0x00,
  0x57, 0x00, 0x00, 0x00, 0x0b, 0x00, 0x00, 0x00, 0x48, 0x00, 0x00, 0x00, 0x4c,
  0x94, 0xff, 0xff, 0x3c, 0x00, 0x00, 0x00, 0x59, 0x00, 0x00, 0x00, 0x20, 0x00,
  0x00, 0x00, 0x44, 0x00, 0x00, 0x00, 0x04, 0x00, 0x00, 0x00, 0x04, 0x00, 0x00,
  0x00, 0x01, 0x00, 0x00, 0x00, 0xff, 0xff, 0xff, 0xff, 0xff, 0xff, 0xff, 0xff,
  0x11, 0x00, 0x00, 0x00, 0x0d, 0x00, 0x00, 0x00, 0x64, 0x65, 0x70, 0x74, 0x68,
  0x77, 0x69, 0x73, 0x65, 0x5f, 0x32, 0x31, 0x30, 0x00, 0x00, 0x00, 0x04, 0x00,
  0x00, 0x00, 0x01, 0x00, 0x00, 0x00, 0x01, 0x00, 0x00, 0x00, 0x01, 0x00, 0x00,
  0x00, 0x11, 0x00, 0x00, 0x00, 0x58, 0x95, 0xff, 0xff, 0x00, 0x00, 0x0e, 0x00,
  0x1a, 0x00, 0x08, 0x00, 0x0c, 0x00, 0x10, 0x00, 0x07, 0x00, 0x14, 0x00, 0x0e,
  0x00, 0x00, 0x00, 0x00, 0x00, 0x00, 0x01, 0x02, 0x00, 0x00, 0x00, 0x2c, 0x00,
  0x00, 0x00, 0x20, 0x00, 0x00, 0x00, 0x10, 0x00, 0x00, 0x00, 0x00, 0x00, 0x0a,
  0x00, 0x0c, 0x00, 0x00, 0x00, 0x04, 0x00, 0x08, 0x00, 0x0a, 0x00, 0x00, 0x00,
  0x01, 0x00, 0x00, 0x00, 0x01, 0x00, 0x00, 0x00, 0x01, 0x00, 0x00, 0x00, 0x57,
  0x00, 0x00, 0x00, 0x03, 0x00, 0x00, 0x00, 0x56, 0x00, 0x00, 0x00, 0x0a, 0x00,
  0x00, 0x00, 0x4c, 0x00, 0x00, 0x00, 0xe0, 0xfd, 0xff, 0xff, 0x03, 0x00, 0x00,
  0x00, 0x00, 0x00, 0x00, 0x03, 0x01, 0x00, 0x00, 0x00, 0x0c, 0x95, 0xff, 0xff,
  0x54, 0x00, 0x00, 0x00, 0x58, 0x00, 0x00, 0x00, 0x20, 0x00, 0x00, 0x00, 0x5c,
  0x00, 0x00, 0x00, 0x04, 0x00, 0x00, 0x00, 0x04, 0x00, 0x00, 0x00, 0x01, 0x00,
  0x00, 0x00, 0xff, 0xff, 0xff, 0xff, 0xff, 0xff, 0xff, 0xff, 0x11, 0x00, 0x00,
  0x00, 0x25, 0x00, 0x00, 0x00, 0x42, 0x69, 0x61, 0x73, 0x41, 0x64, 0x64, 0x3b,
  0x64, 0x65, 0x70, 0x74, 0x68, 0x77, 0x69, 0x73, 0x65, 0x5f, 0x33, 0x39, 0x3b,
  0x43, 0x6f, 0x6e, 0x76, 0x32, 0x44, 0x3b, 0x63, 0x6f, 0x6e, 0x76, 0x5f, 0x30,
  0x5f, 0x62, 0x31, 0x00, 0x00, 0x00, 0x04, 0x00, 0x00, 0x00, 0x01, 0x00, 0x00,
  0x00, 0x01, 0x00, 0x00, 0x00, 0x01, 0x00, 0x00, 0x00, 0x11, 0x00, 0x00, 0x00,
  0x0c, 0x95, 0xff, 0xff, 0x66, 0xff, 0xff, 0xff, 0x00, 0x00, 0x00, 0x02, 0x01,
  0x00, 0x00, 0x00, 0x24, 0x00, 0x00, 0x00, 0x18, 0x00, 0x00, 0x00, 0x04, 0x00,
  0x00, 0x00, 0x58, 0xff, 0xff, 0xff, 0x01, 0x00, 0x00, 0x00, 0x01, 0x00, 0x00,
  0x00, 0x01, 0x00, 0x00, 0x00, 0x01, 0x00, 0x00, 0x00, 0x56, 0x00, 0x00, 0x00,
  0x03, 0x00, 0x00, 0x00, 0x55, 0x00, 0x00, 0x00, 0x09, 0x00, 0x00, 0x00, 0x4a,
  0x00, 0x00, 0x00, 0xbc, 0x95, 0xff, 0xff, 0x3c, 0x00, 0x00, 0x00, 0x57, 0x00,
  0x00, 0x00, 0x20, 0x00, 0x00, 0x00, 0x44, 0x00, 0x00, 0x00, 0x04, 0x00, 0x00,
  0x00, 0x04, 0x00, 0x00, 0x00, 0x01, 0x00, 0x00, 0x00, 0xff, 0xff, 0xff, 0xff,
  0xff, 0xff, 0xff, 0xff, 0x01, 0x00, 0x00, 0x00, 0x0d, 0x00, 0x00, 0x00, 0x64,
  0x65, 0x70, 0x74, 0x68, 0x77, 0x69, 0x73, 0x65, 0x5f, 0x31, 0x31, 0x30, 0x00,
  0x00, 0x00, 0x04, 0x00, 0x00, 0x00, 0x01, 0x00, 0x00, 0x00, 0x01, 0x00, 0x00,
  0x00, 0x01, 0x00, 0x00, 0x00, 0x01, 0x00, 0x00, 0x00, 0xc8, 0x96, 0xff, 0xff,
  0x00, 0x00, 0x0e, 0x00, 0x18, 0x00, 0x08, 0x00, 0x0c, 0x00, 0x10, 0x00, 0x07,
  0x00, 0x14, 0x00, 0x0e, 0x00, 0x00, 0x00, 0x00, 0x00, 0x00, 0x02, 0x01, 0x00,
  0x00, 0x00, 0x30, 0x00, 0x00, 0x00, 0x24, 0x00, 0x00, 0x00, 0x10, 0x00, 0x00,
  0x00, 0x0c, 0x00, 0x10, 0x00, 0x00, 0x00, 0x08, 0x00, 0x0c, 0x00, 0x04, 0x00,
  0x0c, 0x00, 0x00, 0x00, 0x01, 0x00, 0x00, 0x00, 0x01, 0x00, 0x00, 0x00, 0x01,
  0x00, 0x00, 0x00, 0x01, 0x00, 0x00, 0x00, 0x55, 0x00, 0x00, 0x00, 0x03, 0x00,
  0x00, 0x00, 0x54, 0x00, 0x00, 0x00, 0x08, 0x00, 0x00, 0x00, 0x4a, 0x00, 0x00,
  0x00, 0x54, 0xff, 0xff, 0xff, 0x04, 0x00, 0x00, 0x00, 0x00, 0x00, 0x00, 0x04,
  0x01, 0x00, 0x00, 0x00, 0x80, 0x96, 0xff, 0xff, 0x38, 0x00, 0x00, 0x00, 0x56,
  0x00, 0x00, 0x00, 0x20, 0x00, 0x00, 0x00, 0x40, 0x00, 0x00, 0x00, 0x04, 0x00,
  0x00, 0x00, 0x04, 0x00, 0x00, 0x00, 0x01, 0x00, 0x00, 0x00, 0xff, 0xff, 0xff,
  0xff, 0xff, 0xff, 0xff, 0xff, 0x01, 0x00, 0x00, 0x00, 0x0a, 0x00, 0x00, 0x00,
  0x64, 0x65, 0x70, 0x74, 0x68, 0x77, 0x69, 0x73, 0x65, 0x31, 0x00, 0x00, 0x04,
  0x00, 0x00, 0x00, 0x01, 0x00, 0x00, 0x00, 0x01, 0x00, 0x00, 0x00, 0x01, 0x00,
  0x00, 0x00, 0x01, 0x00, 0x00, 0x00, 0x88, 0x97, 0xff, 0xff, 0x00, 0x00, 0x0e,
  0x00, 0x16, 0x00, 0x00, 0x00, 0x08, 0x00, 0x0c, 0x00, 0x07, 0x00, 0x10, 0x00,
  0x0e, 0x00, 0x00, 0x00, 0x00, 0x00, 0x00, 0x4d, 0x24, 0x00, 0x00, 0x00, 0x18,
  0x00, 0x00, 0x00, 0x0c, 0x00, 0x00, 0x00, 0x00, 0x00, 0x06, 0x00, 0x08, 0x00,
  0x07, 0x00, 0x06, 0x00, 0x00, 0x00, 0x00, 0x00, 0x00, 0x01, 0x01, 0x00, 0x00,
  0x00, 0x54, 0x00, 0x00, 0x00, 0x02, 0x00, 0x00, 0x00, 0x00, 0x00, 0x00, 0x00,
  0x07, 0x00, 0x00, 0x00, 0x0c, 0x00, 0x10, 0x00, 0x0b, 0x00, 0x00, 0x00, 0x0c,
  0x00, 0x04, 0x00, 0x0c, 0x00, 0x00, 0x00, 0x64, 0x00, 0x00, 0x00, 0x00, 0x00,
  0x00, 0x64, 0x01, 0x00, 0x00, 0x00, 0x38, 0x97, 0xff, 0xff, 0x38, 0x00, 0x00,
  0x00, 0x55, 0x00, 0x00, 0x00, 0x20, 0x00, 0x00, 0x00, 0x40, 0x00, 0x00, 0x00,
  0x04, 0x00, 0x00, 0x00, 0x04, 0x00, 0x00, 0x00, 0x01, 0x00, 0x00, 0x00, 0xff,
  0xff, 0xff, 0xff, 0xff, 0xff, 0xff, 0xff, 0x01, 0x00, 0x00, 0x00, 0x09, 0x00,
  0x00, 0x00, 0x4d, 0x69, 0x72, 0x72, 0x6f, 0x72, 0x50, 0x61, 0x64, 0x00, 0x00,
  0x00, 0x04, 0x00, 0x00, 0x00, 0x01, 0x00, 0x00, 0x00, 0x01, 0x00, 0x00, 0x00,
  0x01, 0x00, 0x00, 0x00, 0x01, 0x00, 0x00, 0x00, 0x1c, 0x97, 0xff, 0xff, 0x3a,
  0x98, 0xff, 0xff, 0x04, 0x00, 0x00, 0x00, 0x04, 0x00, 0x00, 0x00, 0x14, 0xa8,
  0x13, 0x39, 0xda, 0x97, 0xff, 0xff, 0x34, 0x00, 0x00, 0x00, 0x54, 0x00, 0x00,
  0x00, 0x08, 0x00, 0x00, 0x00, 0x30, 0x00, 0x00, 0x00, 0x1d, 0x00, 0x00, 0x00,
  0x42, 0x69, 0x61, 0x73, 0x41, 0x64, 0x64, 0x5f, 0x31, 0x39, 0x3b, 0x43, 0x6f,
  0x6e, 0x76, 0x32, 0x44, 0x5f, 0x31, 0x39, 0x3b, 0x63, 0x6f, 0x6e, 0x76, 0x5f,
  0x37, 0x5f, 0x62, 0x00, 0x00, 0x00, 0x01, 0x00, 0x00, 0x00, 0x01, 0x00, 0x00,
  0x00, 0x70, 0x97, 0xff, 0xff, 0x8e, 0x98, 0xff, 0xff, 0x04, 0x00, 0x00, 0x00,
  0x44, 0x00, 0x00, 0x00, 0x79, 0xa2, 0x04, 0x3d, 0xd0, 0x18, 0xa6, 0xbc, 0x3d,
  0xcb, 0x62, 0xbd, 0x70, 0xad, 0x06, 0x3c, 0x51, 0xaf, 0x60, 0x3d, 0xab, 0x65,
  0x00, 0xbd, 0x00, 0x6c, 0xdb, 0xbc, 0x18, 0xe1, 0x1e, 0xbd, 0x84, 0x55, 0x0b,
  0xbd, 0x79, 0x1f, 0x31, 0x3c, 0x81, 0xff, 0xb7, 0x3c, 0x04, 0x64, 0x82, 0x3a,
  0x51, 0x9c, 0x2b, 0xbc, 0x9e, 0xe3, 0xb4, 0xbd, 0x97, 0x6d, 0xa8, 0x3b, 0xe0,
  0x09, 0x6f, 0xbd, 0xd2, 0x31, 0x56, 0xbd, 0x6e, 0x98, 0xff, 0xff, 0x44, 0x00,
  0x00, 0x00, 0x53, 0x00, 0x00, 0x00, 0x08, 0x00, 0x00, 0x00, 0x40, 0x00, 0x00,
  0x00, 0x2c, 0x00, 0x00, 0x00, 0x42, 0x69, 0x61, 0x73, 0x41, 0x64, 0x64, 0x5f,
  0x31, 0x38, 0x3b, 0x64, 0x65, 0x70, 0x74, 0x68, 0x77, 0x69, 0x73, 0x65, 0x5f,
  0x33, 0x39, 0x3b, 0x43, 0x6f, 0x6e, 0x76, 0x32, 0x44, 0x5f, 0x31, 0x38, 0x3b,
  0x63, 0x6f, 0x6e, 0x76, 0x5f, 0x36, 0x5f, 0x31, 0x5f, 0x62, 0x00, 0x00, 0x00,
  0x00, 0x01, 0x00, 0x00, 0x00, 0x11, 0x00, 0x00, 0x00, 0x14, 0x98, 0xff, 0xff,
  0x32, 0x99, 0xff, 0xff, 0x04, 0x00, 0x00, 0x00, 0x2c, 0x00, 0x00, 0x00, 0x6a,
  0x68, 0x89, 0xbe, 0x83, 0x4b, 0x6e, 0x3e, 0x68, 0xd2, 0xc7, 0x3c, 0x2f, 0x97,
  0x05, 0xbe, 0x9d, 0xc0, 0x88, 0xbc, 0x30, 0x70, 0x3c, 0xbd, 0x75, 0x4e, 0x8a,
  0xbe, 0xec, 0x87, 0x5a, 0x3e, 0x74, 0x0b, 0x0a, 0x3d, 0xbb, 0x2d, 0xa4, 0xbd,
  0xf3, 0x07, 0x5a, 0xbe, 0xfa, 0x98, 0xff, 0xff, 0x44, 0x00, 0x00, 0x00, 0x52,
  0x00, 0x00, 0x00, 0x08, 0x00, 0x00, 0x00, 0x40, 0x00, 0x00, 0x00, 0x2c, 0x00,
  0x00, 0x00, 0x42, 0x69, 0x61, 0x73, 0x41, 0x64, 0x64, 0x5f, 0x31, 0x35, 0x3b,
  0x64, 0x65, 0x70, 0x74, 0x68, 0x77, 0x69, 0x73, 0x65, 0x5f, 0x33, 0x37, 0x3b,
  0x43, 0x6f, 0x6e, 0x76, 0x32, 0x44, 0x5f, 0x31, 0x35, 0x3b, 0x63, 0x6f, 0x6e,
  0x76, 0x5f, 0x35, 0x5f, 0x31, 0x5f, 0x62, 0x00, 0x00, 0x00, 0x00, 0x01, 0x00,
  0x00, 0x00, 0x0b, 0x00, 0x00, 0x00, 0xa0, 0x98, 0xff, 0xff, 0xbe, 0x99, 0xff,
  0xff, 0x04, 0x00, 0x00, 0x00, 0x20, 0x00, 0x00, 0x00, 0xc9, 0x27, 0xe8, 0xbd,
  0x87, 0xac, 0x03, 0x3f, 0xf6, 0x45, 0x57, 0xba, 0x5d, 0x79, 0xc1, 0xbd, 0xb3,
  0x33, 0x8c, 0x3e, 0x77, 0x09, 0x96, 0xbd, 0x61, 0x03, 0x5c, 0x3e, 0xd9, 0x12,
  0x0b, 0xbc, 0x7a, 0x99, 0xff, 0xff, 0x44, 0x00, 0x00, 0x00, 0x51, 0x00, 0x00,
  0x00, 0x08, 0x00, 0x00, 0x00, 0x40, 0x00, 0x00, 0x00, 0x2c, 0x00, 0x00, 0x00,
  0x42, 0x69, 0x61, 0x73, 0x41, 0x64, 0x64, 0x5f, 0x31, 0x32, 0x3b, 0x64, 0x65,
  0x70, 0x74, 0x68, 0x77, 0x69, 0x73, 0x65, 0x5f, 0x33, 0x31, 0x3b, 0x43, 0x6f,
  0x6e, 0x76, 0x32, 0x44, 0x5f, 0x31, 0x32, 0x3b, 0x63, 0x6f, 0x6e, 0x76, 0x5f,
  0x34, 0x5f, 0x31, 0x5f, 0x62, 0x00, 0x00, 0x00, 0x00, 0x01, 0x00, 0x00, 0x00,
  0x08, 0x00, 0x00, 0x00, 0x20, 0x99, 0xff, 0xff, 0x3e, 0x9a, 0xff, 0xff, 0x04,
  0x00, 0x00, 0x00, 0x1c, 0x00, 0x00, 0x00, 0x7a, 0x37, 0x8c, 0xbe, 0x50, 0xd6,
  0x27, 0xbf, 0x13, 0xd1, 0xfc, 0xbe, 0xb2, 0x19, 0x62, 0xbe, 0xce, 0xda, 0x33,
  0xbe, 0xde, 0x56, 0x21, 0x3f, 0x67, 0xc0, 0x0e, 0x3f, 0xf6, 0x99, 0xff, 0xff,
  0x40, 0x00, 0x00, 0x00, 0x50, 0x00, 0x00, 0x00, 0x08, 0x00, 0x00, 0x00, 0x3c,
  0x00, 0x00, 0x00, 0x2a, 0x00, 0x00, 0x00, 0x42, 0x69, 0x61, 0x73, 0x41, 0x64,
  0x64, 0x5f, 0x39, 0x3b, 0x64, 0x65, 0x70, 0x74, 0x68, 0x77, 0x69, 0x73, 0x65,
  0x5f, 0x32, 0x35, 0x3b, 0x43, 0x6f, 0x6e, 0x76, 0x32, 0x44, 0x5f, 0x39, 0x3b,
  0x63, 0x6f, 0x6e, 0x76, 0x5f, 0x33, 0x5f, 0x31, 0x5f, 0x62, 0x00, 0x00, 0x01,
  0x00, 0x00, 0x00, 0x07, 0x00, 0x00, 0x00, 0x98, 0x99, 0xff, 0xff, 0xb6, 0x9a,
  0xff, 0xff, 0x04, 0x00, 0x00, 0x00, 0x20, 0x00, 0x00, 0x00, 0xbe, 0xdb, 0xb8,
  0xbe, 0x82, 0x44, 0x05, 0xbf, 0x85, 0x71, 0x27, 0x3f, 0x52, 0xaa, 0x05, 0x3d,
  0xcc, 0xf5, 0x62, 0x3c, 0xa7, 0x40, 0x48, 0x3d, 0x40, 0x88, 0xa4, 0xbe, 0x53,
  0xaa, 0x2e, 0x3f, 0x72, 0x9a, 0xff, 0xff, 0x40, 0x00, 0x00, 0x00, 0x4f, 0x00,
  0x00, 0x00, 0x08, 0x00, 0x00, 0x00, 0x3c, 0x00, 0x00, 0x00, 0x2a, 0x00, 0x00,
  0x00, 0x42, 0x69, 0x61, 0x73, 0x41, 0x64, 0x64, 0x5f, 0x36, 0x3b, 0x64, 0x65,
  0x70, 0x74, 0x68, 0x77, 0x69, 0x73, 0x65, 0x5f, 0x33, 0x31, 0x3b, 0x43, 0x6f,
  0x6e, 0x76, 0x32, 0x44, 0x5f, 0x36, 0x3b, 0x63, 0x6f, 0x6e, 0x76, 0x5f, 0x32,
  0x5f, 0x31, 0x5f, 0x62, 0x00, 0x00, 0x01, 0x00, 0x00, 0x00, 0x08, 0x00, 0x00,
  0x00, 0x14, 0x9a, 0xff, 0xff, 0x32, 0x9b, 0xff, 0xff, 0x04, 0x00, 0x00, 0x00,
  0x2c, 0x00, 0x00, 0x00, 0x18, 0x15, 0x3b, 0x3e, 0x28, 0xd7, 0xee, 0xbe, 0x7f,
  0x19, 0x07, 0x3f, 0x49, 0x7a, 0xa8, 0x3e, 0x4d, 0xc1, 0x29, 0x3e, 0xba, 0xa6,
  0x9e, 0xbe, 0x7a, 0xff, 0x99, 0xbd, 0xb8, 0x66, 0x1b, 0x3f, 0xe9, 0xd9, 0xb7,
  0x3e, 0xdd, 0xb3, 0x70, 0xbf, 0x78, 0x39, 0x7f, 0xbd, 0xfa, 0x9a, 0xff, 0xff,
  0x40, 0x00, 0x00, 0x00, 0x4e, 0x00, 0x00, 0x00, 0x08, 0x00, 0x00, 0x00, 0x3c,
  0x00, 0x00, 0x00, 0x2a, 0x00, 0x00, 0x00, 0x42, 0x69, 0x61, 0x73, 0x41, 0x64,
  0x64, 0x5f, 0x33, 0x3b, 0x64, 0x65, 0x70, 0x74, 0x68, 0x77, 0x69, 0x73, 0x65,
  0x5f, 0x33, 0x37, 0x3b, 0x43, 0x6f, 0x6e, 0x76, 0x32, 0x44, 0x5f, 0x33, 0x3b,
  0x63, 0x6f, 0x6e, 0x76, 0x5f, 0x31, 0x5f, 0x31, 0x5f, 0x62, 0x00, 0x00, 0x01,
  0x00, 0x00, 0x00, 0x0b, 0x00, 0x00, 0x00, 0x9c, 0x9a, 0xff, 0xff, 0xba, 0x9b,
  0xff, 0xff, 0x04, 0x00, 0x00, 0x00, 0x44, 0x00, 0x00, 0x00, 0xd8, 0xfd, 0xc6,
  0xbf, 0x11, 0x0c, 0x07, 0x40, 0x75, 0x6b, 0xb4, 0x3f, 0x19, 0xc9, 0x0f, 0xc0,
  0x00, 0xfb, 0x9d, 0xc0, 0xb0, 0x92, 0x90, 0xbf, 0x82, 0x9e, 0x23, 0x40, 0x96,
  0x58, 0xbe, 0x3f, 0xda, 0x5c, 0xc0, 0x3f, 0x6e, 0x74, 0x23, 0xc0, 0x4e, 0xe7,
  0x1a, 0xc0, 0x3c, 0x2b, 0xcb, 0x3f, 0x16, 0x7d, 0xb9, 0x3f, 0xcf, 0x7d, 0x07,
  0x40, 0x8b, 0x87, 0x14, 0x40, 0xfa, 0xed, 0xf3, 0xbf, 0xde, 0x39, 0xf4, 0xbf,
  0x9a, 0x9b, 0xff, 0xff, 0x3c, 0x00, 0x00, 0x00, 0x4d, 0x00, 0x00, 0x00, 0x08,
  0x00, 0x00, 0x00, 0x38, 0x00, 0x00, 0x00, 0x24, 0x00, 0x00, 0x00, 0x42, 0x69,
  0x61, 0x73, 0x41, 0x64, 0x64, 0x3b, 0x64, 0x65, 0x70, 0x74, 0x68, 0x77, 0x69,
  0x73, 0x65, 0x5f, 0x33, 0x39, 0x3b, 0x43, 0x6f, 0x6e, 0x76, 0x32, 0x44, 0x3b,
  0x63, 0x6f, 0x6e, 0x76, 0x5f, 0x30, 0x5f, 0x62, 0x00, 0x00, 0x00, 0x00, 0x01,
  0x00, 0x00, 0x00, 0x11, 0x00, 0x00, 0x00, 0x38, 0x9b, 0xff, 0xff, 0x56, 0x9c,
  0xff, 0xff, 0x04, 0x00, 0x00, 0x00, 0x44, 0x00, 0x00, 0x00, 0x4e, 0x5d, 0xce,
  0xbc, 0x94, 0x62, 0xe7, 0x3c, 0xb2, 0x85, 0x1d, 0x3d, 0x24, 0x64, 0x04, 0xbd,
  0x6d, 0x4e, 0x27, 0xbd, 0x5d, 0x6d, 0x33, 0x3d, 0x8e, 0x2f, 0x16, 0xbd, 0x6f,
  0xb8, 0xc0, 0x3b, 0x39, 0xd7, 0xfd, 0x3c, 0x55, 0x23, 0xc9, 0xbc, 0x1e, 0xbb,
  0xfa, 0xbc, 0xa8, 0x62, 0xa6, 0xbc, 0x0f, 0xc5, 0x51, 0xbd, 0x26, 0xe4, 0xbf,
  0x3c, 0xea, 0x9a, 0xe7, 0xbc, 0x17, 0x37, 0x20, 0x3d, 0xe1, 0x0f, 0xeb, 0xbc,
  0x36, 0x9c, 0xff, 0xff, 0x20, 0x00, 0x00, 0x00, 0x4c, 0x00, 0x00, 0x00, 0x08,
  0x00, 0x00, 0x00, 0x28, 0x00, 0x00, 0x00, 0x0a, 0x00, 0x00, 0x00, 0x43, 0x6f,
  0x6e, 0x76, 0x32, 0x44, 0x5f, 0x31, 0x39, 0x31, 0x00, 0x00, 0x04, 0x00, 0x00,
  0x00, 0x01, 0x00, 0x00, 0x00, 0x01, 0x00, 0x00, 0x00, 0x01, 0x00, 0x00, 0x00,
  0x11, 0x00, 0x00, 0x00, 0xc4, 0x9b, 0xff, 0xff, 0xe2, 0x9c, 0xff, 0xff, 0x04,
  0x00, 0x00, 0x00, 0x04, 0x00, 0x00, 0x00, 0x00, 0x00, 0x00, 0x00, 0x82, 0x9c,
  0xff, 0xff, 0x20, 0x00, 0x00, 0x00, 0x4b, 0x00, 0x00, 0x00, 0x08, 0x00, 0x00,
  0x00, 0x1c, 0x00, 0x00, 0x00, 0x09, 0x00, 0x00, 0x00, 0x43, 0x6f, 0x6e, 0x76,
  0x32, 0x44, 0x5f, 0x31, 0x39, 0x00, 0x00, 0x00, 0x01, 0x00, 0x00, 0x00, 0x01,
  0x00, 0x00, 0x00, 0x04, 0x9c, 0xff, 0xff, 0x22, 0x9d, 0xff, 0xff, 0x04, 0x00,
  0x00, 0x00, 0xdc, 0x01, 0x00, 0x00, 0x3e, 0x27, 0x20, 0x3d, 0x26, 0x56, 0xd3,
  0xbd, 0xc8, 0xf4, 0xbd, 0xbc, 0x3d, 0x7d, 0xe4, 0x3d, 0x52, 0xdc, 0x14, 0x3d,
  0x5b, 0x80, 0xdd, 0x3c, 0x8e, 0x84, 0x44, 0xbb, 0x12, 0x0f, 0xb8, 0xbd, 0x52,
  0x24, 0xee, 0xbc, 0xf6, 0x93, 0x4b, 0xbd, 0x8b, 0x90, 0x35, 0x3d, 0x67, 0x86,
  0xb7, 0x3d, 0xcd, 0x1a, 0x19, 0x3c, 0xe0, 0x46, 0xe5, 0xbe, 0xa0, 0xad, 0x11,
  0x3c, 0xbb, 0x7e, 0x41, 0x3d, 0x43, 0xda, 0x08, 0xbd, 0xda, 0x5e, 0x70, 0x3d,
  0x88, 0x14, 0xc6, 0x3e, 0x43, 0x3e, 0x1e, 0x3c, 0xe3, 0xfc, 0x3d, 0x3e, 0x23,
  0xb7, 0xc3, 0xbc, 0x67, 0xbc, 0x8c, 0xbc, 0xf7, 0xce, 0x9e, 0xbc, 0x11, 0x5c,
  0xa9, 0x3c, 0x31, 0xfc, 0x03, 0xbe, 0x5e, 0x48, 0x4c, 0xbe, 0x8d, 0x8f, 0x05,
  0xba, 0xf2, 0x39, 0x46, 0x3d, 0x0a, 0xad, 0xdb, 0x3b, 0x16, 0xc5, 0xd9, 0x3d,
  0x85, 0xa2, 0x93, 0xbb, 0x7f, 0xaf, 0x18, 0xbb, 0x45, 0xd0, 0x6d, 0xbd, 0xa7,
  0x03, 0xf4, 0x3c, 0xc8, 0x98, 0xc5, 0xbe, 0x3e, 0xc4, 0x64, 0xbd, 0x9b, 0x78,
  0x60, 0x3d, 0x56, 0x59, 0x8f, 0x3d, 0xd3, 0x72, 0x88, 0x3d, 0xd7, 0xcc, 0xa6,
  0xbb, 0x40, 0xa5, 0xbf, 0x3c, 0xe8, 0xcc, 0x2f, 0x3c, 0x72, 0xae, 0x3a, 0xbd,
  0xb4, 0xd3, 0x46, 0x3d, 0x3e, 0xab, 0x55, 0x3e, 0x1e, 0xff, 0x50, 0x3c, 0xc7,
  0xd1, 0x8b, 0x3e, 0xb2, 0x7e, 0x72, 0x3d, 0x5f, 0x3d, 0xc1, 0x3c, 0xdc, 0x73,
  0x28, 0xbd, 0xe6, 0x3a, 0x7c, 0x3b, 0x1e, 0x37, 0x38, 0xbd, 0x57, 0x60, 0x60,
  0x3c, 0xe7, 0xa0, 0x0a, 0x3e, 0xac, 0x11, 0x80, 0xbe, 0x9d, 0xc1, 0x04, 0xbd,
  0x81, 0xae, 0x4e, 0x3c, 0xb4, 0x81, 0xaf, 0x3d, 0x9b, 0x1c, 0x62, 0xbe, 0xfb,
  0x94, 0x5e, 0xbd, 0x41, 0x89, 0x05, 0xbe, 0x80, 0x1c, 0x15, 0x3d, 0x6d, 0x60,
  0xa9, 0x3b, 0x0b, 0x81, 0xeb, 0x3d, 0xc2, 0x0d, 0xbe, 0x3d, 0xae, 0x70, 0x95,
  0x3e, 0xd7, 0x68, 0x16, 0xbe, 0x1d, 0x22, 0x26, 0xbe, 0x3e, 0x9c, 0x21, 0xbd,
  0x50, 0xcb, 0x63, 0xbe, 0x2c, 0xd4, 0x96, 0xbd, 0xb0, 0xed, 0x15, 0x3f, 0x7d,
  0x54, 0x27, 0x3e, 0x8d, 0xbf, 0x00, 0x3f, 0xa0, 0x28, 0x9d, 0xbc, 0xdc, 0x92,
  0x81, 0x3e, 0x9b, 0x90, 0x03, 0x3e, 0x06, 0x62, 0xce, 0x3e, 0x54, 0x11, 0x9b,
  0xbe, 0xf2, 0xc7, 0xb0, 0x3e, 0x39, 0xe7, 0x54, 0xbe, 0x95, 0x35, 0xb7, 0x3b,
  0x3f, 0xcb, 0x38, 0x3e, 0x38, 0x3c, 0xb7, 0x3d, 0x5c, 0xfd, 0x19, 0x3b, 0x10,
  0x2b, 0xb1, 0x3e, 0x06, 0xa3, 0xa0, 0xbc, 0xa8, 0x4b, 0x8e, 0x3c, 0xe5, 0x5d,
  0xc9, 0xbd, 0x39, 0x28, 0x55, 0x3e, 0x06, 0x08, 0x12, 0xbd, 0x21, 0x40, 0x54,
  0xbc, 0x50, 0xd0, 0x00, 0xbe, 0x8b, 0x33, 0x82, 0x3d, 0x7d, 0xf7, 0xa3, 0xbe,
  0x14, 0x3c, 0x98, 0x3d, 0x4e, 0xbe, 0x2d, 0x3d, 0x8a, 0xe4, 0xa4, 0x3e, 0x0b,
  0xe8, 0xee, 0x3d, 0xa5, 0xa0, 0x3a, 0xbf, 0x38, 0x69, 0x20, 0x3e, 0xd0, 0x5b,
  0x80, 0x3e, 0x3c, 0xc7, 0x90, 0xbe, 0x82, 0x18, 0x89, 0xbd, 0xd3, 0x27, 0x4e,
  0x3d, 0xbb, 0x07, 0xb1, 0xbe, 0x78, 0xd1, 0xb7, 0x3a, 0x00, 0x21, 0xb9, 0xbb,
  0x56, 0xb7, 0x6b, 0xbd, 0xaa, 0xee, 0xcb, 0x3d, 0x9f, 0xe9, 0x0a, 0x3c, 0xc3,
  0x95, 0x0e, 0xbe, 0xa8, 0x52, 0xf2, 0x3d, 0x90, 0xe6, 0x69, 0x3d, 0x63, 0x43,
  0x56, 0xbe, 0x32, 0xa5, 0xb2, 0x3d, 0xfb, 0xa8, 0x32, 0x3e, 0xf4, 0xa3, 0xe8,
  0x3b, 0x9a, 0x9e, 0xff, 0xff, 0x24, 0x00, 0x00, 0x00, 0x4a, 0x00, 0x00, 0x00,
  0x08, 0x00, 0x00, 0x00, 0x2c, 0x00, 0x00, 0x00, 0x0d, 0x00, 0x00, 0x00, 0x64,
  0x65, 0x70, 0x74, 0x68, 0x77, 0x69, 0x73, 0x65, 0x5f, 0x33, 0x39, 0x31, 0x00,
  0x00, 0x00, 0x04, 0x00, 0x00, 0x00, 0x01, 0x00, 0x00, 0x00, 0x01, 0x00, 0x00,
  0x00, 0x07, 0x00, 0x00, 0x00, 0x11, 0x00, 0x00, 0x00, 0x2c, 0x9e, 0xff, 0xff,
  0x4a, 0x9f, 0xff, 0xff, 0x04, 0x00, 0x00, 0x00, 0x44, 0x00, 0x00, 0x00, 0x00,
  0x00, 0x00, 0x00, 0x00, 0x00, 0x00, 0x00, 0x00, 0x00, 0x00, 0x00, 0x00, 0x00,
  0x00, 0x00, 0x00, 0x00, 0x00, 0x00, 0x00, 0x00, 0x00, 0x00, 0x00, 0x00, 0x00,
  0x00, 0x00, 0x00, 0x00, 0x00, 0x00, 0x00, 0x00, 0x00, 0x00, 0x00, 0x00, 0x00,
  0x00, 0x00, 0x00, 0x00, 0x00, 0x00, 0x00, 0x00, 0x00, 0x00, 0x00, 0x00, 0x00,
  0x00, 0x00, 0x00, 0x00, 0x00, 0x00, 0x00, 0x00, 0x00, 0x00, 0x00, 0x00, 0x00,
  0x00, 0x00, 0x2a, 0x9f, 0xff, 0xff, 0x24, 0x00, 0x00, 0x00, 0x49, 0x00, 0x00,
  0x00, 0x08, 0x00, 0x00, 0x00, 0x20, 0x00, 0x00, 0x00, 0x0c, 0x00, 0x00, 0x00,
  0x64, 0x65, 0x70, 0x74, 0x68, 0x77, 0x69, 0x73, 0x65, 0x5f, 0x33, 0x39, 0x00,
  0x00, 0x00, 0x00, 0x01, 0x00, 0x00, 0x00, 0x11, 0x00, 0x00, 0x00, 0xb0, 0x9e,
  0xff, 0xff, 0xce, 0x9f, 0xff, 0xff, 0x04, 0x00, 0x00, 0x00, 0xdc, 0x01, 0x00,
  0x00, 0x38, 0xf4, 0xb3, 0x3d, 0xb3, 0x56, 0xb0, 0x3c, 0x8a, 0x43, 0x8b, 0x3d,
  0x67, 0x11, 0x1b, 0xbe, 0x7b, 0x73, 0x35, 0x3c, 0xd5, 0xe9, 0x06, 0xbe, 0x67,
  0x26, 0xbf, 0x3d, 0xb2, 0xde, 0x03, 0xbe, 0xc7, 0xf5, 0x5f, 0xbd, 0x85, 0xd3,
  0xab, 0xbd, 0x38, 0x0c, 0x72, 0x3d, 0x9b, 0xee, 0x83, 0xbe, 0xf4, 0x15, 0x52,
  0xbe, 0x50, 0x76, 0xe0, 0xbd, 0x09, 0x93, 0x64, 0x3e, 0x38, 0x19, 0x84, 0xbc,
  0xb8, 0x99, 0x82, 0xbe, 0x77, 0x9e, 0x1e, 0x3e, 0x73, 0x0b, 0x03, 0x3e, 0x57,
  0x12, 0x81, 0x3d, 0x4e, 0x50, 0x0a, 0x3c, 0xf2, 0x93, 0x6b, 0xbc, 0xc6, 0x36,
  0xfa, 0xbb, 0xca, 0x4b, 0x80, 0x3e, 0x68, 0x15, 0xbc, 0xbd, 0x83, 0xef, 0x67,
  0xbe, 0x74, 0xb7, 0xfc, 0xbc, 0xba, 0xf9, 0x19, 0x3e, 0x4c, 0x52, 0xc9, 0x3e,
  0xd4, 0x2f, 0x35, 0x3d, 0x07, 0x67, 0xab, 0xbd, 0x20, 0x99, 0x4d, 0xbc, 0x87,
  0xc7, 0xac, 0xbc, 0x49, 0x90, 0xe0, 0x3c, 0x32, 0x42, 0xc3, 0xbd, 0x23, 0x7a,
  0x7b, 0x3d, 0xa8, 0xe2, 0xeb, 0xbe, 0x0b, 0x3c, 0xae, 0xbd, 0x4d, 0x09, 0xd3,
  0xbc, 0xfe, 0x12, 0xae, 0x3e, 0x3a, 0xb0, 0x80, 0xbe, 0xc8, 0x77, 0x74, 0x3d,
  0xf6, 0xc5, 0x59, 0x3d, 0xd1, 0x65, 0xfa, 0xbd, 0xcc, 0xbb, 0x01, 0x3e, 0xdf,
  0x22, 0x50, 0xbe, 0xdf, 0xd7, 0xc4, 0xbe, 0xbc, 0xad, 0x17, 0x3d, 0x84, 0x56,
  0x6f, 0xbe, 0x80, 0xfd, 0x4f, 0xbe, 0x9a, 0xd2, 0x79, 0x3e, 0x35, 0xed, 0x74,
  0x3e, 0xc1, 0x5c, 0x88, 0xbd, 0x2e, 0x5d, 0x5a, 0x3e, 0x88, 0x7d, 0xb2, 0x3a,
  0xd9, 0x0a, 0x18, 0x3e, 0x90, 0xa6, 0xe2, 0x3d, 0x9b, 0xbc, 0x29, 0x3e, 0x2f,
  0x07, 0x8f, 0xbd, 0xec, 0x94, 0x12, 0x3e, 0x46, 0x1b, 0x4e, 0xbd, 0xad, 0xb5,
  0xa9, 0xbd, 0x0b, 0xbf, 0xb3, 0x3d, 0x15, 0xba, 0xb3, 0x3e, 0xfa, 0xa8, 0x99,
  0xbd, 0xa6, 0x03, 0x4d, 0xbd, 0xee, 0x08, 0xa4, 0xbd, 0x55, 0x0e, 0xe0, 0xbd,
  0xc5, 0xa4, 0x0f, 0xbd, 0x96, 0x39, 0x8b, 0xbc, 0x68, 0x36, 0x0c, 0xbe, 0xc2,
  0xf3, 0x9a, 0xbd, 0xd4, 0x99, 0x49, 0x3e, 0xdf, 0x7d, 0x2c, 0xbe, 0x37, 0xe1,
  0x80, 0x3d, 0x89, 0xac, 0x3b, 0x3c, 0xc2, 0xb7, 0xd7, 0x3d, 0x0e, 0xf6, 0xc1,
  0x3d, 0x55, 0x23, 0x25, 0xbe, 0x81, 0x4e, 0x35, 0xbc, 0x80, 0x66, 0x49, 0x3e,
  0xea, 0xb1, 0x8a, 0xbd, 0xee, 0x3d, 0xb9, 0x3e, 0x76, 0xaf, 0x68, 0xbd, 0xda,
  0xe4, 0x23, 0xbd, 0x4a, 0xa6, 0x7b, 0xbe, 0xc8, 0x0d, 0x04, 0x3d, 0xe1, 0x29,
  0x9c, 0xbd, 0xce, 0xa0, 0x93, 0x3b, 0x02, 0x1b, 0xc7, 0x3d, 0x17, 0x5a, 0x1b,
  0xbe, 0x99, 0xfb, 0xb6, 0x3c, 0x23, 0xe5, 0x9b, 0xbd, 0xd4, 0x0c, 0x08, 0x3d,
  0x58, 0x2d, 0xfa, 0x3c, 0x94, 0x28, 0x7e, 0xbb, 0xb8, 0x7d, 0xed, 0xbc, 0x4a,
  0x2a, 0x3b, 0xba, 0x48, 0x94, 0x09, 0xbd, 0x5a, 0x10, 0xf0, 0xbd, 0x55, 0x38,
  0xed, 0xbc, 0xd0, 0xcb, 0xc9, 0x3c, 0x16, 0xf1, 0xca, 0xbd, 0x76, 0x67, 0x7b,
  0x3c, 0x53, 0x67, 0xbe, 0x3c, 0x8c, 0x18, 0x4e, 0xbd, 0x69, 0xf7, 0x5b, 0x3d,
  0x01, 0xd7, 0xc3, 0xbd, 0xc5, 0x95, 0xde, 0xbc, 0xa8, 0xd3, 0x90, 0xbd, 0x1e,
  0xe2, 0xf1, 0xbc, 0x7b, 0x7f, 0x42, 0x3e, 0xa4, 0xfa, 0x20, 0xbc, 0x98, 0x22,
  0xaa, 0xbc, 0x2e, 0xa7, 0x06, 0x3d, 0x4c, 0xea, 0x85, 0xbc, 0xd0, 0xe8, 0x80,
  0xbe, 0x96, 0xb4, 0x6e, 0xbd, 0x30, 0x1b, 0xa2, 0x3c, 0x46, 0xa1, 0xff, 0xff,
  0x24, 0x00, 0x00, 0x00, 0x48, 0x00, 0x00, 0x00, 0x08, 0x00, 0x00, 0x00, 0x2c,
  0x00, 0x00, 0x00, 0x0c, 0x00, 0x00, 0x00, 0x64, 0x65, 0x70, 0x74, 0x68, 0x77,
  0x69, 0x73, 0x65, 0x5f, 0x33, 0x38, 0x00, 0x00, 0x00, 0x00, 0x04, 0x00, 0x00,
  0x00, 0x01, 0x00, 0x00, 0x00, 0x07, 0x00, 0x00, 0x00, 0x01, 0x00, 0x00, 0x00,
  0x11, 0x00, 0x00, 0x00, 0xd8, 0xa0, 0xff, 0xff, 0xf6, 0xa1, 0xff, 0xff, 0x04,
  0x00, 0x00, 0x00, 0xec, 0x02, 0x00, 0x00, 0x10, 0x2f, 0x45, 0xbd, 0xca, 0x85,
  0xbd, 0xbe, 0x10, 0x34, 0xa1, 0x3c, 0x18, 0xbb, 0x87, 0x3e, 0x0b, 0x47, 0xb5,
  0xbd, 0x7d, 0x20, 0x7f, 0x3e, 0x04, 0x88, 0xb1, 0x3e, 0xc1, 0x0a, 0x01, 0xbf,
  0x51, 0x4c, 0x30, 0x3e, 0xea, 0xc8, 0x8b, 0x3e, 0xd8, 0xb3, 0x13, 0x3d, 0xe2,
  0xa8, 0x4f, 0xbe, 0xe5, 0x4c, 0xe3, 0x3d, 0x78, 0x8a, 0x05, 0x3f, 0x53, 0xb6,
  0x0e, 0xbe, 0x27, 0x5f, 0x89, 0x3e, 0x3c, 0x72, 0x6a, 0xbf, 0xc1, 0xaa, 0x95,
  0x3e, 0xaa, 0x0a, 0xf4, 0xbd, 0xfe, 0x76, 0x2b, 0xbd, 0xfd, 0xac, 0x28, 0x3e,
  0xb7, 0x01, 0x52, 0x3e, 0xa6, 0x94, 0xed, 0xba, 0x84, 0xe6, 0x0f, 0xbe, 0x91,
  0xe9, 0x4c, 0x3d, 0x69, 0xff, 0x0c, 0xbf, 0x63, 0xb9, 0xb1, 0x3e, 0x24, 0x86,
  0x03, 0xbf, 0xe1, 0x26, 0x94, 0x3e, 0xf9, 0x29, 0x3a, 0x3e, 0x7b, 0x7a, 0x2c,
  0xbd, 0x29, 0x74, 0xf8, 0x3e, 0x6a, 0x81, 0xcc, 0xbe, 0x48, 0xb3, 0x7b, 0xbe,
  0xd2, 0x64, 0x5a, 0x3f, 0x57, 0x1c, 0xad, 0xbe, 0xf4, 0x9f, 0x46, 0x3f, 0xf1,
  0xe1, 0x26, 0xbf, 0x7a, 0x5e, 0xd1, 0xbe, 0x95, 0x70, 0x56, 0x3c, 0x55, 0xbf,
  0x35, 0xbf, 0x58, 0xcf, 0x57, 0xbc, 0xe5, 0xe5, 0xaf, 0x3e, 0x72, 0xb0, 0x23,
  0xbe, 0xc2, 0xa7, 0xbb, 0x3e, 0x83, 0xde, 0x06, 0x3e, 0xce, 0xc1, 0x75, 0xbe,
  0xb3, 0xa6, 0x4b, 0x3d, 0x04, 0xd8, 0x08, 0x3f, 0x25, 0xb1, 0x12, 0x3e, 0x50,
  0x86, 0x24, 0x3c, 0xf5, 0x4f, 0x92, 0xbc, 0xe0, 0x45, 0x02, 0x3f, 0xeb, 0x3f,
  0x31, 0xbd, 0xd8, 0xfb, 0xe8, 0xbe, 0x07, 0xaa, 0x27, 0xbe, 0x00, 0xb7, 0xb3,
  0xbe, 0x3e, 0x3f, 0x7e, 0x3e, 0xbd, 0x50, 0xfe, 0xbd, 0xd1, 0x0e, 0xc4, 0x3e,
  0xc5, 0x91, 0x28, 0x3e, 0x0c, 0xbc, 0x1f, 0x3f, 0xf8, 0x39, 0xfa, 0x3d, 0x2b,
  0xa6, 0x02, 0x3e, 0xb3, 0x6f, 0x2c, 0x3f, 0xcb, 0x8a, 0x59, 0x3d, 0x8b, 0x70,
  0x21, 0x3f, 0x65, 0x58, 0x4c, 0x3e, 0xac, 0xd1, 0x33, 0xbe, 0xe6, 0x3b, 0x85,
  0xbe, 0x90, 0x4f, 0x8f, 0x3d, 0x1e, 0x54, 0x8e, 0x3e, 0x0f, 0x9a, 0xdc, 0x3d,
  0x89, 0xd2, 0x6e, 0xbe, 0x36, 0x01, 0x02, 0x3f, 0xb2, 0xc5, 0x2b, 0x3d, 0x01,
  0xae, 0x47, 0x3e, 0x65, 0x39, 0xf8, 0x3d, 0x87, 0x3a, 0x09, 0xbd, 0xe6, 0xae,
  0x44, 0x3d, 0xbd, 0x43, 0xe6, 0xbd, 0xbb, 0x54, 0xac, 0xbd, 0xea, 0x34, 0x09,
  0xbd, 0x61, 0x7b, 0x4f, 0xbe, 0x2e, 0xa0, 0x73, 0xbe, 0x5b, 0x1d, 0x1c, 0xbe,
  0x7b, 0x91, 0xa1, 0xbd, 0xa5, 0xa4, 0x90, 0x3e, 0x92, 0x2f, 0x05, 0xbf, 0x21,
  0x6b, 0x4a, 0x3e, 0x16, 0x1e, 0x15, 0xbd, 0x23, 0x3d, 0x56, 0xbc, 0xfa, 0x80,
  0x5d, 0x3e, 0x2c, 0xf7, 0xd1, 0x3c, 0x8a, 0xa5, 0x3f, 0x3e, 0xc2, 0x6b, 0x05,
  0x3e, 0xcf, 0x6c, 0x0a, 0x3d, 0xe4, 0xa2, 0x9c, 0xbe, 0x80, 0x0c, 0xcc, 0xbe,
  0x43, 0x29, 0xa5, 0xbe, 0x45, 0xb7, 0xcd, 0x3e, 0x67, 0xf2, 0x2a, 0xbd, 0x44,
  0x49, 0xcf, 0xbd, 0x6c, 0xde, 0xc8, 0xbc, 0x10, 0x2e, 0x4a, 0x3e, 0xd4, 0x83,
  0x4c, 0xbc, 0x5d, 0x0e, 0xeb, 0x3e, 0x74, 0x63, 0xb6, 0x3d, 0x6d, 0xad, 0xd4,
  0x3e, 0xdb, 0x67, 0x54, 0xbe, 0x63, 0x29, 0x5d, 0x3e, 0xa8, 0xba, 0x29, 0x3e,
  0xf2, 0x90, 0xa0, 0x3e, 0xd5, 0x4c, 0x36, 0xbe, 0x1f, 0x85, 0x26, 0xbe, 0xfa,
  0x97, 0x52, 0x3b, 0xeb, 0xb0, 0x86, 0x3e, 0xe8, 0x6e, 0x0b, 0xbd, 0x95, 0xc2,
  0x4b, 0xbe, 0x09, 0x39, 0x1a, 0xbe, 0x30, 0xe8, 0x9a, 0xbe, 0xd5, 0xb1, 0xe8,
  0xbc, 0x53, 0x1a, 0xa3, 0x3c, 0x88, 0xca, 0x11, 0x3d, 0xff, 0x6f, 0xca, 0xbe,
  0x51, 0x79, 0x2d, 0x3e, 0xe5, 0x21, 0xf5, 0xbd, 0x7f, 0x40, 0xd1, 0xbc, 0x29,
  0x82, 0x27, 0x3f, 0x5c, 0xd7, 0xb6, 0xbc, 0x47, 0x45, 0x82, 0xbc, 0x9e, 0x47,
  0x29, 0x3d, 0x0c, 0x2c, 0x40, 0xbd, 0x22, 0x65, 0x36, 0x3e, 0x69, 0xda, 0x86,
  0x3e, 0x8a, 0xbd, 0xa4, 0xbd, 0x7d, 0x58, 0xda, 0xbe, 0x89, 0x49, 0x9f, 0xbe,
  0xcd, 0x34, 0x88, 0xbe, 0x43, 0x77, 0x2d, 0x3e, 0x47, 0x25, 0x1e, 0x3f, 0xf2,
  0x4a, 0x7b, 0x3e, 0xb7, 0xf4, 0xcc, 0xbd, 0x5e, 0xda, 0x02, 0xbf, 0x50, 0xe1,
  0x5a, 0x3e, 0x68, 0x27, 0x19, 0xbe, 0x50, 0xb2, 0x1f, 0x3f, 0xb9, 0xdc, 0x96,
  0xbd, 0x09, 0xcc, 0xb0, 0xbe, 0x8c, 0x8c, 0x76, 0xbe, 0xb4, 0x3f, 0x84, 0xbc,
  0x51, 0x2d, 0x88, 0x3d, 0xd6, 0x18, 0x9d, 0xbe, 0xe1, 0x2c, 0xee, 0x3e, 0x43,
  0x58, 0xd3, 0x3d, 0x8b, 0x6c, 0x0c, 0xbf, 0x73, 0x20, 0x3b, 0x3e, 0xdc, 0x07,
  0xb7, 0x3e, 0x77, 0x2a, 0x89, 0x3e, 0x11, 0x4e, 0xc0, 0x3d, 0x49, 0x59, 0x19,
  0x3d, 0x1c, 0xa4, 0x4a, 0xbc, 0x52, 0x8b, 0x2f, 0xbc, 0x01, 0x09, 0x8c, 0xbd,
  0x52, 0x3e, 0xc7, 0x3b, 0xe4, 0xc8, 0xd1, 0x3e, 0xe6, 0x49, 0x92, 0x3e, 0xf4,
  0xb8, 0x23, 0x3f, 0x85, 0x86, 0xc5, 0x3d, 0xd7, 0xd5, 0x50, 0xbc, 0xd0, 0x37,
  0x57, 0x3c, 0xf9, 0x87, 0x18, 0x3f, 0x20, 0xf5, 0x09, 0xbf, 0x4f, 0xa0, 0x71,
  0x3d, 0x8f, 0x60, 0xc3, 0xbe, 0x07, 0xf0, 0x3b, 0x3f, 0x1b, 0x21, 0x3e, 0x3e,
  0x60, 0xc0, 0x3c, 0x3f, 0xba, 0x96, 0x90, 0xbe, 0x75, 0x1a, 0xbc, 0xbe, 0x87,
  0x7d, 0x21, 0xbe, 0x4f, 0x5c, 0xa3, 0xbe, 0xfa, 0xb8, 0xcc, 0xbe, 0x58, 0x35,
  0x64, 0x3e, 0xf8, 0xaa, 0x70, 0x3e, 0x24, 0x82, 0x2e, 0xbf, 0xc6, 0x5f, 0x38,
  0xbc, 0x7e, 0xa4, 0xff, 0xff, 0x20, 0x00, 0x00, 0x00, 0x47, 0x00, 0x00, 0x00,
  0x08, 0x00, 0x00, 0x00, 0x28, 0x00, 0x00, 0x00, 0x09, 0x00, 0x00, 0x00, 0x43,
  0x6f, 0x6e, 0x76, 0x32, 0x44, 0x5f, 0x31, 0x38, 0x00, 0x00, 0x00, 0x04, 0x00,
  0x00, 0x00, 0x11, 0x00, 0x00, 0x00, 0x01, 0x00, 0x00, 0x00, 0x01, 0x00, 0x00,
  0x00, 0x0b, 0x00, 0x00, 0x00, 0x0c, 0xa4, 0xff, 0xff, 0x2a, 0xa5, 0xff, 0xff,
  0x04, 0x00, 0x00, 0x00, 0xdc, 0x00, 0x00, 0x00, 0x69, 0x14, 0xca, 0xbd, 0x1b,
  0xf0, 0xa2, 0xbd, 0xd0, 0x28, 0x19, 0xbb, 0xbe, 0x27, 0x09, 0xbe, 0x0e, 0x9e,
  0x88, 0xbe, 0xd5, 0xc3, 0x22, 0x3e, 0x14, 0x78, 0x0e, 0xbd, 0x43, 0x05, 0xa9,
  0x3d, 0x0a, 0x99, 0x74, 0xba, 0x67, 0x3c, 0xab, 0xbd, 0xb0, 0x07, 0x23, 0xbd,
  0x19, 0xe0, 0x02, 0xbd, 0x7c, 0xfb, 0x0e, 0x3e, 0x6d, 0x85, 0xd4, 0xbd, 0x6f,
  0x65, 0xa7, 0xbd, 0x15, 0x9c, 0xa3, 0xbd, 0xeb, 0xbd, 0x8d, 0x3d, 0xaa, 0x2f,
  0xc5, 0xbd, 0xcb, 0x9a, 0xb6, 0xbd, 0xca, 0xee, 0xd8, 0xbd, 0x09, 0xd5, 0x97,
  0xbd, 0xe4, 0x0f, 0x19, 0x3d, 0x10, 0x66, 0x89, 0xbe, 0xd3, 0xad, 0xdd, 0xbe,
  0xcd, 0xd6, 0xc9, 0x3e, 0xd7, 0xa5, 0x73, 0x3e, 0xff, 0x6e, 0x48, 0x3c, 0x80,
  0x65, 0x48, 0x3e, 0xa3, 0x2d, 0x58, 0x3e, 0x25, 0x64, 0xfe, 0x3e, 0x0b, 0x47,
  0x7e, 0x3d, 0x51, 0x3d, 0x9b, 0x3e, 0x2a, 0x89, 0xa1, 0x3e, 0xfb, 0x70, 0x7e,
  0x3e, 0x4e, 0xe4, 0x4a, 0x3e, 0x94, 0xd0, 0x45, 0x3c, 0x8b, 0xbe, 0xb4, 0xbe,
  0x8b, 0xb2, 0xbd, 0x3e, 0xf7, 0x9b, 0x3e, 0xbe, 0x7b, 0x46, 0xa0, 0x3e, 0x77,
  0x0a, 0x45, 0xbe, 0xa3, 0xa1, 0xe3, 0x3e, 0x5c, 0xfb, 0x63, 0x3e, 0x38, 0x0d,
  0x66, 0x3d, 0x6e, 0x00, 0x84, 0x3d, 0x3e, 0xe5, 0x80, 0x3e, 0xc6, 0xf8, 0xb0,
  0x3c, 0x34, 0xb7, 0x34, 0x3e, 0x5d, 0x0f, 0x8f, 0x3c, 0x06, 0xa4, 0x5b, 0xbe,
  0x3a, 0x67, 0xe2, 0xbc, 0x5c, 0xea, 0x17, 0xbe, 0x4c, 0xbc, 0x86, 0x3d, 0x19,
  0xa3, 0x05, 0x3c, 0x62, 0x7e, 0xde, 0xbc, 0xa2, 0xa5, 0xff, 0xff, 0x24, 0x00,
  0x00, 0x00, 0x46, 0x00, 0x00, 0x00, 0x08, 0x00, 0x00, 0x00, 0x2c, 0x00, 0x00,
  0x00, 0x0d, 0x00, 0x00, 0x00, 0x64, 0x65, 0x70, 0x74, 0x68, 0x77, 0x69, 0x73,
  0x65, 0x5f, 0x33, 0x37, 0x31, 0x00, 0x00, 0x00, 0x04, 0x00, 0x00, 0x00, 0x01,
